{
  "version": "1.0",
  "truncation": null,
  "padding": null,
  "added_tokens": [
    {
      "id": 0,
      "content": "<s>",
      "single_word": false,
      "lstrip": false,
      "rstrip": false,
      "normalized": false,
      "special": true
    },
    {
      "id": 1,
      "content": "</s>",
      "single_word": false,
      "lstrip": false,
      "rstrip": false,
      "normalized": false,
      "special": true
    },
    {
      "id": 2,
      "content": "<unk>",
      "single_word": false,
      "lstrip": false,
      "rstrip": false,
      "normalized": false,
      "special": true
    },
    {
      "id": 3,
      "content": "<pad>",
      "single_word": false,
      "lstrip": false,
      "rstrip": false,
      "normalized": false,
      "special": true
    },
    {
      "id": 4,
      "content": "<mask>",
      "single_word": false,
      "lstrip": false,
      "rstrip": false,
      "normalized": false,
      "special": true
    }
  ],
  "normalizer": null,
  "pre_tokenizer": {
    "type": "Sequence",
    "pretokenizers": [
      {
        "type": "Split",
        "pattern": {
          "Regex": "(?i:'s|'t|'re|'ve|'m|'ll|'d)|[^\\r\\n\\p{L}\\p{N}]?\\p{L}+|\\p{N}| ?[^\\s\\p{L}\\p{N}]+[\\r\\n]*|\\s*[\\r\\n]+|\\s+(?!\\S)|\\s+"
        },
        "behavior": "Isolated",
        "invert": false
      },
      {
        "type": "ByteLevel",
        "add_prefix_space": false,
        "trim_offsets": true,
        "use_regex": false
      }
    ]
  },
  "post_processor": null,
  "decoder": {
    "type": "ByteLevel",
    "add_prefix_space": true,
    "trim_offsets": true,
    "use_regex": true
  },
  "model": {
    "type": "BPE",
    "dropout": null,
    "unk_token": null,
    "continuing_subword_prefix": null,
    "end_of_word_suffix": null,
    "fuse_unk": false,
    "byte_fallback": false,
    "ignore_merges": false,
    "vocab": {
      "<s>": 0,
      "</s>": 1,
      "<unk>": 2,
      "<pad>": 3,
      "<mask>": 4,
      "!": 5,
      "\"": 6,
      "#": 7,
      "$": 8,
      "%": 9,
      "&": 10,
      "'": 11,
      "(": 12,
      ")": 13,
      "*": 14,
      "+": 15,
      ",": 16,
      "-": 17,
      ".": 18,
      "/": 19,
      "0": 20,
      "1": 21,
      "2": 22,
      "3": 23,
      "4": 24,
      "5": 25,
      "6": 26,
      "7": 27,
      "8": 28,
      "9": 29,
      ":": 30,
      ";": 31,
      "<": 32,
      "=": 33,
      ">": 34,
      "?": 35,
      "@": 36,
      "A": 37,
      "B": 38,
      "C": 39,
      "D": 40,
      "E": 41,
      "F": 42,
      "G": 43,
      "H": 44,
      "I": 45,
      "J": 46,
      "K": 47,
      "L": 48,
      "M": 49,
      "N": 50,
      "O": 51,
      "P": 52,
      "Q": 53,
      "R": 54,
      "S": 55,
      "T": 56,
      "U": 57,
      "V": 58,
      "W": 59,
      "X": 60,
      "Y": 61,
      "Z": 62,
      "[": 63,
      "\\": 64,
      "]": 65,
      "^": 66,
      "_": 67,
      "`": 68,
      "a": 69,
      "b": 70,
      "c": 71,
      "d": 72,
      "e": 73,
      "f": 74,
      "g": 75,
      "h": 76,
      "i": 77,
      "j": 78,
      "k": 79,
      "l": 80,
      "m": 81,
      "n": 82,
      "o": 83,
      "p": 84,
      "q": 85,
      "r": 86,
      "s": 87,
      "t": 88,
      "u": 89,
      "v": 90,
      "w": 91,
      "x": 92,
      "y": 93,
      "z": 94,
      "{": 95,
      "|": 96,
      "}": 97,
      "~": 98,
      "¡": 99,
      "¢": 100,
      "£": 101,
      "¤": 102,
      "¥": 103,
      "¦": 104,
      "§": 105,
      "¨": 106,
      "©": 107,
      "ª": 108,
      "«": 109,
      "¬": 110,
      "®": 111,
      "¯": 112,
      "°": 113,
      "±": 114,
      "²": 115,
      "³": 116,
      "´": 117,
      "µ": 118,
      "¶": 119,
      "·": 120,
      "¸": 121,
      "¹": 122,
      "º": 123,
      "»": 124,
      "¼": 125,
      "½": 126,
      "¾": 127,
      "¿": 128,
      "Â": 129,
      "Ã": 130,
      "Ä": 131,
      "Å": 132,
      "Ç": 133,
      "É": 134,
      "Ë": 135,
      "Î": 136,
      "Ï": 137,
      "Ð": 138,
      "Ñ": 139,
      "á": 140,
      "â": 141,
      "ã": 142,
      "ä": 143,
      "å": 144,
      "æ": 145,
      "ç": 146,
      "è": 147,
      "é": 148,
      "ï": 149,
      "ð": 150,
      "ĉ": 151,
      "Ċ": 152,
      "Č": 153,
      "Ġ": 154,
      "Ģ": 155,
      "ģ": 156,
      "Ĥ": 157,
      "ĥ": 158,
      "Ħ": 159,
      "ħ": 160,
      "Ĩ": 161,
      "ĩ": 162,
      "Ī": 163,
      "ī": 164,
      "Ĭ": 165,
      "ĭ": 166,
      "Į": 167,
      "į": 168,
      "İ": 169,
      "ı": 170,
      "Ĳ": 171,
      "ĳ": 172,
      "Ĵ": 173,
      "ĵ": 174,
      "Ķ": 175,
      "ķ": 176,
      "ĸ": 177,
      "Ĺ": 178,
      "ĺ": 179,
      "Ļ": 180,
      "ļ": 181,
      "Ľ": 182,
      "ľ": 183,
      "Ŀ": 184,
      "ŀ": 185,
      "Ł": 186,
      "ł": 187,
      "Ń": 188,
      "ï¼": 189,
      "ä¸": 190,
      "ï¼Į": 191,
      "çļ": 192,
      "çļĦ": 193,
      "ãĢ": 194,
      "ä»": 195,
      "ãĢĤ": 196,
      "äº": 197,
      "è¿": 198,
      "åı": 199,
      "åħ": 200,
      "ĊĊ": 201,
      "æľ": 202,
      "åľ": 203,
      "åĪ": 204,
      "ä½": 205,
      "å®": 206,
      "åĴ": 207,
      "çĶ": 208,
      "åĬ": 209,
      "åĴĮ": 210,
      "**": 211,
      "å¤": 212,
      "ç»": 213,
      "æĪ": 214,
      "åŃ": 215,
      "åĲ": 216,
      "æĺ": 217,
      "æĸ": 218,
      "è®": 219,
      "è¯": 220,
      "ãĢĤĊĊ": 221,
      "äºĨ": 222,
      "ä¸Ģ": 223,
      "éĢ": 224,
      "åľ¨": 225,
      "ï¼ļ": 226,
      "##": 227,
      "ä¹": 228,
      "æķ": 229,
      "ä¸Ń": 230,
      "æĿ": 231,
      "è§": 232,
      "ä¼": 233,
      "ï¼Įå": 234,
      "èĥ": 235,
      "éĩ": 236,
      "åº": 237,
      "ĠĠ": 238,
      "å¯": 239,
      "åŃ¦": 240,
      "æĺ¯": 241,
      "ãĢģ": 242,
      "æĢ": 243,
      "å¼": 244,
      "å°": 245,
      "è¿Ļ": 246,
      "èĥ½": 247,
      "æĹ": 248,
      "åĽ": 249,
      "ä»ĸ": 250,
      "çĲ": 251,
      "ä»¥": 252,
      "âĢ": 253,
      "çĶ¨": 254,
      "çİ": 255,
      "å¸": 256,
      "åĮ": 257,
      "ç§": 258,
      "è¡": 259,
      "åĨ": 260,
      "çĶŁ": 261,
      "ä¸į": 262,
      "ä»¬": 263,
      "ä¸ª": 264,
      "è¿ĩ": 265,
      "èĢ": 266,
      "æľī": 267,
      "å·": 268,
      "åı¯": 269,
      "çļĦæ": 270,
      "Ġ**": 271,
      "ä¿": 272,
      "¦ģ": 273,
      "è¦ģ": 274,
      "ä¸º": 275,
      "çī": 276,
      "æŀ": 277,
      "çĽ": 278,
      "**ï¼ļ": 279,
      "çĲĨ": 280,
      "æī": 281,
      "éĢļ": 282,
      "æı": 283,
      "å¾": 284,
      "åį": 285,
      "åĩ": 286,
      "å¿": 287,
      "æł": 288,
      "æ³": 289,
      "ä¾": 290,
      "¦Ĥ": 291,
      "èĩ": 292,
      "ä½ľ": 293,
      "è´": 294,
      "å¯¹": 295,
      "åľ°": 296,
      "æİ": 297,
      "æĬ": 298,
      "èµ": 299,
      "æŃ": 300,
      "å½": 301,
      "æĪĳ": 302,
      "å±": 303,
      "äºº": 304,
      "çŃ": 305,
      "åĪ°": 306,
      "å¹": 307,
      "éĹ": 308,
      "å¥": 309,
      "åıĳ": 310,
      "è§£": 311,
      "æĦ": 312,
      "æıĲ": 313,
      "æĽ": 314,
      "æĪĲ": 315,
      "ç¨": 316,
      "é¢": 317,
      "åĬĽ": 318,
      "å®ŀ": 319,
      "éĿ": 320,
      "æĢ§": 321,
      "æĹ¶": 322,
      "éĢļè¿ĩ": 323,
      "ä¼ļ": 324,
      "åı¯ä»¥": 325,
      "æĮ": 326,
      "çİ°": 327,
      "åĬ¨": 328,
      "äºİ": 329,
      "è¡Į": 330,
      "åĪĨ": 331,
      "æĽ´": 332,
      "æĭ": 333,
      "éĻ": 334,
      "åĮĸ": 335,
      "åİ": 336,
      "å®ļ": 337,
      "èĩª": 338,
      "åŁ": 339,
      "æĶ": 340,
      "éĺ": 341,
      "æĸ¹": 342,
      "ä¸İ": 343,
      "æĿ¥": 344,
      "åĵ": 345,
      "ç¨ĭ": 346,
      "æµ": 347,
      "æ°": 348,
      "éĩį": 349,
      "ä¸ļ": 350,
      "çļĦç": 351,
      "è¿Ľ": 352,
      "åĳ": 353,
      "âĢľ": 354,
      "âĢĿ": 355,
      "æĸĩ": 356,
      "é«": 357,
      "é«ĺ": 358,
      "ç¡": 359,
      "ç§į": 360,
      "éģ": 361,
      "å¦Ĥ": 362,
      "ä½ĵ": 363,
      "åºĶ": 364,
      "æĥ": 365,
      "æĪĳä»¬": 366,
      "ç¤": 367,
      "å¤§": 368,
      "éĥ": 369,
      "æį": 370,
      "ç®": 371,
      "ä¿Ŀ": 372,
      "æ´": 373,
      "äºĽ": 374,
      "æ³ķ": 375,
      "èī": 376,
      "åħ¶": 377,
      "ä¸Ģä¸ª": 378,
      "æķ°": 379,
      "è¾": 380,
      "ãĢĤĊ": 381,
      "ä»ħ": 382,
      "å¤ļ": 383,
      "éľ": 384,
      "çĿ": 385,
      "åħ³": 386,
      "åĲĪ": 387,
      "çŃī": 388,
      "çº": 389,
      "æĻ": 390,
      "ä¸Ĭ": 391,
      "ä¸ĭ": 392,
      "è®¾": 393,
      "è½": 394,
      "æľ¯": 395,
      "éĿ¢": 396,
      "ä½¿": 397,
      "å±ķ": 398,
      "Ł¥": 399,
      "çľ": 400,
      "ç³": 401,
      "å¿ĥ": 402,
      "åĩº": 403,
      "æ·": 404,
      "æ¯": 405,
      "æķĻ": 406,
      "åĲĮ": 407,
      "çĿĢ": 408,
      "æ¸": 409,
      "éľĢ": 410,
      "ç«": 411,
      "çĤ": 412,
      "å·¥": 413,
      "éĩı": 414,
      "éª": 415,
      "ä¸įä»ħ": 416,
      "æľ¬": 417,
      "åħ¥": 418,
      "æ±": 419,
      "è°": 420,
      "èĢĮ": 421,
      "èĤ": 422,
      "ä¾ĭ": 423,
      "ç¡®": 424,
      "åĬł": 425,
      "ä¹ł": 426,
      "ç©": 427,
      "ç³»": 428,
      "çī©": 429,
      "ç»ı": 430,
      "çł": 431,
      "ç½": 432,
      "æį®": 433,
      "åħ·": 434,
      "ç´": 435,
      "åº¦": 436,
      "æ²": 437,
      "æĬĢ": 438,
      "å®¶": 439,
      "####": 440,
      "éĩįè¦ģ": 441,
      "è·": 442,
      "å°ı": 443,
      "æĦŁ": 444,
      "åĽ½": 445,
      "ä¿¡": 446,
      "æľº": 447,
      "å¾Ĺ": 448,
      "è¶": 449,
      "çĦ": 450,
      "å¥½": 451,
      "ä¹Ł": 452,
      "åĪ¶": 453,
      "ç»ĵ": 454,
      "æ´»": 455,
      "è®¡": 456,
      "å¢": 457,
      "çī¹": 458,
      "å¼Ģ": 459,
      "æĺİ": 460,
      "ä»ĸä»¬": 461,
      "é¡": 462,
      "æĿİ": 463,
      "åĬ©": 464,
      "çĤ¹": 465,
      "æ·±": 466,
      "ä½ł": 467,
      "çĽ®": 468,
      "å»": 469,
      "è¿ĺ": 470,
      "è¡¨": 471,
      "æ¬": 472,
      "æĸ°": 473,
      "ç¬": 474,
      "###": 475,
      "æŃ¥": 476,
      "åĲİ": 477,
      "åŃ¦çĶŁ": 478,
      "å°Ĩ": 479,
      "åĿ": 480,
      "éķ": 481,
      "ãĢĤè¿Ļ": 482,
      "æĦı": 483,
      "é£": 484,
      "åĵģ": 485,
      "å¸¸": 486,
      "åī": 487,
      "å·±": 488,
      "çĦ¶": 489,
      "èĩªå·±": 490,
      "ĠĠĠĠ": 491,
      "éģĵ": 492,
      "åŃĲ": 493,
      "èĬ": 494,
      "é¢ĺ": 495,
      "æĮģ": 496,
      "ç»Ł": 497,
      "éĹ´": 498,
      "çķ": 499,
      "æķĪ": 500,
      "ä»£": 501,
      "åĨħ": 502,
      "éĹ®": 503,
      "éļ": 504,
      "èĢħ": 505,
      "ä¾Ľ": 506,
      "ä»¶": 507,
      "éĶ": 508,
      "å¤Ł": 509,
      "å»º": 510,
      "äºĭ": 511,
      "åľº": 512,
      "äº§": 513,
      "ä¸ŃçļĦ": 514,
      "åŃ¦ä¹ł": 515,
      "æŀľ": 516,
      "åŁº": 517,
      "ä¼ł": 518,
      "ç±": 519,
      "èĥ½å¤Ł": 520,
      "è´¨": 521,
      "å½±": 522,
      "éĥ¨": 523,
      "èģ": 524,
      "èµĦ": 525,
      "åħ¨": 526,
      "åıĳå±ķ": 527,
      "ç¤¾": 528,
      "éľĢè¦ģ": 529,
      "åĬ¡": 530,
      "è¯Ĩ": 531,
      "åģ": 532,
      "æº": 533,
      "è¯´": 534,
      "Ġ-": 535,
      "ä»İ": 536,
      "çŁ¥": 537,
      "ï¼Įè¿Ļ": 538,
      "å¼ı": 539,
      "è¿Ľè¡Į": 540,
      "æ¡": 541,
      "æĪĺ": 542,
      "çĶµ": 543,
      "æĪĸ": 544,
      "åĨ³": 545,
      "æıĲä¾Ľ": 546,
      "çĽ¸": 547,
      "æ¶": 548,
      "éķ¿": 549,
      "æĥħ": 550,
      "ä¹ĭ": 551,
      "ç®¡": 552,
      "ãĢĤä»ĸ": 553,
      "ä¸»": 554,
      "åĢ": 555,
      "æľŁ": 556,
      "æķ°æį®": 557,
      "ä½¿çĶ¨": 558,
      "ãĢĤâĢĿ": 559,
      "Ł³": 560,
      "åħ¬": 561,
      "ï¼ĮæĪĳä»¬": 562,
      "å®ĥ": 563,
      "ç©¶": 564,
      "åĪĽ": 565,
      "è°ĥ": 566,
      "æ»": 567,
      "æıĲé«ĺ": 568,
      "å§": 569,
      "æ±Ĥ": 570,
      "çĲĨè§£": 571,
      "Ķç©¶": 572,
      "æģ": 573,
      "èī²": 574,
      "æºĲ": 575,
      "ï¼Įä»ĸ": 576,
      "éªĮ": 577,
      "ç§ĳ": 578,
      "éĢī": 579,
      "è¿Ĳ": 580,
      "æĤ": 581,
      "åıĬ": 582,
      "å¸Ĥ": 583,
      "åºĶçĶ¨": 584,
      "ä½į": 585,
      "ä½ķ": 586,
      "æ¬¡": 587,
      "æŀĲ": 588,
      "``": 589,
      "éĽ": 590,
      "ç¤º": 591,
      "é¦": 592,
      "è¿ĩç¨ĭ": 593,
      "äºĨè§£": 594,
      "è®º": 595,
      "æłĩ": 596,
      "ç¼": 597,
      "å¼º": 598,
      "çĲĥ": 599,
      "ç¥": 600,
      "éĥ½": 601,
      "ï¼ļâĢľ": 602,
      "å¤ĩ": 603,
      "åĬŁ": 604,
      "åĵį": 605,
      "**ĊĊ": 606,
      "çĸ": 607,
      "ï¼Įè¿ĺ": 608,
      "å®ī": 609,
      "çİ¯": 610,
      "ç¡®ä¿Ŀ": 611,
      "éħ": 612,
      "è§Ĥ": 613,
      "å¹³": 614,
      "åĪĨæŀĲ": 615,
      "ç³»ç»Ł": 616,
      "åıĺ": 617,
      "ä½Ĩ": 618,
      "æ°´": 619,
      "åİĨ": 620,
      "ï¼Įå¦Ĥ": 621,
      "åĪ©": 622,
      "åĻ": 623,
      "å¤ĸ": 624,
      "åĳĺ": 625,
      "èĬĤ": 626,
      "éĹ®é¢ĺ": 627,
      "®åĬ©": 628,
      "åħ»": 629,
      "æĸĩåĮĸ": 630,
      "çľĭ": 631,
      "æĢĿ": 632,
      "è¯ķ": 633,
      "äº¤": 634,
      "æİ¥": 635,
      "æĺ¯ä¸Ģ": 636,
      "åĻ¨": 637,
      "èµ·": 638,
      "ç±»": 639,
      "è®©": 640,
      "æľĢ": 641,
      "æĬĢæľ¯": 642,
      "éĻħ": 643,
      "ä¹ī": 644,
      "å¢ĥ": 645,
      "æĢģ": 646,
      "ç¾": 647,
      "çĶŁæ´»": 648,
      "åı¯èĥ½": 649,
      "èį": 650,
      "éĢĤ": 651,
      "æķ´": 652,
      "æŃ£": 653,
      "åįķ": 654,
      "å¹´": 655,
      "æĪ·": 656,
      "æĸ¹æ³ķ": 657,
      "ä¾ĭå¦Ĥ": 658,
      "èĤ²": 659,
      "ç®¡çĲĨ": 660,
      "åŀ": 661,
      "er": 662,
      "¨¡": 663,
      "æĹł": 664,
      "ï¼ī": 665,
      "èĥ½åĬĽ": 666,
      "ï¼Ī": 667,
      "èĢĥ": 668,
      "åīį": 669,
      "ä¼ĺ": 670,
      "é¡¹": 671,
      "éĤ": 672,
      "ç´ł": 673,
      "å½±åĵį": 674,
      "ç»Ĩ": 675,
      "åıĤ": 676,
      "å£": 677,
      "ï¼ļĊĊ": 678,
      "è±": 679,
      "ï¼Įå¹": 680,
      "å¯¼": 681,
      "å¤©": 682,
      "ç²": 683,
      "æŀĦ": 684,
      "æ³¨": 685,
      "éĺŁ": 686,
      "ï¼Įä»¥": 687,
      "in": 688,
      "ï¼Įä½Ĩ": 689,
      "æ¯ı": 690,
      "è®¾è®¡": 691,
      "ç¤¾ä¼ļ": 692,
      "çĥ": 693,
      "æ¨¡": 694,
      "æµģ": 695,
      "å¦Ĥä½ķ": 696,
      "åħĥ": 697,
      "ãĢĤâĢĿĊĊ": 698,
      "ä¹¦": 699,
      "åĲį": 700,
      "èĩªå·±çļĦ": 701,
      "çŃĸ": 702,
      "éĢīæĭ": 703,
      "çłĶç©¶": 704,
      "åĮº": 705,
      "åŀĭ": 706,
      "åįĩ": 707,
      "å¼ł": 708,
      "è¯Ń": 709,
      "åıį": 710,
      "å¤į": 711,
      "æīĭ": 712,
      "æĥ³": 713,
      "éĢīæĭ©": 714,
      "å½¢": 715,
      "æ®": 716,
      "åĽł": 717,
      "å¤Ħ": 718,
      "ï¼Įå¹¶": 719,
      "æł·": 720,
      "ä»»": 721,
      "ç»Ħ": 722,
      "è§Ĩ": 723,
      "è¿ĻäºĽ": 724,
      "å§ĭ": 725,
      "çĪ": 726,
      "æľį": 727,
      "æ»¡": 728,
      "æľª": 729,
      "çĹ": 730,
      "éŁ³": 731,
      "è¯»": 732,
      "æ°ĳ": 733,
      "åħĪ": 734,
      "æģ¯": 735,
      "æł¼": 736,
      "çģ": 737,
      "ï¼Įå°": 738,
      "èĲ": 739,
      "é£İ": 740,
      "åĽ¾": 741,
      "æ¡Ī": 742,
      "åıĸ": 743,
      "è£": 744,
      "æī¾": 745,
      "å¼ķ": 746,
      "å¿µ": 747,
      "ä¹Ĳ": 748,
      "åŃĺ": 749,
      "ç«ĭ": 750,
      "ç½®": 751,
      "æīĢ": 752,
      "ç»´": 753,
      "ĠĠĠ": 754,
      "èīº": 755,
      "ç»Ń": 756,
      "ãĢĤéĢļè¿ĩ": 757,
      "å®ŀçİ°": 758,
      "ħæĭ": 759,
      "æĢ»": 760,
      "æŃ¤": 761,
      "åĢ¼": 762,
      "åĪ°äºĨ": 763,
      "è§Ħ": 764,
      "ãĢĬ": 765,
      "ãĢĭ": 766,
      "ãĢĤä¾ĭå¦Ĥ": 767,
      "on": 768,
      "ä»·": 769,
      "éĩĮ": 770,
      "åİŁ": 771,
      "æĬ¤": 772,
      "æĸŃ": 773,
      "æİ¢": 774,
      "ï¼Įä¹Ł": 775,
      "åı²": 776,
      "å®¹": 777,
      "ħæĭ¬": 778,
      "å¸®åĬ©": 779,
      "Ļ½": 780,
      "é¢Ĩ": 781,
      "æ¯Ķ": 782,
      "ç½ĳ": 783,
      "ç¬¬": 784,
      "å½ĵ": 785,
      "åıĹ": 786,
      "æ¸¸": 787,
      "æķĻèĤ²": 788,
      "çº¿": 789,
      "å·¥ä½ľ": 790,
      "ãĢĤåľ¨": 791,
      "ï¼Ł": 792,
      "ä»¥ä¸ĭ": 793,
      "éĢŁ": 794,
      "çİ¯å¢ĥ": 795,
      "èģĮ": 796,
      "åħ·æľī": 797,
      "åĩĨ": 798,
      "æĻ¯": 799,
      "ï¼Įä¸º": 800,
      "æĪı": 801,
      "è®¤": 802,
      "ç¥ŀ": 803,
      "çĭ": 804,
      "è¢": 805,
      "åĲĦ": 806,
      "æ·±åħ¥": 807,
      "è®¨": 808,
      "è·¯": 809,
      "åĿļ": 810,
      "éĵ": 811,
      "èĦ": 812,
      "å°±": 813,
      "æĹ¶éĹ´": 814,
      "çİĩ": 815,
      "æŁ¥": 816,
      "æķħ": 817,
      "æµĭ": 818,
      "åŃĹ": 819,
      "åĽ¢": 820,
      "èĭ": 821,
      "åħħ": 822,
      "å¹¶": 823,
      "åĪĻ": 824,
      "æıĲåįĩ": 825,
      "èº": 826,
      "æĹ¥": 827,
      "è¶³": 828,
      "ä¸ĵ": 829,
      "å¤´": 830,
      "æ°Ķ": 831,
      "è±¡": 832,
      "å¸Ī": 833,
      "æĿĳ": 834,
      "ç®Ĺ": 835,
      "ä¸įåĲĮ": 836,
      "ï¼Įåı¯ä»¥": 837,
      "æĽ´å¥½": 838,
      "æĮĩ": 839,
      "æĤ¨": 840,
      "è§Ĵ": 841,
      "çļĦéĩįè¦ģ": 842,
      "è®°": 843,
      "æ¼": 844,
      "è£ħ": 845,
      "æŁ": 846,
      "çĶ¨æĪ·": 847,
      "æ²»": 848,
      "åķ": 849,
      "è¾¾": 850,
      "ä¿¡æģ¯": 851,
      "éħį": 852,
      "èĮ": 853,
      "æĵ": 854,
      "èº«": 855,
      "éª¤": 856,
      "å¯Į": 857,
      "æĸĻ": 858,
      "çĬ": 859,
      "åŁŁ": 860,
      "å¸Ĥåľº": 861,
      "åĪĴ": 862,
      "è¿Ļä¸ª": 863,
      "æĶ¿": 864,
      "åĸ": 865,
      "éĤ£": 866,
      "ä¹Ī": 867,
      "èµĦæºĲ": 868,
      "çª": 869,
      "ç¾İ": 870,
      "é£Ł": 871,
      "é¦ĸ": 872,
      "é¡¹çĽ®": 873,
      "åĪ«": 874,
      "æİ§": 875,
      "at": 876,
      "å¢ŀ": 877,
      "æľĽ": 878,
      "éĢł": 879,
      "æıĲä¾ĽäºĨ": 880,
      "åħī": 881,
      "ç»ĥ": 882,
      "éĶ®": 883,
      "æ£": 884,
      "åİĨåı²": 885,
      "æľįåĬ¡": 886,
      "è¢«": 887,
      "åı¤": 888,
      "é»": 889,
      "æĽ´åĬł": 890,
      "æĶ¹": 891,
      "çķĮ": 892,
      "ï¼Įä»İ": 893,
      "åħ±": 894,
      "å¼Ģå§ĭ": 895,
      "åĲĳ": 896,
      "åı£": 897,
      "å®ŀéĻħ": 898,
      "æĽ´å¥½åľ°": 899,
      "ç²¾": 900,
      "çķ¥": 901,
      "èİ": 902,
      "æŃ¥éª¤": 903,
      "åĮ»": 904,
      "çļĦåŁº": 905,
      "åŁ¹": 906,
      "æĸ½": 907,
      "è¿ĩç¨ĭä¸Ń": 908,
      "éĺ²": 909,
      "or": 910,
      "éĩĳ": 911,
      "çľŁ": 912,
      "įä½ľ": 913,
      "åĽŀ": 914,
      "æŀģ": 915,
      "æµİ": 916,
      "ç¡Ģ": 917,
      "æ¢": 918,
      "è¯¾": 919,
      "æ¸¸æĪı": 920,
      "å¹¿": 921,
      "ç»ıæµİ": 922,
      "æ®µ": 923,
      "ç§¯": 924,
      "å¸¦": 925,
      "å¥¹": 926,
      "ï¼Įç¡®ä¿Ŀ": 927,
      "åĨľ": 928,
      "èĪ": 929,
      "åıª": 930,
      "æĶ¯": 931,
      "æĶ¶": 932,
      "```": 933,
      "æŀĹ": 934,
      "ĳæĪĺ": 935,
      "å¦": 936,
      "è·µ": 937,
      "st": 938,
      "æķħäºĭ": 939,
      "åıĳçİ°": 940,
      "æĶ¾": 941,
      "éĥ¨åĪĨ": 942,
      "è¨": 943,
      "è®®": 944,
      "å½ķ": 945,
      "è¨Ģ": 946,
      "å®īåħ¨": 947,
      "æľªæĿ¥": 948,
      "çĽ®æłĩ": 949,
      "åĬ©äºİ": 950,
      "æľīåĬ©äºİ": 951,
      "æ´»åĬ¨": 952,
      "å®ŀè·µ": 953,
      "åķĨ": 954,
      "æł¹": 955,
      "å®Į": 956,
      "éĽĨ": 957,
      "çĶ»": 958,
      "ä¼ģ": 959,
      "èĩ´": 960,
      "ä¸ªäºº": 961,
      "çŁ¥è¯Ĩ": 962,
      "èīºæľ¯": 963,
      "åĳ½": 964,
      "çĭ¬": 965,
      "çĻ½": 966,
      "¿Ģ": 967,
      "çĬ¶": 968,
      "æħ": 969,
      "éĴ": 970,
      "æĺ¾": 971,
      "ä½ľçĶ¨": 972,
      "è¯Ħ": 973,
      "ï¼ĮæĽ´": 974,
      "ï¼ļ**": 975,
      "æĸ¹éĿ¢": 976,
      "æĪĲä¸º": 977,
      "æĳ": 978,
      "èĢģ": 979,
      "ä¸ī": 980,
      "é¢Ħ": 981,
      "ä¼ģä¸ļ": 982,
      "éľĢæ±Ĥ": 983,
      "èĻ": 984,
      "è¿ľ": 985,
      "çĮ": 986,
      "ï¼Įå®ĥ": 987,
      "ç§ĳåŃ¦": 988,
      "ï¼Įä½ł": 989,
      "åħ´": 990,
      "å¤ĦçĲĨ": 991,
      "è®Ń": 992,
      "èĥĮ": 993,
      "ä¸°": 994,
      "ä¸»è¦ģ": 995,
      "æ¿Ģ": 996,
      "éļ¾": 997,
      "èĲ¥": 998,
      "èµĽ": 999,
      "ä¸ĸ": 1000,
      "è¯ģ": 1001,
      "èį¯": 1002,
      "åħ³éĶ®": 1003,
      "re": 1004,
      "èĩ³": 1005,
      "èģĮä¸ļ": 1006,
      "åĬŁèĥ½": 1007,
      "ï¼ĮæıĲé«ĺ": 1008,
      "æł¡": 1009,
      "ä¸įæĸŃ": 1010,
      "æĵįä½ľ": 1011,
      "çĽ´": 1012,
      "åº·": 1013,
      "è½¬": 1014,
      "ç»ĵæŀĦ": 1015,
      "èĳ": 1016,
      "æ¸ħ": 1017,
      "åģ¥": 1018,
      "æİ¨": 1019,
      "åİ»": 1020,
      "ç¼ĸ": 1021,
      "åĲĮæĹ¶": 1022,
      "è§£åĨ³": 1023,
      "æĿĥ": 1024,
      "ç©º": 1025,
      "åĪ»": 1026,
      "çĸĹ": 1027,
      "éĿŀ": 1028,
      "ä¸°å¯Į": 1029,
      "åĥ": 1030,
      "å¯Ĩ": 1031,
      "è´¨éĩı": 1032,
      "ï¼Įä½¿": 1033,
      "éĺħ": 1034,
      "le": 1035,
      "åı°": 1036,
      "çĪ±": 1037,
      "å°ĳ": 1038,
      "æĺ¯ä¸Ģä¸ª": 1039,
      "é¥": 1040,
      "å¸ĥ": 1041,
      "ç´¢": 1042,
      "Ġç¬¬": 1043,
      "é¦ĸåħĪ": 1044,
      "æĸ¹å¼ı": 1045,
      "çĹħ": 1046,
      "ï¼ĮèĢĮ": 1047,
      "æĪĲåĬŁ": 1048,
      "æĸĩä»¶": 1049,
      "èı": 1050,
      "ä¸ŃåĽ½": 1051,
      "çĶ±": 1052,
      "ä¿ĿæĮģ": 1053,
      "çĶ¨äºİ": 1054,
      "çªģ": 1055,
      "æ¼Ķ": 1056,
      "ï¼Įä»İèĢĮ": 1057,
      "æĻº": 1058,
      "åĥı": 1059,
      "åĨħå®¹": 1060,
      "æł¹æį®": 1061,
      "ä¸ŃåŃ¦çĶŁ": 1062,
      "æĺ¯ä¸Ģç§į": 1063,
      "æĿĤ": 1064,
      "ç®Ģ": 1065,
      "éĻ©": 1066,
      "åģļ": 1067,
      "åħį": 1068,
      "æĽ´å¤ļ": 1069,
      "çŁ": 1070,
      "ä»·åĢ¼": 1071,
      "åĨĻ": 1072,
      "é¢ĨåŁŁ": 1073,
      "è§ģ": 1074,
      "åĽ¢éĺŁ": 1075,
      "çłģ": 1076,
      "ï¼Įå¯": 1077,
      "è¾ĥ": 1078,
      "çīĩ": 1079,
      "ï¼ĮéĢļè¿ĩ": 1080,
      "äºĨä¸Ģ": 1081,
      "æĿĲ": 1082,
      "åĨ³å®ļ": 1083,
      "äºĮ": 1084,
      "åħħæ»¡": 1085,
      "äºĴ": 1086,
      "åĽ°": 1087,
      "è¯¦": 1088,
      "--": 1089,
      "åĩł": 1090,
      "æĢ§åĴĮ": 1091,
      "è¾ĵ": 1092,
      "éļı": 1093,
      "ç¦": 1094,
      "è´£": 1095,
      "æı¡": 1096,
      "åĨµ": 1097,
      "en": 1098,
      "è¶£": 1099,
      "æīĵ": 1100,
      "ä¼Ĺ": 1101,
      "åºı": 1102,
      "å¿«": 1103,
      "çŃĸçķ¥": 1104,
      "ï¼Įå¸": 1105,
      "ç»Ī": 1106,
      "è½»": 1107,
      "¦Ĥå¿µ": 1108,
      "ä¿ĿæĬ¤": 1109,
      "èİ·": 1110,
      "åĬ¿": 1111,
      "åģ¥åº·": 1112,
      "çİ°ä»£": 1113,
      "å¾ĭ": 1114,
      "åĲ¸": 1115,
      "ï¼ĮåĮ": 1116,
      "è¯¦ç»Ĩ": 1117,
      "å¾®": 1118,
      "æ£Ģ": 1119,
      "ï¼Įä»ĸä»¬": 1120,
      "åı¸": 1121,
      "åĮħæĭ¬": 1122,
      "æīį": 1123,
      "è°ĥæķ´": 1124,
      "å£°": 1125,
      "åįİ": 1126,
      "åħ³ç³»": 1127,
      "åĩ»": 1128,
      "æľīæķĪ": 1129,
      "åŁİ": 1130,
      "ç¬ĳ": 1131,
      "åĪĹ": 1132,
      "ä½ľä¸º": 1133,
      "ä¾¿": 1134,
      "åĪ©çĶ¨": 1135,
      "è¯¾ç¨ĭ": 1136,
      "æ¤": 1137,
      "é©": 1138,
      "åħ¶ä»ĸ": 1139,
      "åıĤä¸İ": 1140,
      "æ¶Ī": 1141,
      "å¤įæĿĤ": 1142,
      "æİ¢è®¨": 1143,
      "éŁ³ä¹Ĳ": 1144,
      "æĴ": 1145,
      "ä»Ģ": 1146,
      "è®¸": 1147,
      "åħ·ä½ĵ": 1148,
      "è´¹": 1149,
      "åĬª": 1150,
      "éĩĩ": 1151,
      "è¿°": 1152,
      "æĮĳæĪĺ": 1153,
      "ä¸ĵä¸ļ": 1154,
      "åĬªåĬĽ": 1155,
      "åįķåħĥ": 1156,
      "ä¸ĢäºĽ": 1157,
      "ï¼ĮæĪĳä»¬åı¯ä»¥": 1158,
      "**ï¼ļĊ": 1159,
      "æĺĵ": 1160,
      "ä½İ": 1161,
      "éĹ¨": 1162,
      "çĽĬ": 1163,
      "åĲĪä½ľ": 1164,
      "æī¿": 1165,
      "ä»Ģä¹Ī": 1166,
      "ãĢĤè¿ĻäºĽ": 1167,
      "äºī": 1168,
      "ç¨³": 1169,
      "èģĶ": 1170,
      "æī¾åĪ°": 1171,
      "ï¼Įåľ¨": 1172,
      "å¼Ģåıĳ": 1173,
      "åı·": 1174,
      "éĺħè¯»": 1175,
      "è¯·": 1176,
      "æĺŁ": 1177,
      "å·§": 1178,
      "çĥŃ": 1179,
      "æĿ¡": 1180,
      "è®¾å¤ĩ": 1181,
      "æİĮ": 1182,
      "ç»ľ": 1183,
      "å®¢": 1184,
      "éĩĬ": 1185,
      "åŁ¹åħ»": 1186,
      "ç§ĺ": 1187,
      "ä¿®": 1188,
      "åĭ": 1189,
      "å±±": 1190,
      "æŃ¤å¤ĸ": 1191,
      "å¾Ī": 1192,
      "æĬķ": 1193,
      "åħ¬åı¸": 1194,
      "è§Ĵèī²": 1195,
      "æµ·": 1196,
      "ï¼ŁâĢĿ": 1197,
      "ç»§": 1198,
      "ĮæľĽ": 1199,
      "éĢļå¸¸": 1200,
      "ãĢĤè¿Ļç§į": 1201,
      "éĢĲ": 1202,
      "æĶ¯æĮģ": 1203,
      "çļĦåıĳå±ķ": 1204,
      "ç¢": 1205,
      "å¯¹äºİ": 1206,
      "è®¡ç®Ĺ": 1207,
      "éģ¿": 1208,
      "çº§": 1209,
      "ä¸¤": 1210,
      "åĬĽéĩı": 1211,
      "åĤ": 1212,
      "ä¸Ģç§į": 1213,
      "çļĦäºº": 1214,
      "åºĵ": 1215,
      "ï¼ĮæĪĳ": 1216,
      "æ¡Īä¾ĭ": 1217,
      "è¯Ŀ": 1218,
      "çİĭ": 1219,
      "æ²¡": 1220,
      "å¿Ĺ": 1221,
      "è¿Ļä¸Ģ": 1222,
      "è¶Ĭ": 1223,
      "éĻĲ": 1224,
      "æķĪçİĩ": 1225,
      "èĥĮæĻ¯": 1226,
      "èī¯": 1227,
      "åİĭ": 1228,
      "å¥ĩ": 1229,
      "åĳ³": 1230,
      "çļĦæĥ": 1231,
      "å¤±": 1232,
      "æĻĵ": 1233,
      "è¡¨çİ°": 1234,
      "æİĮæı¡": 1235,
      "çŁ¥éģĵ": 1236,
      "äº§åĵģ": 1237,
      "çŁ³": 1238,
      "æķĪæŀľ": 1239,
      "ç¨³å®ļ": 1240,
      "è¿ĲåĬ¨": 1241,
      "è½¦": 1242,
      "èŀ": 1243,
      "çĦ¶èĢĮ": 1244,
      "åıĭ": 1245,
      "èĳĹ": 1246,
      "åŁºç¡Ģ": 1247,
      "å·²": 1248,
      "åĲĦç§į": 1249,
      "ï¼ĮæĿİ": 1250,
      "æİ§åĪ¶": 1251,
      "çĮ®": 1252,
      "ro": 1253,
      "çļĦçł": 1254,
      "ï¼ĮåĮħæĭ¬": 1255,
      "it": 1256,
      "é¢ĳ": 1257,
      "ar": 1258,
      "åĨĽ": 1259,
      "å·¥åħ·": 1260,
      "åĪĽæĸ°": 1261,
      "åĲ«": 1262,
      "ç¿": 1263,
      "çĽ¸åħ³": 1264,
      "ç»§ç»Ń": 1265,
      "ä¸ĸçķĮ": 1266,
      "ç»ĩ": 1267,
      "an": 1268,
      "è¯¥": 1269,
      "çħ": 1270,
      "ä¸ĢæŃ¥": 1271,
      "åĲ¯": 1272,
      "ä¹ĭéĹ´": 1273,
      "ç½ĳç»ľ": 1274,
      "Ġ=": 1275,
      "çľ¼": 1276,
      "çļĦåŁºæľ¬": 1277,
      "åĲ¬": 1278,
      "ä½ĵéªĮ": 1279,
      "çļĦåŃ¦ä¹ł": 1280,
      "ï¼ģ": 1281,
      "ä¼ĺåĮĸ": 1282,
      "å±ħ": 1283,
      "åŃ¦æł¡": 1284,
      "åĽ´": 1285,
      "è¿ŀ": 1286,
      "çĽĳ": 1287,
      "å¾Ģ": 1288,
      "çĭ¬çī¹": 1289,
      "åĶ": 1290,
      "ï¼Įå¼": 1291,
      "ä¼°": 1292,
      "ï¼Įè®©": 1293,
      "èĩªçĦ¶": 1294,
      "æĢ§èĥ½": 1295,
      "æĬ¥": 1296,
      "ä½ľåĵģ": 1297,
      "èĬ±": 1298,
      "as": 1299,
      "ãĢĤä»¥ä¸ĭ": 1300,
      "åħħæ»¡äºĨ": 1301,
      "äº«": 1302,
      "æĪĲéķ¿": 1303,
      "éģ¿åħį": 1304,
      "ç´§": 1305,
      "çļĦæĬ": 1306,
      "ıå°ĳ": 1307,
      "å®Ŀ": 1308,
      "ä»ĸçļĦ": 1309,
      "ä¼łç»Ł": 1310,
      "ç¬¦": 1311,
      "ä½ı": 1312,
      "me": 1313,
      "çļĦæĮ": 1314,
      "å¾ģ": 1315,
      "éĿ¢å¯¹": 1316,
      "å±Ĥ": 1317,
      "ct": 1318,
      "éĿĻ": 1319,
      "å¼Ĥ": 1320,
      "ä¸ºäºĨ": 1321,
      "ï¼ĮåĽ": 1322,
      "çĲĨè®º": 1323,
      "çļĦæł": 1324,
      "åĬ±": 1325,
      "ä»ĸä»¬çļĦ": 1326,
      "åĳĬ": 1327,
      "æĦıä¹ī": 1328,
      "éģĩ": 1329,
      "åħ´è¶£": 1330,
      "ç»Ļ": 1331,
      "æ²¡æľī": 1332,
      "th": 1333,
      "Ġ\\": 1334,
      "åħĭ": 1335,
      "å¦Ī": 1336,
      "ä¸¥": 1337,
      "æĸ°çļĦ": 1338,
      "ç§¯æŀģ": 1339,
      "çļĦå½±åĵį": 1340,
      "å¾·": 1341,
      "æ¦Ĥå¿µ": 1342,
      "æ¤į": 1343,
      "çļĦçłĶç©¶": 1344,
      "æĦıè¯Ĩ": 1345,
      "åľŁ": 1346,
      "çļĦæĥħ": 1347,
      "ä¾Ŀ": 1348,
      "çī¹çĤ¹": 1349,
      "çĶŁäº§": 1350,
      "æĿ¥è¯´": 1351,
      "éĩįè¦ģçļĦ": 1352,
      "ï¼Įä¸įä»ħ": 1353,
      "ç«Ļ": 1354,
      "èĮĥ": 1355,
      "ç»ĵæŀľ": 1356,
      "æ³Ľ": 1357,
      "è´Ń": 1358,
      "èıľ": 1359,
      "è¿½": 1360,
      "åįı": 1361,
      "æķĻåŃ¦": 1362,
      "åıĺåĮĸ": 1363,
      "æİĴ": 1364,
      "æĬĢå·§": 1365,
      "åĦ": 1366,
      "éĿŀå¸¸": 1367,
      "å£«": 1368,
      "èħ": 1369,
      "è¯Ħä¼°": 1370,
      "çģ«": 1371,
      "å¯Ł": 1372,
      "éĻ¢": 1373,
      "å®ŀéªĮ": 1374,
      "åŃ©": 1375,
      "ä¸Ģå®ļ": 1376,
      "æ¸©": 1377,
      "èµµ": 1378,
      "å¸ĮæľĽ": 1379,
      "è¡¨è¾¾": 1380,
      ";Ċ": 1381,
      "è§£éĩĬ": 1382,
      "å¡": 1383,
      "è¡Įä¸º": 1384,
      "é¸": 1385,
      "åĮħ": 1386,
      "çİ©": 1387,
      "de": 1388,
      "æĸ¯": 1389,
      "å¤§çļĦ": 1390,
      "æķĻç¨ĭ": 1391,
      "ï¼Įè¿ĻäºĽ": 1392,
      "å²": 1393,
      "ï¼Įå¯¹": 1394,
      "è´Ł": 1395,
      "çŃĶ": 1396,
      "al": 1397,
      "åĪĿ": 1398,
      "æ¸Ĳ": 1399,
      "æī§": 1400,
      "è¥": 1401,
      "è®Ńç»ĥ": 1402,
      "è¥¿": 1403,
      "åĩĨå¤ĩ": 1404,
      "ä»ĭ": 1405,
      "æ¯ĶèµĽ": 1406,
      "è½½": 1407,
      "ç»ıéªĮ": 1408,
      "èŀį": 1409,
      "çĨ": 1410,
      "è§ī": 1411,
      "éļıçĿĢ": 1412,
      "|c": 1413,
      "åĽŃ": 1414,
      "äº§çĶŁ": 1415,
      "é¼": 1416,
      "ï¼Įè¿ĺèĥ½": 1417,
      "åŃ¦æľ¯": 1418,
      "å±ŀ": 1419,
      "ä¸ĬçļĦ": 1420,
      "åħ³æ³¨": 1421,
      "ĠĠĠĠĠĠĠĠ": 1422,
      "çļĦæĶ": 1423,
      "åĽĽ": 1424,
      "å¿ĥçĲĨ": 1425,
      "å»ºè®®": 1426,
      "æĪ¿": 1427,
      "ä»»åĬ¡": 1428,
      "éĶĢ": 1429,
      "çłĶ": 1430,
      "ï¼Įå¥": 1431,
      "ç¦»": 1432,
      "æĮģç»Ń": 1433,
      "åĸĦ": 1434,
      "åĿĹ": 1435,
      "å±Ģ": 1436,
      "ç»ıåİĨ": 1437,
      "åĤ¨": 1438,
      "ic": 1439,
      "et": 1440,
      "æĦŁåĪ°": 1441,
      "çģµ": 1442,
      "å¤ļä¸ª": 1443,
      "ä»£çłģ": 1444,
      "æĥħåĨµ": 1445,
      "```ĊĊ": 1446,
      "æĳĦ": 1447,
      "ç»Ħç»ĩ": 1448,
      "ãĢĤä»ĸä»¬": 1449,
      "å¦Ĥæŀľ": 1450,
      "å®ļä¹ī": 1451,
      "åĲ¦": 1452,
      "äº¤æµģ": 1453,
      "åŁİå¸Ĥ": 1454,
      "ï¼Įå¿": 1455,
      "ä¿ĥ": 1456,
      "å°Ķ": 1457,
      "è¯į": 1458,
      "åĦ¿": 1459,
      "åĪ¶å®ļ": 1460,
      "æį¢": 1461,
      "å®ĮæĪĲ": 1462,
      "è®¡åĪĴ": 1463,
      "åĲĪçĲĨ": 1464,
      "åĽ½éĻħ": 1465,
      "å¹¿æ³Ľ": 1466,
      "å°Ħ": 1467,
      "æļ": 1468,
      "ï¼Įå½": 1469,
      "åºŃ": 1470,
      "æĿĲæĸĻ": 1471,
      "éĻį": 1472,
      "åĳ¨": 1473,
      "åįĹ": 1474,
      "å¿ħ": 1475,
      "ing": 1476,
      "å¨": 1477,
      "åĪĽä½ľ": 1478,
      "éļľ": 1479,
      "æĢ»ç»ĵ": 1480,
      "æĬĢèĥ½": 1481,
      "èĭ±": 1482,
      "è®°å½ķ": 1483,
      "è¯Ńè¨Ģ": 1484,
      "æĽ´å¥½åľ°çĲĨè§£": 1485,
      "å¥½çļĦ": 1486,
      "åħ±åĲĮ": 1487,
      "**Ċ": 1488,
      "æŁĲ": 1489,
      "Ġ`": 1490,
      "çīĮ": 1491,
      "ion": 1492,
      "æĮī": 1493,
      "éĺ³": 1494,
      "è¶³çĲĥ": 1495,
      "è®²": 1496,
      "è¡Ģ": 1497,
      "è®¸å¤ļ": 1498,
      "æĥħæĦŁ": 1499,
      "è½¯": 1500,
      "æ°´å¹³": 1501,
      "ï¼Įå¸®åĬ©": 1502,
      "éĻĪ": 1503,
      "å±ķç¤º": 1504,
      "è§ĦåĪĴ": 1505,
      "èĹ": 1506,
      "ï¼Įåħ¶": 1507,
      "å®Ī": 1508,
      "æĿİæĺİ": 1509,
      "åı¯èĥ½ä¼ļ": 1510,
      "å®¤": 1511,
      "åĽ½å®¶": 1512,
      "å¸¦æĿ¥": 1513,
      "æĲ": 1514,
      "è¾¹": 1515,
      "ä»¤": 1516,
      "çļĦæī": 1517,
      "åħĥç´ł": 1518,
      "ä½ĵçİ°": 1519,
      "è®¨è®º": 1520,
      "æ²»çĸĹ": 1521,
      "ä¸´": 1522,
      "æ³¢": 1523,
      "ï¼Įæ¯ı": 1524,
      "èµ°": 1525,
      "çļĦæĦ": 1526,
      "åŃ©åŃĲ": 1527,
      "æī§è¡Į": 1528,
      "çļĦæİ": 1529,
      "¸å¿ĥ": 1530,
      "åĪ¶ä½ľ": 1531,
      "æµĭè¯ķ": 1532,
      "ãĢĤæŃ¤å¤ĸ": 1533,
      "ç§»": 1534,
      "ç²¾ç¥ŀ": 1535,
      "ç»ĵåĲĪ": 1536,
      "å¯¼èĩ´": 1537,
      "ç®Ģåįķ": 1538,
      "ï¼Įåıª": 1539,
      "çĤ¹å¤´": 1540,
      "ãĢĤå¥¹": 1541,
      "ç§°": 1542,
      "ç«ł": 1543,
      "è´¡": 1544,
      "åıĬåħ¶": 1545,
      "çħ§": 1546,
      "èĻĳ": 1547,
      "è´¡çĮ®": 1548,
      "çĶŁçī©": 1549,
      "èĨ": 1550,
      "çĶŁæĢģ": 1551,
      "æľºä¼ļ": 1552,
      "åĪĩ": 1553,
      "ä¸ľ": 1554,
      "äºĳ": 1555,
      "ç±³": 1556,
      "åİŁçĲĨ": 1557,
      "éĢĲæ¸Ĳ": 1558,
      "å®īè£ħ": 1559,
      "å¹³åı°": 1560,
      "åĨľä¸ļ": 1561,
      "éħįç½®": 1562,
      "ä¸°å¯ĮçļĦ": 1563,
      "ch": 1564,
      "å®¶åºŃ": 1565,
      "æĹı": 1566,
      "çł´": 1567,
      "æħ§": 1568,
      "åħ³äºİ": 1569,
      "æĹ¥å¸¸": 1570,
      "ï¼Įå¥¹": 1571,
      "è¯¯": 1572,
      "ç«¯": 1573,
      "åĭĩ": 1574,
      "lo": 1575,
      "âĢĶ": 1576,
      "ä¿ĥè¿Ľ": 1577,
      "åħ¨éĿ¢": 1578,
      "æĴŃ": 1579,
      "è°¢": 1580,
      "ä¸Ģèµ·": 1581,
      "æĢĿèĢĥ": 1582,
      "æ£ĢæŁ¥": 1583,
      "æ¹": 1584,
      "éŃ": 1585,
      "å¾ħ": 1586,
      "å»ºç«ĭ": 1587,
      "çĭ¬çī¹çļĦ": 1588,
      "åĬŀ": 1589,
      "ãĢĤå®ĥ": 1590,
      "av": 1591,
      "æĸĹ": 1592,
      "ç§ĳæĬĢ": 1593,
      "ç»ĺ": 1594,
      "é£İæł¼": 1595,
      "åŃ¦ä¼ļ": 1596,
      "å¢ŀå¼º": 1597,
      "éĺ¶": 1598,
      "å·²ç»ı": 1599,
      "å¤ª": 1600,
      "åĨ²": 1601,
      "ãĢĤçĦ¶èĢĮ": 1602,
      "çŃĳ": 1603,
      "æĺ¾èĳĹ": 1604,
      "ç¾¤": 1605,
      "çļĦä¸Ģ": 1606,
      "åºĶå¯¹": 1607,
      "ĠS": 1608,
      "åı¯ä»¥éĢļè¿ĩ": 1609,
      "æĹħ": 1610,
      "æĸ¹æ¡Ī": 1611,
      "çļĦåŁºç¡Ģ": 1612,
      "ç«ŀ": 1613,
      "æİ¢ç´¢": 1614,
      "éĻ¤": 1615,
      "ä»¥åıĬ": 1616,
      "åĽ°éļ¾": 1617,
      "åĪĽå»º": 1618,
      "ï¼Įå°Ĩ": 1619,
      "æĭī": 1620,
      "æľĪ": 1621,
      "å®ļæľŁ": 1622,
      "äº²": 1623,
      "è¦ģæ±Ĥ": 1624,
      "è®¾ç½®": 1625,
      "è´£ä»»": 1626,
      "çı": 1627,
      "åº¦åĴĮ": 1628,
      "å¤ļç§į": 1629,
      "Ġ|": 1630,
      "è´¢": 1631,
      "ï¼ĮåŃ¦çĶŁ": 1632,
      "ä¸įä»ħä»ħ": 1633,
      "ï¼Įåĩ": 1634,
      "è¿Ĳè¡Į": 1635,
      "ç»ĥä¹ł": 1636,
      "()": 1637,
      "åŃĺåľ¨": 1638,
      "ï¼ŁâĢĿĊĊ": 1639,
      "å°Ŀ": 1640,
      "æłĳ": 1641,
      "æĺ¯åĲ¦": 1642,
      "æĮ¥": 1643,
      "å»ºçŃĳ": 1644,
      "å»ºè®¾": 1645,
      "é£İéĻ©": 1646,
      "é»Ħ": 1647,
      "èĻ½": 1648,
      "æĭŁ": 1649,
      "è¡¡": 1650,
      "äºĶ": 1651,
      "¦æĥ³": 1652,
      "ç»į": 1653,
      "çĶŁæ´»ä¸Ń": 1654,
      "ç¬ĳçĿĢ": 1655,
      "çº¢": 1656,
      "å¢ŀåĬł": 1657,
      "é²": 1658,
      "ï¼ĮâĢľ": 1659,
      "åī§": 1660,
      "å·®": 1661,
      "æıı": 1662,
      "æĬķèµĦ": 1663,
      "çĻ": 1664,
      "åıĸå¾Ĺ": 1665,
      "èĻ½çĦ¶": 1666,
      "æĽ²": 1667,
      "æ³¨æĦı": 1668,
      "æīįèĥ½": 1669,
      "é¾": 1670,
      "è¿Ļç§į": 1671,
      "çļĦéĩįè¦ģæĢ§": 1672,
      "é¼ĵ": 1673,
      "æľīçĿĢ": 1674,
      "ä»½": 1675,
      "éĺ¿": 1676,
      "ï¼Įåį": 1677,
      "äººçļĦ": 1678,
      "æ³ķå¾ĭ": 1679,
      "å¹²": 1680,
      "ï¼Įå°±": 1681,
      "è¿Ľä¸ĢæŃ¥": 1682,
      "ä¼¼": 1683,
      "è¿½æ±Ĥ": 1684,
      "æİ¨åĬ¨": 1685,
      "éĵģ": 1686,
      "èĩ³åħ³": 1687,
      "ç±»åŀĭ": 1688,
      "ï¼Įä»¥åıĬ": 1689,
      "ï¼Įä¸į": 1690,
      "åĨį": 1691,
      "åľ°è¯´": 1692,
      "èĩªæĪĳ": 1693,
      "ä»ĭç»į": 1694,
      "çļĦåħ³éĶ®": 1695,
      "ĠĠĠĠĠĠĠ": 1696,
      "è¿ĳ": 1697,
      "è¿ħ": 1698,
      "ä½įç½®": 1699,
      "ou": 1700,
      "æĿ¾": 1701,
      "å¤ļæł·": 1702,
      "éĢĤåĲĪ": 1703,
      "Ġ{": 1704,
      "åĲ¸å¼ķ": 1705,
      "ç¤¾åĮº": 1706,
      "çīĪ": 1707,
      "æİĪ": 1708,
      "ç»¼": 1709,
      "ï¼Įå¿ĥ": 1710,
      "æ½": 1711,
      "ç»´æĬ¤": 1712,
      "åħ¶æ¬¡": 1713,
      "ç¨ĭåºı": 1714,
      "æŃ¢": 1715,
      "éĿĴ": 1716,
      "å¥³": 1717,
      "æ¨¡åŀĭ": 1718,
      "å¤§éĩı": 1719,
      "è¯¢": 1720,
      "æİª": 1721,
      "æľºåĪ¶": 1722,
      "ŁéĢļ": 1723,
      "ä¸Ķ": 1724,
      "çļĦçľ": 1725,
      "çĶµåŃĲ": 1726,
      "ç£": 1727,
      "èİ·å¾Ĺ": 1728,
      "åĨ³çŃĸ": 1729,
      "é¦Ĩ": 1730,
      "æ¶Īè´¹": 1731,
      "Â·": 1732,
      "åĸľ": 1733,
      "åĩºäºĨ": 1734,
      "é©¬": 1735,
      "åĪĽéĢł": 1736,
      "äºļ": 1737,
      "å°½": 1738,
      "åŃĺåĤ¨": 1739,
      "åĩłä¸ª": 1740,
      "æŃĮ": 1741,
      "ï¼Įæĺ¯": 1742,
      "æĺİçĻ½": 1743,
      "çļĦåľ°": 1744,
      "åĵģçīĮ": 1745,
      "åı¤ä»£": 1746,
      "çļĦæ·": 1747,
      "è¯»èĢħ": 1748,
      "se": 1749,
      "å¿«éĢŁ": 1750,
      "è½¯ä»¶": 1751,
      "åĩºçİ°": 1752,
      "çĦ¶åĲİ": 1753,
      "åīĤ": 1754,
      "ä¸Ģæ¬¡": 1755,
      "è§Ĥå¯Ł": 1756,
      "æĿ¡ä»¶": 1757,
      "çļĦåİĨåı²": 1758,
      "ãĢĤåĲĮæĹ¶": 1759,
      "å¯»": 1760,
      "åıĳçĶŁ": 1761,
      "ç±į": 1762,
      "çļĦæĬĢ": 1763,
      "å¸¸è§ģ": 1764,
      "åł": 1765,
      "åºľ": 1766,
      "é»ĳ": 1767,
      "è´µ": 1768,
      "é«ĺæķĪ": 1769,
      "èº«ä½ĵ": 1770,
      "çļĦç¤": 1771,
      "åĩıå°ĳ": 1772,
      "ç¼º": 1773,
      "åĽłç´ł": 1774,
      "éļĲ": 1775,
      "éĵ¾": 1776,
      "id": 1777,
      "åĿļå®ļ": 1778,
      "æĭħ": 1779,
      "åı¶": 1780,
      "çī¹åĪ«": 1781,
      "è¡Įä¸ļ": 1782,
      "Ġc": 1783,
      "å°Ŀè¯ķ": 1784,
      "è¿ħéĢŁ": 1785,
      "ï¼ĮåĽł": 1786,
      "æĤ£": 1787,
      "çľĭåĪ°": 1788,
      "åĨ·": 1789,
      "æĻ¨": 1790,
      "åº§": 1791,
      "ent": 1792,
      "ï¼ĮäºĨè§£": 1793,
      "å½©": 1794,
      "ä¼ĺåĬ¿": 1795,
      "åĿļæĮģ": 1796,
      "çī¹å¾ģ": 1797,
      "è¾ĳ": 1798,
      "ï¼Ľ": 1799,
      "æĦıè¯ĨåĪ°": 1800,
      "å®ĩ": 1801,
      "æ»¡è¶³": 1802,
      "å·¥ç¨ĭ": 1803,
      "æ¨¡å¼ı": 1804,
      "è¶ħ": 1805,
      "çľĭçĿĢ": 1806,
      "å®³": 1807,
      "æĿ¿": 1808,
      "å®ĺ": 1809,
      "çİ©å®¶": 1810,
      "ï¼ĮæĤ¨": 1811,
      "æİªæĸ½": 1812,
      "èĹı": 1813,
      "ä½łçļĦ": 1814,
      "æŃ£ç¡®": 1815,
      "èĮ¶": 1816,
      "æĻºèĥ½": 1817,
      "ä¹ĭéĹ´çļĦ": 1818,
      "æĸĩåŃ¦": 1819,
      "åĩĨç¡®": 1820,
      "æĺł": 1821,
      "èĲ¥åħ»": 1822,
      "å®¡": 1823,
      "æ·±åĪ»": 1824,
      "çĽ´æİ¥": 1825,
      "çļĦæ°": 1826,
      "Ġp": 1827,
      "åıĹåĪ°": 1828,
      "åıĤåĬł": 1829,
      "é¡º": 1830,
      "åıĮ": 1831,
      "é¥®": 1832,
      "äºĴåĬ¨": 1833,
      "åľºæĻ¯": 1834,
      "æĹłæ³ķ": 1835,
      "ï¼Įéģ¿åħį": 1836,
      "is": 1837,
      "ä½Ľ": 1838,
      "è®¾æĸ½": 1839,
      "æ²ī": 1840,
      "te": 1841,
      "æĪĲæľ¬": 1842,
      "æīĢæľī": 1843,
      "è®¤è¯Ĩ": 1844,
      "æĶ»": 1845,
      "åİĭåĬĽ": 1846,
      "è¡¨ç¤º": 1847,
      "æĢ»ä¹ĭ": 1848,
      "æĢĿç»´": 1849,
      "äººä»¬": 1850,
      "åħ¸": 1851,
      "å¾Ħ": 1852,
      "å®ĥä»¬": 1853,
      "çļĦæ·±": 1854,
      "æ²¹": 1855,
      "èĽ": 1856,
      "æĭį": 1857,
      "è¿ĽæŃ¥": 1858,
      "éĢĤåºĶ": 1859,
      "å½¢å¼ı": 1860,
      "åį³": 1861,
      "åıįæĢĿ": 1862,
      "è¯ļ": 1863,
      "éĺ¶æ®µ": 1864,
      "//": 1865,
      "æ¶µ": 1866,
      "çº¦": 1867,
      "æĬĹ": 1868,
      "åŁ¹è®Ń": 1869,
      "åİļ": 1870,
      "Ġ{Ċ": 1871,
      "äºĨä¸Ģä¸ª": 1872,
      "éķĩ": 1873,
      "æľĢç»Ī": 1874,
      "ï¼ĮåĲĮæĹ¶": 1875,
      "çĽ¸ä¿¡": 1876,
      "åĢĻ": 1877,
      "å®¢æĪ·": 1878,
      "éĶĻ": 1879,
      "ç³»ç»ŁçļĦ": 1880,
      "æľĭ": 1881,
      "æĺİç¡®": 1882,
      "åĩ½": 1883,
      "åħ¨çĲĥ": 1884,
      "éħĴ": 1885,
      "æĶ¿åºľ": 1886,
      "è®¿": 1887,
      "ï¼Įå¢": 1888,
      "ç¼ĵ": 1889,
      "æĶ¿çŃĸ": 1890,
      "èĢĲ": 1891,
      "ri": 1892,
      "åŁºæľ¬": 1893,
      "çļĦæķħäºĭ": 1894,
      "ï¼ĮæĽ´æĺ¯": 1895,
      "é¡µ": 1896,
      "äº§ä¸ļ": 1897,
      "çĸĳ": 1898,
      "åĪ¤": 1899,
      "ä¸Ŀ": 1900,
      "äºĭä»¶": 1901,
      "èĤ¡": 1902,
      "é£ŀ": 1903,
      "çĬ¶æĢģ": 1904,
      "ç»ĦæĪĲ": 1905,
      "åĽº": 1906,
      "ï¼Įå°ı": 1907,
      "çŁŃ": 1908,
      "è¿ŀæİ¥": 1909,
      "ç«ŀäºī": 1910,
      "çĲĥåĳĺ": 1911,
      "ç©ºéĹ´": 1912,
      "èĢĥèĻĳ": 1913,
      "ï¼Įä½¿å¾Ĺ": 1914,
      "çªģçĦ¶": 1915,
      "çĵ": 1916,
      "é¼ĵåĬ±": 1917,
      "æĢ¥": 1918,
      "åıįåºĶ": 1919,
      "ï¼Įå¿ĥä¸Ń": 1920,
      "æ±ī": 1921,
      "çī¹å®ļ": 1922,
      "äº¤éĢļ": 1923,
      "åıĳæĮ¥": 1924,
      "éŁ": 1925,
      "ä¼łæī¿": 1926,
      "åı¯ä»¥å¸®åĬ©": 1927,
      "åľ°åĮº": 1928,
      "æŁĵ": 1929,
      "ç»¼åĲĪ": 1930,
      "åį¡": 1931,
      "æĹ¨": 1932,
      "å¤§åŃ¦çĶŁ": 1933,
      "ame": 1934,
      "æ¬¾": 1935,
      "æĪĲå°±": 1936,
      "ä¸Ģå¤©": 1937,
      "éģĹ": 1938,
      "åºĹ": 1939,
      "åĿĩ": 1940,
      "æĪĲæŀľ": 1941,
      "åĲ¯ç¤º": 1942,
      "æĺ¯ä¸ĢäºĽ": 1943,
      "æľĭåıĭ": 1944,
      "çļĦæł¸å¿ĥ": 1945,
      "è¡ĮåĬ¨": 1946,
      "mp": 1947,
      "çļĦæķ°æį®": 1948,
      "æľĢåĲİ": 1949,
      "æ¯ıä¸ª": 1950,
      "çļĦæ¯": 1951,
      "**ï¼ļĊĊ": 1952,
      "èĲ½": 1953,
      "è¿ĲçĶ¨": 1954,
      "éĢĴ": 1955,
      "ä½¿å¾Ĺ": 1956,
      "ï¼ļ**Ċ": 1957,
      "é»ĺ": 1958,
      "çļĦæĸ¹æ³ķ": 1959,
      "çĹĩ": 1960,
      "åĪĺ": 1961,
      "åįļ": 1962,
      "åĲĪéĢĤ": 1963,
      "¹ģ": 1964,
      "åĮĹ": 1965,
      "ï¼Įå®ŀçİ°": 1966,
      "çļĦæ¸": 1967,
      "è§Ĩé¢ĳ": 1968,
      "æ³¨éĩį": 1969,
      "ï¼Įå¢ŀ": 1970,
      "ĠĠĊ": 1971,
      "æĪĲåĳĺ": 1972,
      "çĲĨå¿µ": 1973,
      "åıĪ": 1974,
      "åĩ½æķ°": 1975,
      "åĽłä¸º": 1976,
      "ä¸įåĲĮçļĦ": 1977,
      "æĸ¹åĲĳ": 1978,
      "åĪĨäº«": 1979,
      "ä¸ĭæĿ¥": 1980,
      "æľªæĿ¥çļĦ": 1981,
      "ï¼ĮåĨ": 1982,
      "å·¨": 1983,
      "æŀ¶": 1984,
      "æıŃ": 1985,
      "æĹ¶æľŁ": 1986,
      "å°Ĭ": 1987,
      "ä¸ŃçļĦåºĶçĶ¨": 1988,
      "ac": 1989,
      "çĶµå½±": 1990,
      "----": 1991,
      "åħ·å¤ĩ": 1992,
      "çļĦæĮĳæĪĺ": 1993,
      "ï¼ĮçĦ¶åĲİ": 1994,
      "æī©": 1995,
      "çĸ¾": 1996,
      "çļĦæ²": 1997,
      "çļĦæŃ": 1998,
      "çİ°è±¡": 1999,
      "æ·»": 2000,
      "çķĻ": 2001,
      "ï¼Įèĥ½å¤Ł": 2002,
      "éĿ©": 2003,
      "èĩªåĬ¨": 2004,
      "ĠC": 2005,
      "æĻ®": 2006,
      "çºª": 2007,
      "èİ·åıĸ": 2008,
      "ï¼ģâĢĿ": 2009,
      "èĴ": 2010,
      "äººç±»": 2011,
      "ï¼ĮæľīåĬ©äºİ": 2012,
      "åı¥": 2013,
      "ï¼Įä¸Ģ": 2014,
      "èĢħçļĦ": 2015,
      "ç³»åĪĹ": 2016,
      "æĻºæħ§": 2017,
      "es": 2018,
      "åºĶè¯¥": 2019,
      "çļĦåºĶçĶ¨": 2020,
      "æįŁ": 2021,
      "çļĦç¤¾": 2022,
      "æķĻå¸Ī": 2023,
      "ç¼ĸç¨ĭ": 2024,
      "åĳ½ä»¤": 2025,
      "éĻįä½İ": 2026,
      "æĹ¨åľ¨": 2027,
      "è¯Ĺ": 2028,
      "åıĬæĹ¶": 2029,
      "çļĦæĦı": 2030,
      "ï¼Įæľī": 2031,
      "èī¯å¥½çļĦ": 2032,
      "ç»©": 2033,
      "è¯ī": 2034,
      "åª": 2035,
      "å±ħæ°ĳ": 2036,
      "åĬ¨æĢģ": 2037,
      "åıĺå¾Ĺ": 2038,
      "æķĻæİĪ": 2039,
      "èĤī": 2040,
      "æľ¬åįķåħĥ": 2041,
      "æĹłè®º": 2042,
      "éģĩåĪ°": 2043,
      "ä¹°": 2044,
      "çļĦçĥ": 2045,
      "ä¹ĭä¸Ģ": 2046,
      "èĥľ": 2047,
      "æĺ¯æĮĩ": 2048,
      "èµĦæĸĻ": 2049,
      "ç´łè´¨": 2050,
      "å°ģ": 2051,
      "æĭ¥": 2052,
      "æķ°åŃĹ": 2053,
      "æĺ¯åľ¨": 2054,
      "æķ´ä½ĵ": 2055,
      "æĦ¿": 2056,
      "åıįæĺł": 2057,
      "Ġåľ¨": 2058,
      "æĽ´å¤ļçļĦ": 2059,
      "çİ°å®ŀ": 2060,
      "ed": 2061,
      "ï¼ĮæıĲåįĩ": 2062,
      "èįī": 2063,
      "è§¦": 2064,
      "çļĦæĻ": 2065,
      "oo": 2066,
      "åĪĨç±»": 2067,
      "å¦Īå¦Ī": 2068,
      "el": 2069,
      "å¿ĥä¸Ń": 2070,
      "çĽ®çļĦ": 2071,
      "æ»ĳ": 2072,
      "é¢Ĩå¯¼": 2073,
      "å¹¶ä¸į": 2074,
      "ä¸¾": 2075,
      "çĶļ": 2076,
      "ä¸Ńå¿ĥ": 2077,
      "åį±": 2078,
      "æ´ģ": 2079,
      "çĥĪ": 2080,
      "æ¤įçī©": 2081,
      "çļĦæĥħæĦŁ": 2082,
      "åĿļå®ŀ": 2083,
      "åķĨä¸ļ": 2084,
      "è§Ĥä¼Ĺ": 2085,
      "çļĦå·¥ä½ľ": 2086,
      "æ¬¢": 2087,
      "èĩ³åħ³éĩįè¦ģ": 2088,
      "çĽĸ": 2089,
      "è¯ĨåĪ«": 2090,
      "æ¶¯": 2091,
      "ãĢĤè¿Ļä¸Ģ": 2092,
      "åį´": 2093,
      "é¾Ļ": 2094,
      "ç¯": 2095,
      "éĢŁåº¦": 2096,
      "éĢģ": 2097,
      "ç¥ŀç§ĺ": 2098,
      "ava": 2099,
      "ãĢĤé¦ĸåħĪ": 2100,
      "çĶļèĩ³": 2101,
      "é¡¾": 2102,
      "æķ°æį®åºĵ": 2103,
      "ä¹¦ç±į": 2104,
      "åį°": 2105,
      "åĬĽåĴĮ": 2106,
      "è®¡ç®Ĺæľº": 2107,
      "çļĦçĶŁæ´»": 2108,
      "å³": 2109,
      "è¿·": 2110,
      "åĲĹ": 2111,
      "çĶ±äºİ": 2112,
      "ï¼ĮéľĢè¦ģ": 2113,
      "ç¥¨": 2114,
      "çĸ¾çĹħ": 2115,
      "çļĦçĲĨè§£": 2116,
      "åħļ": 2117,
      "åªĴ": 2118,
      "åĬ³": 2119,
      "åĪĨå¸ĥ": 2120,
      "çĨŁ": 2121,
      "èĦĳ": 2122,
      "æ½ľ": 2123,
      "çļ®": 2124,
      "æ²ŁéĢļ": 2125,
      "åĽ¾åĥı": 2126,
      "åĽŀçŃĶ": 2127,
      "å½¢æĪĲ": 2128,
      ">Ċ": 2129,
      "åŃ¦çĶŁçļĦ": 2130,
      "è¾ĵåħ¥": 2131,
      "éĤ£äºĽ": 2132,
      "ap": 2133,
      "çĶŁæ¶¯": 2134,
      "æłĩåĩĨ": 2135,
      "åºĬ": 2136,
      "é¡»": 2137,
      "åºķ": 2138,
      "åįģ": 2139,
      "æ²³": 2140,
      "ä¹¡": 2141,
      "æķ´ä¸ª": 2142,
      "ãĢĤä»¥ä¸ĭæĺ¯ä¸ĢäºĽ": 2143,
      "éķ¿æľŁ": 2144,
      "çŁ¿": 2145,
      "ä¸½": 2146,
      "åŃ¦ä¹łåĴĮ": 2147,
      "èĥ½åĬĽåĴĮ": 2148,
      "æĿĳæ°ĳ": 2149,
      "é£Łåĵģ": 2150,
      "çľŁæŃ£": 2151,
      "çļĦç²": 2152,
      "ç¡®å®ļ": 2153,
      "è®¤ä¸º": 2154,
      "æľ¨": 2155,
      "ãĢĤæĿİ": 2156,
      "ä¾ĭåŃĲ": 2157,
      "ç»Īäºİ": 2158,
      "ç»ĨèĬĤ": 2159,
      "æ¨¡æĭŁ": 2160,
      "åĶ®": 2161,
      "é¦Ī": 2162,
      "æĹ©": 2163,
      "å·´": 2164,
      "ï¼Įä¸Ģä¸ª": 2165,
      "äº¬": 2166,
      "ä»£è¡¨": 2167,
      "èµ·æĿ¥": 2168,
      "åľ°ä½į": 2169,
      "éĿ¢ä¸´": 2170,
      "ä¸»é¢ĺ": 2171,
      "è¿Ļæł·": 2172,
      "åĽłæŃ¤": 2173,
      "ad": 2174,
      "ĠP": 2175,
      "ãĢĤæĪĳä»¬": 2176,
      "éĺµ": 2177,
      "é¢ľ": 2178,
      "åĮ»åŃ¦": 2179,
      "åĴĮç¤¾ä¼ļ": 2180,
      "éĥ½æľī": 2181,
      "åªĴä½ĵ": 2182,
      "éĢı": 2183,
      "ä»·æł¼": 2184,
      "åģļåĩº": 2185,
      "éĩĩçĶ¨": 2186,
      "Ġ}": 2187,
      "ä¸įåı¯": 2188,
      "èĽĭ": 2189,
      "æ°§": 2190,
      "ç®Ĺæ³ķ": 2191,
      "æ¿Ģåıĳ": 2192,
      "do": 2193,
      "Ġ\"": 2194,
      "å°¼": 2195,
      "å¼ĥ": 2196,
      "åıįé¦Ī": 2197,
      "æľįåĬ¡åĻ¨": 2198,
      "æĿŁ": 2199,
      "æĿ°": 2200,
      "æ¶ī": 2201,
      "èĪª": 2202,
      "Ġf": 2203,
      "ç»ıè¿ĩ": 2204,
      "Ġ<": 2205,
      "äº®": 2206,
      "ï¼ĮåŁ": 2207,
      "ï¼ĮæĪĲä¸º": 2208,
      "åı«": 2209,
      "çĤ¹äºĨ": 2210,
      "åĨħéĥ¨": 2211,
      "æ¶²": 2212,
      "éģĵè·¯": 2213,
      "ï¼Įå¦Ĥæŀľ": 2214,
      "ä½³": 2215,
      "çģµæ´»": 2216,
      "±ä¹Ĳ": 2217,
      "çĶŁåĳ½": 2218,
      "çĤ¹äºĨçĤ¹å¤´": 2219,
      "yth": 2220,
      "ä»¥ä¸Ĭ": 2221,
      "çļĦæ³": 2222,
      "âĢĿï¼Į": 2223,
      "åºĦ": 2224,
      "éĿł": 2225,
      "æĢĿæĥ³": 2226,
      "éĩįæĸ°": 2227,
      "å©": 2228,
      "ï¼Įä¹Łä¸º": 2229,
      "èµĸ": 2230,
      "å½¢è±¡": 2231,
      "æĶ¹è¿Ľ": 2232,
      "å¾®ç¬ĳçĿĢ": 2233,
      "to": 2234,
      "æ±ĩ": 2235,
      "èĵ": 2236,
      "åħħåĪĨ": 2237,
      "èĪŀ": 2238,
      "å¥ĭ": 2239,
      "å®ŀæĸ½": 2240,
      "å¹´è½»": 2241,
      "è¯¾ç¨ĭåįķåħĥ": 2242,
      "é²ľ": 2243,
      "ython": 2244,
      "æ·»åĬł": 2245,
      "çļĦéĹ®é¢ĺ": 2246,
      "ç»ª": 2247,
      "æ¡£": 2248,
      "ç¦ı": 2249,
      "ï¼Įåıªè¦ģ": 2250,
      "äººåĳĺ": 2251,
      "é¦Ļ": 2252,
      "ht": 2253,
      "èģļ": 2254,
      "éĨ": 2255,
      "ï¼Įå±": 2256,
      "ãĢĤèĢĮ": 2257,
      "å¥ı": 2258,
      "æ±Ł": 2259,
      "ç¬Ķ": 2260,
      "ä»Ĭ": 2261,
      "çĩ": 2262,
      "ç¤¾äº¤": 2263,
      "if": 2264,
      "çīĽ": 2265,
      "ä¹İ": 2266,
      "ab": 2267,
      "ï¼Įåĩıå°ĳ": 2268,
      "Ġn": 2269,
      "åıĤèĢĥ": 2270,
      "pt": 2271,
      "éĢļä¿¡": 2272,
      "ä¸įä»ħä»ħæĺ¯": 2273,
      "çº·": 2274,
      "èĦļ": 2275,
      "åħ°": 2276,
      "åĵ²": 2277,
      "æ¢¦æĥ³": 2278,
      "ä¿Ŀéļľ": 2279,
      "è¡¥": 2280,
      "æĪĺæľ¯": 2281,
      "ç¹ģ": 2282,
      "æĢ§çļĦ": 2283,
      "çļĦçŁ¥": 2284,
      "æī¾åĪ°äºĨ": 2285,
      "ĠA": 2286,
      "ç¤ºä¾ĭ": 2287,
      "åı¦": 2288,
      "#####": 2289,
      "å®ŀä¾ĭ": 2290,
      "è´Łè´£": 2291,
      "ring": 2292,
      "åİŁåĪĻ": 2293,
      "ï¼ĮæĪĳä»¬å°Ĩ": 2294,
      "ate": 2295,
      "ä¼¤": 2296,
      "å¾ĹåĪ°": 2297,
      "us": 2298,
      "èĢĥè¯ķ": 2299,
      "çī©è´¨": 2300,
      "åĮ»çĸĹ": 2301,
      "ä»¿": 2302,
      "åĮĸçļĦ": 2303,
      "æĶ¹åĸĦ": 2304,
      "ä¾Ŀèµĸ": 2305,
      "å¨ģ": 2306,
      "å¹³è¡¡": 2307,
      "æ·±åħ¥æİ¢è®¨": 2308,
      "éĥ½æĺ¯": 2309,
      "å¥¥": 2310,
      "åĩı": 2311,
      "éģĵå¾·": 2312,
      "æĪĳä»¬çļĦ": 2313,
      "ä¸įä»ħæĺ¯": 2314,
      "èĮĥåĽ´": 2315,
      "åıĤæķ°": 2316,
      "éĴĪ": 2317,
      "ï¼Įå¼ł": 2318,
      "ç»¿": 2319,
      "æĪĲç»©": 2320,
      "çĲĥéĺŁ": 2321,
      "éķľ": 2322,
      "çĳ": 2323,
      "Ġs": 2324,
      "è¯´éģĵ": 2325,
      "è§Ī": 2326,
      "åį«": 2327,
      "çļĦç²¾": 2328,
      "èĲ¥éĶĢ": 2329,
      "ï¼ļ**ĊĊ": 2330,
      "ä»»ä½ķ": 2331,
      "ç§įæ¤į": 2332,
      "éĩĩåıĸ": 2333,
      "ï¼Įåº": 2334,
      "ä½ĵèĤ²": 2335,
      "çļĦæµ": 2336,
      "çļĦä¸»è¦ģ": 2337,
      "è´¥": 2338,
      "è¿Ľåħ¥": 2339,
      "å®Ŀè´µ": 2340,
      "Ġå¼ķ": 2341,
      "çļĦç¬": 2342,
      "çĤ¼": 2343,
      "åĨħåŃĺ": 2344,
      "èĶ": 2345,
      "æĦıåĳ³": 2346,
      "åħ¬åħ±": 2347,
      "æľ¬æĸĩ": 2348,
      "co": 2349,
      "è¿¹": 2350,
      "è´¢åĬ¡": 2351,
      "æĭ¥æľī": 2352,
      "èĥ½æºĲ": 2353,
      "ç²ī": 2354,
      "æĶ¿æ²»": 2355,
      "è¿Ļæ¬¡": 2356,
      "åİŁåĽł": 2357,
      "æ¥": 2358,
      "è®¿éĹ®": 2359,
      "æ¶īåıĬ": 2360,
      "ue": 2361,
      "ä¸Ģä½į": 2362,
      "éº": 2363,
      "ä¿¡åı·": 2364,
      "æĪĺæĸĹ": 2365,
      "æĦıåĳ³çĿĢ": 2366,
      "çĶ·": 2367,
      "ç§ĺå¯Ĩ": 2368,
      "åĬłåħ¥": 2369,
      "ï¼Įä¸įæĸŃ": 2370,
      "çļĦæ¦Ĥå¿µ": 2371,
      "æķ°åŃ¦": 2372,
      "æİ¥ä¸ĭæĿ¥": 2373,
      "å®ŀéĻħåºĶçĶ¨": 2374,
      "çľģ": 2375,
      "é¢ľèī²": 2376,
      "çĽĺ": 2377,
      "ï¼Įå¼Ģ": 2378,
      "å°Ĭéĩį": 2379,
      "æķ¢": 2380,
      "åĬ¨çī©": 2381,
      "å£°éŁ³": 2382,
      "ä»ª": 2383,
      "æĤ£èĢħ": 2384,
      "éĢĶ": 2385,
      "å±ķçİ°": 2386,
      "ãĢĤä»ĸçļĦ": 2387,
      "æķ£": 2388,
      "åĿĲ": 2389,
      "çĽĳæİ§": 2390,
      "å¯»æī¾": 2391,
      "çļĦçĥŃ": 2392,
      "é½": 2393,
      "çļĦåĬĽéĩı": 2394,
      "æī¹": 2395,
      "å¾ª": 2396,
      "åĳ¼": 2397,
      "æĿİæĻĵ": 2398,
      "åĨħå¿ĥ": 2399,
      "ä¼łæĴŃ": 2400,
      "éĩĳèŀį": 2401,
      "èª": 2402,
      "åĴĮæĸĩåĮĸ": 2403,
      "çļĦçº": 2404,
      "åĳ¢": 2405,
      "æĮĩå¯¼": 2406,
      "åŃ¦éĻ¢": 2407,
      "æŃ¦": 2408,
      "é«ĺçļĦ": 2409,
      "å·¥ä¸ļ": 2410,
      "æµ©": 2411,
      "æĮīçħ§": 2412,
      "è§Ĩè§ī": 2413,
      "ç¿¼": 2414,
      "ï¼ļĊ": 2415,
      "æĥ¯": 2416,
      "æĥĬ": 2417,
      "æ¡Īä¾ĭåĪĨæŀĲ": 2418,
      "æĬĺ": 2419,
      "æĶ¹åıĺ": 2420,
      "ï¼Įä¸ŃåŃ¦çĶŁ": 2421,
      "çĶŁéķ¿": 2422,
      "åĮĸåŃ¦": 2423,
      "æ¯Ĵ": 2424,
      "ãĢĤè¿Ļä¸ª": 2425,
      "ag": 2426,
      "ig": 2427,
      "ãĢĤå¦Ĥæŀľ": 2428,
      "åĳĬè¯ī": 2429,
      "ç³ĸ": 2430,
      "ï¼Įä»ĸçļĦ": 2431,
      "ãĢĤä»¥ä¸ĭæĺ¯": 2432,
      "çļĦç¤¾ä¼ļ": 2433,
      "å³°": 2434,
      "ãĢĤæĪĳ": 2435,
      "å°ıæĺİ": 2436,
      "éªĮè¯ģ": 2437,
      "âĢĶâĢĶ": 2438,
      "éĶĻè¯¯": 2439,
      "un": 2440,
      "ä¸įä»ħèĥ½å¤Ł": 2441,
      "å¾ĹåĪ°äºĨ": 2442,
      "å¿Ĩ": 2443,
      "éĹª": 2444,
      "åĽ°å¢ĥ": 2445,
      "æĽ´æĸ°": 2446,
      "è´§": 2447,
      "åı¯ä»¥åľ¨": 2448,
      "æĻļ": 2449,
      "èģĶç³»": 2450,
      "ï¼ĮåĽłä¸º": 2451,
      "éĵ¶": 2452,
      "éĩİ": 2453,
      "èĭı": 2454,
      "æııè¿°": 2455,
      "æµģç¨ĭ": 2456,
      "¤åħ¶": 2457,
      "çīĻ": 2458,
      "å¿ħé¡»": 2459,
      "é¢Ŀ": 2460,
      "æ¶Īè´¹èĢħ": 2461,
      "åħŃ": 2462,
      "ä»į": 2463,
      "éĩįè¦ģæĢ§": 2464,
      "åİĤ": 2465,
      "æ´ŀ": 2466,
      "èĬĤçĤ¹": 2467,
      "int": 2468,
      "æĭĵ": 2469,
      "å¤§å®¶": 2470,
      "åģĩ": 2471,
      "åĲİçļĦ": 2472,
      "åıįæĺłäºĨ": 2473,
      "ub": 2474,
      "åĮħåĲ«": 2475,
      "ï¼Įæīįèĥ½": 2476,
      "å¥½å¥ĩ": 2477,
      "åģľ": 2478,
      "åĨĽäºĭ": 2479,
      "è®©ä»ĸ": 2480,
      "ä½ĵç³»": 2481,
      "æĺ¾ç¤º": 2482,
      "ĠB": 2483,
      "æł¸": 2484,
      "ç´¯": 2485,
      "èªī": 2486,
      "çļĦåħ´è¶£": 2487,
      "çī©çĲĨ": 2488,
      "åĪ¶éĢł": 2489,
      "åĴĮè°": 2490,
      "ï¼Įè¿Ļç§į": 2491,
      "å®½": 2492,
      "éĻĦ": 2493,
      "è´Ńä¹°": 2494,
      "xt": 2495,
      "è¸": 2496,
      "éģµ": 2497,
      "ç§»åĬ¨": 2498,
      "ä»¥ä¸ĭåĩłä¸ª": 2499,
      "æľºæŀĦ": 2500,
      "çļĦæı": 2501,
      "äººçī©": 2502,
      "ä¼ļè®®": 2503,
      "ï¼ĮéĤ£": 2504,
      "ï¼ĮçĶļèĩ³": 2505,
      "æ¨¡åĿĹ": 2506,
      "èľ": 2507,
      "ï¼ŁĊĊ": 2508,
      "é¥®é£Ł": 2509,
      "çļĦæĮĩ": 2510,
      "èį£": 2511,
      "ä¸¤ä¸ª": 2512,
      "å®Ĺ": 2513,
      "åı¯æĮģç»Ń": 2514,
      "æľ¬ä¹¦": 2515,
      "ç«¥": 2516,
      "çĶ²": 2517,
      "å¤ľ": 2518,
      "âĢĿçļĦ": 2519,
      "èķ": 2520,
      "èŃ": 2521,
      "ä¼łè¾ĵ": 2522,
      "éħ¸": 2523,
      "éĺ²æŃ¢": 2524,
      "èŃ¦": 2525,
      "ä¹ĭåīį": 2526,
      "èĻļ": 2527,
      "çļĦçľŁ": 2528,
      "èĵĿ": 2529,
      "ä»ĸäºº": 2530,
      "çĶŁæĪĲ": 2531,
      "è±Ĩ": 2532,
      "æĪĺçķ¥": 2533,
      "æ¢°": 2534,
      "åĲĪéĢĤçļĦ": 2535,
      "æĢİ": 2536,
      "è¯ķåĽ¾": 2537,
      "æŁ¥è¯¢": 2538,
      ");Ċ": 2539,
      "æ¡Ĩ": 2540,
      "è½´": 2541,
      ")Ċ": 2542,
      "Ġm": 2543,
      "éľĩ": 2544,
      "é¢ĦæľŁ": 2545,
      "ä¸įèĥ½": 2546,
      "çĽ®å½ķ": 2547,
      "ï¼ĮæĪĳä»¬éľĢè¦ģ": 2548,
      "çļĦçŁ¥è¯Ĩ": 2549,
      "Ġ```": 2550,
      "ä»·åĢ¼è§Ĥ": 2551,
      "åĨľæĿĳ": 2552,
      "è§£åĨ³æĸ¹æ¡Ī": 2553,
      "¹é¥": 2554,
      "æķĮ": 2555,
      "è·¨": 2556,
      "ï¼Įå¾": 2557,
      "æī®": 2558,
      "åŃ£": 2559,
      "ä¸¥éĩį": 2560,
      "ħåĬĽ": 2561,
      "åĬłå·¥": 2562,
      "æĬĬ": 2563,
      "åĲĮåŃ¦": 2564,
      "è·Ŀ": 2565,
      "ï¼ĮåŁ¹": 2566,
      "Java": 2567,
      "ect": 2568,
      "æĹ¢": 2569,
      "ä¹łæĥ¯": 2570,
      "è½©": 2571,
      "æĶ¶åħ¥": 2572,
      "çļĦæĬĢæľ¯": 2573,
      "çŃ¾": 2574,
      "çĹĽ": 2575,
      "æĶ¾å¼ĥ": 2576,
      "åĴĮè°Ĳ": 2577,
      "æľĿ": 2578,
      "çİī": 2579,
      "ç½Ĺ": 2580,
      "èģĮä¸ļçĶŁæ¶¯": 2581,
      "èµı": 2582,
      "çĭ¬ç«ĭ": 2583,
      "æĶ¶éĽĨ": 2584,
      "å·¥èīº": 2585,
      "åĮºåŁŁ": 2586,
      "ç»ĵè®º": 2587,
      "è§£åĨ³éĹ®é¢ĺ": 2588,
      "äºĭä¸ļ": 2589,
      "¹é¥ª": 2590,
      "çİ¯èĬĤ": 2591,
      "åĨ²çªģ": 2592,
      "è¡¨æ¼Ķ": 2593,
      "çĸ«": 2594,
      "ï¼Īå¦Ĥ": 2595,
      "ï¼Įå½ĵ": 2596,
      "æĹĭ": 2597,
      "çĽ¸å¯¹": 2598,
      "ï¼Įåħ±åĲĮ": 2599,
      "èį¯çī©": 2600,
      "éª¨": 2601,
      "å¡ĳ": 2602,
      "ç§Ģ": 2603,
      "ï¼ĮçĶ¨": 2604,
      "ãĢĤåĽłæŃ¤": 2605,
      "åįł": 2606,
      "ĠæĢ»ç»ĵ": 2607,
      "çļĦå°ı": 2608,
      "åĪĨéħį": 2609,
      "è¿İ": 2610,
      "åĬ¨ä½ľ": 2611,
      "è¾¾åĪ°": 2612,
      "ï¼ĮåŁ¹åħ»": 2613,
      "å½Ĵ": 2614,
      "èĦĤ": 2615,
      "äººçĶŁ": 2616,
      "æŀĦå»º": 2617,
      "èī¯å¥½": 2618,
      "çļĦåŁºæľ¬æ¦Ĥå¿µ": 2619,
      "ç´§å¼ł": 2620,
      "åĵ²åŃ¦": 2621,
      "æ¯į": 2622,
      "æīĭæ®µ": 2623,
      "il": 2624,
      "å´": 2625,
      "å¤§åŃ¦": 2626,
      "ç»ĵæĿŁ": 2627,
      "åĪļ": 2628,
      "ç§ģ": 2629,
      "çļĦæ¢": 2630,
      "å½ĵåľ°": 2631,
      "èĻ«": 2632,
      "ä»ĺ": 2633,
      "éĢ»": 2634,
      "çľĭåĪ°äºĨ": 2635,
      "è®¾å®ļ": 2636,
      "ä¹Łæĺ¯": 2637,
      "åħ·æľīéĩįè¦ģ": 2638,
      "ĠæŃ¥éª¤": 2639,
      "ä»Ķ": 2640,
      "ç»ĦæĪĲéĥ¨åĪĨ": 2641,
      "ä¸ĩ": 2642,
      "åħĪçĶŁ": 2643,
      "åłĤ": 2644,
      "ut": 2645,
      "ç§ĳçłĶ": 2646,
      "éĺ²å®Ī": 2647,
      "éĶĢåĶ®": 2648,
      "ä¸ºä»Ģä¹Ī": 2649,
      "åĪ¶åº¦": 2650,
      "åľ°çĲĨ": 2651,
      "é¡ºåĪ©": 2652,
      "ä¼łéĢĴ": 2653,
      "çº¸": 2654,
      "çļĦè®¾è®¡": 2655,
      "åľ¨è¿Ļ": 2656,
      "éĹ»": 2657,
      "æĥĳ": 2658,
      "æ¿ĢåĬ±": 2659,
      "è½®": 2660,
      "ä¼Ł": 2661,
      "æĸĩåŃĹ": 2662,
      "è§ĦèĮĥ": 2663,
      "äº§çĶŁäºĨ": 2664,
      "ï¼ĮåºĶ": 2665,
      "ç½ĳç«Ļ": 2666,
      "èĽĭçĻ½": 2667,
      "æ°¸": 2668,
      "çļĦæķĻèĤ²": 2669,
      "ç¥Ŀ": 2670,
      "çļĦæĺ¯": 2671,
      "çļĦå®īåħ¨": 2672,
      "å·ŀ": 2673,
      "éľ²": 2674,
      "ä¾ĽåºĶ": 2675,
      "å¼ºè°ĥ": 2676,
      "åĮ»çĶŁ": 2677,
      "ç¿»": 2678,
      "ĠM": 2679,
      "æĽ¾": 2680,
      "è·Ł": 2681,
      "ï¼ĮéĢīæĭ©": 2682,
      "åĪĨä¸º": 2683,
      "æ··": 2684,
      "æ¶¦": 2685,
      "ï¼Įçľ¼": 2686,
      "æķı": 2687,
      "ç»ıæµİåıĳå±ķ": 2688,
      "åĬ¨åĬĽ": 2689,
      "ï¼Įå¯¼": 2690,
      "å¤įæĿĤçļĦ": 2691,
      "åľ¨äºİ": 2692,
      "è±¡å¾ģ": 2693,
      "åı¤èĢģ": 2694,
      "ï¼Įä½łåı¯ä»¥": 2695,
      "éĥ½ä¼ļ": 2696,
      "um": 2697,
      "ä»ĸåľ¨": 2698,
      "å»¶": 2699,
      "ç¼©": 2700,
      "ä¸įæĺ¯": 2701,
      "é«ĺåº¦": 2702,
      "æ®Ĭ": 2703,
      "æĢİä¹Ī": 2704,
      "çº³": 2705,
      "åĭĩæ°Ķ": 2706,
      "èĩªçĶ±": 2707,
      "ĠĠĠĠĠĠ": 2708,
      "åĢŁ": 2709,
      "ç¬¦åĲĪ": 2710,
      "ï¼Įå½¢": 2711,
      "èī²å½©": 2712,
      "ï¼Įå¢ŀå¼º": 2713,
      "ĭåĬ¿": 2714,
      "çĿ£": 2715,
      "è¯ĳ": 2716,
      "å¯¹è±¡": 2717,
      "éĢļè¿ĩä»¥ä¸Ĭ": 2718,
      "æľºæ¢°": 2719,
      "ä¸»ä¹ī": 2720,
      "å°±æĺ¯": 2721,
      "åĨĻä½ľ": 2722,
      "å±ķç¤ºäºĨ": 2723,
      "Ġ//": 2724,
      "çļĦéľĢæ±Ĥ": 2725,
      "æ¬£": 2726,
      "ï¼ĮèĢĮæĺ¯": 2727,
      "æıĲé«ĺäºĨ": 2728,
      "æ¯ıå¤©": 2729,
      "å®£": 2730,
      "ç©¿": 2731,
      "æĦŁåıĹ": 2732,
      "ä»Ķç»Ĩ": 2733,
      "ï¼Įä¾ĭå¦Ĥ": 2734,
      "æ·±åħ¥çłĶç©¶": 2735,
      "è¯Ħä»·": 2736,
      "åħ¬ä¼Ĺ": 2737,
      "éĽ¶": 2738,
      "łå®ļ": 2739,
      "çī¹æ®Ĭ": 2740,
      "ãĢĤä»ĸåĨ³å®ļ": 2741,
      "éĢĲæŃ¥": 2742,
      "èĭ±è¯Ń": 2743,
      "ï¼Įå±ķ": 2744,
      "çļĦæĶ¯": 2745,
      "ä¿®æĶ¹": 2746,
      "çļĦä¸Ģä¸ª": 2747,
      "æľīéĻĲ": 2748,
      "éĴŁ": 2749,
      "æ´Ĺ": 2750,
      "ï¼Įè¿Ļä¸ª": 2751,
      "çļĦå®ļä¹ī": 2752,
      "æľ¬æķĻç¨ĭ": 2753,
      "ä¿¡å¿µ": 2754,
      "æ£Ģæµĭ": 2755,
      "æīĵä¸ĭ": 2756,
      "ç®ĢåįķçļĦ": 2757,
      "éĢ»è¾ĳ": 2758,
      "å¥łå®ļ": 2759,
      "åĿı": 2760,
      "ï¼Įä¸İ": 2761,
      "æĬ¥åĳĬ": 2762,
      "Ġ\\(": 2763,
      "ä½ĵçİ°åľ¨": 2764,
      "çıŃ": 2765,
      "¢å¤į": 2766,
      "æĪĲåĪĨ": 2767,
      "çļĦç®": 2768,
      "äººæ°ĳ": 2769,
      "åĳĺå·¥": 2770,
      "Ġå¼ķè¨Ģ": 2771,
      "ä¹ħ": 2772,
      "çĿĽ": 2773,
      "æ±¡": 2774,
      "åĵģè´¨": 2775,
      "å¼ķèµ·": 2776,
      "ç§¯ç´¯": 2777,
      "æĦŁåĴĮ": 2778,
      "åĿĢ": 2779,
      "æĿĳåºĦ": 2780,
      "çļĦæĹ¶éĹ´": 2781,
      "çļĦç¾": 2782,
      "æĸĩæľ¬": 2783,
      "åıĸå¾ĹäºĨ": 2784,
      "æ´ĭ": 2785,
      "æīĭæľº": 2786,
      "æ®ĸ": 2787,
      "çĪ¶": 2788,
      "åľ°æĸ¹": 2789,
      "åĬłå¼º": 2790,
      "èļ": 2791,
      "æĻ°": 2792,
      "è¶ĭåĬ¿": 2793,
      "ãĢĭä¸Ń": 2794,
      "å¥ĸ": 2795,
      "æłĩé¢ĺ": 2796,
      "è§ĤçĤ¹": 2797,
      "ï¼Įå¿ĥä¸Ńåħħæ»¡äºĨ": 2798,
      "lic": 2799,
      "å¯¹è¯Ŀ": 2800,
      "ï¼Įå°¤åħ¶": 2801,
      "æ¯Ķå¦Ĥ": 2802,
      "ç¯ĩ": 2803,
      "èıĮ": 2804,
      "çļĦæĸĩåĮĸ": 2805,
      "å¸ĥå±Ģ": 2806,
      "é¸Ł": 2807,
      "æıŃç¤º": 2808,
      "ur": 2809,
      "åľ¨çº¿": 2810,
      "æĹ¶ä»£": 2811,
      "è°ĥæŁ¥": 2812,
      "å·®å¼Ĥ": 2813,
      "çĻ¾": 2814,
      "ï¼Įçī¹åĪ«": 2815,
      "çľŁçļĦ": 2816,
      "å¾Ģå¾Ģ": 2817,
      "åŃĹç¬¦": 2818,
      "é£Łçī©": 2819,
      "ID": 2820,
      "æĩ": 2821,
      "ä¼ĺç§Ģ": 2822,
      "çļĦæĻº": 2823,
      "åĿļå®ŀçļĦåŁºç¡Ģ": 2824,
      "è¯Ĭ": 2825,
      "åı¯éĿł": 2826,
      "ä¿¡å¿ĥ": 2827,
      "è§ĦåĪĻ": 2828,
      "å¾Īå¤ļ": 2829,
      "çļĦçģ": 2830,
      "çī¹æĢ§": 2831,
      "ï¼Įä½Ĩä»ĸ": 2832,
      "ç»Ħä»¶": 2833,
      "æĢĢ": 2834,
      "çļĦè¿ĩç¨ĭ": 2835,
      "é¢Ħæµĭ": 2836,
      "æī®æ¼Ķ": 2837,
      "æĿ¥æºĲ": 2838,
      "ç¡¬": 2839,
      "æ·±è¿ľ": 2840,
      "éĤ®": 2841,
      "ä¸įè¶³": 2842,
      "ä¸ºä¾ĭ": 2843,
      "æıĲåĩº": 2844,
      "æľīæķĪåľ°": 2845,
      "èĥ½éĩı": 2846,
      "æģ¢å¤į": 2847,
      "åĲĦä¸ª": 2848,
      "æīĵå¼Ģ": 2849,
      "ãĢĤä½Ĩ": 2850,
      "åľ°éĹ®": 2851,
      "åĲĮæł·": 2852,
      "æľĢä½³": 2853,
      "å®ŀæĹ¶": 2854,
      "çļĦæ¢¦æĥ³": 2855,
      "ä¿¡ä»»": 2856,
      "æĢģåº¦": 2857,
      "ï¼Įå½¢æĪĲ": 2858,
      "con": 2859,
      "Ġre": 2860,
      "ä½łä»¬": 2861,
      "è®©æĪĳä»¬": 2862,
      "æī©å±ķ": 2863,
      "è·³": 2864,
      "å°½ç®¡": 2865,
      "åĴĮåºĶçĶ¨": 2866,
      "éĻ·": 2867,
      "ï¼Įåį³": 2868,
      "çĶ³": 2869,
      "çİ¯å¢ĥä¸Ń": 2870,
      "èģĶç½ĳ": 2871,
      "çļĦä½¿çĶ¨": 2872,
      "ï¼Įå¯¼èĩ´": 2873,
      "æĥħç»ª": 2874,
      "ver": 2875,
      "åĴĮç®¡çĲĨ": 2876,
      "æį·": 2877,
      "åĩºèī²": 2878,
      "æĤ¨çļĦ": 2879,
      "è¿ĲåĬ¨åĳĺ": 2880,
      "ç¤¼": 2881,
      "åºĶçĶ¨äºİ": 2882,
      "ï¼ĮæĽ´æĺ¯ä¸Ģç§į": 2883,
      "å¹ķ": 2884,
      "å®īæİĴ": 2885,
      "è½¬æį¢": 2886,
      "Ġb": 2887,
      "çļĦç«": 2888,
      "çĦ¦": 2889,
      "æĸĩåĮĸçļĦ": 2890,
      "In": 2891,
      "çļĦä½ľçĶ¨": 2892,
      "èµŀ": 2893,
      "éĢĤçĶ¨äºİ": 2894,
      "é¥°": 2895,
      "è¡£": 2896,
      "ï¼Įå¹¶åľ¨": 2897,
      "æİ¥åıĹ": 2898,
      "ä¸ĵå®¶": 2899,
      "æ¢¦": 2900,
      "åĽ¢éĺŁåĲĪä½ľ": 2901,
      "åįĵ": 2902,
      "ä»ĸä»¬åľ¨": 2903,
      "èµĦéĩĳ": 2904,
      "è¿ĲèĲ¥": 2905,
      "ä½ĵçİ°äºĨ": 2906,
      "eb": 2907,
      "ï¼Įåħ·æľī": 2908,
      "è®ºæĸĩ": 2909,
      "çĥ§": 2910,
      "åħµ": 2911,
      "åĨ³å¿ĥ": 2912,
      "çļĦèĥ½åĬĽ": 2913,
      "æ´²": 2914,
      "ï¼īï¼Į": 2915,
      "ç´łåħ»": 2916,
      "ç¢İ": 2917,
      "Ġth": 2918,
      "ï¼ĮæĹłè®º": 2919,
      "è®¤çŁ¥": 2920,
      "ä»¿ä½Ľ": 2921,
      "çİ¯ä¿Ŀ": 2922,
      "èģĮä¸ļåıĳå±ķ": 2923,
      "ĠD": 2924,
      "åĨ°": 2925,
      "èµ¢": 2926,
      "ï¼Įä»¥ç¡®ä¿Ŀ": 2927,
      "åįıä½ľ": 2928,
      "ä¸ĢåĲį": 2929,
      "ï¼Įå®ĥä»¬": 2930,
      "ç¨³å®ļæĢ§": 2931,
      "ol": 2932,
      "å®ŀçĶ¨": 2933,
      "æ±½": 2934,
      "è·ĳ": 2935,
      "åķĨåĵģ": 2936,
      "ä¸ªä½ĵ": 2937,
      "éĹŃ": 2938,
      "è¾ĵåĩº": 2939,
      "è¯´æĺİ": 2940,
      "æ¸ħæĻ°": 2941,
      "per": 2942,
      "åı¯æĮģç»Ńåıĳå±ķ": 2943,
      "=\"": 2944,
      "ä¸įä»ħæľīåĬ©äºİ": 2945,
      "å®ļä½į": 2946,
      "èĩªèº«": 2947,
      "ĠæķĻç¨ĭ": 2948,
      "çĶ°": 2949,
      "æ·±åħ¥äºĨè§£": 2950,
      "æĪĳåĽ½": 2951,
      "æ¼«": 2952,
      "Ġç¬¬äºĮ": 2953,
      "éŃħåĬĽ": 2954,
      "¤Ĳ": 2955,
      "å®¹æĺĵ": 2956,
      "æİ¨å¹¿": 2957,
      "ĠR": 2958,
      "Ġ```ĊĊ": 2959,
      "å¦Ĥä½ķåľ¨": 2960,
      "åħĪè¿Ľ": 2961,
      "è®°å¿Ĩ": 2962,
      "æķ¬": 2963,
      "æīĺ": 2964,
      "èĤ¥": 2965,
      "åĨħæ¶µ": 2966,
      "æĹ¥å¸¸çĶŁæ´»ä¸Ń": 2967,
      "çŃīæĸ¹éĿ¢": 2968,
      "åģı": 2969,
      "ĽåĽ´": 2970,
      "æľºåĻ¨": 2971,
      "æµĭéĩı": 2972,
      "ass": 2973,
      "QL": 2974,
      "ï¼Įè¦ģ": 2975,
      "ãĢĤå¸ĮæľĽ": 2976,
      "æ£®": 2977,
      "ãĢĤå¯¹äºİ": 2978,
      "å°ļ": 2979,
      "ç¼ĸåĨĻ": 2980,
      "æĳĦå½±": 2981,
      "Ġt": 2982,
      "å¯¹æīĭ": 2983,
      "çİ°åľ¨": 2984,
      "ort": 2985,
      "æ¢ħ": 2986,
      "æļĹ": 2987,
      "çļĦç¾İ": 2988,
      "ul": 2989,
      "ï¼ĮçĶ¨äºİ": 2990,
      "ä¸ĸçºª": 2991,
      "è¿Ľç¨ĭ": 2992,
      "ç«¹": 2993,
      "çļĦæĦŁ": 2994,
      "ç£ģ": 2995,
      "cri": 2996,
      "ew": 2997,
      "ml": 2998,
      "æĭ¿": 2999,
      "æĺ¥": 3000,
      "éĢĢ": 3001,
      "åħ´å¥ĭ": 3002,
      "Sp": 3003,
      "çĽ¸äºĴ": 3004,
      "ï¼Įä»¥ä¾¿": 3005,
      "ç§¯æŀģåıĤä¸İ": 3006,
      "li": 3007,
      "ä¼łè¾¾": 3008,
      "éī": 3009,
      "ï¼Įå¸ĮæľĽ": 3010,
      "éī´": 3011,
      "èĤĮ": 3012,
      "çĬ¶åĨµ": 3013,
      "æħ¢": 3014,
      "æķĳ": 3015,
      "ä¸ĭè½½": 3016,
      "åħ¥äºĨ": 3017,
      "æŃ£å¸¸": 3018,
      "åĺ": 3019,
      "åĴĮæĮĳæĪĺ": 3020,
      "å¿ħè¦ģ": 3021,
      "å¼ºå¤§çļĦ": 3022,
      "æ¦Ĥ": 3023,
      "çļĦçĪ": 3024,
      "è¿ĽæĶ»": 3025,
      "éĥ½èĥ½": 3026,
      "å¼¹": 3027,
      "çļĦçĭ": 3028,
      "æĭįæĳĦ": 3029,
      "çļĦåĬªåĬĽ": 3030,
      "èĥŀ": 3031,
      "èĦ±": 3032,
      "æ¯ĶèµĽä¸Ń": 3033,
      "çļĦæĶ¯æĮģ": 3034,
      "åħ¶ä¸Ń": 3035,
      "æ°ĳæĹı": 3036,
      "çķĮéĿ¢": 3037,
      "èĢģå¸Ī": 3038,
      "ï¼ĮæĿİæĺİ": 3039,
      "å¸¦æĿ¥äºĨ": 3040,
      "ç»ĺçĶ»": 3041,
      "cript": 3042,
      "å¹ħ": 3043,
      "æ¹¿": 3044,
      "çļĦç¼": 3045,
      "å¢¨": 3046,
      "å£¤": 3047,
      "ä½Ļ": 3048,
      "æĹ¶åĢĻ": 3049,
      "tp": 3050,
      "±¼": 3051,
      "ĠN": 3052,
      "åľ¨çİ°ä»£": 3053,
      "æĸĩçĮ®": 3054,
      "Ġç¬¬ä¸ī": 3055,
      "St": 3056,
      "ĠE": 3057,
      "çļĦçī¹çĤ¹": 3058,
      "ä¸ŃåĮ»": 3059,
      "ï¼Įåİ": 3060,
      "å¿ĥæĢģ": 3061,
      "èĭ¦": 3062,
      "é±¼": 3063,
      "åľ¨è¿Ļä¸ª": 3064,
      "äº¤æĺĵ": 3065,
      "è¯įæ±ĩ": 3066,
      "è®¤è¯ĨåĪ°": 3067,
      "æıĴ": 3068,
      "æĪĸèĢħ": 3069,
      "ï¼Įä¹Łæĺ¯": 3070,
      "ä¼łè¯´": 3071,
      "ä¸įä¼ļ": 3072,
      "ä¸ªæĢ§": 3073,
      "ĠF": 3074,
      "å¸¸è§ģçļĦ": 3075,
      "æµĵ": 3076,
      "åĦ¿ç«¥": 3077,
      "Ġ(": 3078,
      "è¡¨éĿ¢": 3079,
      "çļĦæ¯ı": 3080,
      "ĠT": 3081,
      "ä¼´": 3082,
      "çļĦçĹ": 3083,
      "åŃ¦ä¼ļäºĨ": 3084,
      "di": 3085,
      "łéģĵ": 3086,
      "å¥Ĺ": 3087,
      "èµ·æºĲ": 3088,
      "çĥ¹é¥ª": 3089,
      "å½ĵåīį": 3090,
      "çĩĥ": 3091,
      "ation": 3092,
      "çĪ±æĥħ": 3093,
      "åľŁå£¤": 3094,
      "çĶµèĦĳ": 3095,
      "æ¢ģ": 3096,
      "ä¸ŃåŃ¦çĶŁæĿ¥è¯´": 3097,
      "äººä½ĵ": 3098,
      "éģĩåĪ°äºĨ": 3099,
      "åľĨ": 3100,
      "æī¬": 3101,
      "å¹¶æ²¡æľī": 3102,
      "é¡¹çĽ®çļĦ": 3103,
      "çĻ»": 3104,
      "ç«ŀäºīåĬĽ": 3105,
      "è·¯å¾Ħ": 3106,
      "è¯·æ±Ĥ": 3107,
      "åĲ¯åĬ¨": 3108,
      "çļĦä¿¡æģ¯": 3109,
      "æł¸å¿ĥ": 3110,
      "åıĺéĩı": 3111,
      "ï¼Įä¿ĥè¿Ľ": 3112,
      "åĴĮåıĳå±ķ": 3113,
      "å¯¹æĸ¹": 3114,
      "çªĹ": 3115,
      "é¢Ħéĺ²": 3116,
      "å¼Ĥå¸¸": 3117,
      "ç¨ĭåº¦": 3118,
      "æŁĲäºĽ": 3119,
      "æ¥¼": 3120,
      "act": 3121,
      "name": 3122,
      "é¤Ĳ": 3123,
      "ä»Ģä¹Īæĺ¯": 3124,
      "å®ŀéªĮå®¤": 3125,
      "ï¼Įåıªæľī": 3126,
      "Ġ*": 3127,
      "çļĦæ´": 3128,
      "ï¼Įè¯ķåĽ¾": 3129,
      "æķ°éĩı": 3130,
      "ï¼Įå¯¹äºİ": 3131,
      "ile": 3132,
      "ä¸Ģæł·": 3133,
      "è´¦": 3134,
      "èĥ½å¤Łåľ¨": 3135,
      "åĸľæ¬¢": 3136,
      "ï¼ĮæľĢç»Ī": 3137,
      "åĴĮå®ŀè·µ": 3138,
      "æĺ¯çļĦ": 3139,
      "å¦Ļ": 3140,
      "our": 3141,
      "åİ¿": 3142,
      "ä¸¥æł¼": 3143,
      "è°Ī": 3144,
      "æľŁå¾ħ": 3145,
      "éĽ¨": 3146,
      "è§Ĵåº¦": 3147,
      "èĸ": 3148,
      "å¤§å°ı": 3149,
      "ç»Ĩèĥŀ": 3150,
      "çŁ©": 3151,
      "å¤±è´¥": 3152,
      "éĺ»": 3153,
      "æĪĺäºī": 3154,
      "æľĢå¤§": 3155,
      "å¼±": 3156,
      "æľīäºĽ": 3157,
      "çīĪæľ¬": 3158,
      "åħ¶åľ¨": 3159,
      "å¡Ķ": 3160,
      "èµ¢å¾Ĺ": 3161,
      "ãĢĤæ¯ı": 3162,
      "çľŁå®ŀ": 3163,
      "SQL": 3164,
      "çī©æµģ": 3165,
      "æĬĢæľ¯çļĦ": 3166,
      "and": 3167,
      "ãĢĤå½ĵ": 3168,
      "æĢ»çļĦ": 3169,
      "èĶ¬": 3170,
      "åŃ¦ç§ĳ": 3171,
      "çļĦæ¼": 3172,
      "ä¿±ä¹Ĳ": 3173,
      "æĦŁåıĹåĪ°": 3174,
      "ä¿±ä¹Ĳéĥ¨": 3175,
      "æīĢéľĢ": 3176,
      "èĪĴ": 3177,
      "çĪ±å¥½": 3178,
      "æľīä¸Ģä¸ª": 3179,
      "åĭĩæķ¢": 3180,
      "çļĦæ°´": 3181,
      "çĶ³è¯·": 3182,
      "ï¼Įå»": 3183,
      "éĽħ": 3184,
      "èĨľ": 3185,
      "æľīäºĨ": 3186,
      "æ·±çŁ¥": 3187,
      "èĬĤå¥ı": 3188,
      "åı¯èĥ½å¯¼èĩ´": 3189,
      "åĲįåı«": 3190,
      "æĲľ": 3191,
      "çĹĩçĬ¶": 3192,
      "è§īå¾Ĺ": 3193,
      "å®Ŀè´µçļĦ": 3194,
      "æĢ»çļĦæĿ¥è¯´": 3195,
      "å±ı": 3196,
      "å¥¶": 3197,
      "çĤĴ": 3198,
      "ç¤¾ä¼ļçļĦ": 3199,
      "åĶ±": 3200,
      "çļĦåĨħå®¹": 3201,
      "ä¸įåĪ°": 3202,
      "è¡ĮæĶ¿": 3203,
      "çªģçł´": 3204,
      "ä¸ĥ": 3205,
      "æĿ¥è¶Ĭ": 3206,
      "åŁºäºİ": 3207,
      "è§Ħæ¨¡": 3208,
      "å¤«": 3209,
      "è¯ģæĺİ": 3210,
      "è¶ĬæĿ¥è¶Ĭ": 3211,
      "ck": 3212,
      "åĨĴ": 3213,
      "ä¸ļåĬ¡": 3214,
      "é¸£": 3215,
      "Ġ'": 3216,
      "ï¼Įéĥ½": 3217,
      "å¯¹æ¯Ķ": 3218,
      "æļĸ": 3219,
      "ash": 3220,
      "éĴĪå¯¹": 3221,
      "å®£ä¼ł": 3222,
      "è¿ģ": 3223,
      "åĬ¨çĶ»": 3224,
      "èĶ¬èıľ": 3225,
      "ä¸ŃéĹª": 3226,
      "çļĦç¥": 3227,
      "çĽ¸åºĶ": 3228,
      "æŁ¥çľĭ": 3229,
      "è²": 3230,
      "åĳ¼åĲ¸": 3231,
      "ãĢĤéļıçĿĢ": 3232,
      "ãĢĤä»ĸçŁ¥éģĵ": 3233,
      "éĻĲåĪ¶": 3234,
      "åįĵè¶Ĭ": 3235,
      "åĨĮ": 3236,
      "æĢ§æł¼": 3237,
      "äºĭé¡¹": 3238,
      "è¿Ľè¡ĮäºĨ": 3239,
      "æľīæķĪçļĦ": 3240,
      "ï¼Įä¿ĿæĮģ": 3241,
      "éĢ¸": 3242,
      "çī¹èī²": 3243,
      "å®ŀéĻħæĵįä½ľ": 3244,
      "æħ¨": 3245,
      "Ġ}Ċ": 3246,
      "ï¼Įä¸ŃåŃ¦çĶŁåı¯ä»¥": 3247,
      "ç¾İåĽ½": 3248,
      "(\"": 3249,
      "åĪĢ": 3250,
      "éĩįè¦ģä½ľçĶ¨": 3251,
      "ç»Łè®¡": 3252,
      "å®Įåħ¨": 3253,
      "å¼ĢåıĳèĢħ": 3254,
      "åĨįæ¬¡": 3255,
      "age": 3256,
      "å¿½": 3257,
      "çļĦæİ¢": 3258,
      "åľŁåľ°": 3259,
      "ç£¨": 3260,
      "å®Ļ": 3261,
      "éĥ¨éĹ¨": 3262,
      "ï¼Įä½¿çĶ¨": 3263,
      "åŃ¦èĢħ": 3264,
      "èĦī": 3265,
      "å®ĩå®Ļ": 3266,
      "HT": 3267,
      "çĲ´": 3268,
      "çĽĲ": 3269,
      "åĲİç»Ń": 3270,
      "çŁ¥åĲį": 3271,
      "éĴ¢": 3272,
      "åįıè°ĥ": 3273,
      "æľŁéĹ´": 3274,
      "ode": 3275,
      "çļĦåħī": 3276,
      "ä¸Ģç³»åĪĹ": 3277,
      "çļĦç²¾ç¥ŀ": 3278,
      "\\)": 3279,
      "è°ĥèĬĤ": 3280,
      "çļĦæīĭ": 3281,
      "çıį": 3282,
      "å®¶éķ¿": 3283,
      "ç«ĭåĪ»": 3284,
      "ä¸ĵæ³¨": 3285,
      "å²©": 3286,
      "æĲŃ": 3287,
      "ï¼Įåıĳçİ°": 3288,
      "äººæīį": 3289,
      "æĸĩæ¡£": 3290,
      "åĽ½åĨħ": 3291,
      "æķħéļľ": 3292,
      "ç¢³": 3293,
      "ä»įçĦ¶": 3294,
      "æİ¢éĻ©": 3295,
      "çļĦæĥħåĨµ": 3296,
      "ss": 3297,
      "é¹": 3298,
      "èĥ¶": 3299,
      "è§£æŀĲ": 3300,
      "éĶ»": 3301,
      "æıĲåįĩäºĨ": 3302,
      "çŀ": 3303,
      "åĨľæ°ĳ": 3304,
      "æĦ¿æĦı": 3305,
      "çĽĳçĿ£": 3306,
      "ï¼ĮåŃ¦çĶŁåı¯ä»¥": 3307,
      "Python": 3308,
      "å®ģ": 3309,
      "æĺİçĻ½äºĨ": 3310,
      "ï¼ĮåĲĮæĹ¶ä¹Ł": 3311,
      "åıªæľī": 3312,
      "çļĦè¿ĩç¨ĭä¸Ń": 3313,
      "æĪĲä¸ºäºĨ": 3314,
      "ç¼ĸè¾ĳ": 3315,
      "åħĭæľį": 3316,
      "ä¸Ģèĩ´": 3317,
      "ä¹ı": 3318,
      "çĲĨè§£åĴĮ": 3319,
      "åı£æ°Ķ": 3320,
      "æĿ¥çļĦ": 3321,
      "åİĨç¨ĭ": 3322,
      "ä¿®å¤į": 3323,
      "ä¸¤äºº": 3324,
      "æ¯Ľ": 3325,
      "èĬĴ": 3326,
      "ç«ĭåį³": 3327,
      "éĶ»çĤ¼": 3328,
      "åıĳå¸ĥ": 3329,
      "ä¿Ŀè¯ģ": 3330,
      "åºĨ": 3331,
      "åĩĿ": 3332,
      "è´Ŀ": 3333,
      "éĶģ": 3334,
      "å¦Ĥä½ķéĢļè¿ĩ": 3335,
      "çļĦæĦıä¹ī": 3336,
      "gin": 3337,
      "Ġ+": 3338,
      "ï¼ĮéļıçĿĢ": 3339,
      "åĵª": 3340,
      "åįĥ": 3341,
      "æĮ¯": 3342,
      "æ¡Ĩæŀ¶": 3343,
      "æ³ķè§Ħ": 3344,
      "æ·±åħ¥è§£éĩĬ": 3345,
      "æ³µ": 3346,
      "æĽ´å¤ļçļĦäºº": 3347,
      "å¤ļæ¬¡": 3348,
      "åħ±äº«": 3349,
      "æĳĩ": 3350,
      "è·Ŀç¦»": 3351,
      "å·¦": 3352,
      "éĺ´": 3353,
      "çļĦæ¼Ķ": 3354,
      "çĶŁæ´»ä¸ŃçļĦ": 3355,
      "åĪ¤æĸŃ": 3356,
      "æĢĿè¿ľ": 3357,
      "Ġst": 3358,
      "å°º": 3359,
      "è®©æĪĳ": 3360,
      "ï¼Įè¯´": 3361,
      "è¿Ĳè¾ĵ": 3362,
      "è®¤åı¯": 3363,
      "la": 3364,
      "æ³¡": 3365,
      "æĸ¹ä¾¿": 3366,
      "æ²»çĲĨ": 3367,
      "Ġç»ĵè®º": 3368,
      "çĶŁåĬ¨": 3369,
      "æĸĩç«ł": 3370,
      "å½¢çĬ¶": 3371,
      "éĢłæĪĲ": 3372,
      "é¢Ħç®Ĺ": 3373,
      "ack": 3374,
      "im": 3375,
      "ĠG": 3376,
      "åľ°çĲĥ": 3377,
      "éĢļè¿ĩè¿ĻäºĽ": 3378,
      "ä½ľä¸ºä¸Ģç§į": 3379,
      "å±ħä½ı": 3380,
      "çļĦæ¸¸": 3381,
      "ãĢĤä½ł": 3382,
      "æıĲåıĸ": 3383,
      "è®°ä½ı": 3384,
      "æ³½": 3385,
      "ç¬¦åı·": 3386,
      "ä¸ŃåŃ¦": 3387,
      "¡èĲ": 3388,
      "ï¼Įæİ¨åĬ¨": 3389,
      "æĽ´æ·±åħ¥": 3390,
      "éĩĮçļĦ": 3391,
      "è¸ª": 3392,
      "äºĪ": 3393,
      "äºĨå¤§éĩı": 3394,
      "æĿ¥èĩª": 3395,
      "ĠĠĠĠĠ": 3396,
      "çļĦçĭ¬": 3397,
      "ï¼ĮåĪĨæŀĲ": 3398,
      "ï¼ĮæŀĹ": 3399,
      "çĶŁç´ł": 3400,
      "çĪ·": 3401,
      "èģĮè´£": 3402,
      "èĨĢ": 3403,
      "éŃĶ": 3404,
      "çļĦæĻºæħ§": 3405,
      "å§Ķ": 3406,
      "æĢ»æĺ¯": 3407,
      "æŁ±": 3408,
      "æĹħæ¸¸": 3409,
      ",Ċ": 3410,
      "çļĦçĽ®æłĩ": 3411,
      "å°ıè¯´": 3412,
      "æĦŁæħ¨": 3413,
      "åĨ·éĿĻ": 3414,
      "çļĦéĩįè¦ģç»ĦæĪĲéĥ¨åĪĨ": 3415,
      "é²ģ": 3416,
      "çļĦéĢīæĭ©": 3417,
      "ä»°": 3418,
      "ç¡®å®ŀ": 3419,
      "åĪĽæĦı": 3420,
      "ä¾¿åĪ©": 3421,
      "å±ŀäºİ": 3422,
      "åģĩè®¾": 3423,
      "ĠL": 3424,
      "åıĳéĢģ": 3425,
      "çº¿ç¨ĭ": 3426,
      "è´¨éĩıåĴĮ": 3427,
      "ç«Ļåľ¨": 3428,
      "ĠĠĠĠĠĠĠĠĠĠĠ": 3429,
      "ï¼Įå·": 3430,
      "èĢĥçĶŁ": 3431,
      "sh": 3432,
      "å°¿": 3433,
      "ç§¦": 3434,
      "æľīæīĢ": 3435,
      "éĻĨ": 3436,
      "çģ¯": 3437,
      "å®ĮåĸĦ": 3438,
      "å±ŀæĢ§": 3439,
      "ex": 3440,
      "ä¸²": 3441,
      "æ´¾": 3442,
      "éĽĦ": 3443,
      "åĪ©çĽĬ": 3444,
      "ata": 3445,
      "è½»æĿ¾": 3446,
      "æĲľç´¢": 3447,
      "æĭ³": 3448,
      "è±ª": 3449,
      "æľªçŁ¥": 3450,
      "ãĢĭï¼Į": 3451,
      "æĿ¨": 3452,
      "å¸ģ": 3453,
      "æ¬§": 3454,
      "ä½įäºİ": 3455,
      "åĪĿå§ĭ": 3456,
      "è°·": 3457,
      "è¿ĺæĺ¯": 3458,
      "éĢĤå½ĵ": 3459,
      "èĦı": 3460,
      "çļĦæĪĲåĬŁ": 3461,
      "è¿Ķ": 3462,
      "çļĦæŀ": 3463,
      "çĽĳæµĭ": 3464,
      "ï¼Įå¼Ģå§ĭ": 3465,
      "Ġä½¿çĶ¨": 3466,
      "çļĦåħ·ä½ĵ": 3467,
      "åĮ»éĻ¢": 3468,
      "`ï¼ļ": 3469,
      "ä¸ĢçĽ´": 3470,
      "ä½ľçī©": 3471,
      "é¡¶": 3472,
      "æ¿ĢåĬ¨": 3473,
      "èŀįåĲĪ": 3474,
      "èĪĴéĢĤ": 3475,
      "æ¹ĸ": 3476,
      "è¯ĬæĸŃ": 3477,
      "åį·": 3478,
      "æľ¬è¯¾ç¨ĭåįķåħĥ": 3479,
      "çĤ¹åĩ»": 3480,
      "çļĦæĵ": 3481,
      "æī°": 3482,
      "æĢ§åĪ«": 3483,
      "èĥĮåĲİ": 3484,
      "ç©ºæ°Ķ": 3485,
      "åħ·ä½ĵçļĦ": 3486,
      "é¸¡": 3487,
      "å®ĺæĸ¹": 3488,
      "ï¼ģâĢĿĊĊ": 3489,
      "èĤ¤": 3490,
      "å®Įæķ´": 3491,
      "éŁ©": 3492,
      "æ½ľåľ¨": 3493,
      "çļĦçĥŃçĪ±": 3494,
      "æ±¡æŁĵ": 3495,
      "SS": 3496,
      "èī°": 3497,
      "çĶ¨æĪ·ä½ĵéªĮ": 3498,
      "èĢĲå¿ĥ": 3499,
      "Ġåįķåħĥ": 3500,
      "é«ĺæ¸©": 3501,
      "æ¸¸æĪıä¸Ń": 3502,
      "art": 3503,
      "åħ·æľīéĩįè¦ģæĦıä¹ī": 3504,
      "ĠãĢĬ": 3505,
      "åħ¶çĭ¬çī¹çļĦ": 3506,
      "åĵįåºĶ": 3507,
      "Ġ\\)": 3508,
      "ve": 3509,
      "çļĦæİ¨": 3510,
      "ä¼ĳ": 3511,
      "éģį": 3512,
      "çº¹": 3513,
      "åı¯èĥ½æĺ¯": 3514,
      "çĽ´è§Ĥ": 3515,
      "åħ¬åı¸çļĦ": 3516,
      "å±Ĥæ¬¡": 3517,
      "å·¨å¤§": 3518,
      "http": 3519,
      "æĿĢ": 3520,
      "æĿĥéĻĲ": 3521,
      "--------": 3522,
      "çļĦæĮĩå¯¼": 3523,
      "çļĦåıĺåĮĸ": 3524,
      "è´¸": 3525,
      "ï¼Įä¸»è¦ģ": 3526,
      "è¾ĥé«ĺ": 3527,
      "æŃĮæĽ²": 3528,
      "è®¢": 3529,
      "åĽ¾ä¹¦": 3530,
      "åľ¨ä¸įåĲĮ": 3531,
      "æĺ¯ä¸Ģä½į": 3532,
      "éĤĢ": 3533,
      "äºĴèģĶç½ĳ": 3534,
      "æķĪçİĩåĴĮ": 3535,
      "çļĦçľ¼": 3536,
      "åĬĽçļĦ": 3537,
      "æŃ£åľ¨": 3538,
      "ĠW": 3539,
      "éĿ¢è¯ķ": 3540,
      "ç»ĺåĪ¶": 3541,
      "ä¼¼ä¹İ": 3542,
      "çļĦæ·±åħ¥": 3543,
      "è¿Ļæĺ¯": 3544,
      "æŃ£æĺ¯": 3545,
      "è¶³å¤Ł": 3546,
      "çĬ¯": 3547,
      "åĨ²åĩ»": 3548,
      "å¤ļæł·æĢ§": 3549,
      "æĶ»åĩ»": 3550,
      "éģµå¾ª": 3551,
      "¨è¯¢": 3552,
      "åĴ¨è¯¢": 3553,
      "çļĦæ¶": 3554,
      "éĩįè§Ĩ": 3555,
      "æ¯ıä¸Ģä¸ª": 3556,
      "å¼ķå¯¼": 3557,
      "çĶ»éĿ¢": 3558,
      "æĿĥçĽĬ": 3559,
      "è¯¦ç»ĨçļĦ": 3560,
      "çľ¼çĿĽ": 3561,
      "çļĦåľ°æĸ¹": 3562,
      "ï¼ĮéĢļå¸¸": 3563,
      "çļĦç»ıæµİ": 3564,
      "çļĦæĢ§èĥ½": 3565,
      "å¿ł": 3566,
      "å½¢æĢģ": 3567,
      "çĽ¾": 3568,
      "æķ´çĲĨ": 3569,
      "ç¬¬äºĮ": 3570,
      "åĪº": 3571,
      "ï¼ĮåĽłæŃ¤": 3572,
      "ï¼ĮæĤ¨åı¯ä»¥": 3573,
      "çĥĪçļĦ": 3574,
      "âĢĻ": 3575,
      "æĤī": 3576,
      "æ¸©åº¦": 3577,
      "åĿĲåľ¨": 3578,
      ".p": 3579,
      "æ·±åİļ": 3580,
      "èħĲ": 3581,
      "å®ĹæķĻ": 3582,
      "çļĦæ¸¸æĪı": 3583,
      "Ġin": 3584,
      "çļĦæľºä¼ļ": 3585,
      "ãĢĤå¼ł": 3586,
      "å°Ĩèĥ½å¤Ł": 3587,
      "ir": 3588,
      "è¹": 3589,
      "çļĦåħ³ç³»": 3590,
      "çĲĨæĥ³": 3591,
      "æ·±åħ¥çĲĨè§£": 3592,
      "èĦ¸": 3593,
      "åķĨåĬ¡": 3594,
      "èĩ³åħ³éĩįè¦ģçļĦ": 3595,
      "èĩªåĬ¨åĮĸ": 3596,
      "æ°§åĮĸ": 3597,
      "éĨĴ": 3598,
      "ï¼Įä»¿ä½Ľ": 3599,
      "å°±ä¸ļ": 3600,
      "æ¬£èµı": 3601,
      "Ġv": 3602,
      "ï¼Įè¿Ľè¡Į": 3603,
      "æŃ»": 3604,
      "å®¶åħ·": 3605,
      "çĶµè·¯": 3606,
      "äºĨä»ĸ": 3607,
      "çļĦæ¡": 3608,
      "åįĬ": 3609,
      "åħ¬å¹³": 3610,
      "¦Ĩ": 3611,
      "Ġa": 3612,
      "ĠçļĦ": 3613,
      "ï¼ĮåıĪ": 3614,
      "æĿ¯": 3615,
      "ç»´çĶŁç´ł": 3616,
      "ç½ĳé¡µ": 3617,
      "ç¼ºä¹ı": 3618,
      "åĮ¹": 3619,
      "éĺĶ": 3620,
      "åī¯": 3621,
      "ä¹¦ä¸Ń": 3622,
      "ç¼ĵè§£": 3623,
      "å·¨å¤§çļĦ": 3624,
      "://": 3625,
      ";ĊĊ": 3626,
      "</": 3627,
      "op": 3628,
      "ï¼ĮçĶ¨æĪ·": 3629,
      "æľ«": 3630,
      "åĢ¾": 3631,
      "éĽĨä¸Ń": 3632,
      "çļĦæıĲ": 3633,
      "ç»Ŀ": 3634,
      "æĦıå¤ĸ": 3635,
      "æĹ¥æľ¬": 3636,
      "å¢ŀéķ¿": 3637,
      "ä¸´åºĬ": 3638,
      "ï¼Įå»º": 3639,
      "åŃĶ": 3640,
      "âĢĺ": 3641,
      "è¾ī": 3642,
      "è§Ĥçľĭ": 3643,
      "çĨŁæĤī": 3644,
      "IN": 3645,
      "å®¶æĹı": 3646,
      "éĴ±": 3647,
      "æĻ®éĢļ": 3648,
      "åľ°çĲĨè§£": 3649,
      "ç»ıåħ¸": 3650,
      "åħ¬åĽŃ": 3651,
      "éĩĳå±ŀ": 3652,
      "åŃ©åŃĲä»¬": 3653,
      "è°¢è°¢": 3654,
      "åıĺå¾ĹæĽ´åĬł": 3655,
      "ser": 3656,
      "em": 3657,
      "çķħ": 3658,
      "ï¼Įä»İèĢĮæıĲé«ĺ": 3659,
      "åĶĲ": 3660,
      "çļĦç®¡": 3661,
      "æįķ": 3662,
      "ç»ıéªĮåĴĮ": 3663,
      "éļĲèĹı": 3664,
      "éŁ§": 3665,
      "ime": 3666,
      "éĹ®éģĵ": 3667,
      "èĽĭçĻ½è´¨": 3668,
      "è¿«": 3669,
      "å®«": 3670,
      "ï¼Įåı¯ä»¥å¸®åĬ©": 3671,
      "çļĦæ²»": 3672,
      "èķ´": 3673,
      "çļĦæĵįä½ľ": 3674,
      "ï¼Įè¿Ļæĺ¯": 3675,
      "è¿ĩç¨ĭä¸ŃçļĦ": 3676,
      "ï¼ĮæĪĳä»¬åı¯ä»¥çľĭåĪ°": 3677,
      "éĢĶå¾Ħ": 3678,
      "èº«ä»½": 3679,
      "end": 3680,
      "å°Ħåĩ»": 3681,
      "æĭĵå±ķ": 3682,
      "æ±½è½¦": 3683,
      "çļĦæĸ°": 3684,
      "çļĦé£İéĻ©": 3685,
      "è°ľ": 3686,
      "è§Ĥå¿µ": 3687,
      "çĥģ": 3688,
      "èĪ¬": 3689,
      "éĽĨæĪĲ": 3690,
      "è´£ä»»æĦŁ": 3691,
      "æ¶µçĽĸ": 3692,
      "ç»¿èī²": 3693,
      "åĪ¸": 3694,
      "åĮĢ": 3695,
      "åĵ¥": 3696,
      "æĪĸç¼º": 3697,
      "è§Ĩéĩİ": 3698,
      "æŁĶ": 3699,
      "æ±ł": 3700,
      "ï¼Įå¢ŀåĬł": 3701,
      "çļĦæ²ŁéĢļ": 3702,
      "ç¨İ": 3703,
      "æĥ³ä¸įåĪ°": 3704,
      "è£Ĥ": 3705,
      "æĬķèµĦèĢħ": 3706,
      "able": 3707,
      "æ´Ľ": 3708,
      "ç½ª": 3709,
      "å°Ĩåħ¶": 3710,
      "æĦıæĥ³ä¸įåĪ°": 3711,
      "å²ģ": 3712,
      "åĴĮå¯¹": 3713,
      "çŃīå¤ļä¸ª": 3714,
      "åĩºçīĪ": 3715,
      "æĥħèĬĤ": 3716,
      "ãĢĤä»ĸå¼Ģå§ĭ": 3717,
      "ï¼Įå¦Ĥä½ķ": 3718,
      "çĪ¸": 3719,
      "Ġç¬¬åĽĽ": 3720,
      "é½¿": 3721,
      "ure": 3722,
      "ãĢĤè¿Ļæł·": 3723,
      "ï¼Įçī¹åĪ«æĺ¯": 3724,
      "äººå·¥": 3725,
      "ç²¾åº¦": 3726,
      "ç¾¤ä½ĵ": 3727,
      "ï¼Įèµµ": 3728,
      "ï¼īåĴĮ": 3729,
      "æīĢåŃ¦": 3730,
      "æľīè¶£": 3731,
      "ä¸įä»ħä¸º": 3732,
      "ç³»ç»Łä¸Ń": 3733,
      "æĹłæķ°": 3734,
      "è§Ħå®ļ": 3735,
      "çļĦæĶ¿": 3736,
      "é¡µéĿ¢": 3737,
      "çļĦæ¯Ķ": 3738,
      "çļĦç¥ŀ": 3739,
      "éĤĢè¯·": 3740,
      "åı³": 3741,
      "ä¸Ģä¸Ŀ": 3742,
      "èĩªä¿¡": 3743,
      "ï¼Įä½¿åħ¶": 3744,
      "èĻļæĭŁ": 3745,
      "æķĻç»ĥ": 3746,
      "é¢ĨåŁŁçļĦ": 3747,
      "è®²è§£": 3748,
      "é½Ĳ": 3749,
      "éĽķ": 3750,
      "åĲįåŃĹ": 3751,
      "åıªæĺ¯": 3752,
      "ä¼ģä¸ļçļĦ": 3753,
      "ain": 3754,
      "od": 3755,
      "æ·±åº¦": 3756,
      "å¸¸çĶ¨": 3757,
      "çļĦä¸Ģéĥ¨åĪĨ": 3758,
      "æ³¨æĦıäºĭé¡¹": 3759,
      "ä¸įåı¯æĪĸç¼º": 3760,
      "çļĦç¼ĸ": 3761,
      "åħįçĸ«": 3762,
      "å¯¸": 3763,
      "æĺİæĺ¾": 3764,
      "æģĴ": 3765,
      "å¹¿åĳĬ": 3766,
      "éĴ®": 3767,
      "åĬ¨æľº": 3768,
      "æĺ¾å¾Ĺ": 3769,
      "é©±": 3770,
      "ter": 3771,
      "ç¦ģ": 3772,
      "çļĦèīºæľ¯": 3773,
      "ï¼ī**ï¼ļ": 3774,
      "ä¾Ŀæį®": 3775,
      "æŃ£ç¡®çļĦ": 3776,
      "é£ŀè¡Į": 3777,
      "èĪŀåı°": 3778,
      "éº¦": 3779,
      "°åĨĻ": 3780,
      "è¿ĻéĩĮ": 3781,
      "ä¿¡ä»°": 3782,
      "åŁºåĽł": 3783,
      "ï¼Įè¿Ļæ¬¡": 3784,
      "ath": 3785,
      "åĿĩåĮĢ": 3786,
      "éĿ©åĳ½": 3787,
      "ud": 3788,
      "ãĢĤä¸ºäºĨ": 3789,
      "éªĳ": 3790,
      "ry": 3791,
      "ä¼¦": 3792,
      "èĤ©": 3793,
      "æłĩçŃ¾": 3794,
      "ç±»ä¼¼": 3795,
      "å®īåħ¨æĢ§": 3796,
      "éļ¾ä»¥": 3797,
      "up": 3798,
      "åħģ": 3799,
      "æ²Ļ": 3800,
      "ç²Ĵ": 3801,
      "æŀĦæĪĲ": 3802,
      "æıĲä¾ĽäºĨä¸Ģä¸ª": 3803,
      "èĥľåĪ©": 3804,
      "ä»¥ä¸ĭåĩłä¸ªæĸ¹éĿ¢": 3805,
      "ML": 3806,
      "Ġ[": 3807,
      "ıè§Ī": 3808,
      "æĽ¿": 3809,
      "çº¤": 3810,
      "åĲįç§°": 3811,
      "å¯Ĩçłģ": 3812,
      "çļĦæĶ¶": 3813,
      "åħģè®¸": 3814,
      "ï¼ĮæıĲä¾Ľ": 3815,
      "æĤŁ": 3816,
      "è¯Ńæ³ķ": 3817,
      "éĩĩè´Ń": 3818,
      "åĪĽå»ºä¸Ģä¸ª": 3819,
      "éģĵè·¯ä¸Ĭ": 3820,
      "èĦļæľ¬": 3821,
      "è¡¨æĺİ": 3822,
      "æ»ļ": 3823,
      "æĬķåħ¥": 3824,
      "èµ¢å¾ĹäºĨ": 3825,
      "çļĦç®¡çĲĨ": 3826,
      "è¦Ĩ": 3827,
      "çļĦé«ĺ": 3828,
      "åı¹": 3829,
      "çļĦæĭ": 3830,
      "ç½²": 3831,
      "å¼ºå¤§": 3832,
      "ä¾¿æį·": 3833,
      "ï¼Įæ¯ıä¸ª": 3834,
      "com": 3835,
      "ce": 3836,
      "ï¼ĮæĹ¨åľ¨": 3837,
      "åľ£": 3838,
      "èĥģ": 3839,
      "æİĺ": 3840,
      "æĢ§è´¨": 3841,
      "äº«åıĹ": 3842,
      "ä¸Ģå®ļèĥ½å¤Ł": 3843,
      "text": 3844,
      "lass": 3845,
      "ĠJ": 3846,
      "ä¸ģ": 3847,
      "è¿Ļæľ¬ä¹¦": 3848,
      "æ°ĽåĽ´": 3849,
      "éĿ¢ç§¯": 3850,
      "ç»ĦåĲĪ": 3851,
      "é¾Ħ": 3852,
      "é¢ĦæľŁç»ĵæŀľ": 3853,
      "åĿĽ": 3854,
      "åĻ¨çļĦ": 3855,
      "ç¬Ķè®°": 3856,
      "åĬłæ·±": 3857,
      "æķ°æį®åĪĨæŀĲ": 3858,
      "çĪµ": 3859,
      "ç¥ŀç»ı": 3860,
      "ublic": 3861,
      "å°¤": 3862,
      "è¾ħ": 3863,
      "ï¼Įè¿Ļä¸Ģ": 3864,
      "åĲįä¸º": 3865,
      "çļĦæ´»": 3866,
      "å¹¼": 3867,
      "ï¼Įè¿Ļæł·": 3868,
      "éĽ·": 3869,
      "çĭĹ": 3870,
      "èİ±": 3871,
      "åĽ¢éĺŁæĪĲåĳĺ": 3872,
      "åįıè®®": 3873,
      "æĹħè¡Į": 3874,
      "am": 3875,
      "çļĦè¯¦ç»Ĩ": 3876,
      "æ¸łéģĵ": 3877,
      "æīĭæľ¯": 3878,
      "æ»¡æĦı": 3879,
      "è®²åº§": 3880,
      "åĮĹäº¬": 3881,
      "åĪĨåŃĲ": 3882,
      "æĭ¼": 3883,
      "è½¨": 3884,
      "ç»ıèĲ¥": 3885,
      "ç¼ĸè¯ĳ": 3886,
      "å¨±ä¹Ĳ": 3887,
      "dow": 3888,
      "ï¼Įä¼ģä¸ļ": 3889,
      "å·Ŀ": 3890,
      "æĿİæ¸ħ": 3891,
      "çģ¾": 3892,
      "æĥħåĨµä¸ĭ": 3893,
      "æĮīéĴ®": 3894,
      "å¹´è½»äºº": 3895,
      "ç¤¾äº¤åªĴä½ĵ": 3896,
      "æ¾": 3897,
      "ĠSt": 3898,
      "çļĦæŃ£": 3899,
      "è²Į": 3900,
      "åľ¨ä¸Ģæ¬¡": 3901,
      "æĢª": 3902,
      "åħ«": 3903,
      "çļĦç½": 3904,
      "å·¥åİĤ": 3905,
      "å½ĵæĹ¶": 3906,
      "éĺ²æ²»": 3907,
      "æİĴåºı": 3908,
      "æ·±åĪ»çļĦ": 3909,
      "ä¸Ńåįİ": 3910,
      "å¤ļåħĥ": 3911,
      "è§Ĩè§Ĵ": 3912,
      "æĴ°åĨĻ": 3913,
      "æĹ©æľŁ": 3914,
      "çĺ": 3915,
      "åĴĮçĶŁæ´»": 3916,
      "æµª": 3917,
      "èįĲ": 3918,
      "æĶ¹éĿ©": 3919,
      "åŁºç¡Ģè®¾æĸ½": 3920,
      "ï¼Įè®©æĪĳä»¬": 3921,
      "çŃĶæ¡Ī": 3922,
      "ot": 3923,
      "wor": 3924,
      "è¿ĩåİ»": 3925,
      "ç¨»": 3926,
      "æĹ¶åĪ»": 3927,
      "ä¸Ĭè¿°": 3928,
      "æ°ĶåĢĻ": 3929,
      "æĮĩæłĩ": 3930,
      "é¢ĳçİĩ": 3931,
      "å±ıå¹ķ": 3932,
      "æĹ§": 3933,
      "æľīçļĦ": 3934,
      "ç»ıå¸¸": 3935,
      "èĪ¹": 3936,
      "çļĦæ³ķ": 3937,
      "çŁ©éĺµ": 3938,
      "Ġ$": 3939,
      "ä»ĵ": 3940,
      "å¹¸": 3941,
      "é¡¿": 3942,
      "åį±æľº": 3943,
      "æĦŁæ¿Ģ": 3944,
      "å¼ºåº¦": 3945,
      "ory": 3946,
      "åĽ°æĥĳ": 3947,
      "user": 3948,
      "imp": 3949,
      "ãĢĤå°ı": 3950,
      "ä¸įæĩ": 3951,
      "ä¼ĺçĤ¹": 3952,
      "çŁ¥è¯ĨåĴĮ": 3953,
      "åĪł": 3954,
      "åĲĥ": 3955,
      "æµıè§Ī": 3956,
      "ï¼Įä»ĸåĨ³å®ļ": 3957,
      "åĬŀåħ¬": 3958,
      "åĲĮåŃ¦ä»¬": 3959,
      "æıŃç¤ºäºĨ": 3960,
      "çļĦæ²»çĸĹ": 3961,
      "âĢĿãĢĤ": 3962,
      "çŃīå¾ħ": 3963,
      "è¿Ĳä½ľ": 3964,
      "ç¬¬ä¸Ģ": 3965,
      "æŁ¥éĺħ": 3966,
      "()`": 3967,
      "å¦ĤæŃ¤": 3968,
      "æĦŁè°¢": 3969,
      "èĢģäºº": 3970,
      "æ¸ħæ´ģ": 3971,
      "åĴĮæĶ¯æĮģ": 3972,
      "éķ¿æĹ¶éĹ´": 3973,
      "éĢīæĭ©åĲĪéĢĤçļĦ": 3974,
      "ç»ĵæŀĦåĴĮ": 3975,
      "åĲĪçĲĨçļĦ": 3976,
      "åľ¨ä¸ŃåĽ½": 3977,
      "è¾Ĩ": 3978,
      "å¿ĥåİ»": 3979,
      "ä¿¡çĶ¨": 3980,
      "è°ĥçĶ¨": 3981,
      "å¨ģèĥģ": 3982,
      "çĥģçĿĢ": 3983,
      "ä¸§": 3984,
      "ãĢĤåħ¶æ¬¡": 3985,
      "æľµ": 3986,
      "éĻ¤äºĨ": 3987,
      "ä½ĽæķĻ": 3988,
      "æıŃå¼Ģ": 3989,
      "çļ®èĤ¤": 3990,
      "çº·çº·": 3991,
      "æ·±è¿ľçļĦå½±åĵį": 3992,
      "bash": 3993,
      "çĴ": 3994,
      "çļĦçĶŁ": 3995,
      "ç¡®è®¤": 3996,
      "ç©´": 3997,
      "å§Ĩ": 3998,
      "åºĶçĶ¨ç¨ĭåºı": 3999,
      "æİ¥è§¦": 4000,
      "å¦Ĥä½ķä½¿çĶ¨": 4001,
      "è¿ĶåĽŀ": 4002,
      ":Ċ": 4003,
      "ä¾§": 4004,
      "è·¯çĶ±": 4005,
      "çĽ¸åħ³çļĦ": 4006,
      "è½´æī¿": 4007,
      "å¿½è§Ĩ": 4008,
      "rint": 4009,
      "ï¼Į`": 4010,
      "ä¸Ģä¸ĭ": 4011,
      "çĽ¸ä¼¼": 4012,
      "åĢº": 4013,
      "è¯ķéªĮ": 4014,
      "å¼ķåħ¥": 4015,
      "çļĦæŃ¥": 4016,
      "æ£®æŀĹ": 4017,
      "AS": 4018,
      "çļĦæķ´ä½ĵ": 4019,
      "å¸¸å¸¸": 4020,
      "æİ¥åı£": 4021,
      "ç¢ĳ": 4022,
      "åį±éĻ©": 4023,
      "om": 4024,
      "ä¸Ģæ®µ": 4025,
      "åľ°åĿĢ": 4026,
      "ä¿ĿåŃĺ": 4027,
      "è½¬åĮĸ": 4028,
      "èĳ¡èĲ": 4029,
      "éĢıæĺİ": 4030,
      "åĨĴéĻ©": 4031,
      "èĳ¡èĲĦ": 4032,
      "æľīåĬĽ": 4033,
      "å¤ªéĺ³": 4034,
      "éģĹä¼ł": 4035,
      "èĩªå·±çļĦæ¢¦æĥ³": 4036,
      "ç®¡çĲĨåĴĮ": 4037,
      "Ġthe": 4038,
      "å°ıå¿ĥ": 4039,
      "èĥ½å¤Łå¸®åĬ©": 4040,
      "æľ¬åįķåħĥçļĦåŃ¦ä¹ł": 4041,
      "äºİæĺ¯": 4042,
      "å½±åĵįåĬĽ": 4043,
      "å¹¶éĿŀ": 4044,
      "æ¼ı": 4045,
      "è¯¾åłĤ": 4046,
      "å¤ı": 4047,
      "äººéĻħ": 4048,
      "åĲĪæ³ķ": 4049,
      "ä¸įä»ħåľ¨": 4050,
      "å§¿": 4051,
      "éĢĤéĩı": 4052,
      "æĹłçº¿": 4053,
      "ç¾İå¥½": 4054,
      "æīĵåį°": 4055,
      "åĲ«æľī": 4056,
      "èĤĮèĤī": 4057,
      "ow": 4058,
      "Ġå®ŀè·µ": 4059,
      "ï¼Įéĺ²æŃ¢": 4060,
      "ãĢĤå°½ç®¡": 4061,
      "èµĦæľ¬": 4062,
      "çĶµè¯Ŀ": 4063,
      "ç»´æĮģ": 4064,
      "ç¼ĸçłģ": 4065,
      "å°¤ä¸º": 4066,
      "ĽçĽ¾": 4067,
      "ãĢĤä»İ": 4068,
      "ç»ĵè¯Ń": 4069,
      "å£ģ": 4070,
      "å¼łæĻĵ": 4071,
      "å°±åľ¨": 4072,
      "ç§ĳåŃ¦å®¶": 4073,
      "å¢ŀå¼ºäºĨ": 4074,
      "å¥łå®ļäºĨ": 4075,
      "çļĦè¡¨çİ°": 4076,
      "ä¼Ļ": 4077,
      "äºĭæĥħ": 4078,
      "ä¼ĺè´¨": 4079,
      "Ġd": 4080,
      "èĢĹ": 4081,
      "çļĦç©": 4082,
      "ä¹¦æ³ķ": 4083,
      "çº¤ç»´": 4084,
      "æĤ¦": 4085,
      "å¥¹çļĦ": 4086,
      "åĪĹè¡¨": 4087,
      "çļĦç¬¬": 4088,
      "å°ºå¯¸": 4089,
      "My": 4090,
      "ĠV": 4091,
      "æĪĲç«ĭ": 4092,
      "å°ıç»Ħ": 4093,
      "å¼ĢæºĲ": 4094,
      "è®¤åĲĮ": 4095,
      "ç´§æĢ¥": 4096,
      "çļĦçº¿": 4097,
      "ï¼Įå°¤åħ¶æĺ¯": 4098,
      "ĠäºĮ": 4099,
      "çļĦæ¨¡": 4100,
      "æ²¿": 4101,
      "æ·±æ·±": 4102,
      "åıªè¦ģ": 4103,
      "åĳ½è¿Ĳ": 4104,
      "æİ¨èįĲ": 4105,
      "åĳ¨åĽ´": 4106,
      "get": 4107,
      "ww": 4108,
      "ä»¥åħ¶": 4109,
      "æķ°ç»Ħ": 4110,
      "ä¾ĿçĦ¶": 4111,
      "åĳ¨æľŁ": 4112,
      "ĠéĢļè¿ĩ": 4113,
      "ä¸»åĬ¨": 4114,
      "æĥ³è±¡": 4115,
      "å°±åĥı": 4116,
      "ç®Ģæ´ģ": 4117,
      "åı¦ä¸Ģä¸ª": 4118,
      "çļĦåĬŁèĥ½": 4119,
      "åħ¨åĽ½": 4120,
      "æŃ£ä¹ī": 4121,
      "åĽ¢ç»ĵ": 4122,
      "è£ħå¤ĩ": 4123,
      "åı£æĦŁ": 4124,
      "ip": 4125,
      "é¢Ĺ": 4126,
      "é«ĺçº§": 4127,
      "æ¶Ľ": 4128,
      "ç²¾ç¡®": 4129,
      "..": 4130,
      "ç½ļ": 4131,
      "èĤ¡ç¥¨": 4132,
      "ç¥ŀç§ĺçļĦ": 4133,
      "æ©": 4134,
      "è¿ĩåº¦": 4135,
      "è§£è¯»": 4136,
      "æĭĶ": 4137,
      "éĩįå¤į": 4138,
      "ä¸ŃçļĦéĩįè¦ģæĢ§": 4139,
      "ä»İä¸Ń": 4140,
      "æģ¶": 4141,
      "ãĢĭçļĦ": 4142,
      "ç¢į": 4143,
      "å²Ľ": 4144,
      "æ··åĲĪ": 4145,
      "ment": 4146,
      "çļĦåģ¥åº·": 4147,
      "çļĦè¡Įä¸º": 4148,
      "ï¼Įåĳ": 4149,
      "å®ŀæĪĺ": 4150,
      "æĹ¶å°ļ": 4151,
      "æĥ³è¦ģ": 4152,
      "èĥĮæĻ¯åĴĮ": 4153,
      "æļ´": 4154,
      "çĽ´æİ¥å½±åĵį": 4155,
      "https": 4156,
      "Ġä¸ī": 4157,
      "ï¼Įè¯·": 4158,
      "æĿ¥çľĭ": 4159,
      "ä¸ĭéĻį": 4160,
      "çĥŃçĪ±": 4161,
      "çļĦæ·±åĪ»": 4162,
      "æµĵåİļ": 4163,
      "èĢ³": 4164,
      "çĽ¸ç»ĵåĲĪ": 4165,
      "è®¤è¯ģ": 4166,
      "æŁ¥æī¾": 4167,
      "è£ħé¥°": 4168,
      "éĤ£ä¸ª": 4169,
      "æııç»ĺ": 4170,
      "åĴĮåĪĨæŀĲ": 4171,
      "ä¹Ŀ": 4172,
      "å¾¡": 4173,
      "çŃīæĸ¹å¼ı": 4174,
      "çĤİ": 4175,
      "ä½łåľ¨": 4176,
      "èŀįåħ¥": 4177,
      "çļĦä¸Ģç§į": 4178,
      "åĩĢ": 4179,
      "çļĦç´": 4180,
      "ç®±": 4181,
      "ç«Ł": 4182,
      "æİ¥æĶ¶": 4183,
      "é¡¹çĽ®ä¸Ń": 4184,
      "çĥŃæĥħ": 4185,
      "ï¼Įåħ¶ä¸Ń": 4186,
      "UI": 4187,
      "ĠO": 4188,
      "Ġä¸Ģ": 4189,
      "ï¼Įæ¯Ķå¦Ĥ": 4190,
      "ãĢĤæĹłè®º": 4191,
      "åĲī": 4192,
      "ä¾µ": 4193,
      "åĮħè£ħ": 4194,
      "å¾ªçİ¯": 4195,
      "ç»ĵæĿŁåĲİ": 4196,
      "æ¦Ĥè¿°": 4197,
      "çļĦçĭ¬çī¹": 4198,
      "åĽ¾ä¹¦é¦Ĩ": 4199,
      "LE": 4200,
      "ï¼ĮåıĬæĹ¶": 4201,
      "ãĢĤåħ¶": 4202,
      "æıĲåĪ°": 4203,
      "æĻ¶": 4204,
      "æıĲä¾ĽäºĨä¸°å¯ĮçļĦ": 4205,
      "ï¼Įå¼ķ": 4206,
      "æīĵä¸ĭåĿļå®ŀçļĦåŁºç¡Ģ": 4207,
      "è¦ĨçĽĸ": 4208,
      "ä¸įæĩĪ": 4209,
      "ä¼į": 4210,
      "å¹´ä»£": 4211,
      "äºĨä¸ĢäºĽ": 4212,
      "æĿĳæ°ĳä»¬": 4213,
      "ï¼ĮåĪ¶å®ļ": 4214,
      "è¾¨": 4215,
      "åĨħçļĦ": 4216,
      "æ¨¡åħ·": 4217,
      "åįļå£«": 4218,
      "çļĦçģµ": 4219,
      "ult": 4220,
      "ï¼ĮçĲĨè§£": 4221,
      "ï¼Įç»§ç»Ń": 4222,
      "ãĢĤä¸Ģä¸ª": 4223,
      "èĤ¿": 4224,
      "çķª": 4225,
      "å°ĳå¹´": 4226,
      "ï¼Įå½±": 4227,
      "ç»¼åĲĪç´łè´¨": 4228,
      "é¡¾å®¢": 4229,
      "åĪłéĻ¤": 4230,
      "ï¼ĮæĪĲåĬŁ": 4231,
      "çļĦæĸ¹å¼ı": 4232,
      "ãĢĤæľ¬åįķåħĥ": 4233,
      "å°¾": 4234,
      "æıĲåĩºäºĨ": 4235,
      "å±ķè§Ī": 4236,
      "å¼Ģå±ķ": 4237,
      "ä»ĸä»¬å¯¹": 4238,
      "æ¡¥": 4239,
      "ãĢĤä»ĸæĦıè¯ĨåĪ°": 4240,
      "åħ¬æŃ£": 4241,
      "äºĨè§£åĴĮ": 4242,
      "åħ»æ®ĸ": 4243,
      "çİ¯å¢ĥä¿ĿæĬ¤": 4244,
      "æĻ¯è§Ĥ": 4245,
      "è¾ĥä½İ": 4246,
      "æŁĲä¸ª": 4247,
      "åĪĽéĢłåĩº": 4248,
      "çļĦç«ŀ": 4249,
      "åĮ¹éħį": 4250,
      "nt": 4251,
      "åħ¼": 4252,
      "çĶľ": 4253,
      "åĴĮåħ¶ä»ĸ": 4254,
      "åĲ§": 4255,
      "åŃ¦çĶŁåľ¨": 4256,
      "åıĳå±ķçļĦ": 4257,
      "è§Ħå¾ĭ": 4258,
      "ï¼ĮæıĲé«ĺäºĨ": 4259,
      "ä¸ĵä¸ļçļĦ": 4260,
      "å§ĭç»Ī": 4261,
      "åĪĻæĺ¯": 4262,
      "éĤ£ä¹Ī": 4263,
      "å¸¦é¢Ĩ": 4264,
      "æł¡åĽŃ": 4265,
      "ä¸°å¯ĮäºĨ": 4266,
      "ä¸Ģå®ļçļĦ": 4267,
      "åıĬåħ¶åľ¨": 4268,
      "çļĦçĪ±": 4269,
      "ï¼Įèĩªå·±": 4270,
      "çļĦæĪĲéķ¿": 4271,
      "ç§ĭ": 4272,
      "çļĦæ±": 4273,
      "åİ¨": 4274,
      "åīª": 4275,
      "å¦Ĩ": 4276,
      "çĮª": 4277,
      "çļĦæ°Ķ": 4278,
      "åĪĨéĴŁ": 4279,
      "âĢľæĪĳä»¬": 4280,
      "åĢĴ": 4281,
      "å¤įä¹ł": 4282,
      "æł¼å¼ı": 4283,
      "è½»è½»": 4284,
      "ç¬ĳäºĨ": 4285,
      "åĽºå®ļ": 4286,
      "è´¸æĺĵ": 4287,
      "ï¼ĮéĻįä½İ": 4288,
      "åįĸ": 4289,
      "è®¾ç«ĭ": 4290,
      "æĸ°éĹ»": 4291,
      "ity": 4292,
      "å¯»æ±Ĥ": 4293,
      "TP": 4294,
      "ä¸Ģéĥ¨åĪĨ": 4295,
      "å¿Ļ": 4296,
      "åīįè¡Į": 4297,
      "çļĦçłĶç©¶æĪĲæŀľ": 4298,
      "ä»Ĭå¤©": 4299,
      "çĻ»å½ķ": 4300,
      "å¿łè¯ļ": 4301,
      "ï¼ĮéĢĤåĲĪ": 4302,
      "å®ľ": 4303,
      "åĴĮæĻºæħ§": 4304,
      "å¤¹": 4305,
      "åĳĪ": 4306,
      "éĥ¨ç½²": 4307,
      "çĶµæºĲ": 4308,
      "å¯¼å¸Ī": 4309,
      "èµĦæºĲçļĦ": 4310,
      "è¾ĥä¸º": 4311,
      "çļĦæµģ": 4312,
      "æĲŃéħį": 4313,
      "he": 4314,
      "Ġè¯¾ç¨ĭåįķåħĥ": 4315,
      "ä»ģ": 4316,
      "æľīæľº": 4317,
      "ï¼Įä»ĸåľ¨": 4318,
      "å®¹åĻ¨": 4319,
      "æĹĭè½¬": 4320,
      "èµĭ": 4321,
      "åĬ¨æ¼«": 4322,
      "åĲ¸æĶ¶": 4323,
      "æī¿æĭħ": 4324,
      "è®²è¿°": 4325,
      "IP": 4326,
      "åĴĮæĬĢæľ¯": 4327,
      "æķĻèĤ²æĦıä¹ī": 4328,
      "æĽ´å¥½çļĦ": 4329,
      "æ¼Ķåĳĺ": 4330,
      "èľĤ": 4331,
      "ï¼Įå±ķç¤º": 4332,
      "ï¼ĮãĢĬ": 4333,
      "å®¶äºº": 4334,
      "æĪĸåħ¶ä»ĸ": 4335,
      "æķ°æį®çļĦ": 4336,
      "ç»´ä¿®": 4337,
      "ction": 4338,
      "å¡ŀ": 4339,
      "è¡Ģç®¡": 4340,
      "ç§°ä¸º": 4341,
      "åľ°äºĨè§£": 4342,
      "åīįæĻ¯": 4343,
      "åĽ¾æ¡Ī": 4344,
      "è´Ńçī©": 4345,
      "èĴ¸": 4346,
      "çļĦéŁ³ä¹Ĳ": 4347,
      "åľĪ": 4348,
      "é«ĺè´¨éĩı": 4349,
      "æłĩå¿Ĺ": 4350,
      "ãĢĭä¸ŃçļĦ": 4351,
      "åģļåĩºäºĨ": 4352,
      "åĨľä¸ļçĶŁäº§": 4353,
      "åŃĹç¬¦ä¸²": 4354,
      "ï¼ĮåŃ¦æł¡": 4355,
      "çļĦç§ĺå¯Ĩ": 4356,
      "åĮł": 4357,
      "æľīä¸Ģå¤©": 4358,
      "ä¸İåħ¶ä»ĸ": 4359,
      "ä½ĵçļĦ": 4360,
      "å§¨": 4361,
      "çģ°": 4362,
      "äº²èĩª": 4363,
      "æīİ": 4364,
      "ä¼ļè®¡": 4365,
      "ï¼Įå¯»": 4366,
      "çļĦç½ĳ": 4367,
      "ï¼ĮèĻ½çĦ¶": 4368,
      "ï¼Įè¿Ľä¸ĢæŃ¥": 4369,
      "è´«": 4370,
      "æĦŁæŁĵ": 4371,
      "æĤ¨åľ¨": 4372,
      "çļĦæĬķ": 4373,
      "å·¥ç¨ĭå¸Ī": 4374,
      "ĠåĴĮ": 4375,
      "åĴĮä¼ĺåĮĸ": 4376,
      "èĥĥ": 4377,
      "ä¸ĭçļĦ": 4378,
      "åı¯èĥ½éľĢè¦ģ": 4379,
      "æ³¨åĨĮ": 4380,
      "æĺŁæĺŁ": 4381,
      "èĳĹåĲį": 4382,
      "æĹ¥å¸¸çĶŁæ´»": 4383,
      "éĤ®ä»¶": 4384,
      "nd": 4385,
      "è´´": 4386,
      "æıĲäº¤": 4387,
      "æ¶Į": 4388,
      "ç¾½": 4389,
      "éļıæľº": 4390,
      "åĩĨç¡®æĢ§": 4391,
      "å±ķçİ°äºĨ": 4392,
      "ï¼Įå±ķçİ°": 4393,
      "æĸĳ": 4394,
      "åĬłå¯Ĩ": 4395,
      "ä»İæľª": 4396,
      "å¼ķåıĳ": 4397,
      "è¯¦ç»Ĩä»ĭç»į": 4398,
      "all": 4399,
      "éĺ¿å§¨": 4400,
      "éħĴåºĹ": 4401,
      "å¼ķèµ·äºĨ": 4402,
      "åı¯éĿłæĢ§": 4403,
      "ec": 4404,
      "sp": 4405,
      "ï¼Įçİĭ": 4406,
      "ä½ľèĢħ": 4407,
      "åĢ¼å¾Ĺ": 4408,
      "ç§ĳåŃ¦çłĶç©¶": 4409,
      "æµ·æ´ĭ": 4410,
      "Ġ|Ċ": 4411,
      "è¿Ļæł·çļĦ": 4412,
      "åĪĿå§ĭåĮĸ": 4413,
      "èĿ": 4414,
      "ï¼Įè®¸å¤ļ": 4415,
      "ãĢĤæľ¬æĸĩ": 4416,
      "ä¸»äºº": 4417,
      "èĭ¥": 4418,
      "é©¶": 4419,
      "çĨĬ": 4420,
      "æ²īæĢĿ": 4421,
      "çļĦåħīèĬĴ": 4422,
      "ER": 4423,
      "GP": 4424,
      "å¸Ŀ": 4425,
      "ç®Ń": 4426,
      "ï¼īãĢģ": 4427,
      "ãĢĤåľ¨è¿Ļä¸ª": 4428,
      "ç»ıåİĨäºĨ": 4429,
      "©åĽº": 4430,
      "è¿Ŀ": 4431,
      "éĩįå¤§": 4432,
      "ï¼ĮèĢĮä¸Ķ": 4433,
      "æłĳç«ĭ": 4434,
      "ï¼Įæī¾åĪ°": 4435,
      "ï¼ĮéĻĪ": 4436,
      "æĺ¯ä»Ģä¹Ī": 4437,
      "å°ıåĮº": 4438,
      "éĽª": 4439,
      "ä¸ªäººæĪĲéķ¿": 4440,
      "è¿ŀç»Ń": 4441,
      "å¿ĥçĲĨåģ¥åº·": 4442,
      "Ġæĸĩä»¶": 4443,
      "æĹ¶çļĦ": 4444,
      "æĥł": 4445,
      "è°¨": 4446,
      "äº¤äºĴ": 4447,
      "æľįè£ħ": 4448,
      "ont": 4449,
      "èµĦæºĲåĴĮ": 4450,
      "ä¼łç»ŁæĸĩåĮĸ": 4451,
      "å¿ħè¦ģçļĦ": 4452,
      "ä¸ªæĢ§åĮĸ": 4453,
      "è¿Ļæ®µ": 4454,
      "æıĲç¤º": 4455,
      "æ¡£æ¡Ī": 4456,
      "æĻļä¸Ĭ": 4457,
      "çĦ¦èĻĳ": 4458,
      "ke": 4459,
      "ï¼Įå¤§": 4460,
      "åĴĮæĥħæĦŁ": 4461,
      "ä¸ĭåİ»": 4462,
      "çľī": 4463,
      "åįķä½į": 4464,
      "æĳĨ": 4465,
      "çĳŀ": 4466,
      "ï¼Įæİ¢è®¨": 4467,
      "åıĶ": 4468,
      "ä¹Ļ": 4469,
      "å¸Į": 4470,
      "è¾Ľ": 4471,
      "å°ıæĿ°": 4472,
      "æ»¤": 4473,
      "æĳ©": 4474,
      "çļĦæ³¨": 4475,
      ".com": 4476,
      "åĪĨåĪ«": 4477,
      "ä¸įä»ħåı¯ä»¥": 4478,
      "æ¡ĥ": 4479,
      "åįĩçº§": 4480,
      "æĵİ": 4481,
      "å¸¦çĿĢ": 4482,
      "å¦ĩ": 4483,
      "å¿ĥçĲĨåŃ¦": 4484,
      "åĳĬè¯īæĪĳä»¬": 4485,
      "çļĦæķĻåŃ¦": 4486,
      "åĴĮçĲĨè§£": 4487,
      "âĢĿãĢģ": 4488,
      "ï¼Įä»ĸå¼Ģå§ĭ": 4489,
      "å¯ĨåĪĩ": 4490,
      "ä¸¤ç§į": 4491,
      "æ¬¢è¿İ": 4492,
      "ï¼Įçľ¼ä¸ŃéĹª": 4493,
      "çļĦç©º": 4494,
      "ock": 4495,
      "ï¼Įåı¯èĥ½ä¼ļ": 4496,
      "ï¼ĮåĲ¸å¼ķ": 4497,
      "ï¼Įè¯»èĢħ": 4498,
      "å¯º": 4499,
      "æľºçļĦ": 4500,
      "éģĹäº§": 4501,
      "éĵ¶è¡Į": 4502,
      "çļĦæŃ¥éª¤": 4503,
      "æľīåħ³": 4504,
      "çİ°åľº": 4505,
      "ç¥ĸ": 4506,
      "ï¼Įè¿ĺåı¯ä»¥": 4507,
      "å½±åĵįäºĨ": 4508,
      "å·¥ä½ľä¸Ń": 4509,
      "éļĲç§ģ": 4510,
      "ä¸¾åĬŀ": 4511,
      "\\(": 4512,
      "åĪĨè§£": 4513,
      "æº¶": 4514,
      "éĤ»": 4515,
      "èĩªå·±çļĦåĬĽéĩı": 4516,
      "åĿļéŁ§": 4517,
      "çļĦæ¯ıä¸Ģä¸ª": 4518,
      "}Ċ": 4519,
      "åľ¨ä¸Ģä¸ª": 4520,
      "ä¼Ĭ": 4521,
      "æ°ı": 4522,
      "éĩįçĤ¹": 4523,
      "æľŁæľĽ": 4524,
      "ç¾Ĭ": 4525,
      "åħ¸åŀĭ": 4526,
      "çļĦå·¥ä½ľåİŁçĲĨ": 4527,
      "çļĦä¸ĸçķĮ": 4528,
      "çļĦä½įç½®": 4529,
      "ï¼ļäºĨè§£": 4530,
      "åºĶçĶ¨åĪ°": 4531,
      "ï¼Įå°½": 4532,
      "æĪĲä¸ºä¸ĢåĲį": 4533,
      "åĲ«ä¹ī": 4534,
      "å©ļ": 4535,
      "ãĢģæĸĩåĮĸ": 4536,
      "åľ°äº§": 4537,
      "ï¼Įè¿ĺè¦ģ": 4538,
      "èµ·äºĨ": 4539,
      "èį·": 4540,
      "ï¼ĮæĿ¥": 4541,
      "éĶĭ": 4542,
      "æ¯ıä¸ªäºº": 4543,
      "æ¯Ķè¾ĥ": 4544,
      "ç¬¬ä¸ī": 4545,
      "é£ŁçĶ¨": 4546,
      "æĶ¯ä»ĺ": 4547,
      "è´¹çĶ¨": 4548,
      "äº§åĵģçļĦ": 4549,
      "Ġè¯·": 4550,
      "ãĢĤåıªæľī": 4551,
      "åħ½": 4552,
      "ä½©": 4553,
      "åºŁ": 4554,
      "å¿§": 4555,
      "é«ĺéĢŁ": 4556,
      "ä¹ĭè·¯": 4557,
      "import": 4558,
      "ï¼Įå½±åĵį": 4559,
      "ï¼ĮçªģçĦ¶": 4560,
      "åĴĮå¼ł": 4561,
      "ä¸įåĨį": 4562,
      "æıĲåīį": 4563,
      "æĮĸ": 4564,
      "éĩıåĴĮ": 4565,
      "åĬłçĥŃ": 4566,
      "å¼ĢæĶ¾": 4567,
      "é£ŁæĿĲ": 4568,
      "åĽŀåĪ°": 4569,
      "ç´§å¯Ĩ": 4570,
      "éļľç¢į": 4571,
      "ï¼ĮæİĮæı¡": 4572,
      "çĽĽ": 4573,
      "æĬ½": 4574,
      "é¼ł": 4575,
      "ãĢĤäºĨè§£": 4576,
      "åĴĸ": 4577,
      "åĴĮåĪĽæĸ°": 4578,
      "å¯¿": 4579,
      "çļĦæĽ": 4580,
      "æµ¸": 4581,
      "æ¯«": 4582,
      "è·ĥ": 4583,
      "åĲĦç±»": 4584,
      "æĮĩå®ļ": 4585,
      "çļĦæ¶Ī": 4586,
      "python": 4587,
      "Ġe": 4588,
      "çļĦåĲĮæĹ¶": 4589,
      "ä¹³": 4590,
      "ä¸ŃåıĳæĮ¥": 4591,
      "ä»ĸå¯¹": 4592,
      "è°ĥçłĶ": 4593,
      "èĳ£": 4594,
      "è½¦è¾Ĩ": 4595,
      "æŁĲç§į": 4596,
      "åħĶ": 4597,
      "æ³Ħ": 4598,
      "åĩºæĿ¥": 4599,
      "åķ¡": 4600,
      "éĨĩ": 4601,
      "Ġæķħäºĭ": 4602,
      "éĶħ": 4603,
      "ä¹ĭæĹħ": 4604,
      "æ°´æŀľ": 4605,
      "åºıåĪĹ": 4606,
      "åıĸå¾ĹäºĨæĺ¾èĳĹ": 4607,
      "âĢĿãĢģâĢľ": 4608,
      "Ġå°Ĩ": 4609,
      "äººå£«": 4610,
      "æįī": 4611,
      "èĤª": 4612,
      "è®¾è®¡å¸Ī": 4613,
      "è¿Ļä¸ªéĹ®é¢ĺ": 4614,
      "éŃĤ": 4615,
      "çĵ¦": 4616,
      "è¯ĹæŃĮ": 4617,
      "çľŁæŃ£çļĦ": 4618,
      "éº»": 4619,
      "èĦĤèĤª": 4620,
      "æ¨": 4621,
      "åĴĮåĭĩæ°Ķ": 4622,
      "æ¯ķ": 4623,
      "å¤±åİ»": 4624,
      "åľŁè±Ĩ": 4625,
      "ï¼Įå¾®": 4626,
      "çĽ¸åºĶçļĦ": 4627,
      "AT": 4628,
      "Ġw": 4629,
      "è¯¸": 4630,
      "ï¼Įåĭ": 4631,
      "çº¯": 4632,
      "åīĳ": 4633,
      "çĶµæµģ": 4634,
      "æ¶Īæģ¯": 4635,
      "å¿Ĺè¿ľ": 4636,
      "åĬŀæ³ķ": 4637,
      "åı¤èĢģçļĦ": 4638,
      ".j": 4639,
      "ï¼ĮåŃ¦ä¹ł": 4640,
      "ï¼ĮåĿ": 4641,
      "çļĦæ½": 4642,
      "çļĦçª": 4643,
      "æĦŁåħ´è¶£": 4644,
      "éĶ¦": 4645,
      "æ¶Ĥ": 4646,
      "äº¤æį¢": 4647,
      "æĬĢæľ¯åĴĮ": 4648,
      "ä»¥ä¸ĭåĩł": 4649,
      "çļĦåŁºæľ¬åİŁçĲĨ": 4650,
      "ç§¯æŀģçļĦ": 4651,
      "åĬ³åĬ¨": 4652,
      "æĹĭå¾ĭ": 4653,
      "ãģ": 4654,
      "çļĦä¼ĺåĬ¿": 4655,
      "ï¼Įåģ": 4656,
      "åıĳå°Ħ": 4657,
      "ç¾İä¸½": 4658,
      "æĹħç¨ĭ": 4659,
      "for": 4660,
      "äººåı£": 4661,
      "åĲĮæŃ¥": 4662,
      "è¿ĺæľī": 4663,
      "åĵģç§į": 4664,
      "è°ĥè¯ķ": 4665,
      "çĶŁæ´»çļĦ": 4666,
      "å°ĦéĹ¨": 4667,
      "å¥³æĢ§": 4668,
      "Web": 4669,
      "Ģæľī": 4670,
      "æĮ«": 4671,
      "åĸľçĪ±": 4672,
      "å®¡ç¾İ": 4673,
      "\"Ċ": 4674,
      "ĠK": 4675,
      "èĥ½æī¾åĪ°": 4676,
      "çĶ¨æĿ¥": 4677,
      "æĭĽ": 4678,
      "çī©åĵģ": 4679,
      "éĥ¨ä»¶": 4680,
      "å§ĵ": 4681,
      "åĽ¢éĺŁåįıä½ľ": 4682,
      "éģµå®Ī": 4683,
      "åĴĸåķ¡": 4684,
      "ä¹±": 4685,
      "ãĢģç¤¾ä¼ļ": 4686,
      "ä½ľä¸ļ": 4687,
      "åĮĸåĴĮ": 4688,
      "æ¸¯": 4689,
      "å°ıéķĩ": 4690,
      "æĸ¹æ³ķåĴĮ": 4691,
      "ï¼ĮæĽ´æĺ¯å¯¹": 4692,
      "åĵªäºĽ": 4693,
      "ay": 4694,
      "ï¼Įé¼ĵåĬ±": 4695,
      "åĴĮå°ı": 4696,
      "æ³°": 4697,
      "åľ°çĤ¹": 4698,
      "ä¹ĭå¤Ħ": 4699,
      "å¸ĤåľºéľĢæ±Ĥ": 4700,
      "ç»ıæµİåŃ¦": 4701,
      "çªģåĩº": 4702,
      "èĭ±éĽĦ": 4703,
      "çļĦæī§": 4704,
      "çĶŁçī©åŃ¦": 4705,
      "éŃĶæ³ķ": 4706,
      "çļĦæ³ķå¾ĭ": 4707,
      "Ex": 4708,
      "åµ": 4709,
      "çļĦè¯Ŀ": 4710,
      "éĻ¶": 4711,
      "èı²": 4712,
      "OM": 4713,
      "ãĢĤåħ·ä½ĵ": 4714,
      "å®ı": 4715,
      "åı¯ä»¥æł¹æį®": 4716,
      "ç§įåŃĲ": 4717,
      "äºĭæķħ": 4718,
      "è®ºåĿĽ": 4719,
      "ï¼ĪC": 4720,
      "çīĩåĪ»": 4721,
      "æĭĵå®½": 4722,
      "Spring": 4723,
      "ä»ĵåºĵ": 4724,
      "AR": 4725,
      "ãĢĤè®°ä½ı": 4726,
      "å±ķæľĽ": 4727,
      "èĭ¯": 4728,
      "æĪ¿åľ°äº§": 4729,
      "çłĶåıĳ": 4730,
      "æĳĦåħ¥": 4731,
      "éĺ³åħī": 4732,
      "æĭħå¿ĥ": 4733,
      "ï¼ĮåĨį": 4734,
      "Ġo": 4735,
      "å¤®": 4736,
      "å·©åĽº": 4737,
      "æĶ¾æĿ¾": 4738,
      "æĵįä½ľç³»ç»Ł": 4739,
      "äºĨä¸Ģç§į": 4740,
      "è¡¥åħħ": 4741,
      "ï¼Įä¼ļ": 4742,
      "ï¼ĮæĪĸèĢħ": 4743,
      "ãĢĤç¥Ŀ": 4744,
      "çĿĢä¸Ģ": 4745,
      "åľºä¸Ĭ": 4746,
      "éĢīé¡¹": 4747,
      "çľĭçľĭ": 4748,
      "è§Ĩä¸º": 4749,
      "å¹¶åıĳ": 4750,
      "æĹ¥å¿Ĺ": 4751,
      "æĴĳ": 4752,
      "èį£èªī": 4753,
      "çļĦçľŁå®ŀ": 4754,
      "å¹¸ç¦ı": 4755,
      "fig": 4756,
      "äºĨèĩªå·±çļĦ": 4757,
      "å®ŀåĬĽ": 4758,
      "æĿİæĻ¨": 4759,
      "éĶ¡": 4760,
      "roid": 4761,
      "();Ċ": 4762,
      "io": 4763,
      "çļĦçŁ": 4764,
      "æħ°": 4765,
      "çł´åĿı": 4766,
      "ä¸»äººåħ¬": 4767,
      "çļĦæ½ľ": 4768,
      "Ġå¦Ĥä½ķ": 4769,
      "ï¼Įçİ©å®¶": 4770,
      "ï¼Įä½Ĩåľ¨": 4771,
      "Ġç¬¬ä¸ĢæŃ¥": 4772,
      "äºĨä¸Ģç³»åĪĹ": 4773,
      "èİ·å¾ĹäºĨ": 4774,
      "å®¢æĪ·ç«¯": 4775,
      "çī¹å®ļçļĦ": 4776,
      "æŀ¶æŀĦ": 4777,
      "oot": 4778,
      "Ġç¬¬äºĮæŃ¥": 4779,
      "Script": 4780,
      "ĠäºĨè§£": 4781,
      "çļĦå»ºè®®": 4782,
      "å¤§åŀĭ": 4783,
      "åĲĪå¹¶": 4784,
      "éĽ¾": 4785,
      "ä¸»è¦ģåĮħæĭ¬": 4786,
      "æīįåįİ": 4787,
      "çļĦåŃ¦ä¹łåĴĮ": 4788,
      "ç±»åŀĭçļĦ": 4789,
      "ĠåĪĨæŀĲ": 4790,
      "å¼¯": 4791,
      "ä¸ºæĪĳä»¬": 4792,
      "å±ĭ": 4793,
      "è°±": 4794,
      "æĹłäºº": 4795,
      "æĿĳçļĦ": 4796,
      "æ½®": 4797,
      "çļĦæĬĢèĥ½": 4798,
      "æ½ľåĬĽ": 4799,
      "å¥¥ç§ĺ": 4800,
      "çĶ·åŃĲ": 4801,
      "äººå·¥æĻºèĥ½": 4802,
      "Ġto": 4803,
      "è¯º": 4804,
      "åľ°è´¨": 4805,
      "æİ¥çĿĢ": 4806,
      "ï¼ĮåĮ»": 4807,
      "ï¼ĮæĿİæĻĵ": 4808,
      "åŃ¦ä¼ļäºĨå¦Ĥä½ķ": 4809,
      "æ¶µçĽĸäºĨ": 4810,
      "Ġç¬¬äºĶ": 4811,
      "åĩłå¤©": 4812,
      "é©¾": 4813,
      "åıĳçĶŁäºĨ": 4814,
      "åŃĻ": 4815,
      "çļĦæĳ": 4816,
      "ä¸įä»ħèĥ½": 4817,
      "å¤ĸéĥ¨": 4818,
      "è¯»åıĸ": 4819,
      "è£ģ": 4820,
      "æĹ¶éĹ´åĴĮ": 4821,
      "ä¼łç»ŁçļĦ": 4822,
      "ï¼ĮåĽŀ": 4823,
      "å¡«": 4824,
      "Ġç¬¬ä¸īæŃ¥": 4825,
      "æĮĸæİĺ": 4826,
      "CT": 4827,
      "ä¸Ģéĺµ": 4828,
      "åĲĪçī©": 4829,
      "èĤ´": 4830,
      "åķĬ": 4831,
      "çķĮçļĦ": 4832,
      "ql": 4833,
      "æĬµ": 4834,
      "æĺ¯ä¸Ģæ¬¡": 4835,
      "èĢģå¹´": 4836,
      "ï¼ĮæĪĳä»¬åı¯ä»¥æĽ´å¥½åľ°çĲĨè§£": 4837,
      "èĮĥåĽ´åĨħ": 4838,
      "å¡ĳéĢł": 4839,
      "çļ±": 4840,
      "æĪĳçļĦ": 4841,
      "å¿ĥçģµ": 4842,
      "å¹´çļĦ": 4843,
      "è½¬æĬĺ": 4844,
      "åģļå¥½": 4845,
      "æĺĵäºİ": 4846,
      "ç»ĻäºĪ": 4847,
      "è´ŃæĪ¿": 4848,
      "æĲº": 4849,
      "çĵ·": 4850,
      "ĠåĽĽ": 4851,
      "åŁĥ": 4852,
      "èĤĿ": 4853,
      "æķĪçĽĬ": 4854,
      "éľĢè¦ģåľ¨": 4855,
      "æľĢæĸ°": 4856,
      "èį¡": 4857,
      "å¤įåĪ¶": 4858,
      "æī¾åĩº": 4859,
      "æŀģå¤§": 4860,
      "çļĦçĹħ": 4861,
      "yp": 4862,
      "æ¦": 4863,
      "ï¼Įæ¿Ģåıĳ": 4864,
      "çļĦèµ·æºĲ": 4865,
      "æĮĤ": 4866,
      "åħ¬çĽĬ": 4867,
      "éĹ®é¢ĺçļĦ": 4868,
      "æĸŃè·¯": 4869,
      "stic": 4870,
      "---": 4871,
      "æĭħä»»": 4872,
      "æ±īè¯Ń": 4873,
      "åĿļå®ŀåŁºç¡Ģ": 4874,
      "ign": 4875,
      "è·Łè¸ª": 4876,
      "èĸĦ": 4877,
      "Ġy": 4878,
      "ä¸ŃçļĦä½ľçĶ¨": 4879,
      "çĶµè§Ĩ": 4880,
      "åĽ¾çīĩ": 4881,
      "æ¯Ķä¾ĭ": 4882,
      "çļĦæĥ³": 4883,
      "æ³¢åĬ¨": 4884,
      "èĨ³": 4885,
      "çĵ¶": 4886,
      "æī©å¤§": 4887,
      "çİīç±³": 4888,
      "ï¼Įä¾¿": 4889,
      "çļĦå£°éŁ³": 4890,
      "åĨł": 4891,
      "æĸĩæĺİ": 4892,
      "åŃĲéĩĮ": 4893,
      "çĽ¸æ¯Ķ": 4894,
      "å®ŀçİ°é¢ĦæľŁç»ĵæŀľ": 4895,
      "æ£ĭ": 4896,
      "è¯ģæį®": 4897,
      "çļĦæłĩ": 4898,
      "çļĦæĥħèĬĤ": 4899,
      "æ¹¾": 4900,
      "åį«çĶŁ": 4901,
      "åĢŁéī´": 4902,
      "ust": 4903,
      "ä¸Ģåľº": 4904,
      "è´¯": 4905,
      "åĲĮäºĭ": 4906,
      "åħ±é¸£": 4907,
      "å¨ľ": 4908,
      "ï¼Įåĭĩ": 4909,
      "å¥ĳ": 4910,
      "æĪĳä»¬åľ¨": 4911,
      "æĿİæĸĩ": 4912,
      "è´¨çĸĳ": 4913,
      "æĸ¹éĿ¢çļĦ": 4914,
      "éļ¾é¢ĺ": 4915,
      "ï¼ĮèĢĮä¸įæĺ¯": 4916,
      "çĶŁæĢģçİ¯å¢ĥ": 4917,
      "è´¢å¯Į": 4918,
      "æ¶īåıĬåĪ°": 4919,
      "éĢļè¿ĩä»¥ä¸ĬæŃ¥éª¤": 4920,
      ".c": 4921,
      "è¿ĩäºİ": 4922,
      "å¹»": 4923,
      "ç´«": 4924,
      "å®¶çļĦ": 4925,
      "ç®ĢåĮĸ": 4926,
      "ä¼Ĺå¤ļ": 4927,
      "dex": 4928,
      "èķ´åĲ«": 4929,
      "ç¬ĳäºĨç¬ĳ": 4930,
      "iz": 4931,
      "ä¸¹": 4932,
      "ï¼Įä¿ĿæĬ¤": 4933,
      "å¼¦": 4934,
      "åĬĽäºİ": 4935,
      "âĢľå°ı": 4936,
      "çŃīé¢ĨåŁŁ": 4937,
      "æ±¤": 4938,
      "èĢĥéªĮ": 4939,
      "æĮĩåįĹ": 4940,
      "éħįåĲĪ": 4941,
      "æ¸©æļĸ": 4942,
      "è¯¯å·®": 4943,
      "æµĵåİļçļĦåħ´è¶£": 4944,
      "çļĦç«ŀäºī": 4945,
      "est": 4946,
      "ãĢĤèĻ½çĦ¶": 4947,
      "æĭĸ": 4948,
      "åŁºéĩĳ": 4949,
      "æ¡Į": 4950,
      "ï¼Įä½Ĩä¹Ł": 4951,
      "ãĢĤéĢļè¿ĩè¿ĻäºĽ": 4952,
      "æĹ¶éĹ´åĨħ": 4953,
      "ç§ĳåŃ¦çļĦ": 4954,
      "ï¼Įåİ»": 4955,
      "å®ģéĿĻ": 4956,
      "è½¬åĮĸä¸º": 4957,
      "åıĻ": 4958,
      "ä¼¯": 4959,
      "å¦Ĥä¸ĭ": 4960,
      "èµĦäº§": 4961,
      "ç¼ĺ": 4962,
      "ä»¥ä¸ĭåĳ½ä»¤": 4963,
      "çĶ¨æĪ·çļĦ": 4964,
      "æĵį": 4965,
      "åĤħ": 4966,
      "å¹¿æ³ĽçļĦ": 4967,
      "åħļåĳĺ": 4968,
      "å¯¿åĳ½": 4969,
      "qu": 4970,
      "ï¼ĮçĶ±äºİ": 4971,
      "èĥĢ": 4972,
      "æı´": 4973,
      "åĬłè½½": 4974,
      "ä¸īä¸ª": 4975,
      "ä¾ĽåºĶéĵ¾": 4976,
      "HTTP": 4977,
      "éŁ©åĽ½": 4978,
      "\",": 4979,
      "çļĦçİ¯å¢ĥ": 4980,
      "å®ĭ": 4981,
      "çİ°çĬ¶": 4982,
      "çļĦç±": 4983,
      "éģ¥": 4984,
      "ãĢĤéĢļè¿ĩåŃ¦ä¹ł": 4985,
      "ï¼ĮéĤ£ä¹Ī": 4986,
      "çļĦæİ¢ç´¢": 4987,
      "ject": 4988,
      "ï¼Įä¸ŃåĽ½": 4989,
      "çļĦçĶŁéķ¿": 4990,
      "çĶĺ": 4991,
      "çļĦæ£": 4992,
      "èģĤ": 4993,
      "å¼ķæĵİ": 4994,
      "æĽ´åĬłåĿļå®ļ": 4995,
      "æĽ´å¥½åľ°åºĶå¯¹": 4996,
      "çŁĽçĽ¾": 4997,
      "çıł": 4998,
      "è®¶": 4999,
      "ä¿Ĺ": 5000,
      "æķ°æİ§": 5001,
      "çŃīå¤ļç§į": 5002,
      "éĽĢ": 5003,
      "åħīçº¿": 5004,
      "å¿«ä¹Ĳ": 5005,
      "ç«łèĬĤ": 5006,
      "åĪ¤æĢ§": 5007,
      "åĬŀåħ¬å®¤": 5008,
      "AP": 5009,
      "pp": 5010,
      "pro": 5011,
      "çļĦç»ıåİĨ": 5012,
      "åıī": 5013,
      "æĪ´": 5014,
      "äºĨå¯¹": 5015,
      "ä¸Ģå®¶": 5016,
      "ä¸Ĭæµ·": 5017,
      "ç»Łä¸Ģ": 5018,
      "èĢĥå¯Ł": 5019,
      "ä¿ĥè¿ĽäºĨ": 5020,
      "åĿĩè¡¡": 5021,
      "çļĦæ¸©": 5022,
      "æİ¥ä¸ĭæĿ¥çļĦ": 5023,
      "çļĦæĶ¿æ²»": 5024,
      "ä¸Ńå¤®": 5025,
      "ãĢģãĢĬ": 5026,
      "çĽĹ": 5027,
      "åĩ¡": 5028,
      "æıĲéĨĴ": 5029,
      "éĺŁåıĭ": 5030,
      "å®ŀéĻħæ¡Īä¾ĭ": 5031,
      "æĿĥåĬĽ": 5032,
      "è´¡çĮ®èĩªå·±çļĦåĬĽéĩı": 5033,
      "ç¿¼ç¿¼": 5034,
      "æĥĬè®¶": 5035,
      "çĪ±å¥½èĢħ": 5036,
      "Pro": 5037,
      "ãĢĤ###": 5038,
      "åĲ´": 5039,
      "éĢĥ": 5040,
      "æĺ¯éĢļè¿ĩ": 5041,
      "å¹½": 5042,
      "åĩºçļĦ": 5043,
      "æ·±åĲ¸": 5044,
      "èĬ¯": 5045,
      "åģ¶": 5046,
      "ï¼īãĢĤ": 5047,
      "å¤Ħäºİ": 5048,
      "ä¹Ĳè¶£": 5049,
      "éļ¾åº¦": 5050,
      "èħ»": 5051,
      "çļĦæĶ¹": 5052,
      "å¤§éĩıçļĦ": 5053,
      "çļĦæĬĢå·§": 5054,
      "ON": 5055,
      "ãĢĤèµµ": 5056,
      "å¸®": 5057,
      "çĶŁåŃĺ": 5058,
      "æľºéģĩ": 5059,
      "çĽ¸åĲĮ": 5060,
      "çļĦæīĢæľī": 5061,
      "èļĢ": 5062,
      "udent": 5063,
      "ĠU": 5064,
      "ä¸Ńåħħæ»¡äºĨ": 5065,
      "æĽ´åħ¨éĿ¢": 5066,
      "çļĦç¹ģ": 5067,
      "æĻĭ": 5068,
      "ï¼Įä»İèĢĮåľ¨": 5069,
      "èŀº": 5070,
      "èħ¹": 5071,
      "html": 5072,
      "æķĮäºº": 5073,
      "åĺī": 5074,
      "æįķæįī": 5075,
      "OS": 5076,
      "åĴĮè°ĥæķ´": 5077,
      "è¿Ľå±ķ": 5078,
      "æ´ª": 5079,
      "çī©ä¸ļ": 5080,
      "å°ıæĹ¶": 5081,
      "åħ¬å¼Ģ": 5082,
      "ç¤¾ä¼ļä¸Ń": 5083,
      "æ®¿": 5084,
      "æĸ½å·¥": 5085,
      "æĮĳæĪĺåĴĮ": 5086,
      "éĩĬæĶ¾": 5087,
      "é¡ºåºı": 5088,
      "æ¶¦æ»ĳ": 5089,
      "çĪ¶äº²": 5090,
      "çļĦæĹ¶åĢĻ": 5091,
      "ãĢĤåŃ¦æł¡": 5092,
      "å°¸": 5093,
      "èĩªä¸»": 5094,
      "ç³ķ": 5095,
      "æ°´ç¨»": 5096,
      "çģĮ": 5097,
      "çĮĽ": 5098,
      "åħ³ç³»åĪ°": 5099,
      "æµ·åĨĽ": 5100,
      "åĪĿæŃ¥": 5101,
      "å®ĮæĪĲåĲİ": 5102,
      "ï¼Įå°ıæĺİ": 5103,
      "ach": 5104,
      "ĠH": 5105,
      "Ġg": 5106,
      "ç»ķ": 5107,
      "åºĻ": 5108,
      "åľ°åĽ¾": 5109,
      "å¿ĥèĦı": 5110,
      "åľºæīĢ": 5111,
      "åĪĽä¸ļ": 5112,
      "ç²¥": 5113,
      "ç¾İé£Ł": 5114,
      "æĳ¸": 5115,
      "åħ¨éĿ¢åıĳå±ķ": 5116,
      "å¹²æī°": 5117,
      "æī®æ¼ĶçĿĢ": 5118,
      "ä¼ı": 5119,
      "æĹ¦": 5120,
      "æĥľ": 5121,
      "è°Ĭ": 5122,
      "ï¼īĊĊ": 5123,
      "æĹ¥çĽĬ": 5124,
      "èĥĮåĲİçļĦ": 5125,
      "ï¼Įå¸¸": 5126,
      "çħ®": 5127,
      "ç¦»å¼Ģ": 5128,
      "æĳĦåĥı": 5129,
      "æĴŃæĶ¾": 5130,
      "ï¼Įåį´": 5131,
      "åĿļå®ļåľ°è¯´": 5132,
      "mple": 5133,
      "ï¼ĮåĨ³": 5134,
      "set": 5135,
      "sion": 5136,
      "Ġæĺ¯": 5137,
      "ï¼ĮæĹ¢": 5138,
      "çļĦè§Ĵèī²": 5139,
      "çļĦèĲ¥åħ»": 5140,
      "ãĢĤç»ıè¿ĩ": 5141,
      "æĺĨ": 5142,
      "âĢľæĪĳ": 5143,
      "æģ©": 5144,
      "åıĹåĪ°äºĨ": 5145,
      "atch": 5146,
      "éĺ²å¾¡": 5147,
      "å¢ŀåĬłäºĨ": 5148,
      "æ³ķå¾ĭæ³ķè§Ħ": 5149,
      "çļĦæıı": 5150,
      "JavaScript": 5151,
      "Lin": 5152,
      "çļĦæľªæĿ¥": 5153,
      "åĴĮæĸ¹æ³ķ": 5154,
      "çĶ¨éĢĶ": 5155,
      "çļĦçĸ": 5156,
      "æ±ģ": 5157,
      "çĶŁæ´»è´¨éĩı": 5158,
      "å½ĵä»£": 5159,
      "ï¼Įåı¯ä»¥éĢļè¿ĩ": 5160,
      "log": 5161,
      "å¤ļæł·åĮĸ": 5162,
      "åĪĨå¸ĥå¼ı": 5163,
      "ä¼ĺç§ĢçļĦ": 5164,
      "ä¸ĵæ³¨äºİ": 5165,
      "æīĢåŃ¦çŁ¥è¯Ĩ": 5166,
      "çļĦç±»": 5167,
      "ext": 5168,
      "æľ±": 5169,
      "åĪĳ": 5170,
      "è§£çŃĶ": 5171,
      "åħ³éĹŃ": 5172,
      "å±ķå¼Ģ": 5173,
      "ï¼Įå¹¶ä¸Ķ": 5174,
      "æ»¡äºĨ": 5175,
      "å¯Įæľī": 5176,
      "èĩ´åĬĽäºİ": 5177,
      "è¯Ħè®º": 5178,
      "ist": 5179,
      "æĿľ": 5180,
      "æĺ¯ç¡®ä¿Ŀ": 5181,
      "æľīçĽĬ": 5182,
      "å½»": 5183,
      "æĸ¹ç¨ĭ": 5184,
      "èĩªå·±åľ¨": 5185,
      "äºĭåĬ¡": 5186,
      "åĽ¾å½¢": 5187,
      "ãĢĭãĢģãĢĬ": 5188,
      "åĿļä¿¡": 5189,
      "åĳ½åĲį": 5190,
      "åĪĽæĸ°åĴĮ": 5191,
      "åħ´è¶£åĴĮ": 5192,
      "çĶŁæĢģç³»ç»Ł": 5193,
      "è¿Ļä¹Ī": 5194,
      "çĶ¨å¿ĥåİ»": 5195,
      "é¢ĸ": 5196,
      "çļĦçĬ": 5197,
      "åīĬ": 5198,
      "çŃĸåĪĴ": 5199,
      "åıįå¤į": 5200,
      "è®°è½½": 5201,
      "èĮĦ": 5202,
      "æıĲä¾ĽäºĨå®Ŀè´µçļĦ": 5203,
      "åĽŀé¡¾": 5204,
      "æĳĺ": 5205,
      "è´ŁéĿ¢": 5206,
      "åī§æĥħ": 5207,
      "å¥ĸåĬ±": 5208,
      "æĮ«æĬĺ": 5209,
      "ç¿¼ç¿¼åľ°": 5210,
      "Ġr": 5211,
      "çļĩ": 5212,
      "åĴĮä½¿çĶ¨": 5213,
      "åĨ¬": 5214,
      "èµ«": 5215,
      "çļĦç³": 5216,
      "çľł": 5217,
      "æĺİæĻº": 5218,
      "åĪĨæŀĲåĴĮ": 5219,
      "éŁ³é¢ĳ": 5220,
      "åħħè¶³": 5221,
      "æļĤ": 5222,
      "çļĦæĦıè§ģ": 5223,
      "çĬ¯ç½ª": 5224,
      "èĤ©èĨĢ": 5225,
      "åľ¨ä¸Ģèµ·": 5226,
      "çļĦæŁ": 5227,
      "å½¹": 5228,
      "ç§įç±»": 5229,
      "éĩıåŃĲ": 5230,
      "çº¿ç´¢": 5231,
      "åıĭè°Ĭ": 5232,
      "æĽ¾ç»ı": 5233,
      "ï¼Įå¯»æī¾": 5234,
      "Ġä»Ģä¹Īæĺ¯": 5235,
      "ï¼Įé¦ĸåħĪ": 5236,
      "è¿ª": 5237,
      "ä¸ĢèĪ¬": 5238,
      "åŃ¦ä¸ļ": 5239,
      "æĹģ": 5240,
      "äºĨè§£åĪ°": 5241,
      "å¸ĤåľºçļĦ": 5242,
      "èıľèĤ´": 5243,
      "è¡Ģæ¶²": 5244,
      "é¢Ŀå¤ĸ": 5245,
      "Ġç¬¬åĽĽæŃ¥": 5246,
      "RE": 5247,
      "ãĢĤä¸ŃåŃ¦çĶŁ": 5248,
      "åĴĮèµĦæºĲ": 5249,
      "åİħ": 5250,
      "âĢľè¿Ļ": 5251,
      "å¢Ļ": 5252,
      "ä¼łçĲĥ": 5253,
      "è¿Ĳç®Ĺ": 5254,
      "è§ģè§£": 5255,
      "åĲ¯åıĳ": 5256,
      "å¹¿æ³ĽçļĦåºĶçĶ¨": 5257,
      "éĿĴå°ĳå¹´": 5258,
      "åłĨ": 5259,
      "éĻĦå½ķ": 5260,
      "ç¡¬ä»¶": 5261,
      "Ġ/": 5262,
      "çļĦä½ľåĵģ": 5263,
      "è¡Ĺ": 5264,
      "åıĳè¡¨": 5265,
      "ä½ĵä¼ļ": 5266,
      "åĪ°äºĨä¸Ģä¸ª": 5267,
      "è£ħç½®": 5268,
      "çº¢èī²": 5269,
      "æ±īåŃĹ": 5270,
      "åľ¨è¿ĻæĹ¶": 5271,
      "ka": 5272,
      "çļĦä¸ĵä¸ļ": 5273,
      "äº¡": 5274,
      "çĲ³": 5275,
      "çĲĨæĢ§": 5276,
      "å¿ĺ": 5277,
      "éĹ²": 5278,
      "èĩªå®ļä¹ī": 5279,
      "èģª": 5280,
      "ï¼Įè¿ĺéľĢè¦ģ": 5281,
      "éĢĤçĶ¨": 5282,
      "åīįæīĢ": 5283,
      "asy": 5284,
      "åĪĿæľŁ": 5285,
      "åŃ¦ä¼ļå¦Ĥä½ķ": 5286,
      "çĶµåŃĲåķĨåĬ¡": 5287,
      ")ĊĊ": 5288,
      "java": 5289,
      "ost": 5290,
      "æĢķ": 5291,
      "çī§": 5292,
      "ä¸ŃçļĦä¸Ģä¸ª": 5293,
      "æģĲ": 5294,
      "è±«": 5295,
      "æıĲåįĩèĩªå·±çļĦ": 5296,
      "æĤ£èĢħçļĦ": 5297,
      "èįīèį¯": 5298,
      "æĸŃè·¯åĻ¨": 5299,
      "çļĦçĲĨè®º": 5300,
      "âĢ¦": 5301,
      "åı¯ä»¥ä½¿çĶ¨": 5302,
      "ä¸įä»ħæıĲé«ĺäºĨ": 5303,
      "ä¼łå¥ĩ": 5304,
      "æº¯": 5305,
      "çĶµæ±ł": 5306,
      "ï¼Įä»¥ä¸ĭ": 5307,
      "åİŁåŃĲ": 5308,
      "éĢŁåº¦åĴĮ": 5309,
      "åĽŀåºĶ": 5310,
      "Ġnew": 5311,
      "æķıæĦŁ": 5312,
      "çļĦæıĲåįĩ": 5313,
      "çļĦç¥ŀç§ĺ": 5314,
      "é©±åĬ¨": 5315,
      "çļĦæ³¨æĦı": 5316,
      "ç°": 5317,
      "ï¼Įå¤§åŃ¦çĶŁ": 5318,
      "ä¼ļä¸Ĭ": 5319,
      "åĲĪåĲĮ": 5320,
      "æĸ°åŀĭ": 5321,
      "çľĭèµ·æĿ¥": 5322,
      "ç¾İåĳ³": 5323,
      "åĨ³å®ļäºĨ": 5324,
      "çİ°ä»£åĮĸ": 5325,
      "åĢ¾åĲ¬": 5326,
      "éŀ": 5327,
      "åŃ¤": 5328,
      "åįľ": 5329,
      "è§£å¼Ģ": 5330,
      "æ³ķåĴĮ": 5331,
      "è®¤çľŁ": 5332,
      "åı¤ç±į": 5333,
      "åı¯ä»¥å¸®åĬ©ä½ł": 5334,
      "çļĦæ¡Ī": 5335,
      "è¿Ļä»½": 5336,
      "ä¼ļåľ¨": 5337,
      "è¿Ľåº¦": 5338,
      "çĶµçĥŃ": 5339,
      "æķ°æį®ç»ĵæŀĦ": 5340,
      "åīįå¾Ģ": 5341,
      "éĵľ": 5342,
      "å¸Ĥåľºä¸Ĭ": 5343,
      "ang": 5344,
      "app": 5345,
      "åı¦ä¸Ģ": 5346,
      "æľīéĻĲåħ¬åı¸": 5347,
      "ï¼ĮæĹł": 5348,
      "æ¸¡": 5349,
      "éĢīæĭ©ä¸Ģä¸ª": 5350,
      "èĲ¨": 5351,
      "éĿĻæĢģ": 5352,
      "çĨĻ": 5353,
      "é£İæł¼åĴĮ": 5354,
      "åīįæīĢæľª": 5355,
      "Re": 5356,
      "ï¼Įè¯¥": 5357,
      "çļĦåŃ¦çĶŁ": 5358,
      "ä¸ĢåĪĩ": 5359,
      "éĢĨ": 5360,
      "åĩŃ": 5361,
      "æľ¬åľ°": 5362,
      "çĸ²": 5363,
      "æµģè¡Į": 5364,
      "ï¼Įåı¯ä»¥ä½¿çĶ¨": 5365,
      "çľŁçĽ¸": 5366,
      "ress": 5367,
      "å¯Ĩåº¦": 5368,
      "è¾ĥé«ĺçļĦ": 5369,
      "å±ĤéĿ¢": 5370,
      "åŃ¦æľ¯çłĶç©¶": 5371,
      "ĠPro": 5372,
      "ï¼Įåıªè¦ģæĪĳä»¬": 5373,
      "è½¬æį¢ä¸º": 5374,
      "èĬ¯çīĩ": 5375,
      "ãĢĤæł¹æį®": 5376,
      "æĬĳ": 5377,
      "å®¶ä¸Ń": 5378,
      "æĦıè§ģ": 5379,
      "çº¿æĢ§": 5380,
      "éĵº": 5381,
      "èĭĹ": 5382,
      "è§ĴèĲ½": 5383,
      "ç¾İçļĦ": 5384,
      "èį¯åĵģ": 5385,
      "è¾ĥå¤§": 5386,
      "è¿½æº¯": 5387,
      "èĴĤ": 5388,
      "äººéĻħåħ³ç³»": 5389,
      "LL": 5390,
      "Lo": 5391,
      "çļĦç»ĵæŀľ": 5392,
      "çłĤ": 5393,
      "éĶĲ": 5394,
      "è¢Ń": 5395,
      "çħĮ": 5396,
      "ï¼Įæ¯ıä¸ªäºº": 5397,
      "éĵ¾æİ¥": 5398,
      "åıĮæĸ¹": 5399,
      "é©¾é©¶": 5400,
      "åı¯è§Ĩ": 5401,
      "çļĦæ»": 5402,
      "âĢĿåŃĹ": 5403,
      "é«ĺæł¡": 5404,
      "ä¸įä»ħæĺ¯ä¸Ģç§į": 5405,
      "èĤº": 5406,
      "è¿ĺåı¯ä»¥": 5407,
      "æºª": 5408,
      "æ¤Ĵ": 5409,
      "åĭĴ": 5410,
      "é¢ĳç¹ģ": 5411,
      "çłĶè®¨": 5412,
      "åĬłæ·±å¯¹": 5413,
      "ï¼Įä¸ĢäºĽ": 5414,
      "ãĢĤçĶ±äºİ": 5415,
      "èĩªä¿¡å¿ĥ": 5416,
      "å¦Ĥåħ¶": 5417,
      "ç»Ĩèħ»": 5418,
      "å¸ĪåĤħ": 5419,
      "ä¸ľè¥¿": 5420,
      "ï¼ĮåĩĨ": 5421,
      "æ¶Īè´¹èĢħçļĦ": 5422,
      "çĸĳæĥĳ": 5423,
      "Spa": 5424,
      "HTML": 5425,
      "çļĦæ´»åĬ¨": 5426,
      "ï¼ĮåĿļ": 5427,
      "('": 5428,
      "ample": 5429,
      "ff": 5430,
      "tur": 5431,
      "æŁ³": 5432,
      "ĠIn": 5433,
      "çļĦå¤įæĿĤ": 5434,
      "çļĦåĲ¯ç¤º": 5435,
      "ä¸ĭéĿ¢": 5436,
      "æĶ¶èİ·": 5437,
      "çªģå¦Ĥåħ¶": 5438,
      "å¿ĹæĦ¿": 5439,
      "éķľå¤´": 5440,
      "éĻ·åħ¥äºĨ": 5441,
      "æ¬§æ´²": 5442,
      "è¾īçħĮ": 5443,
      "çļĦå½¢æĪĲ": 5444,
      "æŀ£": 5445,
      "éķ¿åº¦": 5446,
      "æķ´åĲĪ": 5447,
      "éĺŁä¼į": 5448,
      "éĺ²æĬ¤": 5449,
      "å¹¿éĺĶ": 5450,
      "åıĳçİ°äºĨä¸Ģ": 5451,
      "out": 5452,
      "Ġpublic": 5453,
      "åľ°çĲĨä½įç½®": 5454,
      "çļĦæĥħåĨµä¸ĭ": 5455,
      "ire": 5456,
      "ç§©": 5457,
      "çĶŁçĲĨ": 5458,
      "åĮĸåĲĪçī©": 5459,
      "ä¸ĬæīĢ": 5460,
      "ä½¿åĳ½": 5461,
      "å°Ĩç»§ç»Ń": 5462,
      "ers": 5463,
      "è®¾è®¡åĴĮ": 5464,
      "èģĮä¸ļè§ĦåĪĴ": 5465,
      "ï¼Įä¸Ģä½į": 5466,
      "Ġfor": 5467,
      "éªĳå£«": 5468,
      "çļĦæ¡Īä¾ĭ": 5469,
      "ï¼Įæł¹æį®": 5470,
      "åĴĮæĿİ": 5471,
      "åĴĮåŃ¦ä¹ł": 5472,
      "åĴĮå»ºè®®": 5473,
      "çĽĨ": 5474,
      "åıĳåĩº": 5475,
      "æĪĲçĨŁ": 5476,
      "åĲĪçº¦": 5477,
      "èĤĥ": 5478,
      "åī²": 5479,
      "æĤ¬": 5480,
      "è¯¦ç»Ĩæİ¢è®¨": 5481,
      "åĩıè½»": 5482,
      "æĩĤ": 5483,
      "çĩĥçĥ§": 5484,
      "ç«ŁçĦ¶": 5485,
      "ç§©åºı": 5486,
      "çļĦåĪ¶ä½ľ": 5487,
      "åĵĪ": 5488,
      "æķĻè®Ń": 5489,
      "indow": 5490,
      "æ¼Ķåıĺ": 5491,
      "ool": 5492,
      "ï¼Įå±ķçİ°äºĨ": 5493,
      "](": 5494,
      "çļĦå¤ĸ": 5495,
      "ãĢĤæ¯Ķå¦Ĥ": 5496,
      "è¿Ļåľº": 5497,
      "ä»ĸäººçļĦ": 5498,
      "æķĻä¼ļ": 5499,
      "æĦŁåĻ¨": 5500,
      "éļĨ": 5501,
      "æľĽçĿĢ": 5502,
      "æ¸¸æĪıçļĦ": 5503,
      "ä»·åĢ¼åĴĮ": 5504,
      "äºĴçĽ¸": 5505,
      "é«ĺæķĪåľ°": 5506,
      "è¯ļä¿¡": 5507,
      "åįłæį®": 5508,
      "ginx": 5509,
      "ï¼ĮåĨ³å®ļ": 5510,
      "turn": 5511,
      "TI": 5512,
      "åľ¨å®ŀéĻħ": 5513,
      "çĽŁ": 5514,
      "ï¼Įè¿ĺæĺ¯": 5515,
      "å¹³éĿĻ": 5516,
      "æľĢè¿ĳ": 5517,
      "æł¼åħ°": 5518,
      "åİŁæĸĻ": 5519,
      "ç¥ŀå¥ĩ": 5520,
      "org": 5521,
      "æ¸¸æĪıä¸ŃçļĦ": 5522,
      "å®ĿèĹı": 5523,
      "éĵģæŁ±": 5524,
      "ä¼ĳæģ¯": 5525,
      "PD": 5526,
      "Ġæł¹æį®": 5527,
      "ï¼Įæ»¡è¶³": 5528,
      "æľĹ": 5529,
      "å®¿": 5530,
      "ä¸ŃæľĢ": 5531,
      "ä¸įè¦ģ": 5532,
      "éĢļéģĵ": 5533,
      "åľ°éľĩ": 5534,
      "æĮ¤": 5535,
      "åıĺè¿ģ": 5536,
      "å¹´é¾Ħ": 5537,
      "èĲ¥éĢł": 5538,
      "ï¼Įä»İèĢĮå®ŀçİ°": 5539,
      "åŃ¦æł¡çļĦ": 5540,
      "åĩºçİ°äºĨ": 5541,
      "æĢĿç»´åĴĮ": 5542,
      "åħĪè¿ĽçļĦ": 5543,
      "ocker": 5544,
      "ä¸ĬæīĢè¿°": 5545,
      "Id": 5546,
      "Vue": 5547,
      "ux": 5548,
      "çļĦåİŁåĽł": 5549,
      "åľ¨éĿ¢å¯¹": 5550,
      "æłĪ": 5551,
      "åħ³å¿ĥ": 5552,
      "ãĢĤè¿ĻæĦıåĳ³çĿĢ": 5553,
      "åŃĲçļĦ": 5554,
      "çķı": 5555,
      "åĪ©æ¶¦": 5556,
      "åıĤè§Ĥ": 5557,
      "å®ŀéĻħæĥħåĨµ": 5558,
      "éľĢæ±ĤåĴĮ": 5559,
      "ice": 5560,
      "ä»¤äºº": 5561,
      "å¾®ç¬ĳçĿĢåĽŀçŃĶ": 5562,
      "äº§çĶŁäºĨæ·±è¿ľçļĦå½±åĵį": 5563,
      "æĢĢçĸĳ": 5564,
      "Ġreturn": 5565,
      "ãĢĤå¯¹äºİä¸ŃåŃ¦çĶŁæĿ¥è¯´": 5566,
      "Ġå¦Ĥæŀľ": 5567,
      "ï¼ĮåĪĻ": 5568,
      "ï¼ĮéĢĲæ¸Ĳ": 5569,
      "éĩī": 5570,
      "å¯Ĵ": 5571,
      "ï¼Įè¿ĺæľī": 5572,
      "åĦĴ": 5573,
      "ç»¼ä¸ĬæīĢè¿°": 5574,
      "æ²³æµģ": 5575,
      "äº¬åī§": 5576,
      "å¡ĳæĸĻ": 5577,
      "é¡ºåĪ©è¿Ľè¡Į": 5578,
      "ï¼Įäººä»¬": 5579,
      "ï¼Įåĵ": 5580,
      "ãĢģé«ĺ": 5581,
      "æķĻæĿĲ": 5582,
      "çĤ¹çĤ¹å¤´": 5583,
      "çĪĨ": 5584,
      "ä¸ĵéĹ¨": 5585,
      "è¯ģä¹¦": 5586,
      "çļĦæİ§": 5587,
      "ook": 5588,
      "é¢Ĩå¯¼åĬĽ": 5589,
      "fr": 5590,
      "çļĦå®ŀçİ°": 5591,
      "ãĢĤæĿİæĺİ": 5592,
      "ä¸ĢèĤ¡": 5593,
      "ä¸įèī¯": 5594,
      "ä¿ĿçķĻ": 5595,
      "äºĨè§£äºĨ": 5596,
      "åħ»çĶŁ": 5597,
      "æ³¨éĩĬ": 5598,
      "index": 5599,
      "ï¼Įæ¯ıä¸Ģä¸ª": 5600,
      "æįŁåĿı": 5601,
      "å¥½å¥ĩåľ°éĹ®": 5602,
      ".js": 5603,
      "CP": 5604,
      "ĠåŃ¦ä¹ł": 5605,
      "ï¼ĮéĢĤçĶ¨äºİ": 5606,
      "ï¼ļå¦Ĥä½ķ": 5607,
      "ä¹ĺ": 5608,
      "å¸Ń": 5609,
      "ä¸įçŁ¥éģĵ": 5610,
      "è¯Ńåı¥": 5611,
      "ãĢĭĊĊ": 5612,
      "çľŁæĺ¯": 5613,
      "æĶ¶çĽĬ": 5614,
      "è¿ľç¨ĭ": 5615,
      "å¯Ĩå°ģ": 5616,
      "è§Ĵèī²æī®æ¼Ķ": 5617,
      "åĳ¨è¾¹": 5618,
      "éħįç½®æĸĩä»¶": 5619,
      "çĪ¶æ¯į": 5620,
      "è°ľåĽ¢": 5621,
      "åĩºçīĪç¤¾": 5622,
      "æµıè§ĪåĻ¨": 5623,
      "Ġ#": 5624,
      "å½¼": 5625,
      "æĬĢèīº": 5626,
      "ãĢĤä»ĸæĺİçĻ½": 5627,
      "ï¼īæĺ¯": 5628,
      "æĮĩæĮ¥": 5629,
      "å®ŀéĻħéĹ®é¢ĺ": 5630,
      "ç®Ģä»ĭ": 5631,
      "å¯¹äºİä¸ŃåŃ¦çĶŁæĿ¥è¯´": 5632,
      "çļĦåľ°çĲĨ": 5633,
      "åįļçī©": 5634,
      "å°¤ä¸ºéĩįè¦ģ": 5635,
      ">`": 5636,
      "oid": 5637,
      "èĢķ": 5638,
      "åĪĨæķ£": 5639,
      "çķľ": 5640,
      "ç®¡éģĵ": 5641,
      "æĤł": 5642,
      "è·¯çº¿": 5643,
      "åĭ¤": 5644,
      "èĥĮæĻ¯ä¸ĭ": 5645,
      "åĲ«éĩı": 5646,
      "ä¸ĸçķĮçļĦ": 5647,
      "åĲ¬äºĨ": 5648,
      "ï¼Įå¼º": 5649,
      "éĿŀå¸¸éĩįè¦ģçļĦ": 5650,
      "åĲ¸å¼ķåĬĽ": 5651,
      "æ²īé»ĺ": 5652,
      "å¹¶ä¸įæĺ¯": 5653,
      "ãĢĤæľ¬æĸĩå°Ĩ": 5654,
      "ï¼ĮåĲĪçĲĨ": 5655,
      "åŃŁ": 5656,
      "ä¸ºä¸»": 5657,
      "æ¡ĳ": 5658,
      "çĶµåĬĽ": 5659,
      "æ¶¨": 5660,
      "ç®¡çĲĨçļĦ": 5661,
      "ä¹ĲéĺŁ": 5662,
      "æĢ»ä½ĵ": 5663,
      "ï¼Įä¸ºæľªæĿ¥": 5664,
      "ç²¾åĩĨ": 5665,
      "ç§¯åĪĨ": 5666,
      "éĽĨåĲĪ": 5667,
      "å²Ĺ": 5668,
      "åŁİå¸Ĥè§ĦåĪĴ": 5669,
      "AC": 5670,
      "ï¼ĮçĽ´": 5671,
      "çļĦå¿ĥ": 5672,
      "åĴĮå¹³": 5673,
      "æĢĴ": 5674,
      "å¿į": 5675,
      "æ³¥": 5676,
      "æĽ´ä¸º": 5677,
      "æĽ´æį¢": 5678,
      "æ¯ıä¸Ģ": 5679,
      "éĽĨåĽ¢": 5680,
      "åģ¥åº·çļĦ": 5681,
      "çģ«æĺŁ": 5682,
      "åĪĽéĢłåĬĽ": 5683,
      "åł¡": 5684,
      "èĴĻ": 5685,
      "å®ŀéĻħåºĶçĶ¨ä¸Ń": 5686,
      "çļĦæ¤": 5687,
      "éĩįç»Ħ": 5688,
      "ä¸ŃçļĦéĩįè¦ģ": 5689,
      "æ¸¸å®¢": 5690,
      "çĬ¹": 5691,
      "æ¼Ķå¥ı": 5692,
      "åİĭç¼©": 5693,
      "æĢ§èĥ½åĴĮ": 5694,
      "ï¼ĮåĽ½": 5695,
      "è¡£çī©": 5696,
      "ï¼Įè¢«": 5697,
      "çļĦäºĨè§£": 5698,
      "ä¼ļå¯¼èĩ´": 5699,
      "æĽ´å¤§çļĦ": 5700,
      "âĢĿãĢĤĊĊ": 5701,
      "ä¿Ŀåģ¥": 5702,
      "è¾£": 5703,
      "å°ıçļĦ": 5704,
      "åĿ¦": 5705,
      "ä¼łæĦŁåĻ¨": 5706,
      "ãĢĤä»ĸæ·±çŁ¥": 5707,
      "æ»´": 5708,
      "å¼ºçĥĪ": 5709,
      "ãĢĭçŃī": 5710,
      "ç¨³å®ļæĢ§åĴĮ": 5711,
      "çģ«ç®Ń": 5712,
      "ä¹ĭéĹ´çļĦåħ³ç³»": 5713,
      "ç¯®": 5714,
      "çªĹåı£": 5715,
      "å±ŀäºİèĩªå·±çļĦ": 5716,
      "èī°éļ¾": 5717,
      "çļĦæİ¨ç§»": 5718,
      "åı¯è§ĨåĮĸ": 5719,
      "ï¼ĮåĲĳ": 5720,
      "åľºåĲĪ": 5721,
      "èĬĤæĹ¥": 5722,
      "è®©ä»ĸä»¬": 5723,
      "æĹ¶éĹ´çļĦæİ¨ç§»": 5724,
      "æ¿ĢçĥĪçļĦ": 5725,
      "å¾Īå¥½": 5726,
      "è§Ĵèī²çļĦ": 5727,
      "load": 5728,
      "åı¶çīĩ": 5729,
      "æįŁå¤±": 5730,
      "éĩĩçĶ¨äºĨ": 5731,
      "å©·": 5732,
      "lastic": 5733,
      "è®¢åįķ": 5734,
      "ype": 5735,
      "',": 5736,
      "Ġi": 5737,
      "çļĦåŃ¦æľ¯": 5738,
      "çİ»": 5739,
      "å¥Ķ": 5740,
      "æĽ´é«ĺ": 5741,
      "éĥģ": 5742,
      "å¹³åĿĩ": 5743,
      "å£®": 5744,
      "ï¼Ł**ĊĊ": 5745,
      "å°±åľ¨è¿ĻæĹ¶": 5746,
      "ï¼ĮåĽ¢": 5747,
      "edis": 5748,
      "ift": 5749,
      "String": 5750,
      "çļĦæŀĦ": 5751,
      "èĳ¡èĲĦéħĴ": 5752,
      "çļĦéģĵè·¯ä¸Ĭ": 5753,
      "éĢļé£İ": 5754,
      "è°ĥåĳ³": 5755,
      "æĵ¦": 5756,
      "ï¼Įå®ĥä¸įä»ħ": 5757,
      "Ġ\\]": 5758,
      "è´Łæĭħ": 5759,
      "åĬŀåŃ¦": 5760,
      "æ»¡æĦıåº¦": 5761,
      "IS": 5762,
      "ï¼ĮéĢĲæŃ¥": 5763,
      "åĴĮçłĶç©¶": 5764,
      "å®ŀåľ°": 5765,
      "å°ıå®Ŀ": 5766,
      "ï¼ĮæĪĳä»¬è¦ģ": 5767,
      "ï¼Įè¿ĺä¸º": 5768,
      "æĹłæ¯Ķ": 5769,
      "ä¸ªäººçļĦ": 5770,
      "èµ°åĲĳ": 5771,
      "éĵģåĮł": 5772,
      "ä¿¡çĶ¨åį¡": 5773,
      "çļĦæĬķèµĦ": 5774,
      "ï¼Įä¸Ĭ": 5775,
      "ï¼ĮåĪĨäº«": 5776,
      "çļĦå¸Ĥåľº": 5777,
      "çļĦè®¤è¯Ĩ": 5778,
      "æĽ´é«ĺçļĦ": 5779,
      "åĮĸå¦Ĩ": 5780,
      "æµ®": 5781,
      "éģŃ": 5782,
      "èĢĮåĩº": 5783,
      "æĿİå¤§": 5784,
      "æ·±åıĹ": 5785,
      "ï¼Įå¹¶éĢļè¿ĩ": 5786,
      "çģŃ": 5787,
      "æĶ¾åħ¥": 5788,
      "å¹¿æ³ĽåºĶçĶ¨äºİ": 5789,
      "éĿ¢ä¸´çĿĢ": 5790,
      "çıįæĥľ": 5791,
      "åĽ½åĨħå¤ĸ": 5792,
      "åĢºåĪ¸": 5793,
      "å¤§åĪ©": 5794,
      "æ·ĭ": 5795,
      "ä¸įä»ħè¦ģ": 5796,
      "ä¹Łä¼ļ": 5797,
      "æĤ²": 5798,
      "ç¼Ŀ": 5799,
      "ï¼Įè¿ĺåľ¨": 5800,
      "æ®ĭ": 5801,
      "çİ¯å¢ĥåĴĮ": 5802,
      "ï¼Įä¸ºæľªæĿ¥çļĦ": 5803,
      "æī¿è½½": 5804,
      "åľ°è¯´éģĵ": 5805,
      "çļĦæŃĮ": 5806,
      "çļĦç¬¦": 5807,
      "çļĦçĬ¶": 5808,
      "Ġde": 5809,
      "ľæł·": 5810,
      "æŀĿ": 5811,
      "åħ¬å¼ı": 5812,
      "å¼ºçļĦ": 5813,
      "æĸĩåĮĸä¼łæī¿": 5814,
      "æĢĿè·¯": 5815,
      "ä¼ĺåħĪ": 5816,
      "èģĮåľº": 5817,
      "å¹¿æ³ĽåºĶçĶ¨": 5818,
      "éĽ¶ä»¶": 5819,
      "åĩĿèģļ": 5820,
      "ive": 5821,
      "ï¼Įæĸ°": 5822,
      "å¯Ħ": 5823,
      "å»ĵ": 5824,
      "è§Ĥæµĭ": 5825,
      "å¹³çŃī": 5826,
      "æŀĦéĢł": 5827,
      "å·¥ä½ľçļĦ": 5828,
      "æĿĥå¨ģ": 5829,
      "æ¶ĪåĮĸ": 5830,
      "ç¿Ķ": 5831,
      "è´Łè½½": 5832,
      "ï¼Įå°±ä¸Ģå®ļèĥ½å¤Ł": 5833,
      "å¥³åŃĲ": 5834,
      "Ġ```Ċ": 5835,
      "ä¾ĽåºĶåķĨ": 5836,
      "word": 5837,
      "å¹½é»ĺ": 5838,
      "¬éĹ´": 5839,
      "åĬ¡åĳĺ": 5840,
      "å¸®åĬ©ä½ł": 5841,
      "ç¾İè§Ĥ": 5842,
      "çĶ»ä½ľ": 5843,
      "çļĦåıĳå±ķåİĨç¨ĭ": 5844,
      "åħ±åĲĮåĬªåĬĽ": 5845,
      "æİ¨åĬ¨äºĨ": 5846,
      "é«ĺæķĪçļĦ": 5847,
      "ç¼ºçĤ¹": 5848,
      "çļĦæ¸ħ": 5849,
      "ç¿»éĺħ": 5850,
      "è½¨è¿¹": 5851,
      "çļĦç»ĵæŀĦ": 5852,
      "æ³ī": 5853,
      "åı¯ä»¥æĽ´å¥½åľ°": 5854,
      "éĺĲ": 5855,
      "ä¸įä»ħéľĢè¦ģ": 5856,
      "ãĢĤè¿ĻæľīåĬ©äºİ": 5857,
      "ä¼ĺå¼Ĥ": 5858,
      "çĭ¼": 5859,
      "åŃĹä½ĵ": 5860,
      "åĸ·": 5861,
      "çĽ´æĴŃ": 5862,
      "åıĬåħ¶å¯¹": 5863,
      "ï¼Įå¼Ģåıĳ": 5864,
      "ĠæĢ»ç»ĵä¸İ": 5865,
      "æŀģå¤§åľ°": 5866,
      "åįļçī©é¦Ĩ": 5867,
      "Ch": 5868,
      "fka": 5869,
      "Ġ.": 5870,
      "ï¼ĮçľĭçĿĢ": 5871,
      "åĴĮç»´æĬ¤": 5872,
      "äºĨè®¸å¤ļ": 5873,
      "éĢļè¿ĩå¯¹": 5874,
      "åĬłéĢŁ": 5875,
      "æĬĢæľ¯åľ¨": 5876,
      "ä¿ĿæĮģåĨ·éĿĻ": 5877,
      "å£°èªī": 5878,
      "è¿ŀçİ¯": 5879,
      "çļĦæĬĹ": 5880,
      "åĤ¨åŃĺ": 5881,
      "èĮ¶åı¶": 5882,
      "çŁ¿çī©è´¨": 5883,
      "æī¹åĪ¤æĢ§": 5884,
      "æ·±åĲ¸ä¸Ģ": 5885,
      "çļĦåıĳ": 5886,
      "æĺ¯ä¸ºäºĨ": 5887,
      "çĽ²": 5888,
      "åľ°çľĭçĿĢ": 5889,
      "æĦī": 5890,
      "ä¹Łæľī": 5891,
      "æ¯ıæ¬¡": 5892,
      "ï¼ĮæĪĳä»¬åı¯ä»¥éĢļè¿ĩ": 5893,
      "ä¸Ģå®ļä¼ļ": 5894,
      "ç«ŀèµĽ": 5895,
      "ï¼Įä¸įè¦ģ": 5896,
      "çļĦæĻ®": 5897,
      "çģµæ´»æĢ§": 5898,
      "Ġname": 5899,
      "åĨħå¿ĥçļĦ": 5900,
      "è½®å»ĵ": 5901,
      "æľºåĻ¨äºº": 5902,
      "åĪºæ¿Ģ": 5903,
      "ï¼Įå»ºç«ĭ": 5904,
      "æ¾³": 5905,
      "çĴĥ": 5906,
      "æĳĦåĥıå¤´": 5907,
      "æ·±åĲ¸ä¸Ģåı£æ°Ķ": 5908,
      "__": 5909,
      "wift": 5910,
      "ï¼ĮåĪĺ": 5911,
      "ãĢĤæİ¥ä¸ĭæĿ¥": 5912,
      "åı¬": 5913,
      "è¿ĩæ»¤": 5914,
      "çļĦæĤ": 5915,
      "ä¸İåıĳå±ķ": 5916,
      "æĪĲåĬŁåľ°": 5917,
      "åĽ½å®¶çļĦ": 5918,
      "çħ§çīĩ": 5919,
      "åĿļæĮģä¸įæĩĪ": 5920,
      "æĶ¹åıĺäºĨ": 5921,
      "ï¼ĮæķĻå¸Ī": 5922,
      "ãĢĤä½ľä¸º": 5923,
      "åĴĮä¸į": 5924,
      "åĴĮæľįåĬ¡": 5925,
      "åĲĽ": 5926,
      "ä¸Ģæľ¬": 5927,
      "å¿ĥå¾Ĺ": 5928,
      "ãĢĤä»ĸçĽ¸ä¿¡": 5929,
      "èĥ½åĬĽçļĦ": 5930,
      "åĮºåĿĹ": 5931,
      "åŃĺæĶ¾": 5932,
      "æīĢä»¥": 5933,
      "atic": 5934,
      "æ¸ħæ´Ĺ": 5935,
      "çĽĳç®¡": 5936,
      "èĭ±åĽ½": 5937,
      "æĭįäºĨ": 5938,
      "çĩ¥": 5939,
      "ndroid": 5940,
      "Ġç¬¬äºĶæŃ¥": 5941,
      "Elastic": 5942,
      "pl": 5943,
      "ï¼Įä½ľä¸º": 5944,
      "åĴĮä»·åĢ¼è§Ĥ": 5945,
      "æĪª": 5946,
      "ä¸Ģç¬ĳ": 5947,
      "è¦ģç´ł": 5948,
      "æ·¡": 5949,
      "åŃĲæ¶µ": 5950,
      "æĥħå¢ĥ": 5951,
      "æľŁæĿĥ": 5952,
      "ï¼ŁĊ": 5953,
      "ï¼Įè¿ĺèĥ½åŁ¹åħ»": 5954,
      "æĽ´å¥½åľ°çĲĨè§£åĴĮ": 5955,
      "åı¥è¯Ŀ": 5956,
      "ä¸įä»ħæĺ¯å¯¹": 5957,
      "æ°¸è¿ľ": 5958,
      "ãĢĤä»ĸä»¬çļĦ": 5959,
      "ä»¬çļĦ": 5960,
      "å¯¹å¾ħ": 5961,
      "çŃĽ": 5962,
      "åı¯ä»¥æĺ¯": 5963,
      "éħµ": 5964,
      "çĭĤ": 5965,
      "ç¾İå¥½çļĦ": 5966,
      "æħİ": 5967,
      "è½¬åıĺ": 5968,
      "æĿĥåĪ©": 5969,
      "éĩĩéĽĨ": 5970,
      "çļĦæĥħç»ª": 5971,
      "éĿŀå¸¸éĩįè¦ģ": 5972,
      "çģµæĦŁ": 5973,
      "Ġclass": 5974,
      "ç¼ĵåŃĺ": 5975,
      "çļĦçĲĨè§£åĴĮ": 5976,
      "çĳ¶": 5977,
      "è´§çī©": 5978,
      "è¹Ī": 5979,
      "çļĦæĶ¶åħ¥": 5980,
      "åħ¼å®¹": 5981,
      "ï¼Įå¾®ç¬ĳçĿĢ": 5982,
      "æĭįäºĨæĭį": 5983,
      "data": 5984,
      "çļĦæķĪæŀľ": 5985,
      "çļĦåıĳçĶŁ": 5986,
      "ãĢĤæŀĹ": 5987,
      "åľ¨æ¯ĶèµĽä¸Ń": 5988,
      "è¿ĩä¸Ģä¸Ŀ": 5989,
      "ä¼ļçļĦ": 5990,
      "çĸ¼": 5991,
      "è½¬ä¼ļ": 5992,
      "æ¤ħ": 5993,
      "ç¢ĺ": 5994,
      "ç¿°": 5995,
      "è¶ħè¿ĩ": 5996,
      "å¿ĥä¸Ńåħħæ»¡äºĨ": 5997,
      "çļĦçº¿ç´¢": 5998,
      "æ¨ª": 5999,
      "è¿½æº¯åĪ°": 6000,
      "éĺĲè¿°": 6001,
      "Redis": 6002,
      "ãĢĤæ¯ıä¸ª": 6003,
      "ä¼¸": 6004,
      "ï¼Įåī": 6005,
      "ç§Ĵ": 6006,
      "çĽĪ": 6007,
      "èĤł": 6008,
      "åĲİåį«": 6009,
      "æķĪåºĶ": 6010,
      "ä¹¦åºĹ": 6011,
      "åĲĦèĩª": 6012,
      "ä¸ŃåĽ½åı¤ä»£": 6013,
      "æ¼Ķåĩº": 6014,
      "arch": 6015,
      "Ġcon": 6016,
      "ell": 6017,
      "çļĦçĽ®çļĦ": 6018,
      "æīĩ": 6019,
      "åĩ¤": 6020,
      "é«ĺçŃī": 6021,
      "æĪĳä»¬åı¯ä»¥": 6022,
      "èĤ¯": 6023,
      "äºĭçī©": 6024,
      "ï¼Įè¿Ļä½¿å¾Ĺ": 6025,
      "åĻª": 6026,
      "ï¼īçļĦ": 6027,
      "æµģçķħ": 6028,
      "èĢģæĿ¿": 6029,
      "æĪĲåĬŁçļĦ": 6030,
      "ç¨³å®ļçļĦ": 6031,
      "æĹ¶æľŁçļĦ": 6032,
      "ä»ªå¼ı": 6033,
      "è´§å¸ģ": 6034,
      "åĪļåĪļ": 6035,
      "è¶³å¤ŁçļĦ": 6036,
      "è°¢è°¢ä½ł": 6037,
      "çĺ¤": 6038,
      "å°ıå¿ĥç¿¼ç¿¼åľ°": 6039,
      "ï¼Įå°½ç®¡": 6040,
      "çļĦæ¤į": 6041,
      "ãĢĤäºİæĺ¯": 6042,
      "ä¸Ńåħ·æľī": 6043,
      "äººåľ¨": 6044,
      "åĩºçĶŁ": 6045,
      "ä¸ŃçļĦåľ°ä½į": 6046,
      "ä¹¦ä¸ŃçļĦ": 6047,
      "è¢ģ": 6048,
      "èµĦæºĲç®¡çĲĨ": 6049,
      "åĩĨå¤ĩå·¥ä½ľ": 6050,
      "çĻĮ": 6051,
      "åŁºæľ¬çļĦ": 6052,
      "éĢĴå½Ĵ": 6053,
      "è¿Ļæ¬¡ç»ıåİĨ": 6054,
      "çļĦæ¯ĶèµĽ": 6055,
      "MySQL": 6056,
      "dit": 6057,
      "file": 6058,
      "sql": 6059,
      "å«": 6060,
      "åĹ": 6061,
      "ï¼Į\\(": 6062,
      "ãĢĤçī¹åĪ«": 6063,
      "ä¾ł": 6064,
      "çļĦç¡": 6065,
      "æĥ§": 6066,
      "çĽ®åħī": 6067,
      "ãĢĤä»ĸåıĳçİ°": 6068,
      "ï¼Įä»ĸçŁ¥éģĵ": 6069,
      "ç¥¥": 6070,
      "éĥ½åľ¨": 6071,
      "æĺ¯ä¸Ģé¡¹": 6072,
      "æµģåĬ¨": 6073,
      "ç»´åº¦": 6074,
      "å¸ĤåľºèĲ¥éĶĢ": 6075,
      "ĠĠĠĠĠĠĠĠĠĠ": 6076,
      "ç²īç¢İ": 6077,
      "æ¯ķä¸ļ": 6078,
      "du": 6079,
      "ï¼Įæĺİç¡®": 6080,
      "çļĦèĩªçĦ¶": 6081,
      "çļĦæĪĲå°±": 6082,
      "äº¿": 6083,
      "è¿Ļé¦ĸ": 6084,
      "è¿Ļç¯ĩ": 6085,
      "è¿ĩæĿ¥": 6086,
      "åľ°åĽŀçŃĶ": 6087,
      "å®ŀä¹ł": 6088,
      "æĿ¥åĪ°": 6089,
      "çļĦçķ": 6090,
      "éļĶ": 6091,
      "èĥ½å¤ŁæĽ´å¥½åľ°": 6092,
      "å¤ĩä»½": 6093,
      "ï¼Įè¿ĺéĢļè¿ĩ": 6094,
      "æ¢¯": 6095,
      "èĪ°": 6096,
      "äºĮæ¬¡": 6097,
      "ï¼ĮæĪĳä»¬åı¯ä»¥æĽ´å¥½åľ°": 6098,
      "çĶŁäº§æķĪçİĩ": 6099,
      "å®¡è§Ĩ": 6100,
      "çļĦæ°ĽåĽ´": 6101,
      "ï¼ĮåĨľ": 6102,
      "æ¥ļ": 6103,
      "çļĦç¼ĸç¨ĭ": 6104,
      "ä¼Ļä¼´": 6105,
      "ï¼Įçľ¼ä¸ŃéĹªçĥģçĿĢ": 6106,
      "çĬ¹è±«": 6107,
      "\\[": 6108,
      "çļĦè´¨éĩı": 6109,
      "ãĢĤè®¸å¤ļ": 6110,
      "åĴĮéľĢæ±Ĥ": 6111,
      "åĴĮçŃĸçķ¥": 6112,
      "åľ¨å¼Ģå§ĭ": 6113,
      "ä¸Ńæī¾åĪ°": 6114,
      "ä¼ª": 6115,
      "ãĢģæ°´": 6116,
      "åĨ¥": 6117,
      "åı¯è¡Į": 6118,
      "æĽ´å®¹æĺĵ": 6119,
      "èĬ³": 6120,
      "æĪĺèĥľ": 6121,
      "çĶµåĬ¨": 6122,
      "çĶµç£ģ": 6123,
      "ãĢĤä»ĸåľ¨": 6124,
      "ï¼Įä½ĨæĪĳ": 6125,
      "èº«è¾¹": 6126,
      "çĸĹæ³ķ": 6127,
      "çļĦäººçĶŁ": 6128,
      "ase": 6129,
      "åĩĨç¡®åľ°": 6130,
      "èĪŀè¹Ī": 6131,
      "çļĦçľŁçĽ¸": 6132,
      "ï¼ĮåĩĨå¤ĩ": 6133,
      "ï¼ĮæĢ»": 6134,
      "æĺ¯æĪĳä»¬": 6135,
      "å¯¹åħ¶": 6136,
      "åħ¨æĸ°çļĦ": 6137,
      "ä»İäºĭ": 6138,
      "åºĶçĶ¨åľºæĻ¯": 6139,
      "ç®¡çĲĨç³»ç»Ł": 6140,
      "ï¼ĪS": 6141,
      "æŁľ": 6142,
      "èĪį": 6143,
      "èģĶåĲĪ": 6144,
      "å®ĪæĬ¤": 6145,
      "çŁŃæľŁ": 6146,
      "ãĢĤä»¥ä¸ĭæĺ¯ä¸ĢäºĽå»ºè®®": 6147,
      "èĪªç©º": 6148,
      "å¥ĭæĸĹ": 6149,
      "åľ¨è¿ĻéĩĮ": 6150,
      "çļĦç´§": 6151,
      "çļĦç½ĳç»ľ": 6152,
      "çİ»çĴĥ": 6153,
      "my": 6154,
      "åľ¨æĹ¥å¸¸çĶŁæ´»ä¸Ń": 6155,
      "å°ĸ": 6156,
      "è¿ĽçĲĥ": 6157,
      "âĢĿçŃī": 6158,
      "ä½ĵèĥ½": 6159,
      "ä¸ĬäºĨ": 6160,
      "ãĢĤå®ĥä¸įä»ħ": 6161,
      "æĿ¡ä»¶ä¸ĭ": 6162,
      "å¸¸è§ģéĹ®é¢ĺ": 6163,
      "åŃ¦ä¹łåĴĮå®ŀè·µ": 6164,
      "å¯¹æīĭçļĦ": 6165,
      "Ġåįķåħĥæłĩé¢ĺ": 6166,
      "åĳĪçİ°": 6167,
      "ä¸¢": 6168,
      "æĿ¥å®ŀçİ°": 6169,
      "ä¿ĿéĻ©": 6170,
      "æ³ķåĽ½": 6171,
      "çºł": 6172,
      "å»ī": 6173,
      "æ¨¡ä»¿": 6174,
      "æł·æľ¬": 6175,
      "ãĢĤéĢļè¿ĩæľ¬åįķåħĥçļĦåŃ¦ä¹ł": 6176,
      "è¢«è§Ĩä¸º": 6177,
      "èİ«": 6178,
      "æĸĩä»¶å¤¹": 6179,
      "å¤ªæŀģ": 6180,
      "ï¼Įçī¹åĪ«æĺ¯åľ¨": 6181,
      "ï¼Įå½¢æĪĲäºĨ": 6182,
      "ourse": 6183,
      "çĪ¸çĪ¸": 6184,
      "Time": 6185,
      "ãĢĤåŃ¦çĶŁ": 6186,
      "åĴĮæ²»çĸĹ": 6187,
      "åŃ¦åĳĺ": 6188,
      "æľīåºı": 6189,
      "Ġ**ãĢĬ": 6190,
      "ãĢĤè¿Ļä¸įä»ħæľīåĬ©äºİ": 6191,
      "èĬĤçĽ®": 6192,
      "äº¤å¾Ģ": 6193,
      "ç®¡çĲĨåĳĺ": 6194,
      "å¦Ĥä½ķå¸®åĬ©": 6195,
      "æīĢåľ¨": 6196,
      "æĹ¥è®°": 6197,
      "åİĨåı²èĥĮæĻ¯": 6198,
      "èĳĹç§°": 6199,
      "å¿ĥçĲĨç´łè´¨": 6200,
      "æ²īæµ¸": 6201,
      "ä¾Ŀèµĸäºİ": 6202,
      "å¥½å¥ĩå¿ĥ": 6203,
      "çĸ«æĥħ": 6204,
      "èĦ±é¢ĸ": 6205,
      "ç¨İæĶ¶": 6206,
      "çľīå¤´": 6207,
      "çļĦçĬ¶æĢģ": 6208,
      "è¿ŀçİ¯çĶ»": 6209,
      "ber": 6210,
      "çļĦè±¡å¾ģ": 6211,
      "åĴĮä»ĸçļĦ": 6212,
      "åįĪ": 6213,
      "æĬĸ": 6214,
      "å¢ĵ": 6215,
      "ä¹ĭåĲİ": 6216,
      "åĨľä½ľçī©": 6217,
      "çªģåıĳ": 6218,
      "çİ°ä»£ç¤¾ä¼ļ": 6219,
      "å®ļæľŁæ£ĢæŁ¥": 6220,
      "æĽ²çº¿": 6221,
      "éĻĦè¿ĳ": 6222,
      "æīĢéľĢçļĦ": 6223,
      "indows": 6224,
      "ov": 6225,
      "çļĦæģ": 6226,
      "åı¯ä»¥è¿½æº¯åĪ°": 6227,
      "åĪĨè¾¨": 6228,
      "è¾ŀ": 6229,
      "ç³Ĭ": 6230,
      "å¿ĥè¡Ģç®¡": 6231,
      "ç©Ĩ": 6232,
      "é¢ĺçĽ®": 6233,
      "ä»£è°¢": 6234,
      "ï¼Įè¿ĻæľīåĬ©äºİ": 6235,
      "æĮĩçļĦæĺ¯": 6236,
      "å£°æĺİ": 6237,
      "å¿ĹåĿļ": 6238,
      "èĬ±åĽŃ": 6239,
      "èĦ±é¢ĸèĢĮåĩº": 6240,
      "Met": 6241,
      "iew": 6242,
      "ï¼Įç³»ç»Ł": 6243,
      "çļĦè¯Ńè¨Ģ": 6244,
      "çļĦçĤ": 6245,
      "éĿ¢åīį": 6246,
      "å°ıå¼º": 6247,
      "ä¹Łåľ¨": 6248,
      "æķ°æį®ä¼łè¾ĵ": 6249,
      "çļĦéĩįè¦ģæīĭæ®µ": 6250,
      "æĶ¯æĴĳ": 6251,
      "Ġç¬¬ä¸Ģéĥ¨åĪĨ": 6252,
      "ï¼Įè®©æĽ´å¤ļçļĦäºº": 6253,
      "æĬ¥éģĵ": 6254,
      "åı¯ä»¥å¸®åĬ©æĪĳä»¬": 6255,
      "ace": 6256,
      "çļĦç³»": 6257,
      "²åıĸ": 6258,
      "äºĨä»ĸçļĦ": 6259,
      "æĽ´æ·±": 6260,
      "çĤ®": 6261,
      "ä¸įä»ħä¸°å¯ĮäºĨ": 6262,
      "æ±²åıĸ": 6263,
      "å§»": 6264,
      "ï¼Įä»ĸæĦıè¯ĨåĪ°": 6265,
      "æŃ£å¼ı": 6266,
      "å¹´æĿ¥": 6267,
      "å¼łå¤§": 6268,
      "ï¼Įå¹¶ä¸º": 6269,
      "å·¥ä½ľåİŁçĲĨ": 6270,
      "ãĢĤä»¥ä¸ĭæĺ¯ä¸Ģä¸ª": 6271,
      "èĨı": 6272,
      "åľ°åĮºçļĦ": 6273,
      "å¾®ç¬ĳçĿĢè¯´": 6274,
      "çłĶè®¨ä¼ļ": 6275,
      "å¤ªæŀģæĭ³": 6276,
      "ĠçĲĨè§£": 6277,
      "ãĢĤæľĢåĲİ": 6278,
      "åĴĮæķĻèĤ²": 6279,
      "å¼Ł": 6280,
      "åľ°éĿ¢": 6281,
      "çİ°æľī": 6282,
      "å¤§æķ°æį®": 6283,
      "ç»ıçĲĨ": 6284,
      "éľĢè¦ģåħ·å¤ĩ": 6285,
      "åĬŁæķĪ": 6286,
      "åı¯èĥ½æĢ§": 6287,
      "æīĭæ³ķ": 6288,
      "çİ¯å¢ĥçļĦ": 6289,
      "åħ³éĶ®ä½ľçĶ¨": 6290,
      "æĬķç¥¨": 6291,
      "å²Ń": 6292,
      "è§Ĩè§īæķĪæŀľ": 6293,
      "çļĦå®ļä¹īä¸İ": 6294,
      "tr": 6295,
      "åĴĮæĵįä½ľ": 6296,
      "åĴĮæĶ¹è¿Ľ": 6297,
      "ãĢģæ³ķå¾ĭ": 6298,
      "åħ³çĪ±": 6299,
      "æľ¬èº«": 6300,
      "åħĥä»¶": 6301,
      "è¯ŃéŁ³": 6302,
      "é©¿": 6303,
      "èĮ¶èīº": 6304,
      "ç»Īäºİæī¾åĪ°äºĨ": 6305,
      "æĦŁåıĹåĪ°äºĨ": 6306,
      "éļĲèĹıçĿĢ": 6307,
      "æĦıæĥ³ä¸įåĪ°çļĦ": 6308,
      "æĽ¿ä»£": 6309,
      "ï¼Įä¾¿äºİ": 6310,
      "åıĻäºĭ": 6311,
      "ï¼Įéĥ½æĺ¯": 6312,
      "å·¡": 6313,
      "æī«": 6314,
      "å¥ī": 6315,
      "ç¨¿": 6316,
      "ä¸įä»ħæıĲåįĩäºĨ": 6317,
      "å¤©æ°Ķ": 6318,
      "å¦Ĥä½ķå°Ĩ": 6319,
      "æ°ĳéĹ´": 6320,
      "åĲĦåľ°": 6321,
      "æ¸¸æĪıè®¾è®¡": 6322,
      "æİ¨è¿Ľ": 6323,
      "åĲ¬åĲİ": 6324,
      "ï¼ģ**": 6325,
      "çļĦæł¹": 6326,
      "ä¸Ģå®ļèĥ½": 6327,
      "æİĪæĿĥ": 6328,
      "çļĦçľĭ": 6329,
      "æĸĩåŃ¦ä½ľåĵģ": 6330,
      "ï¼ĮæĪĲä¸ºäºĨ": 6331,
      "çī©çĲĨåŃ¦": 6332,
      "å½»åºķ": 6333,
      "Android": 6334,
      "wi": 6335,
      "çļĦæľīæķĪ": 6336,
      "æĺİæĺŁ": 6337,
      "æĸĩåĮĸäº¤æµģ": 6338,
      "å¼łä¼Ł": 6339,
      "åĪĩæį¢": 6340,
      "å¹¼åĦ¿": 6341,
      "ĠäºĶ": 6342,
      "ä¸Ģä»½": 6343,
      "åĽĬ": 6344,
      "çī©ç§į": 6345,
      "éķ¿æ²³": 6346,
      "åıĺéĿ©": 6347,
      "ä¼ĺæĥł": 6348,
      "æĥ³åĪ°": 6349,
      "ï¼Įå°Ŀ": 6350,
      "ï¼Įä¸ºåŃ¦çĶŁ": 6351,
      "éĵħ": 6352,
      "è¯¾é¢ĺ": 6353,
      "å®ļæľŁè¿Ľè¡Į": 6354,
      "èļģ": 6355,
      "Ġç¬¬äºĮéĥ¨åĪĨ": 6356,
      "çļĦç©ºéĹ´": 6357,
      "çļĦç³»ç»Ł": 6358,
      "²æŁĵ": 6359,
      "ãĢģç»ĵè¯Ń": 6360,
      "éĢļè¿ĩä¸įæĸŃ": 6361,
      "ä¸ĭäºĨ": 6362,
      "èĤ¾": 6363,
      "ç½Ĳ": 6364,
      "çĦ°": 6365,
      "æ·±åħ¥åĪĨæŀĲ": 6366,
      "æ°Ķä½ĵ": 6367,
      "å·¥åħ·åĴĮ": 6368,
      "ç»§ç»ŃåĬªåĬĽ": 6369,
      "åĲ¬è¯´": 6370,
      "æĭ¿èµ·": 6371,
      "ä¼¦çĲĨ": 6372,
      "åģ¶çĦ¶": 6373,
      "æĺĨèĻ«": 6374,
      "çļĦç¬¦åı·": 6375,
      "ï¼Įå°Ŀè¯ķ": 6376,
      "PC": 6377,
      "yst": 6378,
      "è¿Ł": 6379,
      "èĩªè±ª": 6380,
      "çĤ¸": 6381,
      "çĶµèĥ½": 6382,
      "å¤ĸæ´»åĬ¨": 6383,
      "çĶŁæ´»æĸ¹å¼ı": 6384,
      "åĨľäº§åĵģ": 6385,
      "ä¸įæĸŃè¿ĽæŃ¥": 6386,
      "ï¼Įå¿ħ": 6387,
      "å¸¦æĿ¥çļĦ": 6388,
      "å®¡è®¡": 6389,
      "åŃ£èĬĤ": 6390,
      "å®ĺæĸ¹ç½ĳç«Ļ": 6391,
      "èħĲèļĢ": 6392,
      "è¾ħåĬ©": 6393,
      "çļĦçªģ": 6394,
      "ï¼ĮåĽ¢éĺŁ": 6395,
      "åĮºåĿĹéĵ¾": 6396,
      "`ï¼Į": 6397,
      "Ġå¯¹": 6398,
      "ãĢĤçĲĨè§£": 6399,
      "åĬ£": 6400,
      "æľīäºº": 6401,
      "æľīä»Ģä¹Ī": 6402,
      "éĢļçŁ¥": 6403,
      "æĭľ": 6404,
      "ä¸İå®ŀè·µ": 6405,
      "çĶµåİĭ": 6406,
      "ï¼Įå¹¿": 6407,
      "å¼ķè¨Ģ": 6408,
      "æĹ¥æľŁ": 6409,
      "èĻİ": 6410,
      "å·§å¦Ļ": 6411,
      "è¡¨çİ°åĩº": 6412,
      "ï¼Įå¸®åĬ©ä»ĸä»¬": 6413,
      "ï¼Įå°±åĥı": 6414,
      "çļĦæĥħæĦŁåĴĮ": 6415,
      "è®¡ç®Ĺæľºç§ĳåŃ¦": 6416,
      "æ´ŀç©´": 6417,
      "åĩºèī²çļĦ": 6418,
      "å°¿çĹħ": 6419,
      "çļĦçľ¼ç¥ŀ": 6420,
      "å§¿åĬ¿": 6421,
      "æĹłäººæľº": 6422,
      "_p": 6423,
      "bin": 6424,
      "ome": 6425,
      "´æľĽ": 6426,
      "Ġand": 6427,
      "æĽ´åħ·": 6428,
      "ãĢĤè¿Ļæ¬¡": 6429,
      "ç¤¾åĽ¢": 6430,
      "ä¸»ä»»": 6431,
      "å¼ºçĥĪçļĦ": 6432,
      "ï¼Įä»¥åħį": 6433,
      "å®ŀçİ°äºĨ": 6434,
      "ï¼Įä¹Łè®©": 6435,
      "éļıæĹ¶": 6436,
      "ï¼ĮæĪĳä¼ļ": 6437,
      "çĨĶ": 6438,
      "å¤ļæł·åĮĸçļĦ": 6439,
      "çİ°å®ŀçĶŁæ´»ä¸Ń": 6440,
      "æĽ´æ·±åħ¥åľ°çĲĨè§£": 6441,
      "çļĦç¹ģèį£": 6442,
      "En": 6443,
      "ï¼Įæīĭ": 6444,
      "ï¼Įè°ĥæķ´": 6445,
      "çļĦéŃħåĬĽ": 6446,
      "çļĦæį": 6447,
      "è®¾æľī": 6448,
      "å°ıé¾Ļ": 6449,
      "æĿİéĿĴ": 6450,
      "åİŁæĿ¥": 6451,
      "å°±ä¼ļ": 6452,
      "åı°æ¹¾": 6453,
      "æĿĤå¿Ĺ": 6454,
      "ï¼Įä»ĸä»¬çļĦ": 6455,
      "çļĦæİ¥": 6456,
      "çĪµå£«": 6457,
      "å½¼æŃ¤": 6458,
      "ï¼Įå¼ºè°ĥ": 6459,
      "ĸæģ¯": 6460,
      "ï¼Įè®°å½ķ": 6461,
      "çļĦç§ĳåŃ¦": 6462,
      "ä¸Ģæ¬¾": 6463,
      "çī²": 6464,
      "éĻª": 6465,
      "è¿ĽåĮĸ": 6466,
      "æľ¬è´¨": 6467,
      "åĪ¶åĵģ": 6468,
      "æģĭ": 6469,
      "ï¼īãĢĤĊĊ": 6470,
      "èīºæľ¯å®¶": 6471,
      "çĹħæ¯Ĵ": 6472,
      "ä¸ĵä¸ļäººå£«": 6473,
      "èħĶ": 6474,
      "æĪ¿éĹ´": 6475,
      "ï¼Įå¸®åĬ©åŃ¦çĶŁ": 6476,
      "éĻ·åħ¥": 6477,
      "Ġvoid": 6478,
      "df": 6479,
      "ru": 6480,
      "åĴĮå½±åĵį": 6481,
      "åĴĮåĬªåĬĽ": 6482,
      "å¯¹èĩªçĦ¶": 6483,
      "æĦĪ": 6484,
      "å®ļåĪ¶": 6485,
      "å¤§å¤§": 6486,
      "äº§éĩı": 6487,
      "èĢĥåı¤": 6488,
      "æķĻèĤ²è´¨éĩı": 6489,
      "åĲĦé¡¹": 6490,
      "å¯ĮåĲ«": 6491,
      "éĻĲäºİ": 6492,
      "æķĻåŃ¦æĸ¹æ³ķ": 6493,
      "èľľ": 6494,
      "config": 6495,
      "æµªè´¹": 6496,
      "ma": 6497,
      "ï¼ĮâĢĿ": 6498,
      "çĲª": 6499,
      "çĶ¨èĩªå·±çļĦ": 6500,
      "çĶ¨èį¯": 6501,
      "æįĲ": 6502,
      "èī¾": 6503,
      "æ¬²": 6504,
      "åı¯èĥ½çļĦ": 6505,
      "ï¼Įç¡®ä¿Ŀåħ¶": 6506,
      "å®ŀè·µä¸Ń": 6507,
      "èĢģèĢħ": 6508,
      "æ£ĢéªĮ": 6509,
      "ï¼Įè¿ĺèĥ½ä¸º": 6510,
      "åį³å°Ĩ": 6511,
      "ä¼¤å®³": 6512,
      "Ġç¬¬ä¸īéĥ¨åĪĨ": 6513,
      "www": 6514,
      "æ¶Įèµ·": 6515,
      "key": 6516,
      "åħĶåŃĲ": 6517,
      "åĴĮæĹł": 6518,
      "åľ¨åħ¨çĲĥ": 6519,
      "æĺ¯çĶ±": 6520,
      "åĪ°çļĦ": 6521,
      "æ¯ģ": 6522,
      "æĪĸè®¸": 6523,
      "æłĩè®°": 6524,
      "æľĢåĪĿ": 6525,
      "ç»ĨèıĮ": 6526,
      "æµģéĩı": 6527,
      "ãĢĤéĢļè¿ĩåĪĨæŀĲ": 6528,
      "æķĻèĤ²åĴĮ": 6529,
      "ä¿¡æģ¯çļĦ": 6530,
      "åĸ»": 6531,
      "èİī": 6532,
      "ore": 6533,
      "æħĪ": 6534,
      "å¾®æ³¢": 6535,
      "èģĶèµĽ": 6536,
      "æİĮæı¡äºĨ": 6537,
      "çļĦç¤º": 6538,
      "æĺłå°Ħ": 6539,
      "æŃ¦æľ¯": 6540,
      "ç¨ĭåº¦ä¸Ĭ": 6541,
      "ï¼ĮåĮ»çĶŁ": 6542,
      "çļĦæŁĲ": 6543,
      "pen": 6544,
      "Ġ%": 6545,
      "äº©": 6546,
      "ç§Ł": 6547,
      "éĢļè¿ĩä¸Ĭè¿°": 6548,
      "ä¸Ĭä¼ł": 6549,
      "å°ıåŃ¦": 6550,
      "åı¯èĥ½å¯¹": 6551,
      "åīįè¿Ľ": 6552,
      "è§Ĩç½ĳ": 6553,
      "æ£Ĵ": 6554,
      "é¥²": 6555,
      "æ¼Ķè®²": 6556,
      "åĤ¬": 6557,
      "çļĦæĮģ": 6558,
      "çļĦçĥ¹é¥ª": 6559,
      "æ·»åĬłåīĤ": 6560,
      "é¦Ļæ¸¯": 6561,
      "æĿİæĻĵåįİ": 6562,
      "å²Ĺä½į": 6563,
      "afka": 6564,
      "ner": 6565,
      "çļĦä½ĵçİ°": 6566,
      "ãĢģç»ıæµİ": 6567,
      "ä¸įå·²": 6568,
      "åĬĽåº¦": 6569,
      "åı¯ä»¥ç¡®ä¿Ŀ": 6570,
      "èĥ½å¤Łä¸º": 6571,
      "ç²Ĺ": 6572,
      "éĢīæĭ©åĲĪéĢĤ": 6573,
      "ç¾İæľ¯": 6574,
      "å¢ŀæ·»": 6575,
      "è®¾å¤ĩçļĦ": 6576,
      "ith": 6577,
      "æĥħæĦŁè¡¨è¾¾": 6578,
      "è¡¡éĩı": 6579,
      "åıįæĢĿä¸İ": 6580,
      "çĵľ": 6581,
      "æľĭåıĭä»¬": 6582,
      "æıĴåħ¥": 6583,
      "å¥łå®ļäºĨåŁºç¡Ģ": 6584,
      "åĦĴå®¶": 6585,
      "vice": 6586,
      "ºç»ĩ": 6587,
      "Ġå°ı": 6588,
      "çļĦè®Ńç»ĥ": 6589,
      "çļĦå¹´è½»äºº": 6590,
      "ãĢĤä¸Ģå¤©": 6591,
      "æĪĴ": 6592,
      "ä¸Ńèį¯": 6593,
      "æĺ¯å¯¹": 6594,
      "æĺ¯å¦Ĥä½ķ": 6595,
      "æĬĵ": 6596,
      "é«ĺå±Ĥ": 6597,
      "ç¡«": 6598,
      "éĢĤå®ľ": 6599,
      "å¼ķè¿Ľ": 6600,
      "éĶ®çĽĺ": 6601,
      "ç²¾åĬĽ": 6602,
      "æ´»åĬ¨ä¸Ń": 6603,
      "çĭ¬èĩª": 6604,
      "åİ»éĻ¤": 6605,
      "åĩłä¹İ": 6606,
      "ä¸¥è°¨": 6607,
      "éĺ³å¸Ĥ": 6608,
      "åıĸå¾ĹæĪĲåĬŁ": 6609,
      "å¿ĥä¸Ńä¸Ģ": 6610,
      "å·´è¥¿": 6611,
      "ç³ĸå°¿çĹħ": 6612,
      "åľ¨çİ°ä»£ç¤¾ä¼ļ": 6613,
      "åĨ²åĩ»æ³¢": 6614,
      "å¤ļåħĥåĮĸ": 6615,
      "èĤ¿çĺ¤": 6616,
      "èģªæĺİ": 6617,
      ");ĊĊ": 6618,
      "Docker": 6619,
      "ROM": 6620,
      "ĠI": 6621,
      "çļĦä¹¦ç±į": 6622,
      "ãĢĤä¸İ": 6623,
      "ãĢĤéĻĪ": 6624,
      "åĴĮå¸Ĥåľº": 6625,
      "è¿Ļä½į": 6626,
      "éĢļè¿ĩåĪĨæŀĲ": 6627,
      "è°ĭ": 6628,
      "èĢĮè¨Ģ": 6629,
      "çī©èģĶç½ĳ": 6630,
      "ç½©": 6631,
      "åĲİä¸ĸ": 6632,
      "ï¼Įè¿ĻæĦıåĳ³çĿĢ": 6633,
      "one": 6634,
      "åŁºç¡ĢçŁ¥è¯Ĩ": 6635,
      "åĸľæĤ¦": 6636,
      "çŁŃæĹ¶éĹ´åĨħ": 6637,
      "çĶ²éª¨": 6638,
      "æĿĢèıĮ": 6639,
      "æĦīå¿«": 6640,
      "çļĦæ¤įçī©": 6641,
      "åĪĨè¾¨çİĩ": 6642,
      "äºĨä¸°å¯ĮçļĦ": 6643,
      "å¾Ĵ": 6644,
      "å®¶ä¹¡": 6645,
      "éľĢè¦ģæł¹æį®": 6646,
      "æ¡Ĥ": 6647,
      "éĢīæīĭ": 6648,
      "æĬĢæľ¯çļĦåıĳå±ķ": 6649,
      "åĮºåĪ«": 6650,
      "éĩĮéĿ¢": 6651,
      "å·¥ä½ľæķĪçİĩ": 6652,
      "ï¼Įä¸ºäºĨ": 6653,
      "çĮ«": 6654,
      "åĶ¯": 6655,
      "alue": 6656,
      "çļĦæīį": 6657,
      "èµ°è¿Ľ": 6658,
      "loc": 6659,
      "ç£Ĭ": 6660,
      "åĩĨç¡®æĢ§åĴĮ": 6661,
      "æ¿ĢåĬ±çĿĢ": 6662,
      "ç©¿è¶Ĭ": 6663,
      "åľ°éĹ®éģĵ": 6664,
      "å¸¸çĶ¨çļĦ": 6665,
      "çļĦå¤§": 6666,
      "çļĦèģĮä¸ļçĶŁæ¶¯": 6667,
      "æİī": 6668,
      "åĲĪæĪĲ": 6669,
      "çŃīçº§": 6670,
      "åĩºè¡Į": 6671,
      "åŁºåľ°": 6672,
      "èµĦæł¼": 6673,
      "ç¤¾ä¼ļè´£ä»»": 6674,
      "æĮĩä»¤": 6675,
      "åĸĬ": 6676,
      "çģµéŃĤ": 6677,
      "è´¡çĮ®åĬĽéĩı": 6678,
      "æĿ¾é¼ł": 6679,
      "éŁµ": 6680,
      "æĹ¨åľ¨æ·±åħ¥æİ¢è®¨": 6681,
      "ä¸Ģä½įåĲįåı«": 6682,
      "è¸ı": 6683,
      "è¿İæİ¥": 6684,
      "çĸ¼çĹĽ": 6685,
      "ger": 6686,
      "ï¼ĮåĪ©çĶ¨": 6687,
      "ï¼Įä»Ķç»Ĩ": 6688,
      "çļĦå»ºè®¾": 6689,
      "ä¸ĢæĿ¡": 6690,
      "æľīçĶ¨": 6691,
      "é¢Ī": 6692,
      "ä»ħä¾Ľ": 6693,
      "ãĢĤè¿ĻåĮħæĭ¬": 6694,
      "æĥħåĴĮ": 6695,
      "åŃĹæ¯į": 6696,
      "åı£è¯Ń": 6697,
      "æ´»åĬ¨çļĦ": 6698,
      "è¥¿æĸ¹": 6699,
      "æĦŁåĪ°æĹłæ¯Ķ": 6700,
      "åĨ·åį´": 6701,
      "test": 6702,
      "çļĦæµ·": 6703,
      "çļĦä¸Ģä¸ªéĩįè¦ģ": 6704,
      "å§Ķåĳĺ": 6705,
      "æ©¡": 6706,
      ".y": 6707,
      "ï¼ĮéĿ¢å¯¹": 6708,
      "çļĦåĢ¼": 6709,
      "åĴĮæķ°æį®": 6710,
      "âĢľä½ł": 6711,
      "åĲĮæĦı": 6712,
      "çĽ®åīį": 6713,
      "äºĭå®ŀ": 6714,
      "åħ¬åĬ¡åĳĺ": 6715,
      "ç»Ĩèĩ´": 6716,
      "çłĶç©¶çļĦ": 6717,
      "è½¬åŀĭ": 6718,
      "æ¹Ľ": 6719,
      "ï¼Įå°±åľ¨": 6720,
      "ï¼Įä»¥åıĬå¦Ĥä½ķ": 6721,
      "search": 6722,
      "å©ļå§»": 6723,
      "è§Ĩç½ĳèĨľ": 6724,
      "gro": 6725,
      "ll": 6726,
      "ï¼Įåıį": 6727,
      "ãĢĤ**": 6728,
      "æĿĨ": 6729,
      "æĹ¶ç©º": 6730,
      "åŃĲæĺİ": 6731,
      "äºĭè¿¹": 6732,
      "ä»İå°ı": 6733,
      "åŀĤ": 6734,
      "ï¼īĊ": 6735,
      "ãĢĤéĢļè¿ĩäºĨè§£": 6736,
      "ï¼Įå¸¦": 6737,
      "å¾®ä¿¡": 6738,
      "æ¶ĪéĻ¤": 6739,
      "åŃ©åŃĲçļĦ": 6740,
      "ï¼ĽèĢĮ": 6741,
      "ä¼łæī¿åĴĮ": 6742,
      "åħħåĪĨåĪ©çĶ¨": 6743,
      "assword": 6744,
      "çļĦç¾İå¥½": 6745,
      "è¯ģæĺİäºĨ": 6746,
      "éĢĤå½ĵçļĦ": 6747,
      "çļĦçĶŁå¹³": 6748,
      "çķªèĮĦ": 6749,
      "è¿Ŀæ³ķ": 6750,
      "éĤ»å±ħ": 6751,
      "éŀĭ": 6752,
      "`æĸ¹æ³ķ": 6753,
      "Ġx": 6754,
      "ï¼Įç»Ļ": 6755,
      "ï¼Įç»ĵåĲĪ": 6756,
      "ï¼ĮæĶ¹åĸĦ": 6757,
      "åĩī": 6758,
      "ä¸İäºº": 6759,
      "çĿ¡": 6760,
      "å°Ĩä¸º": 6761,
      "çĥŁ": 6762,
      "æ¡Īä»¶": 6763,
      "å½ĵçĦ¶": 6764,
      "åĪ«äºº": 6765,
      "æľįåĬ¡çļĦ": 6766,
      "æŀĹéĢ¸": 6767,
      "èıĩ": 6768,
      "èıľåįķ": 6769,
      "æĬĢå·§åĴĮ": 6770,
      "æĬĢèĥ½åĴĮ": 6771,
      "åĽ½å®¶åĴĮ": 6772,
      "å®¡æł¸": 6773,
      "éĩįæĸ°å®¡è§Ĩ": 6774,
      "çļĦæµĭ": 6775,
      "åºĨç¥Ŀ": 6776,
      "ib": 6777,
      "ob": 6778,
      "Ġè¯¾ç¨ĭ": 6779,
      "åľ¨åĽ½éĻħ": 6780,
      "ä¹Į": 6781,
      "åĬĽåŃ¦": 6782,
      "åı¯ä»¥åĪĨä¸º": 6783,
      "âĢĿåĴĮ": 6784,
      "æ¸²æŁĵ": 6785,
      "å°ıä¼Ĺ": 6786,
      "åħ»èĢģ": 6787,
      "å¼ķçĶ¨": 6788,
      "å¥ĩå¦Ļ": 6789,
      "çŁ³å¤´": 6790,
      "åĽŃæŀĹ": 6791,
      "å®¤åĨħ": 6792,
      "è¯¯è§£": 6793,
      "æŃĮè¯į": 6794,
      "ess": 6795,
      "åį±å®³": 6796,
      "ä»ĺåĩº": 6797,
      "éĹ»åĲį": 6798,
      "çļĦä¸į": 6799,
      "åĴĮåĬŁèĥ½": 6800,
      "åľ¨ä½¿çĶ¨": 6801,
      "çļĦæ¬": 6802,
      "ä¼ļåĦ¿": 6803,
      "åı¯ä»¥ä»İ": 6804,
      "æĦŁè§ī": 6805,
      "çĦĬ": 6806,
      "æĿİæµ©": 6807,
      "æ·±å¤Ħ": 6808,
      "äº§æĿĥ": 6809,
      "å¤©çĦ¶": 6810,
      "èģĮä½į": 6811,
      "æĪıåī§": 6812,
      "æķħäºĭä¸Ń": 6813,
      "æĶ¾åľ¨": 6814,
      "æĶ¾å¤§": 6815,
      "è¾ĥå°ı": 6816,
      "åĪĿåŃ¦èĢħ": 6817,
      "ï¼Įæľīä¸Ģä¸ª": 6818,
      "ä¹¡æĿĳ": 6819,
      "åģľæŃ¢": 6820,
      "è½»æĿ¾åľ°": 6821,
      "æ·±åº¦åŃ¦ä¹ł": 6822,
      "åħįçĸ«åĬĽ": 6823,
      "çļĦæĳĦ": 6824,
      "çļĦæİ§åĪ¶": 6825,
      "ystem": 6826,
      "çļĦåĨ³çŃĸ": 6827,
      "çļĦåı¯æĮģç»Ńåıĳå±ķ": 6828,
      "ãĢĤçİĭ": 6829,
      "è®¯": 6830,
      "è¿Ļéĥ¨": 6831,
      "åı¯ä»¥å°Ĩ": 6832,
      "ä¸įä»ħå±ķç¤ºäºĨ": 6833,
      "åĬłæĭī": 6834,
      "å¤ĩèĢĥ": 6835,
      "éĤĵ": 6836,
      "è¯»åĨĻ": 6837,
      "åŃĹæ®µ": 6838,
      "æĹ¥è¯Ń": 6839,
      "æĶ¶èĹı": 6840,
      "æĪĲä¸ºä¸Ģä¸ª": 6841,
      "åįıåĲĮ": 6842,
      "ï¼Įè¿ĺèĥ½æıĲé«ĺ": 6843,
      "ä¸įåı¯æĪĸç¼ºçļĦä¸Ģéĥ¨åĪĨ": 6844,
      "---ĊĊ": 6845,
      "çļĦç±»åŀĭ": 6846,
      "çļĦåĲĦä¸ª": 6847,
      "ï¼ļãĢĬ": 6848,
      "çĶ¨æĢ§": 6849,
      "å¯¹ä»ĸ": 6850,
      "æ°¨": 6851,
      "çº±": 6852,
      "ä¸įä»ħåħ·æľī": 6853,
      "ç©·": 6854,
      "å®ĥçļĦ": 6855,
      "å¼ķäºº": 6856,
      "æĴŀ": 6857,
      "åĨĽéĺŁ": 6858,
      "éĿ¢å¯¹æĮĳæĪĺ": 6859,
      "çĲĨè®ºçŁ¥è¯Ĩ": 6860,
      "çļĦç¤¾äº¤": 6861,
      "è§¦æĳ¸": 6862,
      "æŃ¦åĻ¨": 6863,
      "çļĦæĦŁåıĹ": 6864,
      "çŀ¬éĹ´": 6865,
      "ä»ħä¾ĽåıĤèĢĥ": 6866,
      ".Ċ": 6867,
      "Map": 6868,
      "go": 6869,
      "çļĦä¸įåĲĮ": 6870,
      "çļĦå®ŀè·µ": 6871,
      "åĴĮè¡Įä¸º": 6872,
      "èĥ±": 6873,
      "ä»¥æĿ¥": 6874,
      "æĪĳä»¬è¦ģ": 6875,
      "åıĳå±ķåĴĮ": 6876,
      "çĽ¸æľº": 6877,
      "äºĨè§£åĨ³": 6878,
      "èĬĤçľģ": 6879,
      "çľĭä¼¼": 6880,
      "æĵħ": 6881,
      "çĶ»å®¶": 6882,
      "ç«¯åı£": 6883,
      "äººä»¬çļĦ": 6884,
      "å´ĩ": 6885,
      "é¸Łç±»": 6886,
      "çıįè´µ": 6887,
      "ï¼Įåĭĩæķ¢": 6888,
      "DB": 6889,
      "ï¼ĮçłĶç©¶": 6890,
      "çļĦä¸»": 6891,
      "çļĦä¸»é¢ĺ": 6892,
      "å¯¹åºĶ": 6893,
      "ç¨Ģ": 6894,
      "å»·": 6895,
      "éľĢè¦ģéĢļè¿ĩ": 6896,
      "åħ¬æ°ĳ": 6897,
      "æĸĩåĮĸåĴĮ": 6898,
      "è®¾è®¡ä¸Ń": 6899,
      "éĢīæĭ©éĢĤåĲĪ": 6900,
      "ãĢĤåľ¨ä»ĸçļĦ": 6901,
      "æĹ¶éĹ´ç®¡çĲĨ": 6902,
      "åĽ¢éĺŁçļĦ": 6903,
      "äºĨä¸Ģåı£æ°Ķ": 6904,
      "ç»§æī¿": 6905,
      "èĳĹä½ľ": 6906,
      "å¤ªç©º": 6907,
      "è¯¢éĹ®": 6908,
      "å®ĥä»¬åľ¨": 6909,
      "èĨĢèĥ±": 6910,
      "CD": 6911,
      "ELE": 6912,
      "FID": 6913,
      "ail": 6914,
      "lin": 6915,
      "Ġh": 6916,
      "ï¼Įæ²¡æľī": 6917,
      "ï¼Įçľĭçľĭ": 6918,
      "ãĢĤä»¥": 6919,
      "åľ¾": 6920,
      "åĴĮçĽ®æłĩ": 6921,
      "åĴĮå¤ĦçĲĨ": 6922,
      "åĴĮæĬĢèĥ½": 6923,
      "ä¼ļå½±åĵį": 6924,
      "æ´Ĵ": 6925,
      "çĮľ": 6926,
      "ï¼Įä½łéľĢè¦ģ": 6927,
      "åĲ¬åĪ°": 6928,
      "çłĶç£¨": 6929,
      "ç§»æ°ĳ": 6930,
      "å¹²çĩ¥": 6931,
      "çĨŁç»ĥ": 6932,
      "top": 6933,
      "å´Ķ": 6934,
      "çī¹æ®ĬçļĦ": 6935,
      "èµŀåĲĮ": 6936,
      "åĺ´": 6937,
      "ç¼ĸè¾ĳåĻ¨": 6938,
      "ä¸Ģèĩ´æĢ§": 6939,
      "ä¸Ģæ®µæĹ¶éĹ´": 6940,
      "é«ĺè´¨éĩıçļĦ": 6941,
      "åĩŃåĢŁ": 6942,
      "çĶ²éª¨æĸĩ": 6943,
      "ld": 6944,
      "ĥåľ¾": 6945,
      "çļĦå¸®åĬ©": 6946,
      "ãĢģ`": 6947,
      "å°ĺ": 6948,
      "è¿Ļéģĵ": 6949,
      "ä¸İä»ĸäºº": 6950,
      "æĿ¥åĪ°äºĨ": 6951,
      "æµĨ": 6952,
      "ä¿Ŀåħ»": 6953,
      "åĩºåı£": 6954,
      "å½±è§Ĩ": 6955,
      "èĩªå·±çļĦåĬªåĬĽ": 6956,
      "æ°ĳä¸»": 6957,
      "æıĲåįĩèĩªå·±": 6958,
      "æ¿ĢçĥĪ": 6959,
      "èµĽåŃ£": 6960,
      "res": 6961,
      "å¾Īå¿«": 6962,
      "åĽ°éļ¾åĴĮæĮĳæĪĺ": 6963,
      "é»Ħèī²": 6964,
      "ĠBoot": 6965,
      "ï¼Įåį³ä½¿": 6966,
      "è·ĳæŃ¥": 6967,
      "èµĭäºĪ": 6968,
      "ï¼Įè¯»èĢħåı¯ä»¥": 6969,
      "form": 6970,
      ".t": 6971,
      "ial": 6972,
      "ies": 6973,
      "ï¼Įé«ĺ": 6974,
      "ï¼Įä¸Ģèµ·": 6975,
      "çļĦå¥¥ç§ĺ": 6976,
      "åĴĮä¸°å¯ĮçļĦ": 6977,
      "çĶŁçļĦ": 6978,
      "å¤§è§Ħæ¨¡": 6979,
      "å®¹éĩı": 6980,
      "åıĹæ¬¢è¿İ": 6981,
      "çº¿ä¸Ĭ": 6982,
      "çĻ½èī²": 6983,
      "èį¯çĶ¨": 6984,
      "åº·çĨĻ": 6985,
      "åĩłä½ķ": 6986,
      "enc": 6987,
      "è½»æĺĵ": 6988,
      "äº§åĵģè´¨éĩı": 6989,
      "ary": 6990,
      "å²¸": 6991,
      "åħ³æ³¨åĴĮ": 6992,
      "æĸĹäºī": 6993,
      "èº«ä½ĵç´łè´¨": 6994,
      "èĵĿçīĻ": 6995,
      "ï¼Įçľ¼ç¥ŀ": 6996,
      "çĽ¸äºĴä½ľçĶ¨": 6997,
      "èĦ¸ä¸Ĭ": 6998,
      "ï¼Įå¿ħé¡»": 6999,
      "AN": 7000,
      "MS": 7001,
      "jav": 7002,
      "lu": 7003,
      "´è¿·": 7004,
      "Ġä¸Ń": 7005,
      "ï¼Įè¡¨ç¤º": 7006,
      "çļĦå¼Ģ": 7007,
      "çļĦèĤ©èĨĢ": 7008,
      "åĪĬ": 7009,
      "è¯Ģ": 7010,
      "äºĨä»ĸä»¬çļĦ": 7011,
      "ãĢģèīºæľ¯": 7012,
      "è¡°": 7013,
      "âĢĿè¿Ļä¸Ģ": 7014,
      "ç»Łæ²»": 7015,
      "ï¼Įè¿ĻéĩĮ": 7016,
      "å¤©å®ĩ": 7017,
      "èº«å¿ĥ": 7018,
      "ä½ıäºĨ": 7019,
      "çİ©åħ·": 7020,
      "æ¯ĶèµĽä¸ŃçļĦ": 7021,
      "è¿ĳå¹´æĿ¥": 7022,
      "ï¼ĮæĽ´æĺ¯ä¸ºäºĨ": 7023,
      "çĶ·åŃ©": 7024,
      "è·³è·ĥ": 7025,
      "æ¢ģå±±": 7026,
      "down": 7027,
      "çļĦæī§è¡Į": 7028,
      "ï¼ĮèĢĥçĶŁ": 7029,
      "åĴĮæĬĢå·§": 7030,
      "åĴĮåĿļæĮģ": 7031,
      "çĶ¨æ³ķ": 7032,
      "æĪĳä»¬éľĢè¦ģ": 7033,
      "å¤§äºĨ": 7034,
      "å¤ļæķ°": 7035,
      "çĤĸ": 7036,
      "æĬĢæ³ķ": 7037,
      "æĺ¯ä¸ĢåĲį": 7038,
      "çĪ¬": 7039,
      "ãĢĭãĢĤ": 7040,
      "å¹¶æľª": 7041,
      "atis": 7042,
      "å®Įç¾İ": 7043,
      "æĪĲåĬŁçļĦåħ³éĶ®": 7044,
      "äºĨä¸Ģä¸ĭ": 7045,
      "åĳ³éģĵ": 7046,
      "ï¼Įä¸įä»ħä»ħ": 7047,
      "èħº": 7048,
      "å»ºç«ĭäºĨ": 7049,
      "é£Łåĵģå®īåħ¨": 7050,
      "add": 7051,
      "åģļåĩºè´¡çĮ®": 7052,
      "Ġ</": 7053,
      "å°ĬéĩįåĴĮ": 7054,
      "è§£åĨ³éĹ®é¢ĺçļĦèĥ½åĬĽ": 7055,
      "æıĴåĢ¼": 7056,
      "example": 7057,
      "çļĦçľ¼çĿĽ": 7058,
      "çŃīå¤ļä¸ªæĸ¹éĿ¢": 7059,
      "éĽķåĪ»": 7060,
      "Linux": 7061,
      "çŃĽéĢī": 7062,
      "der": 7063,
      "Ġæķ°æį®": 7064,
      "ï¼Įæ°´": 7065,
      "ï¼ĮçĶ±": 7066,
      "çļĦèĥĮæĻ¯": 7067,
      "çļĦè¦ģæ±Ĥ": 7068,
      "èĥĨ": 7069,
      "åľ°ä¸ĭ": 7070,
      "æĽ¦": 7071,
      "åĮĸçŁ³": 7072,
      "åħ¶ä¸ŃçļĦ": 7073,
      "ä¸Ĭåįĩ": 7074,
      "çĤī": 7075,
      "å¾ĹåĪĨ": 7076,
      "æİ¥è¿ĳ": 7077,
      "ç²ĺ": 7078,
      "ä¹¦åĨĻ": 7079,
      "èĭ¹": 7080,
      "åĽŀå¿Ĩ": 7081,
      "read": 7082,
      "è§£åĨ³äºĨ": 7083,
      "å¾®å¾®": 7084,
      "åĪĽæĸ°æĢĿç»´": 7085,
      "çľ¼éķľ": 7086,
      "çģ«çĦ°": 7087,
      "äºļæ´²": 7088,
      "éĢĤåºĶæĢ§": 7089,
      "ç¹ģèį£": 7090,
      "èĻ«å®³": 7091,
      "ç¤¼ä»ª": 7092,
      "åħ´å¥ĭåľ°": 7093,
      "ä¸¢å¤±": 7094,
      "Git": 7095,
      "Ġé¡¹çĽ®": 7096,
      "ĺç±³": 7097,
      "ï¼Įæĸ¹ä¾¿": 7098,
      "å®ħ": 7099,
      "æĺĤ": 7100,
      "æĺĬ": 7101,
      "äºĨèĩªå·±": 7102,
      "ä¸Ģé¡¹": 7103,
      "ãĢģæĬĢæľ¯": 7104,
      "èµ¶": 7105,
      "åı¯ä»¥æıĲä¾Ľ": 7106,
      "åı¯ä»¥æıĲé«ĺ": 7107,
      "åĮĸå·¥": 7108,
      "æĸĩçī©": 7109,
      "æĦŁæĤŁ": 7110,
      "å½±çīĩ": 7111,
      "Ġ--": 7112,
      "åŀĥåľ¾": 7113,
      "çĥ¤": 7114,
      "è¯Ńæ°Ķ": 7115,
      "æīĭä¸ŃçļĦ": 7116,
      "```Ċ": 7117,
      "æīĵéĢł": 7118,
      "ï¼ĮåŃ¦çĶŁå°Ĩèĥ½å¤Ł": 7119,
      "åį°åº¦": 7120,
      "åĬ³åĬ¨åĬĽ": 7121,
      "é¦Ļæ°Ķ": 7122,
      "åĽ¢éĺŁåĲĪä½ľç²¾ç¥ŀ": 7123,
      "Ġtr": 7124,
      "çļĦçĪ¶": 7125,
      "çļĦç¤ºä¾ĭ": 7126,
      "ï¼Įæ³¨éĩį": 7127,
      "çļĦèĬ±": 7128,
      "åħĦ": 7129,
      "ä¸Ńåľº": 7130,
      "æĺ¯åĽłä¸º": 7131,
      "è¿Ļæĺ¯ä¸Ģä¸ª": 7132,
      "åıĳåħī": 7133,
      "è°ģ": 7134,
      "å¾Ĺä¸į": 7135,
      "ĠĠĠĠĊ": 7136,
      "å¸Ĥåľºä¸Ń": 7137,
      "åĪĴåĪĨ": 7138,
      "èĪŁ": 7139,
      "æİ¨çĲĨ": 7140,
      "è¯¦ç»Ĩè§£éĩĬ": 7141,
      "åĤ²": 7142,
      "æĪ¿å±ĭ": 7143,
      "ï¼Įæ¯ıå¤©": 7144,
      "èµ°åĪ°": 7145,
      "çł´ç¢İ": 7146,
      "ä¸įä»ħä»ħæĺ¯ä¸Ģç§į": 7147,
      "èĤ¡ä¸ľ": 7148,
      "èĪªå¤©": 7149,
      "çĶŁåĳ½åĳ¨æľŁ": 7150,
      "ï¼Įå°¤åħ¶æĺ¯åľ¨": 7151,
      "æ·±è¿ľå½±åĵį": 7152,
      "ãĢĤæľ¬åįķåħĥå°Ĩ": 7153,
      "RFID": 7154,
      "son": 7155,
      "ºçī²": 7156,
      "Ġon": 7157,
      "è¿Ī": 7158,
      "åľ¨æİ¥ä¸ĭæĿ¥çļĦ": 7159,
      "èĥ¸": 7160,
      "çīºçī²": 7161,
      "å¿Į": 7162,
      "æĦ¤": 7163,
      "éĢļè¿ĩæľ¬åįķåħĥçļĦåŃ¦ä¹ł": 7164,
      "æĿ¥äºĨ": 7165,
      "æ°¯": 7166,
      "ä½ĵæ£Ģ": 7167,
      "èĤĸ": 7168,
      "è¿ĺéľĢè¦ģ": 7169,
      "ä½¿çĶ¨çļĦ": 7170,
      "ç§ĳçĽ®": 7171,
      "ï¼ĪA": 7172,
      "æĥ³èµ·": 7173,
      "æľªæĿ¥åıĳå±ķ": 7174,
      "é¥Ń": 7175,
      "éļıåĲİ": 7176,
      "ï¼ĮåŃ¦çĶŁåºĶ": 7177,
      "æķ°åŃĹåĮĸ": 7178,
      "çļĦç¬Ķ": 7179,
      "åĨľæĿĳç»ıæµİ": 7180,
      "æīĵä¸ĭåĿļå®ŀåŁºç¡Ģ": 7181,
      "å¥¶å¥¶": 7182,
      "exp": 7183,
      "å¯ĨåĪĩçĽ¸åħ³": 7184,
      "åīįæīĢæľªæľīçļĦ": 7185,
      "æĤłä¹ħ": 7186,
      "wiper": 7187,
      "public": 7188,
      "print": 7189,
      "vent": 7190,
      "çļĦåı¯": 7191,
      "çļĦå»ºçŃĳ": 7192,
      "ãĢĤè¯¥": 7193,
      "å®¾": 7194,
      "ä¸Ģç¯ĩ": 7195,
      "æĬ±": 7196,
      "çŃ¹": 7197,
      "ä»ħä»ħ": 7198,
      "åħ³èģĶ": 7199,
      "æ´»æĢ§": 7200,
      "è¿Ľè¡Įè°ĥæķ´": 7201,
      "ï¼ĪP": 7202,
      "è§ĨåĬĽ": 7203,
      "æ°Ķè±¡": 7204,
      "æĿĳéĩĮ": 7205,
      "å®īåħ¨çļĦ": 7206,
      "æ£Ģç´¢": 7207,
      "ä¸ĵä¸ļçŁ¥è¯Ĩ": 7208,
      "è¡¨çİ°åĩºèī²": 7209,
      "root": 7210,
      "ç´§ç´§": 7211,
      "ãĢĤä»ĸä»¬çŁ¥éģĵ": 7212,
      "åºĶå¯¹çŃĸçķ¥": 7213,
      "()Ċ": 7214,
      "çº¢æŀ£": 7215,
      "éĿĴå¹´": 7216,
      "ä¾ĭåŃĲä¸Ń": 7217,
      "éĥ½æľīåħ¶çĭ¬çī¹çļĦ": 7218,
      "æĲŃå»º": 7219,
      "èķ´åĲ«çĿĢ": 7220,
      "åĶ¯ä¸Ģ": 7221,
      "]Ċ": 7222,
      "`p": 7223,
      "ton": 7224,
      "ï¼Įè¯´éģĵ": 7225,
      "çļĦèģĮä¸ļ": 7226,
      "çļĦçĶŁäº§": 7227,
      "ï¼Įå§": 7228,
      "ï¼ĮåĢ": 7229,
      "å¯ĵ": 7230,
      "äººåĬĽ": 7231,
      "åĪ°è¾¾": 7232,
      "èĩªè¡Į": 7233,
      "ä½ĵéĩį": 7234,
      "çĿĢéĩįè¦ģä½ľçĶ¨": 7235,
      "çī©ä½ĵ": 7236,
      "åİŁå§ĭ": 7237,
      "å¸®åĬ©æĪĳä»¬": 7238,
      "çº¿æĿ¡": 7239,
      "å®ŀéĻħä¸Ĭ": 7240,
      "ä¸īåĽ½": 7241,
      "ä¸īè§Ĵ": 7242,
      "ï¼Įä½łä»¬": 7243,
      "è½¬ç§»": 7244,
      "itle": 7245,
      "æİĴæĶ¾": 7246,
      "èĹ»": 7247,
      "ãĢĤå®ĥä»¬": 7248,
      "çļĦåİĨåı²èĥĮæĻ¯": 7249,
      "åģľè½¦": 7250,
      "éľĩæĥĬ": 7251,
      "çļĦæ£Ģ": 7252,
      "Be": 7253,
      "De": 7254,
      "ST": 7255,
      "ï¼Įéĺ¿": 7256,
      "çļĦéģĵè·¯": 7257,
      "ãĢĤä½¿çĶ¨": 7258,
      "å¤º": 7259,
      "ä¸Ģçīĩ": 7260,
      "ï¼Įåĸ": 7261,
      "å¥Ī": 7262,
      "ä¼ļå¯¹": 7263,
      "æµħ": 7264,
      "æ¸Ĺ": 7265,
      "éªĦ": 7266,
      "åŁºçĿ£": 7267,
      "æĪĺå½¹": 7268,
      "åĢį": 7269,
      "æ³¨åħ¥": 7270,
      "ï¼Įä»¥æıĲé«ĺ": 7271,
      "ħæĭĮ": 7272,
      "çİ¯å¢ĥä¸ĭ": 7273,
      "æĹ¥åŃĲéĩĮ": 7274,
      "æıĲä¾ĽäºĨæĸ°çļĦ": 7275,
      "åİĨåı²çļĦ": 7276,
      "éĩĳçŁ¿": 7277,
      "èīºæľ¯å½¢å¼ı": 7278,
      "æīĵçł´": 7279,
      "æ¶ĪèĢĹ": 7280,
      "è®¸åı¯": 7281,
      "ï¼Įè®©åŃ¦çĶŁ": 7282,
      "éĩįè¦ģçļĦæĺ¯": 7283,
      "èħ¿": 7284,
      "å®ĮæĪĲäºĨ": 7285,
      "è¾¹ç¼ĺ": 7286,
      "çļĦæĻ¯": 7287,
      "Edit": 7288,
      "LTI": 7289,
      "Sh": 7290,
      "net": 7291,
      "ï¼Įç»´æĬ¤": 7292,
      "çļĦåŃĺåľ¨": 7293,
      "åľ¨æ¸¸æĪı": 7294,
      "åľ¨æ¸¸æĪıä¸Ń": 7295,
      "æĺ¯æĢİä¹Ī": 7296,
      "å¤ļå¹´": 7297,
      "èĤłéģĵ": 7298,
      "ï¼ĮæĪĳä»¬æīįèĥ½": 7299,
      "ä¹¦æĪ¿": 7300,
      "åĽłåħ¶": 7301,
      "æł·å¼ı": 7302,
      "çĹħæĥħ": 7303,
      "åĲ¬ä¼Ĺ": 7304,
      "åĽ´ç»ķ": 7305,
      "çļĦåŁºç¡Ģä¸Ĭ": 7306,
      "çķĻåŃ¦": 7307,
      "ello": 7308,
      "çīĽå¥¶": 7309,
      "ä½ĵçİ°åľ¨ä»¥ä¸ĭåĩłä¸ªæĸ¹éĿ¢": 7310,
      "åģıå¥½": 7311,
      "lay": 7312,
      "æŃ»äº¡": 7313,
      "ãĢĤæĹłè®ºæĺ¯": 7314,
      "èĢģå¹´äºº": 7315,
      "XML": 7316,
      "ĠéĢīæĭ©": 7317,
      "Ġif": 7318,
      "ï¼ĮæŃ£æĺ¯": 7319,
      "çļĦæĪĲç»©": 7320,
      "ãĢĤä¸į": 7321,
      "åľ¨å¤ĦçĲĨ": 7322,
      "åŃ¦åĪ°äºĨ": 7323,
      "å¯¹æľªæĿ¥çļĦ": 7324,
      "åĪĨç¦»": 7325,
      "è¾½": 7326,
      "ä¸įä»ħä½ĵçİ°åľ¨": 7327,
      "åģ¿": 7328,
      "æĹłéĻĲ": 7329,
      "åīįç«¯": 7330,
      "å£³": 7331,
      "é£İåĳ³": 7332,
      "æĽ´åĬłæ³¨éĩį": 7333,
      "åı£åĳ³": 7334,
      "åıĳçİ°äºĨä¸Ģä¸ª": 7335,
      "äºīåıĸ": 7336,
      "éŃı": 7337,
      "ä»ĭç»įäºĨ": 7338,
      "ption": 7339,
      "æľīæīĢä¸įåĲĮ": 7340,
      "æłĩå¿ĹçĿĢ": 7341,
      "å¼¯æĽ²": 7342,
      "Ġ\\]ĊĊ": 7343,
      "çļĦå¯¹è¯Ŀ": 7344,
      "çļĦæĢģåº¦": 7345,
      "åĴĮæİ¢ç´¢": 7346,
      "åºĶå½ĵ": 7347,
      "ç½ķ": 7348,
      "è·Į": 7349,
      "ç»ĵçŁ³": 7350,
      "æĸ°åħ´": 7351,
      "åŃ¦çĶŁå¯¹": 7352,
      "å°Ĩè¿ĻäºĽ": 7353,
      "èĬ½": 7354,
      "æĮģæľī": 7355,
      "åĨħåľ¨": 7356,
      "ãĢĤä»ĸä¸įä»ħ": 7357,
      "ï¼Įä»ĸå¯¹": 7358,
      "ï¼Įè¿ĺèĥ½å¤Ł": 7359,
      "éħ·": 7360,
      "è®¾è®¡çļĦ": 7361,
      "æ¨¡ç³Ĭ": 7362,
      "ãĢĤéĢļè¿ĩå¯¹": 7363,
      "è¿Ļä¸ªæķħäºĭ": 7364,
      "éĤ£éĩĮ": 7365,
      "äºĨä¸Ģä¼ļåĦ¿": 7366,
      "ascript": 7367,
      "çĶŁçī©å¤ļæł·æĢ§": 7368,
      "èĨ¨": 7369,
      "åĵģçīĮå½¢è±¡": 7370,
      "æ²¹èĦĤ": 7371,
      "é²ľæĺİ": 7372,
      "ï¼Įåģļ": 7373,
      "javascript": 7374,
      "Ŀåįľ": 7375,
      "ï¼Įæĺ¯ä¸Ģç§į": 7376,
      "ï¼Įä¼ĺåĮĸ": 7377,
      "çļĦå·¥åħ·": 7378,
      "å®ł": 7379,
      "åŃķ": 7380,
      "æĢ¨": 7381,
      "çļĦæº": 7382,
      "è§£çłģ": 7383,
      "åºĶæĢ¥": 7384,
      "æ´¥": 7385,
      "éĤ¦": 7386,
      "åħīèĬĴ": 7387,
      "æŀģé«ĺçļĦ": 7388,
      "å¸ĥç½®": 7389,
      "ä¸ŃåĽ½çļĦ": 7390,
      "åĩłç§į": 7391,
      "æ¶Īå¤±": 7392,
      "rom": 7393,
      "èħ°": 7394,
      "ĠĠĠĠĠĠĠĠĠĠĠĠĠĠĠ": 7395,
      "è¶³çĲĥè¿ĲåĬ¨åĳĺ": 7396,
      "æĺ¾èĳĹæıĲé«ĺ": 7397,
      "æĺ¾èĳĹæıĲåįĩ": 7398,
      "çļĦåŁºç¡ĢçŁ¥è¯Ĩ": 7399,
      "æ³ķå¾ĭèģĮä¸ļ": 7400,
      "æįŁä¼¤": 7401,
      "å¼ºè°ĥäºĨ": 7402,
      "ï¼Įå»ºè®®": 7403,
      "ä¸§å°¸": 7404,
      "èĭ¹æŀľ": 7405,
      "CSS": 7406,
      "XX": 7407,
      "ale": 7408,
      "ï¼Įæ³¨æĦı": 7409,
      "åľ¨åŃ¦ä¹ł": 7410,
      "çĽĴ": 7411,
      "éĻĮ": 7412,
      "ä½łå¯¹": 7413,
      "åĲİæľŁ": 7414,
      "åŃĲè½©": 7415,
      "æĥ³æ³ķ": 7416,
      "æŁĦ": 7417,
      "ä¿¡æģ¯æĬĢæľ¯": 7418,
      "åħīä¼ı": 7419,
      "rent": 7420,
      "Ġç¬¬åħŃ": 7421,
      "è§ģè¯ģ": 7422,
      "ç¢Į": 7423,
      "è¡Ģåİĭ": 7424,
      "æĲħæĭĮ": 7425,
      "çĸĳéĹ®": 7426,
      "æııè¿°äºĨ": 7427,
      "div": 7428,
      "çļĦæĽ´": 7429,
      "æī¹åĪ¤æĢ§æĢĿç»´": 7430,
      "å¹¼åĦ¿åĽŃ": 7431,
      "ELECT": 7432,
      "Fe": 7433,
      "`<": 7434,
      "çļĦæľįåĬ¡": 7435,
      "åĴĮåĬĽéĩı": 7436,
      "åľ¨çłĶç©¶": 7437,
      "æľīä»·åĢ¼": 7438,
      "æĬ¬": 7439,
      "åıĳè¡Į": 7440,
      "éĢļè¿ĩæľ¬æķĻç¨ĭ": 7441,
      "ä¸İæĮĳæĪĺ": 7442,
      "è¾°": 7443,
      "çººç»ĩ": 7444,
      "å°ıåŀĭ": 7445,
      "æľºåºĬ": 7446,
      "æĿİæĢĿè¿ľ": 7447,
      "åĲİæŀľ": 7448,
      "å¼ºåĮĸ": 7449,
      "ï¼īæĺ¯ä¸Ģç§į": 7450,
      "å¯¼èĪª": 7451,
      "å¤Ħç½ļ": 7452,
      "ï¼Įä¹Łèĥ½": 7453,
      "çĶ¨æĪ·çķĮéĿ¢": 7454,
      "éĺ²çº¿": 7455,
      "åĽŀæĬ¥": 7456,
      "stall": 7457,
      "èģĮä¸ļæķĻèĤ²": 7458,
      "éĻ¢æł¡": 7459,
      "å¸ĮæľĽéĢļè¿ĩ": 7460,
      "è¡Ģçº¢": 7461,
      "çļĦæİĴ": 7462,
      "å¯¼èĩ´çļĦ": 7463,
      "ç§ĳæĬĢåĪĽæĸ°": 7464,
      "ç¬ĳçĿĢåĽŀçŃĶ": 7465,
      "å¥³åŃ©": 7466,
      "Ġpro": 7467,
      "èĽĩ": 7468,
      "ï¼ĮåĨħ": 7469,
      "èĴĭ": 7470,
      "ç¹ģæ®ĸ": 7471,
      "æ´ŀå¯Ł": 7472,
      "ä¼ĳéĹ²": 7473,
      "API": 7474,
      "æĵħéķ¿": 7475,
      "Ġè¾ĵåĩº": 7476,
      "ï¼Įè¡¨è¾¾": 7477,
      "ï¼Įè´Łè´£": 7478,
      "çļĦäºĭæĥħ": 7479,
      "ä¸ŃéĹ´": 7480,
      "æĹ±": 7481,
      "ä¸ºäºº": 7482,
      "è´·": 7483,
      "åı¯ä»¥è®©": 7484,
      "æ¯ħåĬĽ": 7485,
      "ä¸įä»ħæĺ¯ä¸Ģ": 7486,
      "ä¹łæĢ§": 7487,
      "éĩįè¦ģè´¡çĮ®": 7488,
      "åĽ½çļĦ": 7489,
      "erver": 7490,
      "åħ·æľīéĩįè¦ģçļĦ": 7491,
      "éħįå¤ĩ": 7492,
      "æĽ´å¤ļåħ³äºİ": 7493,
      "äºīè®®": 7494,
      "éĵ¾è¡¨": 7495,
      "è¡Įä¸ļçļĦ": 7496,
      "åı¥åŃĲ": 7497,
      "è¯ĨåĪ«åĴĮ": 7498,
      "é¡¾éĹ®": 7499,
      "ä¸¥éĩįçļĦ": 7500,
      "éĢĢç¼©": 7501,
      "çĭĹçĭĹ": 7502,
      "æ¼ıæ´ŀ": 7503,
      "è°¨æħİ": 7504,
      "CI": 7505,
      "Ġç»ĵè¯Ń": 7506,
      "ĩæ·ĭ": 7507,
      "ãĢĤæľ¬": 7508,
      "æĺ¯éĿŀå¸¸éĩįè¦ģçļĦ": 7509,
      "ãĢģæķĻèĤ²": 7510,
      "è¿Ļæ¬¾": 7511,
      "æĹŃ": 7512,
      "æŃ§": 7513,
      "ä¼ļæľī": 7514,
      "æĿ¥æıĲé«ĺ": 7515,
      "å¤ļå½©": 7516,
      "çŃīåĽłç´ł": 7517,
      "æ·ĩæ·ĭ": 7518,
      "å¾Ĺä»¥": 7519,
      "èĢħåı¯ä»¥": 7520,
      "åŃ¦ä¹łæķĪçİĩ": 7521,
      "ï¼Įä»ĸä¸įä»ħ": 7522,
      "ï¼Įä»¥åħ¶": 7523,
      "ĠĠĠĊ": 7524,
      "å¸®åĬ©æĤ¨": 7525,
      "æĽ´å¥½åľ°æİĮæı¡": 7526,
      "åĨľèį¯": 7527,
      "ree": 7528,
      "åºĵåŃĺ": 7529,
      "ï¼Įä¸įä»ħæľīåĬ©äºİ": 7530,
      "åįıä¼ļ": 7531,
      "åĽ°éļ¾æĹ¶": 7532,
      "ä¸įä»ħä»ħæĺ¯ä¸Ģä¸ª": 7533,
      "éĿĴæĺ¥": 7534,
      "èĲ¥åħ»æĪĲåĪĨ": 7535,
      "äº®åº¦": 7536,
      "ãĢĤæĪĳçĽ¸ä¿¡": 7537,
      "ï¼Įä»¥ä¾¿åľ¨": 7538,
      "odel": 7539,
      "è¾ħå¯¼": 7540,
      "å§ĵåĲį": 7541,
      "æĳĺå½ķ": 7542,
      "åĨ¥æĥ³": 7543,
      "bu": 7544,
      "cat": 7545,
      "ï¼Įè¿ħéĢŁ": 7546,
      "çļĦå½¢å¼ı": 7547,
      "çļĦæľĭåıĭ": 7548,
      "åĴĮçİ¯å¢ĥ": 7549,
      "ãĢģå¸Ĥåľº": 7550,
      "å¾Ļ": 7551,
      "çŃīå¤ļ": 7552,
      "åĿĬ": 7553,
      "éĶ¥": 7554,
      "èĥ½å¤ŁæĽ´": 7555,
      "æ»©": 7556,
      "è¯ķåīĤ": 7557,
      "åĽ¾æłĩ": 7558,
      "çļĦéĩįè¦ģéĢĶå¾Ħ": 7559,
      "éħįå¥Ĺ": 7560,
      "èĮ«": 7561,
      "çĽ®æłĩåĴĮ": 7562,
      "çŁ¥è¯ĨçĤ¹": 7563,
      "ä¿®åħ»": 7564,
      "çļĦæł·": 7565,
      "ä¸¥èĤĥ": 7566,
      "æĦŁåĪ°éĿŀå¸¸": 7567,
      "è®°å½ķäºĨ": 7568,
      "çĵ£": 7569,
      "æĻ®éģį": 7570,
      "æł¸ç®Ĺ": 7571,
      "çļĦæ¶Īè´¹": 7572,
      "App": 7573,
      "ï¼Įåı¯èĥ½": 7574,
      "ï¼Įèİ·åıĸ": 7575,
      "çļĦå¥½": 7576,
      "çļĦå½¢æĢģ": 7577,
      "å®ª": 7578,
      "åĴĮèīºæľ¯": 7579,
      "ä¸Ńæĸĩ": 7580,
      "è¿Ļåı¥è¯Ŀ": 7581,
      "ä¸ºåŃ¦çĶŁ": 7582,
      "åľ°å½¢": 7583,
      "âĢĿï¼Ī": 7584,
      "ä¸Ģä¸ªç®ĢåįķçļĦ": 7585,
      "éĥ¨ä½į": 7586,
      "ç¡®ä¿ĿäºĨ": 7587,
      "å¤©ç©º": 7588,
      "ç«ĭä½ĵ": 7589,
      "ï¼Ł**Ċ": 7590,
      "ï¼Įä¸ºåĲİç»Ń": 7591,
      "çľŁè¯ļ": 7592,
      "ï¼Įä½łçļĦ": 7593,
      "reate": 7594,
      "èģĶæİ¥": 7595,
      "ana": 7596,
      "ãĢĤä»¥ä¸ĭå°Ĩ": 7597,
      "ä½ıå®ħ": 7598,
      "åĩĨå¤ĩå¥½": 7599,
      "æĹ¥å¸¸çĶŁæ´»ä¸ŃçļĦ": 7600,
      "ç»¿åĮĸ": 7601,
      "utton": 7602,
      "ä¸¥æł¼çļĦ": 7603,
      "æĦŁæħ¨åľ°è¯´": 7604,
      "çļĦæŃ£å¸¸": 7605,
      "work": 7606,
      "åİ¨æĪ¿": 7607,
      "è´«åĽ°": 7608,
      "è¯¦ç»Ĩä»ĭç»įäºĨ": 7609,
      "çļĦæ½ľåĬĽ": 7610,
      "Log": 7611,
      "çļĦçľĭæ³ķ": 7612,
      "çļĦçªģçł´": 7613,
      "ph": 7614,
      "}{": 7615,
      "Ġuser": 7616,
      "ï¼ĮåŃ¦ä¼ļ": 7617,
      "ï¼ĮæĶ¿åºľ": 7618,
      "ï¼Įç¡®å®ļ": 7619,
      "çļĦçŃĸçķ¥": 7620,
      "çļĦå½¢è±¡": 7621,
      "çļĦç¨³å®ļæĢ§": 7622,
      "åĴĮåĲĪä½ľ": 7623,
      "å°¤åħ¶": 7624,
      "æ³³": 7625,
      "å¯¹æĬĹ": 7626,
      "åıĳçĶµ": 7627,
      "ä¸İåºĶçĶ¨": 7628,
      "âĢľæĿİ": 7629,
      "åı¤èĳ£": 7630,
      "æĶ¯éĥ¨": 7631,
      "é¢Ħå¤ĦçĲĨ": 7632,
      "æ¸ħæľĿ": 7633,
      "è¯·æķĻ": 7634,
      "ç¿ł": 7635,
      "èĩªæĪĳè®¤çŁ¥": 7636,
      "ï¼Įå®ŀçİ°äºĨ": 7637,
      "è¿ģå¾Ļ": 7638,
      "ä¹ĻéĨĩ": 7639,
      "åħ¼å®¹æĢ§": 7640,
      "ï¼Įå®¶éķ¿": 7641,
      "åĪ·": 7642,
      "åıĳéŁ³": 7643,
      "éĢļè¿ĩåŃ¦ä¹ł": 7644,
      "åİĺç±³": 7645,
      "æ¸Ķ": 7646,
      "å°ıæĺŁæĺŁ": 7647,
      "æĸ°é²ľ": 7648,
      "ä¸ŃçļĦè§Ĵèī²": 7649,
      "ï¼ĮæĪĳä»¬ä¹Ł": 7650,
      "éĹ®é¢ĺæĹ¶": 7651,
      "ãĢĭåĴĮ": 7652,
      "è·¯ä¸Ĭ": 7653,
      "å°±èĥ½": 7654,
      "èİ²": 7655,
      "è¯ģåĪ¸": 7656,
      "æ¸ħæ¥ļ": 7657,
      "ç»Īç«¯": 7658,
      "ç¢±": 7659,
      "ans": 7660,
      "ï¼ģĊ": 7661,
      "æııåĨĻ": 7662,
      "æľīçĿĢæµĵåİļçļĦåħ´è¶£": 7663,
      "çºªå½ķ": 7664,
      "å©Ĩ": 7665,
      "æī¹è¯Ħ": 7666,
      "æĬĬæı¡": 7667,
      "çĹĽèĭ¦": 7668,
      "çļĦå®īåħ¨æĢ§": 7669,
      "è±¡å¾ģçĿĢ": 7670,
      "é±¼ç±»": 7671,
      "éĺ»æŃ¢": 7672,
      "åħĭæľįåĽ°éļ¾": 7673,
      "ç¬Ķè®°æľ¬": 7674,
      "èĳĹåĲįçļĦ": 7675,
      "frac": 7676,
      "éĻªä¼´": 7677,
      "æ¶Įèµ·ä¸ĢèĤ¡": 7678,
      "ç½ķè§ģ": 7679,
      "ULL": 7680,
      "cer": 7681,
      "db": 7682,
      "ĠéĻĦå½ķ": 7683,
      "çļĦé¢ĨåŁŁ": 7684,
      "ãĢĤçĦ¶åĲİ": 7685,
      "åĴĮç»ıæµİ": 7686,
      "ä¸įåıĬ": 7687,
      "åıĳåĬ¨æľº": 7688,
      "éĩįè¦ģå½±åĵį": 7689,
      "æĮģä¹ħ": 7690,
      "å½±åĥı": 7691,
      "åĽ¾è¡¨": 7692,
      "ï¼Įåı¯ä»¥åľ¨": 7693,
      "ä¸ĵä¸ļå»ºè®®": 7694,
      "ï¼Įä¸Ģè¾¹": 7695,
      "åĮħåĲ«äºĨ": 7696,
      "éľ²åĩº": 7697,
      "æĢİä¹ĪåĬŀ": 7698,
      "æ¬£æħ°": 7699,
      "çļĦçģ«": 7700,
      "ï¼Įå¼ķå¯¼": 7701,
      "ä»¥ä¸ĭåĩłç§į": 7702,
      "åģļå¥½åĩĨå¤ĩ": 7703,
      "é©¿é¦Ĩ": 7704,
      "®ä¸§": 7705,
      "Ġar": 7706,
      "ï¼ĮæŃ£": 7707,
      "ï¼Įè¯Ħä¼°": 7708,
      "çļĦåīį": 7709,
      "ãĢĤåħ¶ä¸Ń": 7710,
      "ä¼½": 7711,
      "èĥİ": 7712,
      "åºŀ": 7713,
      "æĺ¯ä»ĸ": 7714,
      "ä¸įå¤Ł": 7715,
      "ä¸ºä»ĸ": 7716,
      "å¯¹ç§°": 7717,
      "å¹Ķ": 7718,
      "åı¯ä»¥çĶ¨äºİ": 7719,
      "å¤ļçļĦ": 7720,
      "åħ¥èĥľ": 7721,
      "éĥ½éľĢè¦ģ": 7722,
      "è¿ĻäºĽç¬¦åı·": 7723,
      "æİ¢ç©¶": 7724,
      "ï¼Įä¹Łå¯¹": 7725,
      "ä»¥ä¸ĭæŃ¥éª¤": 7726,
      "è¢«ç§°ä¸º": 7727,
      "èį¯å¸Ī": 7728,
      "ãĢĤè¿Ļç§įæĸ¹æ³ķ": 7729,
      "è¡¨è¾¾å¼ı": 7730,
      "èŀįèµĦ": 7731,
      "ï¼Įè¿ĺèĥ½åľ¨": 7732,
      "ï¼Įå¸®åĬ©ä½ł": 7733,
      "åĲ¸å¼ķäºĨ": 7734,
      "æ·±åĪ»åľ°": 7735,
      "çĩķ": 7736,
      "unction": 7737,
      "ector": 7738,
      "å»¶éķ¿": 7739,
      "æķ¬çķı": 7740,
      "é¢Ĺç²Ĵ": 7741,
      "ï¼Įå±ķç¤ºäºĨ": 7742,
      "è¯¸å¤ļ": 7743,
      "åĤ¬åĮĸ": 7744,
      "çļĦæĮģç»Ń": 7745,
      "æĦ¤æĢĴ": 7746,
      "ï¼Įåħ¨": 7747,
      "ï¼Įåħ¬åı¸": 7748,
      "çļĦä¸ĢäºĽ": 7749,
      "å¤¸": 7750,
      "å¸ķ": 7751,
      "äººå¯¹": 7752,
      "åıĳæĺİ": 7753,
      "åıĳèĤ²": 7754,
      "åĪĨæĶ¯": 7755,
      "èĩªå¾ĭ": 7756,
      "å¤§èĦĳ": 7757,
      "éģĵçĲĨ": 7758,
      "å§Ĳ": 7759,
      "éĢīä¸¾": 7760,
      "inio": 7761,
      "ï¼Įä½Ĩå®ĥ": 7762,
      "ï¼Įä¸ºä»Ģä¹Ī": 7763,
      "åĿļå®Ī": 7764,
      "å¸ĪèµĦ": 7765,
      "çļĦéĩįè¦ģåĽłç´ł": 7766,
      "ä¿¡æģ¯åĴĮ": 7767,
      "å¥¹åľ¨": 7768,
      "æ´»åĬ¨åĴĮ": 7769,
      "éĽĨä½ĵ": 7770,
      "èį¯èĨ³": 7771,
      "æĸĩä»¶ç²īç¢İ": 7772,
      "æĬķå½±": 7773,
      "æİ§åĪ¶åĻ¨": 7774,
      "è¥¿çıŃ": 7775,
      "å¹²åĩĢ": 7776,
      "èĵĿèī²": 7777,
      "ç¿»è¯ĳ": 7778,
      "åĨ°æ·ĩæ·ĭ": 7779,
      "åĭĩæķ¢åľ°": 7780,
      "éĴ¢çĲ´": 7781,
      "éĺ´å½±": 7782,
      "å§¿æĢģ": 7783,
      "çĸ²åĬ³": 7784,
      "ï¼Įå¹¿æ³Ľ": 7785,
      "èĨ¨èĥĢ": 7786,
      "è¥¿çıŃçīĻ": 7787,
      "çļĦä»·åĢ¼": 7788,
      "ç»ĳ": 7789,
      "ä¹Ķ": 7790,
      "ãĢģæľī": 7791,
      "èĢį": 7792,
      "çļĦæĲ": 7793,
      "æīĳ": 7794,
      "æłı": 7795,
      "èīĩ": 7796,
      "ãĢĤè¿Ļä¸įä»ħ": 7797,
      "æºī": 7798,
      "éķ¿çļĦ": 7799,
      "æ»¥": 7800,
      "å¹³æĸ¹": 7801,
      "ï¼ĪR": 7802,
      "ï¼Įä½Ĩåıªè¦ģ": 7803,
      "ç²¾æ¹Ľ": 7804,
      "æĶ¯æĮģåĴĮ": 7805,
      "ç¿ħ": 7806,
      "ç½ĳç»ľå®īåħ¨": 7807,
      "å¤ļæł·æĢ§åĴĮ": 7808,
      "å®¡æŁ¥": 7809,
      "åħļæĶ¯éĥ¨": 7810,
      "åºķèķ´": 7811,
      "éķľåĥı": 7812,
      "è·¨åŃ¦ç§ĳ": 7813,
      "ãĢĤä½Ĩæĺ¯": 7814,
      "èµ·æºĲäºİ": 7815,
      "é¤Ĳé¥®": 7816,
      "èĢķåľ°": 7817,
      "çļĦæĻ®åıĬ": 7818,
      "_{": 7819,
      "ĠæİĮæı¡": 7820,
      "ĠåĪĽå»º": 7821,
      "çļĦåŁ¹åħ»": 7822,
      "çļĦé¢ľèī²": 7823,
      "èĥ¡": 7824,
      "åľ°å¹Ķ": 7825,
      "èĩªè¯Ń": 7826,
      "éĩįéĩı": 7827,
      "é«ĺä¸Ń": 7828,
      "çº½": 7829,
      "æķ°æį®åĴĮ": 7830,
      "æľĢæĸ°çļĦ": 7831,
      "æĬĢæľ¯åĪĽæĸ°": 7832,
      "ï¼ĪM": 7833,
      "æľªèĥ½": 7834,
      "çĹ´è¿·": 7835,
      "ãĢĤéĢļè¿ĩä¸įæĸŃ": 7836,
      "ï¼Įä¹Łè®©ä»ĸ": 7837,
      "æĶ¾ç½®": 7838,
      "ä¼ģä¸ļåľ¨": 7839,
      "æ¶Īéĺ²": 7840,
      "çģ«è½¦": 7841,
      "çİ©èĢį": 7842,
      "è´¢æĶ¿": 7843,
      "åī§æľ¬": 7844,
      "é»ĳèī²": 7845,
      "æĪĺæĸĹä¸Ń": 7846,
      "ï¼Įå¾Ī": 7847,
      "è²ĺ": 7848,
      "é²ģæĸ¯": 7849,
      "æ³Ħéľ²": 7850,
      "ç§¯æŀģçļĦå¿ĥæĢģ": 7851,
      "èĨ³é£Ł": 7852,
      "çļĦä¿¡ä»»": 7853,
      "åĴĮä½ľçĶ¨": 7854,
      "åľ°åŁŁ": 7855,
      "æĽ¼": 7856,
      "åı¯ä»¥éĢīæĭ©": 7857,
      "ç¡ħ": 7858,
      "æ²ĥ": 7859,
      "è¿ĺèĥ½": 7860,
      "æĸĩåĮĸåĨħæ¶µ": 7861,
      "åįķä¸Ģ": 7862,
      "ï¼ĪD": 7863,
      "ãĢĭ**ï¼ļ": 7864,
      "æĮĩçĿĢ": 7865,
      "èĮİ": 7866,
      "start": 7867,
      "åħ³éĶ®æĹ¶åĪ»": 7868,
      "è§£åĨ³å®ŀéĻħéĹ®é¢ĺ": 7869,
      "é¥¼": 7870,
      "åĽ°æī°": 7871,
      "ï¼Įå¸Ĥ": 7872,
      "åĮħå®¹": 7873,
      "æĢĿèĢĥåĴĮ": 7874,
      "ç¾¤ä¼Ĺ": 7875,
      "å°½éĩı": 7876,
      "çļĦåľ°ä½į": 7877,
      "èĮ¶é¦Ĩ": 7878,
      "çĦ¦æĢ¥": 7879,
      "é½¿è½®": 7880,
      "èĳ£äºĭ": 7881,
      "çļĦåľ°çĲĨä½įç½®": 7882,
      "`ãĢģ`": 7883,
      "uth": 7884,
      "ï¼Įä¸Ķ": 7885,
      "ï¼Įç»Īäºİ": 7886,
      "çļĦè¿ĲåĬ¨": 7887,
      "çļĦåħĥç´ł": 7888,
      "è¿Ń": 7889,
      "ä¹ĥ": 7890,
      "çİĦ": 7891,
      "åĪĨå·¥": 7892,
      "ä¸İèĩªçĦ¶": 7893,
      "èĤ¢": 7894,
      "æĿİåįİ": 7895,
      "åĲİæĿ¥": 7896,
      "å§ľ": 7897,
      "éĥ½åħħæ»¡äºĨ": 7898,
      "å·¥ä½ľèĢħ": 7899,
      "è¿Ļä¸ªä¸ĸçķĮ": 7900,
      "åİĨåı²ä¸Ĭ": 7901,
      "åĽŀå½Ĵ": 7902,
      "è½¬åŁºåĽł": 7903,
      "æ¸ħçĲĨ": 7904,
      "è¾ĵéĢģ": 7905,
      "è¯¦ç»Ĩè®²è§£": 7906,
      "è®¾å¤ĩåĴĮ": 7907,
      "ç¨³å®ļè¿Ĳè¡Į": 7908,
      "çļĦæĶ»": 7909,
      "ç¦»åŃĲ": 7910,
      "ä¸įä»ħä»ħæĺ¯ä¸Ģ": 7911,
      "åĿļå®ļçļĦ": 7912,
      "çļĦæĮĳæĪĺåĴĮ": 7913,
      "ï¼ĮæĹłè®ºæĺ¯": 7914,
      "----------------": 7915,
      "ç¯®çĲĥ": 7916,
      "å¥īçĮ®": 7917,
      "ĸæģ¯åľ°": 7918,
      "AB": 7919,
      "Date": 7920,
      "ast": 7921,
      "xml": 7922,
      "Ġå®ļä¹ī": 7923,
      "ï¼Įè§Ĥå¯Ł": 7924,
      "åħ¹": 7925,
      "åĴĮæ°´": 7926,
      "åĴĮæĪĲå°±": 7927,
      "äºĨéĩįè¦ģä½ľçĶ¨": 7928,
      "è¿Ļçīĩ": 7929,
      "ä¹Łä¸º": 7930,
      "èĩªå·±çļĦçłĶç©¶": 7931,
      "æŀľå®ŀ": 7932,
      "ï¼Įä»¥éĢĤåºĶ": 7933,
      "éĢīæĭĶ": 7934,
      "æĿĳéĩĮçļĦ": 7935,
      "æĶ¶åĪ°äºĨ": 7936,
      "çĮİ": 7937,
      "ä¸°å¯Įå¤ļå½©": 7938,
      "Ġç¬¬ä¸Ģ": 7939,
      "æĿĲè´¨": 7940,
      "å¾Īå¤§": 7941,
      "ard": 7942,
      "çľ¼åīį": 7943,
      "ä¸ºäºĨæĽ´å¥½åľ°çĲĨè§£": 7944,
      "ä¾ĿéĿł": 7945,
      "æĦŁåĪ°ä¸Ģéĺµ": 7946,
      "éļĲå½¢": 7947,
      "äººä»¬å¯¹": 7948,
      "ç¼ĵç¼ĵ": 7949,
      "æ»ĳåĬ¨": 7950,
      "version": 7951,
      "ï¼ĮåİŁ": 7952,
      "å®ŀéĻħæĵįä½ľä¸Ń": 7953,
      "ĠGit": 7954,
      "éģįåİĨ": 7955,
      "èĿ¶": 7956,
      "æĬ½è±¡": 7957,
      "å¿ĥè¡Ģç®¡çĸ¾çĹħ": 7958,
      "watch": 7959,
      "ï¼Įè¿Ľ": 7960,
      "ï¼ĮåĬªåĬĽ": 7961,
      "åĴĮå·¥ä½ľ": 7962,
      "åĴĮäºĴåĬ¨": 7963,
      "ä¸Ģçķª": 7964,
      "æ³·": 7965,
      "æĬĦ": 7966,
      "æĽ¹": 7967,
      "ç¡ķ": 7968,
      "ä½ĵè´¨": 7969,
      "ä¸įä»ħè®©": 7970,
      "æ²®ä¸§": 7971,
      "ä½łæĺ¯": 7972,
      "åĵģå°Ŀ": 7973,
      "å»ºéĢł": 7974,
      "åŃ¦ä¹łå¦Ĥä½ķ": 7975,
      "èĬĤèĥ½": 7976,
      "ï¼Įä½Ĩä»ĸä»¬": 7977,
      "ï¼Įä½ĨåĲĮæĹ¶": 7978,
      "çĥ¯": 7979,
      "æĬ¤çĲĨ": 7980,
      "åı²èī¯": 7981,
      "æĮĩæķ°": 7982,
      "æĸĩä»¶ä¸Ń": 7983,
      "æĢ§åĴĮåı¯": 7984,
      "æīĵåĩ»": 7985,
      "åı¸æ³ķ": 7986,
      "åıĭæĥħ": 7987,
      "def": 7988,
      "ï¼Įå¸®åĬ©è¯»èĢħ": 7989,
      "ãĢĤå¥¹çŁ¥éģĵ": 7990,
      "åħ¨éĿ¢çļĦ": 7991,
      "æ³¨æĦıåĬĽ": 7992,
      "å®ĺåĳĺ": 7993,
      "è¿ŀæİ¥åĪ°": 7994,
      "é»ĺè®¤": 7995,
      "è§Ĥä¼ĹçļĦ": 7996,
      "ä¸įåı¯å¿½è§Ĩ": 7997,
      "æĿ°åĩº": 7998,
      "è±¡å¾ģæĦıä¹ī": 7999,
      "çĻ¾ç§ĳ": 8000,
      "ãĢĤæ¯ıå½ĵ": 8001,
      "çĤĴèıľ": 8002,
      "ç£¨æįŁ": 8003,
      "ï¼Įå·²": 8004,
      "çģ¯åħī": 8005,
      "æĭ¼éŁ³": 8006,
      "åµĮ": 8007,
      "è´ŁéĿ¢å½±åĵį": 8008,
      "çļĦæįŁ": 8009,
      "éļĲå½¢çľ¼éķľ": 8010,
      ".s": 8011,
      "Windows": 8012,
      "Ľèµ·": 8013,
      "çļĦæĸ¹åĲĳ": 8014,
      "åľ¨éĺħè¯»": 8015,
      "ãĢģæĽ´": 8016,
      "æľīæľºä¼ļ": 8017,
      "é«ĺåħ´": 8018,
      "éĿ¢çļĦ": 8019,
      "å°ıçİĭ": 8020,
      "çĶµç½ĳ": 8021,
      "åħ¬è·¯": 8022,
      "æºĲäºİ": 8023,
      "å¤ĸçķĮ": 8024,
      "ï¼Įä½Ĩå¥¹": 8025,
      "è¢ĭ": 8026,
      "åıĳçİ°äºĨ": 8027,
      "èĩ³å°ĳ": 8028,
      "åı°é£İ": 8029,
      "æı¡ä½ı": 8030,
      "çŁ³æ²¹": 8031,
      "ä½ľåĵģä¸Ń": 8032,
      "èħĬ": 8033,
      "çĳŁ": 8034,
      "ight": 8035,
      "ä¸ªæĢ§åĮĸçļĦ": 8036,
      "gine": 8037,
      "å·¦åı³": 8038,
      "ï¼Įå·¥": 8039,
      "æĪĸåħ¶ä»ĸä¸ĵä¸ļå»ºè®®": 8040,
      "çĽĪåĪ©": 8041,
      "ãĢģæ³ķå¾ĭæĪĸåħ¶ä»ĸä¸ĵä¸ļå»ºè®®": 8042,
      "åĸĬéģĵ": 8043,
      "è¡Ģçº¢èĽĭçĻ½": 8044,
      "CA": 8045,
      "ĠæıĲé«ĺ": 8046,
      "Ġæ¦Ĥå¿µ": 8047,
      "ï¼Įå®ļæľŁ": 8048,
      "ï¼Įæĭ¥æľī": 8049,
      "ï¼Įä¸¤äºº": 8050,
      "ï¼ĮåĪĽéĢłåĩº": 8051,
      "çļĦä¿ĿæĬ¤": 8052,
      "çļĦäº§åĵģ": 8053,
      "çļĦå¹´è½»": 8054,
      "ãĢĤâĢľ": 8055,
      "ãĢĤæľ¬è¯¾ç¨ĭåįķåħĥ": 8056,
      "äºĨçīĩåĪ»": 8057,
      "ï¼ļåľ¨": 8058,
      "çŃĴ": 8059,
      "çļĦçŁ³": 8060,
      "é«ĺæĢ§èĥ½": 8061,
      "åħ¶å®ŀ": 8062,
      "å¤ļå°ĳ": 8063,
      "çī©çļĦ": 8064,
      "èĥ½å¤ŁæıĲä¾Ľ": 8065,
      "éĥ½è¦ģ": 8066,
      "çĸı": 8067,
      "æ°´ä¸Ń": 8068,
      "å¤ĸè§Ĥ": 8069,
      "èµ·åĪ°äºĨ": 8070,
      "å¯¼åħ¥": 8071,
      "æł·çļĦ": 8072,
      "åı£ç½©": 8073,
      "åĽŀæĶ¶": 8074,
      "ï¼ĮæĽ´æĺ¯ä¸Ģä¸ª": 8075,
      "æ¿Ģç´ł": 8076,
      "èĳ±": 8077,
      "æ¸ħé£İ": 8078,
      "æī¿åıĹ": 8079,
      "ç»§ç»Ńæ·±åħ¥çłĶç©¶": 8080,
      "æİĴåĪĹ": 8081,
      "é¸¿": 8082,
      "å®ĮæĪĲä»»åĬ¡": 8083,
      "åĽ½å®¶éĺŁ": 8084,
      "é»Ħæ²³": 8085,
      "è¿ĳä»£": 8086,
      "åº§æ¤ħ": 8087,
      "æīĢæľīçļĦ": 8088,
      "åħ¨çĲĥåĮĸ": 8089,
      "èĲ¥éĶĢçŃĸçķ¥": 8090,
      "æĿİæĻĵæĻ¨": 8091,
      "å¤§å®¶çļĦ": 8092,
      "æľĿé²ľ": 8093,
      "å´Ľèµ·": 8094,
      "ä¸ĩåħĥ": 8095,
      "çļĦçĹĩ": 8096,
      "éģĩåĪ°äºĨä¸Ģä¸ª": 8097,
      "æľīåĬĽæĶ¯æĮģ": 8098,
      "ãĢĤåħ·ä½ĵæĿ¥è¯´": 8099,
      "ï¼ĮåĽŀçŃĶ": 8100,
      "å¥Ķæ³·": 8101,
      "å¦Ĥä½ķå¸®åĬ©å®ŀçİ°é¢ĦæľŁç»ĵæŀľ": 8102,
      "OR": 8103,
      "math": 8104,
      "Ġ:": 8105,
      "ãĢĤç¡®ä¿Ŀ": 8106,
      "äºĨåı£æ°Ķ": 8107,
      "ä¸Ģä»£": 8108,
      "ãĢģåĮ»çĸĹ": 8109,
      "ä¸įç¡®å®ļ": 8110,
      "å¤ļé¡¹": 8111,
      "åĬ¡å¿ħ": 8112,
      "æĤĦ": 8113,
      "èµ·çĤ¹": 8114,
      "ï¼īçŃī": 8115,
      "æīĭåĬ¿": 8116,
      "è¿ĻäºĽéĹ®é¢ĺ": 8117,
      "ï¼Įä¹ŁåıįæĺłäºĨ": 8118,
      "æıĲä¾ĽäºĨä¸°å¯Į": 8119,
      "çĹħèĻ«å®³": 8120,
      "ä¸ŃåŃ¦çĶŁçļĦ": 8121,
      "è¶£åĳ³": 8122,
      "å¼Ģåıĳä¸Ń": 8123,
      "ä¼°è®¡": 8124,
      "çīĪæĿĥ": 8125,
      "åĿĲæłĩ": 8126,
      "å»¶è¿Ł": 8127,
      "pert": 8128,
      "çļĦæĶ¯æĮģåĴĮ": 8129,
      "éĴĪå¯¹æĢ§": 8130,
      "æĸ¹ä¾¿åľ°": 8131,
      "æľ¬è¯¾ç¨ĭåįķåħĥçļĦåŃ¦ä¹ł": 8132,
      "çļĦæ¸©åº¦": 8133,
      "èŀºä¸Ŀ": 8134,
      "-c": 8135,
      "Ġç³»ç»Ł": 8136,
      "Ġch": 8137,
      "çļĦå±±": 8138,
      "åĴĮå¿ĥçĲĨ": 8139,
      "ä¸Ģéģĵ": 8140,
      "ãĢģæĢ»ç»ĵ": 8141,
      "å¸Ĩ": 8142,
      "ä¸įå¿ħè¦ģçļĦ": 8143,
      "çŃĭ": 8144,
      "åıĳæī¬": 8145,
      "è§£é¢ĺ": 8146,
      "æĮ¡": 8147,
      "ä¸İçİ°ä»£": 8148,
      "éķį": 8149,
      "èģĺ": 8150,
      "ãĢĭĊ": 8151,
      "æİ¢æµĭ": 8152,
      "èº²": 8153,
      "éħįæĸ¹": 8154,
      "å¸Ĥåľºè°ĥçłĶ": 8155,
      "çªĥ": 8156,
      "åİĨåı²äºĭä»¶": 8157,
      "åı¤åħ¸": 8158,
      "ç²¾å¿ĥ": 8159,
      "é¢ĦæĬ¥": 8160,
      "å¾ĭå¸Ī": 8161,
      "éĢļå¸¸åĮħæĭ¬": 8162,
      "åĲĦç§įæĮĳæĪĺ": 8163,
      "æī§çĿĢ": 8164,
      "éļıçĿĢæĹ¶éĹ´çļĦæİ¨ç§»": 8165,
      "æĮģç»ŃåŃ¦ä¹ł": 8166,
      "è®²è¯Ŀ": 8167,
      "çļĦæī¹": 8168,
      "èµ°äºĨ": 8169,
      "æĸĹçīĽ": 8170,
      "çļĦçĶŁæ´»è´¨éĩı": 8171,
      "ãĢĤæĿİæĻĵ": 8172,
      "ify": 8173,
      "èģĮä¸ļçĶŁæ¶¯ä¸Ń": 8174,
      "éĤ®ç¥¨": 8175,
      "ç¥ŀç»ıç½ĳç»ľ": 8176,
      "åıĶåıĶ": 8177,
      "Ġof": 8178,
      "äº¬åī§èīºæľ¯": 8179,
      "å®ŀåľ°èĢĥå¯Ł": 8180,
      "çĪµå£«ä¹Ĳ": 8181,
      "éªĦåĤ²": 8182,
      "FA": 8183,
      "Ġå®īè£ħ": 8184,
      "ï¼Įè®¤ä¸º": 8185,
      "çļĦå¹³åı°": 8186,
      "ãĢĤæ¯ıå¤©": 8187,
      "åľ¨æľªæĿ¥": 8188,
      "ãĢģæķ°æį®": 8189,
      "ä¸įå¼Ģ": 8190,
      "æł½": 8191,
      "äººå¿ĥ": 8192,
      "éĢļè¿ĩè¿Ļä¸ª": 8193,
      "âĢĿæĪĸ": 8194,
      "åĲĪè§Ħ": 8195,
      "åĲĮè¡Į": 8196,
      "æľŁåĪĬ": 8197,
      "çĸĨ": 8198,
      "åĪ©äºİ": 8199,
      "ç±»åĪ«": 8200,
      "ç²®": 8201,
      "ï¼Įå¹¶å°Ĩåħ¶": 8202,
      "å½ĵä»Ĭ": 8203,
      "è¾¾åĪ°äºĨ": 8204,
      "æĽ´åĬłçĶŁåĬ¨": 8205,
      "æŀģç«¯": 8206,
      "åĥıç´ł": 8207,
      "çŁ¥éģĵåĲĹ": 8208,
      "ï¼ģĊĊ": 8209,
      "å£«åħµ": 8210,
      "çļĦåİĨåı²åĴĮæĸĩåĮĸ": 8211,
      "èº«ä½ĵåģ¥åº·": 8212,
      "ç¤ºä¾ĭä¸Ń": 8213,
      "çļĦæķĻèĤ²æĦıä¹ī": 8214,
      "Ġthis": 8215,
      "ï¼ĮçĶ¨æĪ·åı¯ä»¥": 8216,
      "çļĦæłĩåĩĨ": 8217,
      "çļĦç«ŀäºīåĬĽ": 8218,
      "ï¼ĮçĽ´åĪ°": 8219,
      "æ²īæµ¸åľ¨": 8220,
      "->": 8221,
      "ï¼Įè®¾è®¡": 8222,
      "çļĦéĥ¨åĪĨ": 8223,
      "åĴĮç»Ħç»ĩ": 8224,
      "éĢ¼": 8225,
      "æĪĳä»¬å¯¹": 8226,
      "ä¹Łèĥ½": 8227,
      "æ´»åĬĽ": 8228,
      "çĽ¸è§Ĩ": 8229,
      "ï¼Įä»ĸéĥ½ä¼ļ": 8230,
      "æĸĩåĮĸèĥĮæĻ¯": 8231,
      "äº¤åıī": 8232,
      "åīįè¨Ģ": 8233,
      "çłĶç©¶æĪĲæŀľ": 8234,
      "ï¼Įç¡®ä¿Ŀåľ¨": 8235,
      "ä¸īæĺŁ": 8236,
      "å¾®çĶŁçī©": 8237,
      "æİĴåĲį": 8238,
      "ï¼Įå¸®åĬ©æĤ¨": 8239,
      "å®¶åºŃæĪĲåĳĺ": 8240,
      "éĢĤåĲĪèĩªå·±çļĦ": 8241,
      "ï¼ĮæľīåĬ©äºİæĪĳä»¬": 8242,
      "æĿİæĻĵå³°": 8243,
      "æĢ§æł¼çī¹çĤ¹": 8244,
      "çļĦæ»¡": 8245,
      "date": 8246,
      "ĠåıįæĢĿä¸İ": 8247,
      "ï¼ĮåĪ°": 8248,
      "ï¼ĮåıĤä¸İ": 8249,
      "ï¼Įä¼¼ä¹İ": 8250,
      "çļĦæľĢ": 8251,
      "çļĦåĲĪä½ľ": 8252,
      "çļĦä»»åĬ¡": 8253,
      "çļĦåĪĨç±»": 8254,
      "çļĦä¼łæĴŃ": 8255,
      "çļĦç¢": 8256,
      "åº¦è¿ĩ": 8257,
      "åľºåľ°": 8258,
      "ä¼łæĿ¥": 8259,
      "åħ¨åĬĽ": 8260,
      "çĶµåĻ¨": 8261,
      "åĢ¡": 8262,
      "ä¹Ĳè§Ĥ": 8263,
      "ä»¥ä¸ĭæĺ¯ä¸Ģä¸ª": 8264,
      "èį¯æĿĲ": 8265,
      "åĨħå®¹åĴĮ": 8266,
      "åĭ¾": 8267,
      "è¡¨è¾¾èĩªå·±": 8268,
      "è§£éĩĬéģĵ": 8269,
      "è®Ńç»ĥåĴĮ": 8270,
      "åĲĪçĲĨå®īæİĴ": 8271,
      "æĭħå¿§": 8272,
      "åĳ½ä»¤è¡Į": 8273,
      "åįģåĪĨ": 8274,
      "åħ¬ä¼Ĺåı·": 8275,
      "çŀª": 8276,
      "ï¼Įåĳ¨": 8277,
      "æīİå®ŀ": 8278,
      "çļĦçĹĩçĬ¶": 8279,
      "\");Ċ": 8280,
      "SON": 8281,
      "fo": 8282,
      "Ġis": 8283,
      "ï¼ĮåĪĽéĢł": 8284,
      "ï¼ĮçĽ¸ä¿¡": 8285,
      "ï¼ĮæľĽçĿĢ": 8286,
      "çļĦç»ĵåĲĪ": 8287,
      "çļĦä»·æł¼": 8288,
      "åĴĮåıįæĢĿ": 8289,
      "æĺ¯åķĬ": 8290,
      "æĹĹ": 8291,
      "æľīåı¯èĥ½": 8292,
      "æłª": 8293,
      "çĶµç«Ļ": 8294,
      "æıĲä¾ĽçļĦ": 8295,
      "çĽ¸åıį": 8296,
      "ä¸»è§Ĵ": 8297,
      "åıĺå½¢": 8298,
      "æľĢå¤§çļĦ": 8299,
      "åıįåĩ»": 8300,
      "çİĩåĴĮ": 8301,
      "æİ§ä»¶": 8302,
      "è¯¾å¤ĸæ´»åĬ¨": 8303,
      "å¹¿æĴŃ": 8304,
      "ï¼Įå®ĥéĢļè¿ĩ": 8305,
      "åĬŁèĥ½åĴĮ": 8306,
      "åº·å¤į": 8307,
      "lement": 8308,
      "æĽ´å¤ļäºº": 8309,
      "ä¸Ģå®ļè¦ģ": 8310,
      "æ¸Ĳæ¸Ĳ": 8311,
      "ĠĠĠĠĠĠĠĠĠĠĠĠĠĠĠĠ": 8312,
      "ä¸ľåĮĹ": 8313,
      "ĠSh": 8314,
      "ï¼Įå°±èĥ½": 8315,
      "åĩıå°ĳäºĨ": 8316,
      "åĿļæĮģä¸ĭåİ»": 8317,
      "è¶ħè¶Ĭ": 8318,
      "å®³æĢķ": 8319,
      "çļĦæ°ĳ": 8320,
      "ted": 8321,
      "æ°§ä¹ĻéĨĩ": 8322,
      "ç½Ĺæĸ¯": 8323,
      "èĩ³åħ³éĩįè¦ģçļĦä½ľçĶ¨": 8324,
      "åı¹äºĨåı£æ°Ķ": 8325,
      "æĭĶç½Ĳ": 8326,
      "èĭ¯æ°§ä¹ĻéĨĩ": 8327,
      "ï¼Įåīį": 8328,
      "çļĦæīįåįİ": 8329,
      "æĸĩä»¶ç²īç¢İæľº": 8330,
      "è¿Ńä»£": 8331,
      "ax": 8332,
      "ï¼Įåı¯": 8333,
      "ï¼ĮåıįæĺłäºĨ": 8334,
      "ï¼Įæī¾åĩº": 8335,
      "çļĦåķĨä¸ļ": 8336,
      "ãĢĤä¸ĢäºĽ": 8337,
      "ãĢĤè®©æĪĳä»¬": 8338,
      "åıł": 8339,
      "æĺ¯ä¸ŃåĽ½": 8340,
      "ä¸įå®ī": 8341,
      "ä¸įä½ı": 8342,
      "çļĦæ¿Ģ": 8343,
      "èµł": 8344,
      "äººæĢ§": 8345,
      "åı¯ä»¥åĩıå°ĳ": 8346,
      "æĽ´çĽ´è§Ĥ": 8347,
      "åĳĢ": 8348,
      "è¾Ĳ": 8349,
      "å®¶å±ħ": 8350,
      "åĪ¶å¤ĩ": 8351,
      "æĪĺå£«": 8352,
      "é£İæĻ¯": 8353,
      "éĺ²èĮĥ": 8354,
      "èĻ¾": 8355,
      "ç´¢å¼ķ": 8356,
      "åŁ¹åħ»åŃ¦çĶŁçļĦ": 8357,
      "åħĭæĸ¯": 8358,
      "ä¸Ģå®ļç¨ĭåº¦ä¸Ĭ": 8359,
      "ãĢĤä»ĸä»¬åĨ³å®ļ": 8360,
      "cho": 8361,
      "æĿİæĻĵæĺİ": 8362,
      "ï¼ĮåĽłä¸ºå®ĥ": 8363,
      "è§£åĨ³éĹ®é¢ĺçļĦæĸ¹æ³ķ": 8364,
      "æ¹¿åº¦": 8365,
      "èĶ¬èıľåĴĮ": 8366,
      "åĽ¢éĺŁæĪĲåĳĺä»¬": 8367,
      "å¦ĩå¥³": 8368,
      "åµ©": 8369,
      "çģĮæºī": 8370,
      "Ġme": 8371,
      "ï¼ĮæĹłæ³ķ": 8372,
      "çļĦä»£çłģ": 8373,
      "çļĦåĩĨç¡®æĢ§": 8374,
      "åĴĴ": 8375,
      "åĴĮä¸ªäºº": 8376,
      "åĴĮåĨ³å¿ĥ": 8377,
      "è¿Ļä¸¤ä¸ª": 8378,
      "èĩ£": 8379,
      "ä¼ļæł¹æį®": 8380,
      "æĭĨ": 8381,
      "ä½¿ä»ĸ": 8382,
      "åĬłåī§": 8383,
      "è¿Ľè¡ĮåĪĨæŀĲ": 8384,
      "æıĲä¾Ľä¸Ģä¸ª": 8385,
      "éĺŁåĳĺ": 8386,
      "ä¸įåĲĮç±»åŀĭçļĦ": 8387,
      "æĶ¾ä¸ĭ": 8388,
      "éĴĻ": 8389,
      "æİ¨åĩº": 8390,
      "é¥±": 8391,
      "è¯¦ç»ĨåĪĨæŀĲ": 8392,
      "çļĦäººéĻħ": 8393,
      "row": 8394,
      "çļĦæłĳ": 8395,
      "æ¶²ä½ĵ": 8396,
      "æĪĺæĸĹåĬĽ": 8397,
      "æĿĳåºĦçļĦ": 8398,
      "å®ĺæĸ¹æĸĩæ¡£": 8399,
      "çļĦçĪ±å¥½": 8400,
      "çķľçī§": 8401,
      "åĩĿèģļåĬĽ": 8402,
      "çºªå½ķçīĩ": 8403,
      "\">Ċ": 8404,
      ".org": 8405,
      "FT": 8406,
      "cle": 8407,
      "ft": 8408,
      "ï¼Įå¤ļ": 8409,
      "ï¼Įç§¯æŀģ": 8410,
      "ï¼Įé©¬": 8411,
      "ï¼ĮçľĭåĪ°": 8412,
      "ï¼ĮæıĲåĩº": 8413,
      "ãĢĤä¸Ģ": 8414,
      "åĴı": 8415,
      "åĴĮæŀĹ": 8416,
      "åĴĮéģĵå¾·": 8417,
      "åŃĿ": 8418,
      "æĺ¯å°Ĩ": 8419,
      "è¡į": 8420,
      "æľīä¸Ģ": 8421,
      "æī¶": 8422,
      "å¯¹ç¤¾ä¼ļ": 8423,
      "äººèĦī": 8424,
      "ä¹ĭåľ°": 8425,
      "å®īæħ°": 8426,
      "åĮºçļĦ": 8427,
      "è¿ĻäºĽçŁ¥è¯Ĩ": 8428,
      "èĮĤ": 8429,
      "éĤ£å¤©": 8430,
      "åħīåŃ¦": 8431,
      "è®®éĻ¢": 8432,
      "å®ŀè·µä¾ĭåŃĲ": 8433,
      "äº§çĶŁçļĦ": 8434,
      "åĩłä¸ªæľĪ": 8435,
      "äº§ä¸ļçļĦåıĳå±ķ": 8436,
      "ä¸Ģå¤©æĻļä¸Ĭ": 8437,
      "æĻ®åıĬ": 8438,
      "çļĦçŁ¥åĲį": 8439,
      "æĳĦå½±å¸Ī": 8440,
      "æĳĩå¤´": 8441,
      "ï¼Įæİ¨åĬ¨äºĨ": 8442,
      "ï¼ĮåĪĨæŀĲåħ¶": 8443,
      "Ġinstall": 8444,
      "åŃĶéĽĢ": 8445,
      "çŁ¥è¯ĨåĴĮæĬĢèĥ½": 8446,
      "çļĦæ°ĶåĢĻ": 8447,
      "local": 8448,
      "AI": 8449,
      "ie": 8450,
      "wa": 8451,
      "ï¼ĮçĻ½": 8452,
      "ï¼ĮæĦŁåıĹ": 8453,
      "ï¼Įç§¯ç´¯": 8454,
      "çļĦå®ŀéªĮ": 8455,
      "çļĦçī¹å¾ģ": 8456,
      "çļĦè¿ĽæŃ¥": 8457,
      "çļĦä»£è¡¨": 8458,
      "çİĽ": 8459,
      "å¸§": 8460,
      "æľīæ°§": 8461,
      "æ³Ĭ": 8462,
      "âĢľå¥Ķæ³·": 8463,
      "åĩºåľº": 8464,
      "åĬłå¿«": 8465,
      "è¿ĺåľ¨": 8466,
      "è¡¨æł¼": 8467,
      "ä¹ĭæĺŁ": 8468,
      "æķ°æį®éĽĨ": 8469,
      "å¦Ĥä½ķå®ŀçİ°": 8470,
      "ï¼Įå¹¶æıĲä¾Ľ": 8471,
      "ï¼Įåı¯ä»¥ç¡®ä¿Ŀ": 8472,
      "é¡¹çĽ®å¼Ģåıĳ": 8473,
      "æĽ´å¥½åľ°äºĨè§£": 8474,
      "å¸¦æľī": 8475,
      "ï¼ĮæĽ´éľĢè¦ģ": 8476,
      "æ¼ĶåĶ±": 8477,
      "åħįè´¹": 8478,
      "äºĨä¸Ģåľº": 8479,
      "åıĭå¥½": 8480,
      "èĩªçĦ¶æĿĳ": 8481,
      "æĬ¥è¡¨": 8482,
      "è¡¨è¾¾èĥ½åĬĽ": 8483,
      "èĭ±æĸĩ": 8484,
      "è¶³çĲĥä¿±ä¹Ĳéĥ¨": 8485,
      "å¿«éĢŁåıĳå±ķ": 8486,
      "æıĴä»¶": 8487,
      "ï¼Įè¯ķåĽ¾æī¾åĪ°": 8488,
      "è´¦æĪ·": 8489,
      "è´¦åı·": 8490,
      "çĪ·çĪ·": 8491,
      "ä¸Ńåįİæ°ĳæĹı": 8492,
      "éĢıæĺİåº¦": 8493,
      "å¥łå®ļäºĨåĿļå®ŀçļĦåŁºç¡Ģ": 8494,
      "å¿Ļç¢Į": 8495,
      "åģļåĩºäºĨéĩįè¦ģè´¡çĮ®": 8496,
      "æĲºå¸¦": 8497,
      "çļĦæĥ³æ³ķ": 8498,
      "âĢ¦âĢ¦": 8499,
      "çªģå¦Ĥåħ¶æĿ¥çļĦ": 8500,
      "å¿ĹæĦ¿èĢħ": 8501,
      "ruct": 8502,
      "å®łçī©": 8503,
      "Man": 8504,
      "eg": 8505,
      "Ġè®¾è®¡": 8506,
      "ï¼Įä¸Ģç§į": 8507,
      "ãĢģå®īåħ¨": 8508,
      "äººç¾¤": 8509,
      "åĬ¨äºĨ": 8510,
      "åĬ¨æīĭ": 8511,
      "é«ĺç«¯": 8512,
      "ãĢĤè¿Ļå¯¹äºİ": 8513,
      "åī©": 8514,
      "ï¼īãĢĤĊ": 8515,
      "å¸®åĬ©åŃ¦çĶŁ": 8516,
      "åŃĹè¯Ģ": 8517,
      "åħ±äº§": 8518,
      "ï¼Įç¡®ä¿ĿäºĨ": 8519,
      "å¦¥": 8520,
      "æķħäºĭæĥħèĬĤ": 8521,
      "ç©ºä¸Ń": 8522,
      "è¯¾ç¨ĭè®¾ç½®": 8523,
      "ï¼Įè®©ä»ĸ": 8524,
      "ï¼Įè®©ä»ĸä»¬": 8525,
      "é¼»": 8526,
      "èĹ©": 8527,
      "çļĦä¸Ģèĩ´": 8528,
      "åĩºçİ°åľ¨": 8529,
      "åĨ·éĵ¾": 8530,
      "æ²¹çĶ»": 8531,
      "è¿·èĮ«": 8532,
      "çŁ¿äº§": 8533,
      "Ġ}ĊĊ": 8534,
      "å®ŀçĶ¨æĢ§": 8535,
      "çļĦæİ¢éĻ©": 8536,
      "éĻ¶çĵ·": 8537,
      "ducer": 8538,
      "æ©¡èĥ¶": 8539,
      "Logger": 8540,
      "Th": 8541,
      "`åĴĮ": 8542,
      "ote": 8543,
      "plo": 8544,
      "ror": 8545,
      "¨çļĦ": 8546,
      "æª": 8547,
      "ï¼Įè¿½æ±Ĥ": 8548,
      "çļĦåĨħæ¶µ": 8549,
      "äºķ": 8550,
      "åĴĮåĨ³çŃĸ": 8551,
      "ãĢģæıĲé«ĺ": 8552,
      "åįµ": 8553,
      "æĬ¹": 8554,
      "æĽ´å¿«": 8555,
      "å®ļçļĦ": 8556,
      "æ·Ģ": 8557,
      "åĲĮä¸Ģ": 8558,
      "æĦŁçŁ¥": 8559,
      "åĵģçļĦ": 8560,
      "ï¼Įè¿Ļåľº": 8561,
      "ï¼Įä»ĸåıĳçİ°": 8562,
      "çĸ¯": 8563,
      "ç³»ç»Łåľ°": 8564,
      "çľĭå¾ħ": 8565,
      "ï¼īï¼ļ": 8566,
      "ï¼Įä»¥å®ŀçİ°": 8567,
      "ï¼Įä½Ĩåħ¶": 8568,
      "çĹķ": 8569,
      "æŁı": 8570,
      "åıĳçİ°åĴĮ": 8571,
      "éĴ¥": 8572,
      "æľīæķĪæĢ§": 8573,
      "ä¿®çĤ¼": 8574,
      "éĢļå¸¸æĺ¯": 8575,
      "ç¦»ä¸įå¼Ģ": 8576,
      "è¾¹çķĮ": 8577,
      "éĺ¿å°Ķ": 8578,
      "åıįæĢĿèĩªå·±çļĦ": 8579,
      "riv": 8580,
      "å°ģå»º": 8581,
      "éĥ½æľīåħ¶": 8582,
      "çļĦç®Ģ": 8583,
      "ç´łåħ»åĴĮ": 8584,
      "æ¿ĢåĬ¨åľ°": 8585,
      "çļĦçĥŃçĪ±åĴĮ": 8586,
      "æĿİæ¸ħé£İ": 8587,
      "æ°ĶåĢĻåıĺåĮĸ": 8588,
      "ize": 8589,
      "åŃ¤çĭ¬": 8590,
      "ï¼Įä½ĨåĲĮæĹ¶ä¹Ł": 8591,
      "åı²èī¯éĺ¿å§¨": 8592,
      "ix": 8593,
      "¯èĭ": 8594,
      "Ġç¡®ä¿Ŀ": 8595,
      "Ġid": 8596,
      "ï¼Įä½ĵçİ°äºĨ": 8597,
      "çļĦè¿½æ±Ĥ": 8598,
      "ãĢĤå¸¸è§ģçļĦ": 8599,
      "åľ¨ç¤¾ä¼ļ": 8600,
      "ãĢģå¦Ĥä½ķ": 8601,
      "è¦ģçĤ¹": 8602,
      "ä¸ºäºĨè§£åĨ³": 8603,
      "èµ´": 8604,
      "çŃĿ": 8605,
      "éĻµ": 8606,
      "åİī": 8607,
      "è°ĵ": 8608,
      "æĦŁåı¹": 8609,
      "å¥½åıĭ": 8610,
      "éľĢè¦ģä¸įæĸŃ": 8611,
      "æ¬¡æķ°": 8612,
      "ä¹īåĬ¡": 8613,
      "ery": 8614,
      "æīĭåĬ¨": 8615,
      "æ°ĳä¼Ĺ": 8616,
      "æ¼Ĥ": 8617,
      "èģĮä¸ļåŁ¹è®Ń": 8618,
      "ç»ĵæŀĦä½ĵ": 8619,
      "ï¼Įä»İèĢĮä¸º": 8620,
      "å±±èį¯": 8621,
      "äº«æľī": 8622,
      "è´Łèį·": 8623,
      "åĲ¦åĪĻ": 8624,
      "æ°´å¹³åĴĮ": 8625,
      "æ²īç§¯": 8626,
      "ï¼ĮæıĲåįĩèĩªå·±çļĦ": 8627,
      "æĹ©æĻ¨": 8628,
      "ä½ĵèĤ²æķĻå¸Ī": 8629,
      "col": 8630,
      "èŃ¦å¯Ł": 8631,
      "ä»Ķç»Ĩè§Ĥå¯Ł": 8632,
      "æīĺå°Ķ": 8633,
      "æľĢå¤§åĮĸ": 8634,
      "è½¨éģĵ": 8635,
      "çģ¾å®³": 8636,
      "åľŁè±Ĩä¸Ŀ": 8637,
      "åŁĥåıĬ": 8638,
      "æĻĭåįĩ": 8639,
      "çļĦçĤ¹": 8640,
      "Feign": 8641,
      "ä¸ºäººçŁ¥": 8642,
      "æĨ": 8643,
      "ĠâĢľ": 8644,
      "çļĦäº¤æµģ": 8645,
      "çļĦäºĴåĬ¨": 8646,
      "åĴĮäº¤æµģ": 8647,
      "åĴĮçŁ¿çī©è´¨": 8648,
      "ï¼Įå£": 8649,
      "æľīå®³": 8650,
      "çļĦçĦ": 8651,
      "çļĦçħ": 8652,
      "ä½ĵåĨħ": 8653,
      "éĥĳ": 8654,
      "å°ıæĿ¾é¼ł": 8655,
      "éĹ®åį·": 8656,
      "åŃ¦ä¹łæķĪæŀľ": 8657,
      "æĢģåº¦åĴĮ": 8658,
      "ç²ª": 8659,
      "ï¼Įä»¥éģ¿åħį": 8660,
      "å¼łå¼º": 8661,
      "å¼łå¤©": 8662,
      "éĢīæĭ©äºĨ": 8663,
      "å¸Ĥåľºç«ŀäºī": 8664,
      "æħķ": 8665,
      "ï¼ĮæĽ´æĺ¯ä¸Ģ": 8666,
      "åĭŁ": 8667,
      "çº§åĪ«": 8668,
      "åĭĩäºİ": 8669,
      "çĲĥåĳĺåľ¨": 8670,
      "Ġmain": 8671,
      "åĨľæĿĳç»ıæµİåıĳå±ķ": 8672,
      "éĽ¶çº¿": 8673,
      "æľ¬æķĻç¨ĭæĹ¨åľ¨": 8674,
      "IDE": 8675,
      "çļĦæĻºèĥ½": 8676,
      "æķ¬ä½©": 8677,
      "ä¸ĢçĽ´åľ¨": 8678,
      "åĢ¾åĲĳ": 8679,
      "å¤ªéĺ³èĥ½": 8680,
      "æ²īæĢĿçīĩåĪ»": 8681,
      "Ġæķħäºĭå¼Ģå§ĭ": 8682,
      "ï¼ĮåĨįåĪ°": 8683,
      "quire": 8684,
      "Ġç¬¬åħŃæŃ¥": 8685,
      "çļĦæĶ»åĩ»": 8686,
      "è¾Ĳå°Ħ": 8687,
      "ide": 8688,
      "que": 8689,
      "çļĦå½¢çĬ¶": 8690,
      "ä¸Ģè¾¹": 8691,
      "å¸ĸ": 8692,
      "ä¸įç¦ģ": 8693,
      "ä½ľæĪĺ": 8694,
      "ä¸Ĭä¸ĭ": 8695,
      "æ·±åĮĸ": 8696,
      "åŃ¦çĶŁçļĦåŃ¦ä¹ł": 8697,
      "äº§éĩıåĴĮ": 8698,
      "ä¸»å¼ł": 8699,
      "åıĺå¼Ĥ": 8700,
      "åĻ¨åĴĮ": 8701,
      "ç®¡çĲĨèĥ½åĬĽ": 8702,
      "ä¼ĺç¼ºçĤ¹": 8703,
      "æīĭä¸Ń": 8704,
      "åħ·æľīæĺ¾èĳĹ": 8705,
      "èĦ¾": 8706,
      "çļĦéĩįè¦ģçİ¯èĬĤ": 8707,
      "èĮ¯èĭ": 8708,
      "åĲĳå¾Ģ": 8709,
      "éĽĨç¾¤": 8710,
      "ä¸»è¦ģçĶ¨äºİ": 8711,
      "èģĮä¸ļä½ĵéªĮ": 8712,
      "èĳĽ": 8713,
      "çĹħåıĺ": 8714,
      "æĸĩä»¶åĴĮ": 8715,
      "å¹¿æ³Ľåħ³æ³¨": 8716,
      "çĶŁæĢģå¹³è¡¡": 8717,
      "ç«ŀæĬĢ": 8718,
      "äº²èº«": 8719,
      "è®¿è°Ī": 8720,
      "é£ŀæľº": 8721,
      "è¯Ĺè¯į": 8722,
      "åı«åģļ": 8723,
      "åħħåĪĨçļĦ": 8724,
      "çļĦç¬ĳ": 8725,
      "å±ķçİ°åĩº": 8726,
      "çľĭåĪ°äºĨä¸Ģä¸ª": 8727,
      "åľĨå½¢": 8728,
      "çļĦæ¼Ķåıĺ": 8729,
      "ï¼Įä»¿ä½Ľåľ¨": 8730,
      "åĺīè¯ļ": 8731,
      "èĮ¯èĭĵ": 8732,
      ").": 8733,
      "ly": 8734,
      "so": 8735,
      "ĠçĽ®å½ķ": 8736,
      "ĹæĹı": 8737,
      "çļĦå¤ļ": 8738,
      "çļĦä¸įæĸŃ": 8739,
      "ãĢĤåıªè¦ģ": 8740,
      "ãĢĤä¸ĭéĿ¢": 8741,
      "åĴĮçİĭ": 8742,
      "åĴĮæ¯ħåĬĽ": 8743,
      "ä¼Ĳ": 8744,
      "èĥ½åĲ¦": 8745,
      "æŀļ": 8746,
      "ä¾ĹæĹı": 8747,
      "å¤§å¸Ī": 8748,
      "è¡¨æĥħ": 8749,
      "ï¼ĮæĪĳä»¬åºĶè¯¥": 8750,
      "ç¥Ń": 8751,
      "æĸĩåĮĸä¸Ń": 8752,
      "æĺ¯ä¸Ģæ¬¾": 8753,
      "åīįéĶĭ": 8754,
      "ç»´åŁº": 8755,
      "ãĢĤéĢļè¿ĩåĲĪçĲĨ": 8756,
      "åĲĳéĩı": 8757,
      "çŁ¥è¯Ĩäº§æĿĥ": 8758,
      "èīºæľ¯åĪĽä½ľ": 8759,
      "åĬŁèĥ½æĢ§": 8760,
      "let": 8761,
      "åģļæ³ķ": 8762,
      "æī¿è¯º": 8763,
      "æĬ¥åĲį": 8764,
      "ç»ĻäºĨ": 8765,
      "æĦıè¯ĨåĴĮ": 8766,
      "æĥħæĦŁåĴĮ": 8767,
      "åħĥç´łçļĦ": 8768,
      "çħ§é¡¾": 8769,
      "åĨįçĶŁ": 8770,
      "çĶµåŃĲéĤ®ä»¶": 8771,
      "åıįæĢĿåĴĮ": 8772,
      "ç¼ĸç¨ĭè¯Ńè¨Ģ": 8773,
      "éĩĩåıĸè¡ĮåĬ¨": 8774,
      "åĬ¨åĬĽåŃ¦": 8775,
      "ç©¿çĿĢ": 8776,
      "æľºåĻ¨åŃ¦ä¹ł": 8777,
      "åľ¨è¿Ļä¸ªç¤ºä¾ĭä¸Ń": 8778,
      "ï¼Įä¿ĥè¿ĽäºĨ": 8779,
      "å±ħä½ıçİ¯å¢ĥ": 8780,
      "äºĨå¤§éĩıçļĦ": 8781,
      "èĢĲå¿ĥåľ°": 8782,
      "æīĵåį°æľº": 8783,
      "æ¡¥æ¢ģ": 8784,
      "æ¯«ç±³": 8785,
      "ç°¿": 8786,
      "çļĦæµĭè¯ķ": 8787,
      "::": 8788,
      "Node": 8789,
      "Ġj": 8790,
      "Ġint": 8791,
      "åĴĮåĽ½": 8792,
      "åĴĮæĮĩå¯¼": 8793,
      "å¼ĺ": 8794,
      "ä¸įç¨³å®ļ": 8795,
      "éĢļè¿ĩè¿Ļæ¬¡": 8796,
      "ä¸İåıįæĢĿ": 8797,
      "æĪĳä»¬å°Ĩ": 8798,
      "èī³": 8799,
      "æ±ĤèģĮ": 8800,
      "æĸĩåĮĸéģĹäº§": 8801,
      "åŀĭåı·": 8802,
      "å¸Ĥåľºç«ŀäºīåĬĽ": 8803,
      "åĽŀè°ĥ": 8804,
      "å®ŀè·µåºĶçĶ¨": 8805,
      "ä¿ĿæĮģèī¯å¥½çļĦ": 8806,
      "èħķ": 8807,
      "åŃ¦æľ¯äº¤æµģ": 8808,
      "å±ĢéĻĲ": 8809,
      "èĭ±æł¼åħ°": 8810,
      "åı¯èĥ½ä¼ļå¯¼èĩ´": 8811,
      "ä¸´æĹ¶": 8812,
      "äºĳåįĹ": 8813,
      "ï¼ĮåŃ¦çĶŁå°Ĩ": 8814,
      "æ³¨æĦıåĪ°": 8815,
      "å¹²é¢Ħ": 8816,
      "å³»": 8817,
      "code": 8818,
      "çĶ·çĪµ": 8819,
      "æ¯Ĵç´ł": 8820,
      "æĭ¿åĩº": 8821,
      "åħ¸åŀĭçļĦ": 8822,
      "åİŁåŃĲåĮĸ": 8823,
      "çªģå¦Ĥåħ¶æĿ¥": 8824,
      "å¾®æ³¢æĿĢèıĮ": 8825,
      "CS": 8826,
      "Data": 8827,
      "LS": 8828,
      "MP": 8829,
      "èŁ": 8830,
      "ä¸¸": 8831,
      "ï¼ĮæľĢ": 8832,
      "çļĦåĪĨæŀĲ": 8833,
      "éĢĬ": 8834,
      "åľ¨åı¤ä»£": 8835,
      "åŃ¦å®¶": 8836,
      "æĺ¯æľĢ": 8837,
      "æľīæ²¡æľī": 8838,
      "çļĦæ¦": 8839,
      "å¤§å¹ħ": 8840,
      "çŃīéĹ®é¢ĺ": 8841,
      "åħ¥æīĭ": 8842,
      "åĲİç«¯": 8843,
      "å®īéĿĻ": 8844,
      "æ°´èµĦæºĲ": 8845,
      "è¯»ä¹¦": 8846,
      "çľŁçĲĨ": 8847,
      "æŀģå¤§çļĦ": 8848,
      "éĿŀæ³ķ": 8849,
      "ï¼Įä½¿åħ¶åľ¨": 8850,
      "åģļå¾Ĺ": 8851,
      "å¤įæĿĤæĢ§": 8852,
      "æĴĴ": 8853,
      "ï¼ĮæĪĳä¹Ł": 8854,
      "ï¼ĮæĪĳçĽ¸ä¿¡": 8855,
      "æĪĲéķ¿åĴĮ": 8856,
      "çĲĥåĳĺçļĦ": 8857,
      "éģĹåĿĢ": 8858,
      "é»ĺé»ĺ": 8859,
      "æįŁå®³": 8860,
      "è§¦åıĳ": 8861,
      "å½¢æĪĲäºĨ": 8862,
      "æľ¨æĿĲ": 8863,
      "åıĤèĢĥæĸĩçĮ®": 8864,
      "çīĻé½¿": 8865,
      "å½ĵåľ°çļĦ": 8866,
      "lication": 8867,
      "æī©å±ķæĢ§": 8868,
      "ä¾¿åĪ©æĢ§": 8869,
      "æ²¿çĿĢ": 8870,
      "ãĢĤç¥ĿæĤ¨": 8871,
      "æļĤæĹ¶": 8872,
      "èĤ¯å®ļ": 8873,
      "èĩªè¡Įè½¦": 8874,
      "è´·æ¬¾": 8875,
      "Con": 8876,
      "_s": 8877,
      "ä¸Ľ": 8878,
      "ï¼ĮæĶ¯æĮģ": 8879,
      "ï¼ĮçľŁæŃ£": 8880,
      "ï¼Įèĭı": 8881,
      "çļĦå¤§å°ı": 8882,
      "çļĦä¼ĺçĤ¹": 8883,
      "çļĦæĹħç¨ĭ": 8884,
      "ãĢĤéĢļå¸¸": 8885,
      "ãĢĤåı¯ä»¥éĢļè¿ĩ": 8886,
      "åĴĮç»ıéªĮ": 8887,
      "æĺŃ": 8888,
      "åı¯ä¹Ĳ": 8889,
      "åĮĸè¿Ľç¨ĭ": 8890,
      "å¤§å¤ļæķ°": 8891,
      "æ³ķåŃ¦": 8892,
      "å°ıå¼ł": 8893,
      "å°Ĩä¼ļ": 8894,
      "èĥ½å¤Łæ¿Ģåıĳ": 8895,
      "ä¹ĭä¸Ń": 8896,
      "æķ°æį®å¤ĦçĲĨ": 8897,
      "åħ¬éĩĮ": 8898,
      "ï¼ĮæĪĳä»¬ä¸įèĥ½": 8899,
      "æıĲé«ĺèĩªå·±çļĦ": 8900,
      "éĥ½åı¯ä»¥": 8901,
      "è®©å¥¹": 8902,
      "èįĴ": 8903,
      "æĪıæĽ²": 8904,
      "è£ħçĶ²": 8905,
      "orch": 8906,
      "æľīåĬ©äºİæıĲé«ĺ": 8907,
      "åģļåĪ°äºĨ": 8908,
      "çŃĸçķ¥åĴĮ": 8909,
      "ï¼ĮåĮħ": 8910,
      "è¿ŀè´¯": 8911,
      "ï¼Įå¿«": 8912,
      "é»Ħéĩĳ": 8913,
      "ï¼Įèĥ½å¤Łåľ¨": 8914,
      "çļĦåºĶçĶ¨åľºæĻ¯": 8915,
      "å±ħæ°ĳçļĦ": 8916,
      "æŃ¦ä¾ł": 8917,
      "å¤ľæĻļ": 8918,
      "è·¨æĸĩåĮĸ": 8919,
      "ï¼ĮçĶ¨å¿ĥåİ»": 8920,
      "umn": 8921,
      "å¥łå®ļåŁºç¡Ģ": 8922,
      "æ¸ħæĻ°åľ°": 8923,
      "ĠæķĻç¨ĭæłĩé¢ĺ": 8924,
      "åħ´å¥ĭåľ°è¯´": 8925,
      "æ°§åĮĸç¢³": 8926,
      "server": 8927,
      "ï¼Įä¼ģä¸ļåı¯ä»¥": 8928,
      "ç§ĳåŃ¦å®¶ä»¬": 8929,
      "ï¼ĮæĪĲåĬŁåľ°": 8930,
      "ĠKafka": 8931,
      "Char": 8932,
      "æī«æıı": 8933,
      "è¿Ŀæ³ķè¡Įä¸º": 8934,
      "Name": 8935,
      "cale": 8936,
      "ee": 8937,
      "£æīİ": 8938,
      "ï¼Įåħ±": 8939,
      "ï¼ĮçĤ¹åĩ»": 8940,
      "ï¼ĮåŃ©åŃĲä»¬": 8941,
      "çļĦåİŁçĲĨ": 8942,
      "ãĢĤ`": 8943,
      "ä¸ŃæıĲåĪ°": 8944,
      "ä¸ŃèĦ±é¢ĸèĢĮåĩº": 8945,
      "åĨĹ": 8946,
      "å¯¹ä¸ŃåĽ½": 8947,
      "åı¯ä»¥å¢ŀå¼º": 8948,
      "èĢĮåĬªåĬĽ": 8949,
      "å°ıé¸Ł": 8950,
      "ãĢĤè¿Ļä½¿å¾Ĺ": 8951,
      "èĥ½å¤Łæī¾åĪ°": 8952,
      "éľĢè¦ģèĢĥèĻĳ": 8953,
      "ãĢĤä»ĸéĢļè¿ĩ": 8954,
      "ä½¿çĶ¨äºĨ": 8955,
      "çĲĥè¿·": 8956,
      "åĻ¨å®ĺ": 8957,
      "æ¸¸æ³³": 8958,
      "ï¼Įä¸ºæĪĳä»¬": 8959,
      "èĦĨ": 8960,
      "é¦ĸæ¬¡": 8961,
      "éľĢæ±ĤåĪĨæŀĲ": 8962,
      "åħ´èµ·": 8963,
      "ï¼Įä»İèĢĮæĽ´å¥½åľ°": 8964,
      "å¾Īæľī": 8965,
      "çļĦæł¡": 8966,
      "ï¼Įä¸įä»ħèĥ½å¤Ł": 8967,
      "è¡¨è¾¾æĸ¹å¼ı": 8968,
      "åŃ¦æľ¯ä¼ļè®®": 8969,
      "åĽĽä¸ª": 8970,
      "loud": 8971,
      "éĵģçĶ²": 8972,
      "èĩªæĪĳè®¤åĲĮ": 8973,
      "æĻºèĥ½åĮĸ": 8974,
      "ï¼Įéģ¿åħįåĽł": 8975,
      "ï¼ĮéĢīæĭ©åĲĪéĢĤçļĦ": 8976,
      "èĤ¥æĸĻ": 8977,
      "æħ¢æĢ§": 8978,
      "æķĳæı´": 8979,
      "actory": 8980,
      "çļĦç¬¬ä¸ĢæŃ¥": 8981,
      "ãĢĤåľ¨è¿Ļä¸ªè¿ĩç¨ĭä¸Ń": 8982,
      "åºĶçĶ¨åĪ°å®ŀéĻħ": 8983,
      "ãĢĤäºĨè§£è¿ĻäºĽ": 8984,
      "ä¸ŃçļĦä¸Ģä¸ªéĩįè¦ģ": 8985,
      "ï¼Įä¸ĬéĿ¢": 8986,
      "ï¼Įå¸Ĥåľº": 8987,
      "ï¼Įè¿ĽèĢĮ": 8988,
      ".ĊĊ": 8989,
      "_id": 8990,
      "_name": 8991,
      "be": 8992,
      "nginx": 8993,
      "æ§": 8994,
      "ï¼Įç¤¾ä¼ļ": 8995,
      "ï¼Įä¸įåĲĮ": 8996,
      "ï¼Įç®Ģ": 8997,
      "ï¼Įä¿Ŀéļľ": 8998,
      "çļĦç»ĥä¹ł": 8999,
      "çļĦåĩºçİ°": 9000,
      "ãĢĤĊĊĊ": 9001,
      "åľ¨æŁĲäºĽ": 9002,
      "ä¸Ńä¿ĿæĮģ": 9003,
      "æľīå¾Īå¤ļ": 9004,
      "æĦ£": 9005,
      "éĢļè¿ĩæľ¬æĸĩ": 9006,
      "ä½¿åħ¶": 9007,
      "çĤŃ": 9008,
      "è®¡æĹ¶": 9009,
      "éĹ®é¢ĺè§£åĨ³": 9010,
      "ä¸ĵåĪ©": 9011,
      "æŃ¥éª¤åĴĮ": 9012,
      "å®īåħ¨åĴĮ": 9013,
      "å¤ĦçĲĨåĻ¨": 9014,
      "åı°ä¸Ĭ": 9015,
      "å¥ĩè¿¹": 9016,
      "ãĢĤå¥¹åĨ³å®ļ": 9017,
      "æĺ¯åĲ¦æľī": 9018,
      "å·®è·Ŀ": 9019,
      "æĸĩåŃ¦åĪĽä½ľ": 9020,
      "æĬĹæĹ¥": 9021,
      "éķĩä¸Ĭ": 9022,
      "æĭ¥æĮ¤": 9023,
      "åĮĸåŃ¦åıįåºĶ": 9024,
      "ï¼Įæīįèĥ½åľ¨": 9025,
      "ï¼Įå¾Ĺ": 9026,
      "èį¯çī©æ²»çĸĹ": 9027,
      "åºĶçĶ¨äºİå®ŀéĻħ": 9028,
      "å®ŀéªĮå®¤éĩĮ": 9029,
      "å®Įæķ´æĢ§": 9030,
      "ontro": 9031,
      "esture": 9032,
      "çļĦæııè¿°": 9033,
      "çĶµèĥ½è¡¨": 9034,
      "group": 9035,
      "å½ĵçĦ¶åı¯ä»¥": 9036,
      "å¤§äºĨçľ¼çĿĽ": 9037,
      "éĻĮçĶŁ": 9038,
      "åĴıæĺ¥": 9039,
      "\">": 9040,
      "%ï¼Į": 9041,
      "(n": 9042,
      "Un": 9043,
      "View": 9044,
      "_t": 9045,
      "min": 9046,
      "âĶ": 9047,
      "Ġæīĵå¼Ģ": 9048,
      "ï¼ĮéĤĢè¯·": 9049,
      "ãĢĤæľªæĿ¥": 9050,
      "äºĨèµ·æĿ¥": 9051,
      "ä¸Ģå°ģ": 9052,
      "ãĢģåİĨåı²": 9053,
      "ä»¥åĲİ": 9054,
      "åı¯çĪ±": 9055,
      "âĢľæĺ¯çļĦ": 9056,
      "âĢĿæĮīéĴ®": 9057,
      "ä¿Ŀé²ľ": 9058,
      "åħ³èĬĤ": 9059,
      "ä¸ĭä¸ĢæŃ¥": 9060,
      "çłĸ": 9061,
      "ï¼Įè¿Ļå¯¹äºİ": 9062,
      "æģ°": 9063,
      "æ°´åĪ©": 9064,
      "æĹłçĸĳ": 9065,
      "è®¾è®¡çĲĨå¿µ": 9066,
      "åįĩæľº": 9067,
      "éĢīæĭ©åĴĮ": 9068,
      "éĵ£": 9069,
      "æĮĩåĩº": 9070,
      "ç²¾ç»Ĩ": 9071,
      "åıªèĥ½": 9072,
      "èīºæľ¯ä½ľåĵģ": 9073,
      "ä¸īç»´": 9074,
      "ç§ĳåŃ¦ä¾Ŀæį®": 9075,
      "å¯ĨéĽĨ": 9076,
[...]
