{
  "version": "1.0",
  "truncation": null,
  "padding": null,
  "added_tokens": [
    {
      "id": 0,
      "content": "<s>",
      "single_word": false,
      "lstrip": false,
      "rstrip": false,
      "normalized": false,
      "special": true
    },
    {
      "id": 1,
      "content": "</s>",
      "single_word": false,
      "lstrip": false,
      "rstrip": false,
      "normalized": false,
      "special": true
    },
    {
      "id": 2,
      "content": "<unk>",
      "single_word": false,
      "lstrip": false,
      "rstrip": false,
      "normalized": false,
      "special": true
    },
    {
      "id": 3,
      "content": "<pad>",
      "single_word": false,
      "lstrip": false,
      "rstrip": false,
      "normalized": false,
      "special": true
    },
    {
      "id": 4,
      "content": "<mask>",
      "single_word": false,
      "lstrip": false,
      "rstrip": false,
      "normalized": false,
      "special": true
    }
  ],
  "normalizer": null,
  "pre_tokenizer": {
    "type": "Sequence",
    "pretokenizers": [
      {
        "type": "Split",
        "pattern": {
          "Regex": "(?i:'s|'t|'re|'ve|'m|'ll|'d)|[^\\r\\n\\p{L}\\p{N}]?\\p{L}+|\\p{N}| ?[^\\s\\p{L}\\p{N}]+[\\r\\n]*|\\s*[\\r\\n]+|\\s+(?!\\S)|\\s+"
        },
        "behavior": "Isolated",
        "invert": false
      },
      {
        "type": "ByteLevel",
        "add_prefix_space": false,
        "trim_offsets": true,
        "use_regex": false
      }
    ]
  },
  "post_processor": null,
  "decoder": {
    "type": "ByteLevel",
    "add_prefix_space": true,
    "trim_offsets": true,
    "use_regex": true
  },
  "model": {
    "type": "BPE",
    "dropout": null,
    "unk_token": null,
    "continuing_subword_prefix": null,
    "end_of_word_suffix": null,
    "fuse_unk": false,
    "byte_fallback": false,
    "ignore_merges": false,
    "vocab": {
      "<s>": 0,
      "</s>": 1,
      "<unk>": 2,
      "<pad>": 3,
      "<mask>": 4,
      "!": 5,
      "\"": 6,
      "#": 7,
      "$": 8,
      "%": 9,
      "&": 10,
      "'": 11,
      "(": 12,
      ")": 13,
      "*": 14,
      "+": 15,
      ",": 16,
      "-": 17,
      ".": 18,
      "/": 19,
      "0": 20,
      "1": 21,
      "2": 22,
      "3": 23,
      "4": 24,
      "5": 25,
      "6": 26,
      "7": 27,
      "8": 28,
      "9": 29,
      ":": 30,
      ";": 31,
      "<": 32,
      "=": 33,
      ">": 34,
      "?": 35,
      "@": 36,
      "A": 37,
      "B": 38,
      "C": 39,
      "D": 40,
      "E": 41,
      "F": 42,
      "G": 43,
      "H": 44,
      "I": 45,
      "J": 46,
      "K": 47,
      "L": 48,
      "M": 49,
      "N": 50,
      "O": 51,
      "P": 52,
      "Q": 53,
      "R": 54,
      "S": 55,
      "T": 56,
      "U": 57,
      "V": 58,
      "W": 59,
      "X": 60,
      "Y": 61,
      "Z": 62,
      "[": 63,
      "\\": 64,
      "]": 65,
      "^": 66,
      "_": 67,
      "`": 68,
      "a": 69,
      "b": 70,
      "c": 71,
      "d": 72,
      "e": 73,
      "f": 74,
      "g": 75,
      "h": 76,
      "i": 77,
      "j": 78,
      "k": 79,
      "l": 80,
      "m": 81,
      "n": 82,
      "o": 83,
      "p": 84,
      "q": 85,
      "r": 86,
      "s": 87,
      "t": 88,
      "u": 89,
      "v": 90,
      "w": 91,
      "x": 92,
      "y": 93,
      "z": 94,
      "{": 95,
      "|": 96,
      "}": 97,
      "~": 98,
      "¡": 99,
      "¢": 100,
      "£": 101,
      "¤": 102,
      "¥": 103,
      "¦": 104,
      "§": 105,
      "¨": 106,
      "©": 107,
      "ª": 108,
      "«": 109,
      "¬": 110,
      "®": 111,
      "¯": 112,
      "°": 113,
      "±": 114,
      "²": 115,
      "³": 116,
      "´": 117,
      "µ": 118,
      "¶": 119,
      "·": 120,
      "¸": 121,
      "¹": 122,
      "º": 123,
      "»": 124,
      "¼": 125,
      "½": 126,
      "¾": 127,
      "¿": 128,
      "Â": 129,
      "Ã": 130,
      "Ä": 131,
      "Å": 132,
      "Ç": 133,
      "Ë": 134,
      "Î": 135,
      "Ï": 136,
      "Ð": 137,
      "Ñ": 138,
      "Ù": 139,
      "á": 140,
      "â": 141,
      "ã": 142,
      "ä": 143,
      "å": 144,
      "æ": 145,
      "ç": 146,
      "è": 147,
      "é": 148,
      "ï": 149,
      "ð": 150,
      "ĉ": 151,
      "Ċ": 152,
      "Ġ": 153,
      "Ģ": 154,
      "ģ": 155,
      "Ĥ": 156,
      "ĥ": 157,
      "Ħ": 158,
      "ħ": 159,
      "Ĩ": 160,
      "ĩ": 161,
      "Ī": 162,
      "ī": 163,
      "Ĭ": 164,
      "ĭ": 165,
      "Į": 166,
      "į": 167,
      "İ": 168,
      "ı": 169,
      "Ĳ": 170,
      "ĳ": 171,
      "Ĵ": 172,
      "ĵ": 173,
      "Ķ": 174,
      "ķ": 175,
      "ĸ": 176,
      "Ĺ": 177,
      "ĺ": 178,
      "Ļ": 179,
      "ļ": 180,
      "Ľ": 181,
      "ľ": 182,
      "Ŀ": 183,
      "ŀ": 184,
      "Ł": 185,
      "ł": 186,
      "Ń": 187,
      "ï¼": 188,
      "ä¸": 189,
      "ï¼Į": 190,
      "çļ": 191,
      "çļĦ": 192,
      "ãĢ": 193,
      "ä»": 194,
      "ãĢĤ": 195,
      "äº": 196,
      "è¿": 197,
      "åı": 198,
      "åħ": 199,
      "ĊĊ": 200,
      "æľ": 201,
      "å®": 202,
      "ä½": 203,
      "åľ": 204,
      "åĪ": 205,
      "çĶ": 206,
      "åĴ": 207,
      "åĬ": 208,
      "åĴĮ": 209,
      "**": 210,
      "å¤": 211,
      "ç»": 212,
      "æĪ": 213,
      "åŃ": 214,
      "æĸ": 215,
      "è®": 216,
      "æĺ": 217,
      "åĲ": 218,
      "ãĢĤĊĊ": 219,
      "äºĨ": 220,
      "è¯": 221,
      "ä¸Ģ": 222,
      "åľ¨": 223,
      "ä¹": 224,
      "ï¼ļ": 225,
      "éĢ": 226,
      "##": 227,
      "æĿ": 228,
      "ä¸Ń": 229,
      "æķ": 230,
      "ä¼": 231,
      "è§": 232,
      "å¯": 233,
      "åº": 234,
      "ĠĠ": 235,
      "éĩ": 236,
      "èĥ": 237,
      "å°": 238,
      "åŃ¦": 239,
      "å¼": 240,
      "æĺ¯": 241,
      "ãĢģ": 242,
      "åĽ": 243,
      "æĢ": 244,
      "è¿Ļ": 245,
      "æĹ": 246,
      "ä»ĸ": 247,
      "çİ": 248,
      "âĢ": 249,
      "å¸": 250,
      "èĥ½": 251,
      "çĶ¨": 252,
      "åĮ": 253,
      "ä»¥": 254,
      "çĲ": 255,
      "çĶŁ": 256,
      "ç§": 257,
      "åĨ": 258,
      "è¡": 259,
      "ä¸į": 260,
      "ä¸ª": 261,
      "ä¿": 262,
      "ä»¬": 263,
      "è¿ĩ": 264,
      "å·": 265,
      "èĢ": 266,
      "æľī": 267,
      "Ġ**": 268,
      "çļĦæ": 269,
      "åı¯": 270,
      "è¦": 271,
      "è¦ģ": 272,
      "ä¸º": 273,
      "çī": 274,
      "å¿": 275,
      "çĲĨ": 276,
      "æŀ": 277,
      "**ï¼ļ": 278,
      "å¹": 279,
      "æı": 280,
      "åį": 281,
      "æī": 282,
      "çĽ": 283,
      "å¾": 284,
      "éĢļ": 285,
      "åĩ": 286,
      "ä¾": 287,
      "å¯¹": 288,
      "æ³": 289,
      "è´": 290,
      "å¦": 291,
      "æł": 292,
      "æĬ": 293,
      "ä½ľ": 294,
      "èĩ": 295,
      "èµ": 296,
      "å±": 297,
      "åľ°": 298,
      "æİ": 299,
      "å½": 300,
      "åĪ°": 301,
      "æĪĳ": 302,
      "éĹ": 303,
      "çŃ": 304,
      "å¥": 305,
      "åıĳ": 306,
      "æŃ": 307,
      "äºº": 308,
      "ç¨": 309,
      "æĦ": 310,
      "æıĲ": 311,
      "å¦Ĥ": 312,
      "éĿ": 313,
      "æĹ¶": 314,
      "è§£": 315,
      "å®ŀ": 316,
      "æĽ": 317,
      "æĪĲ": 318,
      "é¢": 319,
      "åĬĽ": 320,
      "æĢ§": 321,
      "ä¼ļ": 322,
      "éĢļè¿ĩ": 323,
      "åİ": 324,
      "æĮ": 325,
      "çİ°": 326,
      "è¡Į": 327,
      "æĶ": 328,
      "éĻ": 329,
      "åı¯ä»¥": 330,
      "å®ļ": 331,
      "åŁ": 332,
      "äºİ": 333,
      "èĩª": 334,
      "æĽ´": 335,
      "æĸ¹": 336,
      "åĮĸ": 337,
      "åĪĨ": 338,
      "æĿ¥": 339,
      "æµ": 340,
      "æĭ": 341,
      "åĬ¨": 342,
      "ä¸İ": 343,
      "ä¸ļ": 344,
      "æ°": 345,
      "åĵ": 346,
      "ç¨ĭ": 347,
      "çļĦç": 348,
      "éĩį": 349,
      "âĢĿ": 350,
      "âĢľ": 351,
      "æĸĩ": 352,
      "åºĶ": 353,
      "éĺ": 354,
      "éģ": 355,
      "ç§į": 356,
      "è¿Ľ": 357,
      "ç¡": 358,
      "é«": 359,
      "ä¿Ŀ": 360,
      "é«ĺ": 361,
      "åĳ": 362,
      "ä½ĵ": 363,
      "å¤§": 364,
      "æ³ķ": 365,
      "ç®": 366,
      "éĥ": 367,
      "æĪĳä»¬": 368,
      "æĥ": 369,
      "æ´": 370,
      "ç¤": 371,
      "ä¸Ģä¸ª": 372,
      "å¿ĥ": 373,
      "è¾": 374,
      "äºĽ": 375,
      "åħ¶": 376,
      "æį": 377,
      "ãĢĤĊ": 378,
      "éľ": 379,
      "çĿ": 380,
      "å±ķ": 381,
      "ä»ħ": 382,
      "å¤ļ": 383,
      "çŃī": 384,
      "è½": 385,
      "åħ³": 386,
      "éĿ¢": 387,
      "èī": 388,
      "ä¸Ĭ": 389,
      "è®¾": 390,
      "ä¸ĭ": 391,
      "æĻ": 392,
      "çľ": 393,
      "æķ°": 394,
      "Ł¥": 395,
      "åĲĪ": 396,
      "æ¸": 397,
      "çĿĢ": 398,
      "æľ¯": 399,
      "å·¥": 400,
      "ç«": 401,
      "æ¯": 402,
      "åĲĮ": 403,
      "æ±": 404,
      "ç³": 405,
      "éľĢ": 406,
      "çº": 407,
      "ä½¿": 408,
      "æľ¬": 409,
      "æķĻ": 410,
      "çł": 411,
      "åĩº": 412,
      "ç»ı": 413,
      "éĩı": 414,
      "ä¸įä»ħ": 415,
      "ä¾ĭ": 416,
      "èĤ": 417,
      "éª": 418,
      "å¢": 419,
      "ç©": 420,
      "åħ¥": 421,
      "ç½": 422,
      "æ²": 423,
      "æ·": 424,
      "èĢĮ": 425,
      "å°ı": 426,
      "ç¡®": 427,
      "çĤ": 428,
      "è°": 429,
      "ä¹ł": 430,
      "å®¶": 431,
      "ç´": 432,
      "æĿİ": 433,
      "çī©": 434,
      "ç³»": 435,
      "å¼Ģ": 436,
      "æĦŁ": 437,
      "åº¦": 438,
      "åĪ¶": 439,
      "####": 440,
      "å°Ĩ": 441,
      "çĦ": 442,
      "åĬł": 443,
      "æľº": 444,
      "æĬĢ": 445,
      "éĩįè¦ģ": 446,
      "ä¿¡": 447,
      "åħ·": 448,
      "åĽ½": 449,
      "è®¡": 450,
      "æ´»": 451,
      "è¶": 452,
      "åĿ": 453,
      "ä»ĸä»¬": 454,
      "å¾Ĺ": 455,
      "ä¹Ł": 456,
      "æį®": 457,
      "æ¬": 458,
      "æĺİ": 459,
      "ĠĠĠĠ": 460,
      "åŃ¦çĶŁ": 461,
      "å¥½": 462,
      "ç¬": 463,
      "è¿ĺ": 464,
      "åŃĲ": 465,
      "çī¹": 466,
      "è·": 467,
      "é£": 468,
      "é¡": 469,
      "æĸ°": 470,
      "ä½ł": 471,
      "éģĵ": 472,
      "æĦı": 473,
      "éĹ´": 474,
      "åĲİ": 475,
      "æ·±": 476,
      "çĦ¶": 477,
      "åĬ©": 478,
      "ç»ĵ": 479,
      "åī": 480,
      "çĤ¹": 481,
      "å·±": 482,
      "å»": 483,
      "èĩªå·±": 484,
      "æŃ¥": 485,
      "ãĢĤè¿Ļ": 486,
      "å¸¸": 487,
      "éļ": 488,
      "###": 489,
      "éķ": 490,
      "æĮģ": 491,
      "èµĦ": 492,
      "èĢħ": 493,
      "èĬ": 494,
      "äº§": 495,
      "åħ¨": 496,
      "åĨħ": 497,
      "åĬ¡": 498,
      "æķĪ": 499,
      "åŁº": 500,
      "åĵģ": 501,
      "çķ": 502,
      "å¹¶": 503,
      "ä¾Ľ": 504,
      "ç»Ł": 505,
      "éĹ®": 506,
      "é¢ĺ": 507,
      "å¤Ł": 508,
      "çĽ®": 509,
      "è¡¨": 510,
      "ä»¶": 511,
      "åľº": 512,
      "å»º": 513,
      "æŀľ": 514,
      "ç±": 515,
      "åģ": 516,
      "å½±": 517,
      "è¯Ĩ": 518,
      "åıĳå±ķ": 519,
      "åŃ¦ä¹ł": 520,
      "ç©¶": 521,
      "èģ": 522,
      "ä¸ŃçļĦ": 523,
      "ä¼ł": 524,
      "çŁ¥": 525,
      "ï¼Įè¿Ļ": 526,
      "çĶµ": 527,
      "èĥ½å¤Ł": 528,
      "éľĢè¦ģ": 529,
      "ä»£": 530,
      "äºĭ": 531,
      "çĽ¸": 532,
      "Ķç©¶": 533,
      "è¯´": 534,
      "ãĢĤâĢĿ": 535,
      "éĶ": 536,
      "éĥ¨": 537,
      "è´¨": 538,
      "æıĲä¾Ľ": 539,
      "ãĢĤä»ĸ": 540,
      "åĨ³": 541,
      "å¼ı": 542,
      "è¿Ľè¡Į": 543,
      "Ġ-": 544,
      "åĢ": 545,
      "ä»İ": 546,
      "å®ī": 547,
      "æģ": 548,
      "æľŁ": 549,
      "ç®¡": 550,
      "æº": 551,
      "ä¹ĭ": 552,
      "ï¼Įä»ĸ": 553,
      "æĪĸ": 554,
      "ç¼": 555,
      "éķ¿": 556,
      "ç¤¾": 557,
      "æ¡": 558,
      "ä¸»": 559,
      "æ¶": 560,
      "æĥħ": 561,
      "ä½¿çĶ¨": 562,
      "ç§ĳ": 563,
      "æĪĺ": 564,
      "å§": 565,
      "æıĲé«ĺ": 566,
      "ï¼ĮæĪĳä»¬": 567,
      "åºĶçĶ¨": 568,
      "åħ¬": 569,
      "å®ĥ": 570,
      "æ±Ĥ": 571,
      "``": 572,
      "éħ": 573,
      "çİ¯": 574,
      "éªĮ": 575,
      "å¸Ĥ": 576,
      "ä½ķ": 577,
      "Ł³": 578,
      "åıĬ": 579,
      "æ»": 580,
      "çĸ": 581,
      "ä½į": 582,
      "è°ĥ": 583,
      "ï¼ļâĢľ": 584,
      "æ°´": 585,
      "é¦": 586,
      "è¿Ĳ": 587,
      "éĥ½": 588,
      "æĤ": 589,
      "åĪ©": 590,
      "åĪĽ": 591,
      "æŀĲ": 592,
      "å¹³": 593,
      "äºĨè§£": 594,
      "å¯¼": 595,
      "äº¤": 596,
      "åĬŁ": 597,
      "è®º": 598,
      "æ¬¡": 599,
      "åĽł": 600,
      "éĽ": 601,
      "åĵį": 602,
      "æºĲ": 603,
      "å¼ł": 604,
      "ç¤º": 605,
      "å¼º": 606,
      "çĲĨè§£": 607,
      "åıĺ": 608,
      "ä¹¦": 609,
      "ï¼Įè¿ĺ": 610,
      "ä½Ĩ": 611,
      "æĸĩåĮĸ": 612,
      "è¿ĩç¨ĭ": 613,
      "æķ°æį®": 614,
      "åİĨ": 615,
      "å¤ĸ": 616,
      "åĮħ": 617,
      "å¢ĥ": 618,
      "éĢī": 619,
      "å¤ĩ": 620,
      "ç¡®ä¿Ŀ": 621,
      "å¤©": 622,
      "è§Ĥ": 623,
      "ï¼Įå¦Ĥ": 624,
      "èī²": 625,
      "çĹ": 626,
      "åĪĨæŀĲ": 627,
      "çłĶç©¶": 628,
      "er": 629,
      "ç¥": 630,
      "çľĭ": 631,
      "æłĩ": 632,
      "ç±»": 633,
      "**ĊĊ": 634,
      "ç¾": 635,
      "åħ»": 636,
      "èµ·": 637,
      "åįķ": 638,
      "ç³»ç»Ł": 639,
      "å¸®": 640,
      "çĶŁæ´»": 641,
      "æĸ¹æ³ķ": 642,
      "in": 643,
      "åŀ": 644,
      "æľĢ": 645,
      "åĻ": 646,
      "æİ¥": 647,
      "åı¯èĥ½": 648,
      "éĹ®é¢ĺ": 649,
      "ï¼Ī": 650,
      "ï¼ī": 651,
      "è®©": 652,
      "å½±åĵį": 653,
      "ä¾ĭå¦Ĥ": 654,
      "éĢĤ": 655,
      "éĤ": 656,
      "å¸®åĬ©": 657,
      "æ¨": 658,
      "æĬĢæľ¯": 659,
      "è±": 660,
      "åīį": 661,
      "ç®¡çĲĨ": 662,
      "å°±": 663,
      "ãĢĤâĢĿĊĊ": 664,
      "èĤ²": 665,
      "æľį": 666,
      "æĺ¯ä¸Ģ": 667,
      "åĻ¨": 668,
      "å£": 669,
      "æµģ": 670,
      "èĬĤ": 671,
      "åıĤ": 672,
      "ç»Ĩ": 673,
      "éĻħ": 674,
      "ä¹ī": 675,
      "æŃ£": 676,
      "ï¼Įä½Ĩ": 677,
      "ï¼ļĊĊ": 678,
      "å¤į": 679,
      "ç½ĳ": 680,
      "ï¼Įä»¥": 681,
      "æ¨¡": 682,
      "æĢĿ": 683,
      "æ¯ı": 684,
      "æķ´": 685,
      "æĹł": 686,
      "çŃĸ": 687,
      "æĢģ": 688,
      "è®¾è®¡": 689,
      "çĲĥ": 690,
      "ĠĠĠ": 691,
      "èĥ½åĬĽ": 692,
      "åħĪ": 693,
      "å¦Ĥä½ķ": 694,
      "ç´ł": 695,
      "çĥ": 696,
      "æĪ·": 697,
      "åĳĺ": 698,
      "æ¸¸": 699,
      "å¤Ħ": 700,
      "ç²": 701,
      "å§ĭ": 702,
      "on": 703,
      "æģ¯": 704,
      "èį": 705,
      "é£İ": 706,
      "åĽ¾": 707,
      "ä¼ĺ": 708,
      "æŀĦ": 709,
      "åŀĭ": 710,
      "å¹´": 711,
      "æīĭ": 712,
      "å¼ķ": 713,
      "ç¤¾ä¼ļ": 714,
      "æ³¨": 715,
      "é¡¹": 716,
      "åİŁ": 717,
      "èĩªå·±çļĦ": 718,
      "çĪ": 719,
      "åħĥ": 720,
      "å½¢": 721,
      "æĬ¤": 722,
      "ä»»": 723,
      "åĲį": 724,
      "æ®": 725,
      "æ°ĳ": 726,
      "æľª": 727,
      "æł·": 728,
      "è¯ķ": 729,
      "æ»¡": 730,
      "çİ¯å¢ĥ": 731,
      "éĩĮ": 732,
      "æī¾": 733,
      "æīĢ": 734,
      "åıĸ": 735,
      "åĮº": 736,
      "è¿ĻäºĽ": 737,
      "ç»Ħ": 738,
      "èĲ": 739,
      "è§Ħ": 740,
      "ï¼Įå¹¶": 741,
      "åįĩ": 742,
      "åıį": 743,
      "æĪı": 744,
      "å¢ŀ": 745,
      "èĻ": 746,
      "å½ĵ": 747,
      "éĢīæĭ": 748,
      "ç½®": 749,
      "æ¡Ī": 750,
      "ãĢĤä¾ĭå¦Ĥ": 751,
      "æĹ¶éĹ´": 752,
      "ç»Ń": 753,
      "æĢ»": 754,
      "åŃĺ": 755,
      "æŃ¤": 756,
      "éĢīæĭ©": 757,
      "å®¹": 758,
      "è®°": 759,
      "å·¥ä½ľ": 760,
      "ãĢĤéĢļè¿ĩ": 761,
      "å¿µ": 762,
      "ãĢĬ": 763,
      "ãĢĭ": 764,
      "æĥ³": 765,
      "åıĹ": 766,
      "ç«ĭ": 767,
      "åĿļ": 768,
      "èĢĥ": 769,
      "èģĮ": 770,
      "åĪ°äºĨ": 771,
      "ç¬¬": 772,
      "æĭ¬": 773,
      "æİ¢": 774,
      "å¤´": 775,
      "éĺŁ": 776,
      "æĶ¿": 777,
      "ä»·": 778,
      "åĮħæĭ¬": 779,
      "ä¹Ĳ": 780,
      "çİĩ": 781,
      "åĨľ": 782,
      "èº": 783,
      "å¥¹": 784,
      "ï¼Įä¹Ł": 785,
      "å®ŀçİ°": 786,
      "é¢Ĩ": 787,
      "åı²": 788,
      "éŁ³": 789,
      "åħħ": 790,
      "åĢ¼": 791,
      "è±¡": 792,
      "æĸ½": 793,
      "ï¼Ł": 794,
      "è¯Ń": 795,
      "æĿĳ": 796,
      "æķĻèĤ²": 797,
      "çģ": 798,
      "æł¼": 799,
      "è®¤": 800,
      "æĸŃ": 801,
      "æ²»": 802,
      "ç¥ŀ": 803,
      "åĪĻ": 804,
      "éĩĳ": 805,
      "éĢŁ": 806,
      "è£": 807,
      "åĩĨ": 808,
      "ä¸ĵ": 809,
      "å¸Ī": 810,
      "ç®Ĺ": 811,
      "è§Ĩ": 812,
      "ãĢĤåľ¨": 813,
      "åħ·æľī": 814,
      "è®¨": 815,
      "ï¼Įä¸º": 816,
      "æ¯Ķ": 817,
      "èº«": 818,
      "éĵ": 819,
      "åĲĦ": 820,
      "å¼Ģå§ĭ": 821,
      "ä»¥ä¸ĭ": 822,
      "è¿Ļä¸ª": 823,
      "è¢": 824,
      "åĽ¢": 825,
      "ç¾İ": 826,
      "çĻ": 827,
      "è¯»": 828,
      "æĻ¯": 829,
      "æŁ¥": 830,
      "æĹ¥": 831,
      "æ¸¸æĪı": 832,
      "æŁ": 833,
      "ä¿¡æģ¯": 834,
      "ç»´": 835,
      "æ·±åħ¥": 836,
      "çļĦéĩįè¦ģ": 837,
      "åŁ¹": 838,
      "çľŁ": 839,
      "æĸĻ": 840,
      "æµİ": 841,
      "æµĭ": 842,
      "èīº": 843,
      "åĮ»": 844,
      "çĭ": 845,
      "çĹħ": 846,
      "å®īåħ¨": 847,
      "ç»ıæµİ": 848,
      "éĤ£": 849,
      "æĮĩ": 850,
      "æ°Ķ": 851,
      "ä¸įåĲĮ": 852,
      "æľįåĬ¡": 853,
      "åĸ": 854,
      "åİĨåı²": 855,
      "ï¼Įåı¯ä»¥": 856,
      "æĶ¯": 857,
      "åķ": 858,
      "èĦ": 859,
      "åĽŀ": 860,
      "æĵ": 861,
      "åŁŁ": 862,
      "ä¹Ī": 863,
      "è·¯": 864,
      "æĤ¨": 865,
      "åı£": 866,
      "æĶ¶": 867,
      "æıĲåįĩ": 868,
      "é¦ĸ": 869,
      "éª¤": 870,
      "èµĦæºĲ": 871,
      "å¯Į": 872,
      "æķħ": 873,
      "æĶ¹": 874,
      "è¶³": 875,
      "æľĽ": 876,
      "èİ": 877,
      "é£Ł": 878,
      "å¸Ĥåľº": 879,
      "çĶ¨æĪ·": 880,
      "çĬ": 881,
      "èĭ": 882,
      "éħį": 883,
      "ĳæĪĺ": 884,
      "æĽ´å¥½": 885,
      "è¢«": 886,
      "åĪĴ": 887,
      "å®ŀéĻħ": 888,
      "è¾¾": 889,
      "¨Ģ": 890,
      "è¨Ģ": 891,
      "çª": 892,
      "çº¿": 893,
      "å¹¿": 894,
      "é¥": 895,
      "åĳ½": 896,
      "è£ħ": 897,
      "æĽ´åĬł": 898,
      "åĲĳ": 899,
      "åıª": 900,
      "èĢģ": 901,
      "çķĮ": 902,
      "æıĲä¾ĽäºĨ": 903,
      "ç»ĥ": 904,
      "åıĳçİ°": 905,
      "çķ¥": 906,
      "åħ±": 907,
      "åħī": 908,
      "èĮ": 909,
      "å¯Ĩ": 910,
      "```": 911,
      "ï¼Įä»İ": 912,
      "é»": 913,
      "æŃ¥éª¤": 914,
      "çļĦåŁº": 915,
      "éĴ": 916,
      "è§Ĵ": 917,
      "æł¹": 918,
      "ç´¢": 919,
      "å¤ĦçĲĨ": 920,
      "å®Į": 921,
      "è¿ĩç¨ĭä¸Ń": 922,
      "æ£": 923,
      "åģ¥": 924,
      "æŀĹ": 925,
      "or": 926,
      "éĺ²": 927,
      "åº·": 928,
      "éĢł": 929,
      "ä¸ī": 930,
      "ï¼Įç¡®ä¿Ŀ": 931,
      "ç¡Ģ": 932,
      "en": 933,
      "çŁ¥è¯Ĩ": 934,
      "åĥ": 935,
      "åĬ©äºİ": 936,
      "æľīåĬ©äºİ": 937,
      "ä½ľçĶ¨": 938,
      "å¸¦": 939,
      "ç²¾": 940,
      "ç§ĳåŃ¦": 941,
      "æİ§": 942,
      "é¢Ħ": 943,
      "éĶ®": 944,
      "æĽ´å¥½åľ°": 945,
      "æ®µ": 946,
      "įä½ľ": 947,
      "åŃĹ": 948,
      "é¡¹çĽ®": 949,
      "æĺ¾": 950,
      "st": 951,
      "åħ´": 952,
      "at": 953,
      "åĬŁèĥ½": 954,
      "æľªæĿ¥": 955,
      "åķĨ": 956,
      "ä¼ģ": 957,
      "éļ¾": 958,
      "å½ķ": 959,
      "è¿ľ": 960,
      "æŀģ": 961,
      "åı¤": 962,
      "åĥı": 963,
      "ï¼ĮæĽ´": 964,
      "æĶ¾": 965,
      "çĭ¬": 966,
      "çĸĹ": 967,
      "åĪ«": 968,
      "æĸ¹éĿ¢": 969,
      "ä¸ŃåĽ½": 970,
      "è·µ": 971,
      "éĻ©": 972,
      "èĩ´": 973,
      "ä¸ªäºº": 974,
      "åİ»": 975,
      "ä¼ģä¸ļ": 976,
      "å°ĳ": 977,
      "è¯¾": 978,
      "ï¼Įä½ł": 979,
      "å®ŀè·µ": 980,
      "¿Ģ": 981,
      "æĿĲ": 982,
      "ç§¯": 983,
      "èĪ": 984,
      "åĲĮæĹ¶": 985,
      "è¯ģ": 986,
      "è¯Ħ": 987,
      "ç¼ĸ": 988,
      "æĺ¯ä¸Ģä¸ª": 989,
      "¦Ĥ": 990,
      "éĥ¨åĪĨ": 991,
      "çĬ¶": 992,
      "ï¼Įå®ĥ": 993,
      "æ´»åĬ¨": 994,
      "ä¸ĸ": 995,
      "æ¤": 996,
      "çīĩ": 997,
      "èĲ¥": 998,
      "é¦ĸåħĪ": 999,
      "éĽĨ": 1000,
      "ï¼ĮæıĲé«ĺ": 1001,
      "éĿŀ": 1002,
      "çĻ½": 1003,
      "æ¢": 1004,
      "æ¼": 1005,
      "æħ": 1006,
      "re": 1007,
      "æ¿Ģ": 1008,
      "ç¦": 1009,
      "ç»ľ": 1010,
      "åĨ³å®ļ": 1011,
      "è½¬": 1012,
      "è®®": 1013,
      "çĪ±": 1014,
      "ä¿ĿæĬ¤": 1015,
      "åĪ»": 1016,
      "èģĮä¸ļ": 1017,
      "æł¹æį®": 1018,
      "ä¸°": 1019,
      "åģ¥åº·": 1020,
      "ä¸»è¦ģ": 1021,
      "çĮ": 1022,
      "æİ¨": 1023,
      "éľĢæ±Ĥ": 1024,
      "çªģ": 1025,
      "æĵįä½ľ": 1026,
      "åħ³éĶ®": 1027,
      "åĩı": 1028,
      "çĶ¨äºİ": 1029,
      "èĩ³": 1030,
      "è´£": 1031,
      "äºĴ": 1032,
      "æķħäºĭ": 1033,
      "ï¼ĮèĢĮ": 1034,
      "Ġç¬¬": 1035,
      "çİĭ": 1036,
      "è¾ĥ": 1037,
      "åĨħå®¹": 1038,
      "è§£åĨ³": 1039,
      "ï¼ļ**": 1040,
      "äºĨä¸Ģ": 1041,
      "ä¸įæĸŃ": 1042,
      "æĸ¹å¼ı": 1043,
      "çĽ´": 1044,
      "å¾®": 1045,
      "æĪĲä¸º": 1046,
      "æł¡": 1047,
      "ä¸ŃåŃ¦çĶŁ": 1048,
      "åºı": 1049,
      "è¯¦": 1050,
      "æ¸ħ": 1051,
      "äºĮ": 1052,
      "åħħæ»¡": 1053,
      "æĿ¡": 1054,
      "çĽ®æłĩ": 1055,
      "è®Ń": 1056,
      "èı": 1057,
      "å¸ĥ": 1058,
      "èĥĮ": 1059,
      "æĬķ": 1060,
      "èīºæľ¯": 1061,
      "ä¸°å¯Į": 1062,
      "ç®Ģ": 1063,
      "åı°": 1064,
      "åħį": 1065,
      "le": 1066,
      "åĨµ": 1067,
      "èĳ": 1068,
      "æĪĲåĬŁ": 1069,
      "çłģ": 1070,
      "èµĽ": 1071,
      "åŁ¹åħ»": 1072,
      "ä¿ĿæĮģ": 1073,
      "è½»": 1074,
      "æĿĤ": 1075,
      "è¶£": 1076,
      "åĽ°": 1077,
      "åģļ": 1078,
      "æĳ": 1079,
      "åĽ¢éĺŁ": 1080,
      "çŃĸçķ¥": 1081,
      "æĿĥ": 1082,
      "ç»Ī": 1083,
      "ç§ĺ": 1084,
      "ï¼ĮéĢļè¿ĩ": 1085,
      "ï¼Įä»İèĢĮ": 1086,
      "é¢ĨåŁŁ": 1087,
      "æı¡": 1088,
      "å¯¹äºİ": 1089,
      "åĩł": 1090,
      "æĽ´å¤ļ": 1091,
      "åı¸": 1092,
      "åĨĻ": 1093,
      "ç½ĳç»ľ": 1094,
      "è¯¦ç»Ĩ": 1095,
      "ç»ĵæŀĦ": 1096,
      "Ġ=": 1097,
      "èİ·": 1098,
      "è´¨éĩı": 1099,
      "è®¡ç®Ĺ": 1100,
      "å¿Ĺ": 1101,
      "åĪ©çĶ¨": 1102,
      "æĺ¯ä¸Ģç§į": 1103,
      "ï¼Įä½¿": 1104,
      "æĻº": 1105,
      "é©": 1106,
      "è´¹": 1107,
      "è®¸": 1108,
      "çĶ±": 1109,
      "æĢ§åĴĮ": 1110,
      "éĺħ": 1111,
      "å¸Į": 1112,
      "--": 1113,
      "çĽĬ": 1114,
      "åİĭ": 1115,
      "å¼Ģåıĳ": 1116,
      "ä½İ": 1117,
      "å¿«": 1118,
      "æĮĳæĪĺ": 1119,
      "¦Ĥå¿µ": 1120,
      "å£°": 1121,
      "ï¼Įä»ĸä»¬": 1122,
      "éļı": 1123,
      "ç¬ĳ": 1124,
      "è§ģ": 1125,
      "çİ°ä»£": 1126,
      "åĬ¿": 1127,
      "äºī": 1128,
      "ä¾¿": 1129,
      "è½¦": 1130,
      "æī¾åĪ°": 1131,
      "è¾ĵ": 1132,
      "å¾ĭ": 1133,
      "ç©º": 1134,
      "ä¸ĵä¸ļ": 1135,
      "éĹ¨": 1136,
      "ä»·åĢ¼": 1137,
      "åħ³ç³»": 1138,
      "åħ¬åı¸": 1139,
      "å®Ŀ": 1140,
      "ä¸¤": 1141,
      "åħ·ä½ĵ": 1142,
      "æīį": 1143,
      ";Ċ": 1144,
      "å¾Ī": 1145,
      "èį¯": 1146,
      "ä¿®": 1147,
      "èģĶ": 1148,
      "åįķåħĥ": 1149,
      "ï¼Įåľ¨": 1150,
      "æ£Ģ": 1151,
      "åĪĹ": 1152,
      "æī¿": 1153,
      "æİ¢è®¨": 1154,
      "åĬª": 1155,
      "**ï¼ļĊ": 1156,
      "åħ¶ä»ĸ": 1157,
      "è¯Ŀ": 1158,
      "ç¨³": 1159,
      "çħ": 1160,
      "åŁİ": 1161,
      "çŁ¥éģĵ": 1162,
      "èŀ": 1163,
      "it": 1164,
      "ç»§": 1165,
      "æ¤į": 1166,
      "æľīæķĪ": 1167,
      "åĲĪä½ľ": 1168,
      "å·§": 1169,
      "è¯·": 1170,
      "åĬªåĬĽ": 1171,
      "å®¢": 1172,
      "ä»Ģ": 1173,
      "åĭ": 1174,
      "è®¾å¤ĩ": 1175,
      "æĺĵ": 1176,
      "åı·": 1177,
      "åįİ": 1178,
      "ï¼ĮæĪĳ": 1179,
      "å·²": 1180,
      "ä¸ĢäºĽ": 1181,
      "æ¡Īä¾ĭ": 1182,
      "ç«Ļ": 1183,
      "ï¼ĮæĿİ": 1184,
      "åıĤä¸İ": 1185,
      "è¿°": 1186,
      "ï¼ĮæĪĳä»¬åı¯ä»¥": 1187,
      "æĸĩä»¶": 1188,
      "å¤įæĿĤ": 1189,
      "æĴ": 1190,
      "åĲ¸": 1191,
      "è°ĥæķ´": 1192,
      "æ¶Ī": 1193,
      "ä»Ģä¹Ī": 1194,
      "ï¼ŁâĢĿ": 1195,
      "éĻĪ": 1196,
      "Ġ\\": 1197,
      "è¿Ļä¸Ģ": 1198,
      "æİĮ": 1199,
      "ä½ľä¸º": 1200,
      "æĶ¯æĮģ": 1201,
      "éģ¿": 1202,
      "è¯¾ç¨ĭ": 1203,
      "ãĢĤè¿ĻäºĽ": 1204,
      "éĩĩ": 1205,
      "æŃ¤å¤ĸ": 1206,
      "ãĢĤè¿Ļç§į": 1207,
      "æķĪçİĩ": 1208,
      "ä¼Ĺ": 1209,
      "çļĦåıĳå±ķ": 1210,
      "æīĵ": 1211,
      "äº§åĵģ": 1212,
      "è¯¥": 1213,
      "å¿ĥçĲĨ": 1214,
      "éĻĲ": 1215,
      "ar": 1216,
      "çļĦçł": 1217,
      "æ²¡": 1218,
      "å¸ĮæľĽ": 1219,
      "çĽĳ": 1220,
      "éĢļå¸¸": 1221,
      "çŁ": 1222,
      "èī¯": 1223,
      "æİ§åĪ¶": 1224,
      "åĳ³": 1225,
      "å·¥åħ·": 1226,
      "éĢĲ": 1227,
      "è¶Ĭ": 1228,
      "ä¸Ģç§į": 1229,
      "æĦıè¯Ĩ": 1230,
      "çĦ¶èĢĮ": 1231,
      "çİ©": 1232,
      "è¿ĲåĬ¨": 1233,
      "æķĪæŀľ": 1234,
      "èĬ±": 1235,
      "å¯¼èĩ´": 1236,
      "èĩªçĦ¶": 1237,
      "ä¹ĭéĹ´": 1238,
      "ç¨³å®ļ": 1239,
      "æĻĵ": 1240,
      "å¦Ī": 1241,
      "æİĮæı¡": 1242,
      "åŁºç¡Ģ": 1243,
      "çŁ³": 1244,
      "çĥŃ": 1245,
      "an": 1246,
      "ç»§ç»Ń": 1247,
      "åĩıå°ĳ": 1248,
      "åĤ": 1249,
      "çļĦæĬ": 1250,
      "ä»ĸä»¬çļĦ": 1251,
      "æ¼Ķ": 1252,
      "ĠĠĠĠĠĠĠ": 1253,
      "åĬĽéĩı": 1254,
      "ç¿": 1255,
      "å¥ĩ": 1256,
      "åĲĦç§į": 1257,
      "åıĭ": 1258,
      "å¤±": 1259,
      "åĩ»": 1260,
      "çº§": 1261,
      "åĽ´": 1262,
      "åĲ¯": 1263,
      "è´Ł": 1264,
      "de": 1265,
      "å¿ĥä¸Ń": 1266,
      "al": 1267,
      "çļĦæĮ": 1268,
      "å±Ĥ": 1269,
      "åĦ": 1270,
      "å¾Ģ": 1271,
      "éŁ³ä¹Ĳ": 1272,
      "åħħæ»¡äºĨ": 1273,
      "çĽ¸åħ³": 1274,
      "çĶ»": 1275,
      "çĮ®": 1276,
      "ä¸ºäºĨ": 1277,
      "èħ": 1278,
      "è¡¨çİ°": 1279,
      "åıĺåĮĸ": 1280,
      "ç¬¦": 1281,
      "åºĵ": 1282,
      "åĪĽæĸ°": 1283,
      "éģĩ": 1284,
      "ï¼ĮåĮħæĭ¬": 1285,
      "èŀį": 1286,
      "åŃ¦æľ¯": 1287,
      "æµ·": 1288,
      "ç´§": 1289,
      "è¡Įä¸º": 1290,
      "çļĦåŁºæľ¬": 1291,
      "èĳĹ": 1292,
      "ä¸ĢæŃ¥": 1293,
      "çļĦçłĶç©¶": 1294,
      "çļĦäºº": 1295,
      "ä¸ĸçķĮ": 1296,
      "å¾ģ": 1297,
      "å®ŀéªĮ": 1298,
      "ä½ľåĵģ": 1299,
      "åįı": 1300,
      "é¸": 1301,
      "çļĦåŃ¦ä¹ł": 1302,
      "åĲ«": 1303,
      "ï¼ģ": 1304,
      "åĽŃ": 1305,
      "çĭ¬çī¹": 1306,
      "ä½ĵéªĮ": 1307,
      "åħ´è¶£": 1308,
      "æĬ¥": 1309,
      "å¢ŀå¼º": 1310,
      "å±±": 1311,
      "å±Ģ": 1312,
      "éĩįè¦ģçļĦ": 1313,
      "as": 1314,
      "ä½ı": 1315,
      "éļľ": 1316,
      "ä¾Ŀ": 1317,
      "éĿ¢å¯¹": 1318,
      "ä¼łç»Ł": 1319,
      "éģ¿åħį": 1320,
      "äº«": 1321,
      "çļĦæł": 1322,
      "æĺŁ": 1323,
      "çļĦæĶ": 1324,
      "åĳĬ": 1325,
      "éĺħè¯»": 1326,
      "èĮĥ": 1327,
      "èĥĮæĻ¯": 1328,
      "ro": 1329,
      "æ¦Ĥå¿µ": 1330,
      "å¯Ł": 1331,
      "éĩĬ": 1332,
      "åĬ±": 1333,
      "åĲ¬": 1334,
      "ac": 1335,
      "æĿ¥è¯´": 1336,
      "è½½": 1337,
      "ä¸Ģå®ļ": 1338,
      "åĩĨå¤ĩ": 1339,
      "çļĦæĥ": 1340,
      "æ²¡æľī": 1341,
      "è´¢": 1342,
      "çĶŁäº§": 1343,
      "æĦıä¹ī": 1344,
      "ä¼°": 1345,
      "ç»Ļ": 1346,
      "å®¤": 1347,
      "ä»ĸçļĦ": 1348,
      "ãĢĤä»¥ä¸ĭ": 1349,
      "è¥": 1350,
      "ç»ĵæŀľ": 1351,
      "åħĭ": 1352,
      "ç»ĩ": 1353,
      "ï¼Įè®©": 1354,
      "æĸ°çļĦ": 1355,
      "è¥¿": 1356,
      "è¿ŀ": 1357,
      "th": 1358,
      "è´Ń": 1359,
      "å±ķç¤º": 1360,
      "ç¢": 1361,
      "æĿĲæĸĻ": 1362,
      "ï¼Įä¸įä»ħ": 1363,
      "æĬķèµĦ": 1364,
      "ic": 1365,
      "å±ŀ": 1366,
      "å¨": 1367,
      "çľ¼": 1368,
      "çĲĨè®º": 1369,
      "æ¸©": 1370,
      "æĿİæĺİ": 1371,
      "æĬĢå·§": 1372,
      "åĸĦ": 1373,
      "æĦŁåĪ°": 1374,
      "å²": 1375,
      "å¿ħ": 1376,
      "å®īè£ħ": 1377,
      "åĨľä¸ļ": 1378,
      "åĽĽ": 1379,
      "ä¿ĥ": 1380,
      "é£İéĻ©": 1381,
      "éĻį": 1382,
      "åĦ¿": 1383,
      "æį¢": 1384,
      "å®ĮæĪĲ": 1385,
      "å¡": 1386,
      "çļĦå½±åĵį": 1387,
      "è¯Ħä¼°": 1388,
      "åľŁ": 1389,
      "è§ī": 1390,
      "åĽłä¸º": 1391,
      "ç§¯æŀģ": 1392,
      "ä»»åĬ¡": 1393,
      "çŃĶ": 1394,
      "å¢ŀåĬł": 1395,
      "è¿½": 1396,
      "åŃ¦æł¡": 1397,
      "æ³Ľ": 1398,
      "å®ļä¹ī": 1399,
      "åį³": 1400,
      "æĪĲéķ¿": 1401,
      "æ¸Ĳ": 1402,
      "å¼Ĥ": 1403,
      "å¤§çļĦ": 1404,
      "éĿŀå¸¸": 1405,
      "é¢ĳ": 1406,
      "```ĊĊ": 1407,
      "å¾·": 1408,
      "æĲ": 1409,
      "è®°å½ķ": 1410,
      "çģµ": 1411,
      "äº§çĶŁ": 1412,
      "ä»ĭ": 1413,
      "æļ": 1414,
      "åĽ½å®¶": 1415,
      "am": 1416,
      "ç»ıéªĮ": 1417,
      "è§Ĵèī²": 1418,
      "ä¼ĺåĮĸ": 1419,
      "åħ³æ³¨": 1420,
      "å¦Ĥæŀľ": 1421,
      "åĳ¨": 1422,
      "å°Ħ": 1423,
      "æİĴ": 1424,
      "éļıçĿĢ": 1425,
      "ä¸ĬçļĦ": 1426,
      "é¼": 1427,
      "åĶ": 1428,
      "èĹ": 1429,
      "åĪ¶å®ļ": 1430,
      "åĪĩ": 1431,
      "çĤ¹å¤´": 1432,
      "ï¼Įè¿ĻäºĽ": 1433,
      "åŁİå¸Ĥ": 1434,
      "å¹¿æ³Ľ": 1435,
      "ï¼Įè¿ĺèĥ½": 1436,
      "æĮī": 1437,
      "è®¸å¤ļ": 1438,
      "æĮģç»Ń": 1439,
      "è½¯": 1440,
      "ç¨ĭåºı": 1441,
      "Ġ`": 1442,
      "æĢ§èĥ½": 1443,
      "ä¸¥": 1444,
      "éĿĻ": 1445,
      "è§ĦåĪĴ": 1446,
      "ion": 1447,
      "åĲ¦": 1448,
      "çļĦæĥħ": 1449,
      "éĺ³": 1450,
      "æ¬¾": 1451,
      "æĹı": 1452,
      "æķĻç¨ĭ": 1453,
      "ç¦»": 1454,
      "å¸¦æĿ¥": 1455,
      "å¹³åı°": 1456,
      "æĥħåĨµ": 1457,
      "æĬĢèĥ½": 1458,
      "se": 1459,
      "è¯Ńè¨Ģ": 1460,
      "è®Ńç»ĥ": 1461,
      "æĸ¯": 1462,
      "ä¸´": 1463,
      "æŁĲ": 1464,
      "èµ°": 1465,
      "çłĶ": 1466,
      "æ²»çĸĹ": 1467,
      "lo": 1468,
      "åı¯èĥ½ä¼ļ": 1469,
      "çĶŁæĢģ": 1470,
      "åĲĪçĲĨ": 1471,
      "åĪ¶ä½ľ": 1472,
      "ç«ŀ": 1473,
      "æł¸": 1474,
      "ï¼Įåıª": 1475,
      "åŃ¦ä¼ļ": 1476,
      "ãĢĤä»ĸä»¬": 1477,
      "ç»ıåİĨ": 1478,
      "te": 1479,
      "åħ±åĲĮ": 1480,
      "çİ©å®¶": 1481,
      "èī¯å¥½": 1482,
      "çīĪ": 1483,
      "åºŃ": 1484,
      "ç»Ħç»ĩ": 1485,
      "è¯į": 1486,
      "ï¼Įå¸®åĬ©": 1487,
      "çħ§": 1488,
      "è¡¨è¾¾": 1489,
      "æ°´å¹³": 1490,
      "äº¤æµģ": 1491,
      "æķĻåŃ¦": 1492,
      "ä¿ĥè¿Ľ": 1493,
      "æİ¢ç´¢": 1494,
      "è¡¡": 1495,
      "å»ºè®®": 1496,
      "ï¼ĮåŃ¦çĶŁ": 1497,
      "å¾ħ": 1498,
      "æĭŁ": 1499,
      "åĭĩ": 1500,
      "è®¨è®º": 1501,
      "ï¼Įæ¯ı": 1502,
      "å±ħ": 1503,
      "æİĪ": 1504,
      "åĿĹ": 1505,
      "å¯»": 1506,
      "èµµ": 1507,
      "å·²ç»ı": 1508,
      "Ġ{": 1509,
      "åıĬåħ¶": 1510,
      "å¹²": 1511,
      "éĻ¢": 1512,
      "âĢĶ": 1513,
      "åĪĿ": 1514,
      "åºĶå¯¹": 1515,
      "å¤ļä¸ª": 1516,
      "åĽ°éļ¾": 1517,
      "ä½ĵçİ°": 1518,
      "æĥħæĦŁ": 1519,
      "çī¹çĤ¹": 1520,
      "èĻĳ": 1521,
      "æ¯ĶèµĽ": 1522,
      "èĽ": 1523,
      "è§£éĩĬ": 1524,
      "å·¥ç¨ĭ": 1525,
      "æİª": 1526,
      "åĤ¨": 1527,
      "ent": 1528,
      "ä»¤": 1529,
      "è¾¹": 1530,
      "äºĳ": 1531,
      "åĨį": 1532,
      "çīĮ": 1533,
      "ãĢĤæŃ¤å¤ĸ": 1534,
      "ç«ł": 1535,
      "åĬŀ": 1536,
      "ç®Ģåįķ": 1537,
      "å£«": 1538,
      "æĽ´å¥½åľ°çĲĨè§£": 1539,
      "åįĹ": 1540,
      "è®¡åĪĴ": 1541,
      "æĢ»ç»ĵ": 1542,
      "ç¬ĳçĿĢ": 1543,
      "åĪĽä½ľ": 1544,
      "ç±»åŀĭ": 1545,
      "åİŁçĲĨ": 1546,
      "åŃ©": 1547,
      "å»ºç«ĭ": 1548,
      "æī§": 1549,
      "èĹı": 1550,
      "ä¸Ģèµ·": 1551,
      "å°Ŀ": 1552,
      "æĸĩåŃ¦": 1553,
      "ç»ĵåĲĪ": 1554,
      "ä»½": 1555,
      "æĿ¡ä»¶": 1556,
      "ing": 1557,
      "å°½": 1558,
      "éĿĴ": 1559,
      "å¤ļæł·": 1560,
      "é²": 1561,
      "ç¨İ": 1562,
      "**Ċ": 1563,
      "Ġc": 1564,
      "Ġp": 1565,
      "éĢĲæ¸Ĳ": 1566,
      "è´£ä»»": 1567,
      "å®¶åºŃ": 1568,
      "çĶŁçī©": 1569,
      "çļĦæİ": 1570,
      "çļĦæĦ": 1571,
      "æľºä¼ļ": 1572,
      "çı": 1573,
      "åħ¨éĿ¢": 1574,
      "ï¼Įåħ¶": 1575,
      "è®²": 1576,
      "æĿ¾": 1577,
      "ä¸įä»ħä»ħ": 1578,
      "è¡Ģ": 1579,
      "ãĢĤå¥¹": 1580,
      "æĹ¥å¸¸": 1581,
      "åĿļå®ļ": 1582,
      "èº«ä½ĵ": 1583,
      "ï¼Įå°Ĩ": 1584,
      "çĭ¬çī¹çļĦ": 1585,
      "æİªæĸ½": 1586,
      "æĴŃ": 1587,
      "ç²¾ç¥ŀ": 1588,
      "çľĭçĿĢ": 1589,
      "å®³": 1590,
      "åł": 1591,
      "åħ³äºİ": 1592,
      "è¦ģæ±Ĥ": 1593,
      "æ¨¡å¼ı": 1594,
      "æ£ĢæŁ¥": 1595,
      "ãĢĤçĦ¶èĢĮ": 1596,
      "çĨ": 1597,
      "è®¾æĸ½": 1598,
      "è®¾ç½®": 1599,
      "è½¯ä»¶": 1600,
      "ç±³": 1601,
      "èĲ¥åħ»": 1602,
      "çļĦä¸Ģ": 1603,
      "åī§": 1604,
      "å¤ļç§į": 1605,
      "çļĦéĩįè¦ģæĢ§": 1606,
      "æĪ¿": 1607,
      "åĨĽ": 1608,
      "æ¹": 1609,
      "éĵ¶": 1610,
      "çł´": 1611,
      "è§Ĥå¯Ł": 1612,
      "éĿ©": 1613,
      "è°¢": 1614,
      "æıı": 1615,
      "åľ°è¯´": 1616,
      "ä¸°å¯ĮçļĦ": 1617,
      "èıľ": 1618,
      "éĺ¶": 1619,
      "im": 1620,
      "çļĦæī": 1621,
      "æħ§": 1622,
      "æĹħ": 1623,
      "ç«¯": 1624,
      "ä»£çłģ": 1625,
      "æĺ¯åĲ¦": 1626,
      "æīįèĥ½": 1627,
      "æĸ¹æ¡Ī": 1628,
      "ç¾¤": 1629,
      "æľºåĪ¶": 1630,
      "åĿļæĮģ": 1631,
      "éŃ": 1632,
      "äºĶ": 1633,
      "ç»į": 1634,
      "å°Ķ": 1635,
      "ä½įç½®": 1636,
      "è¿Ĳè¡Į": 1637,
      "é»Ħ": 1638,
      "å®¡": 1639,
      "ï¼ŁâĢĿĊĊ": 1640,
      "ge": 1641,
      "ç§ĳæĬĢ": 1642,
      "ãĢĤå®ĥ": 1643,
      "è´¡": 1644,
      "æĺł": 1645,
      "æ½": 1646,
      "å®ļæľŁ": 1647,
      "èĩªæĪĳ": 1648,
      "èİ·å¾Ĺ": 1649,
      "ï¼Įå¥¹": 1650,
      "æĿ¿": 1651,
      "é¥®": 1652,
      "æĺ¾èĳĹ": 1653,
      "é¡µ": 1654,
      "çĶŁæ´»ä¸Ń": 1655,
      "ç¼ĵ": 1656,
      "äº²": 1657,
      "ç§°": 1658,
      "åı¯ä»¥éĢļè¿ĩ": 1659,
      "æĤ£": 1660,
      "æĦıè¯ĨåĪ°": 1661,
      "åħ¶æ¬¡": 1662,
      "éĢŁåº¦": 1663,
      "é©¬": 1664,
      "ä»ĭç»į": 1665,
      "å¤§åŃ¦çĶŁ": 1666,
      "çĶµåŃĲ": 1667,
      "çļĦåŁºç¡Ģ": 1668,
      "å°Ŀè¯ķ": 1669,
      "è¯¯": 1670,
      "æŃ¢": 1671,
      "éħįç½®": 1672,
      "ä»¥åıĬ": 1673,
      "Ġ{Ċ": 1674,
      "ï¼Įå¯¹": 1675,
      "ä¸Ķ": 1676,
      "av": 1677,
      "ä»ª": 1678,
      "è¿Ļç§į": 1679,
      "æŁĵ": 1680,
      "çĦ¶åĲİ": 1681,
      "å½¢æĪĲ": 1682,
      "æĭī": 1683,
      "å»ºè®¾": 1684,
      "è´¡çĮ®": 1685,
      "æĬĹ": 1686,
      "æĶ¿çŃĸ": 1687,
      "åŃĺåľ¨": 1688,
      "äººçļĦ": 1689,
      "æ¨¡åŀĭ": 1690,
      "ï¼Ľ": 1691,
      "åĩºçİ°": 1692,
      "æ³¨æĦı": 1693,
      "ç»ĥä¹ł": 1694,
      "ï¼ĮâĢľ": 1695,
      "åºľ": 1696,
      "çľĭåĪ°": 1697,
      "ï¼Įä»¥åıĬ": 1698,
      "çļĦæ°": 1699,
      "éĻ¤": 1700,
      "åıĳçĶŁ": 1701,
      "åĽ½éĻħ": 1702,
      "åı¶": 1703,
      "åĽłæŃ¤": 1704,
      "æľīçĿĢ": 1705,
      "ï¼Įå°±": 1706,
      "è¾ĳ": 1707,
      "åĪĽå»º": 1708,
      ");Ċ": 1709,
      "ou": 1710,
      "ä¸Ģæ¬¡": 1711,
      "æ¤įçī©": 1712,
      "ï¼Įæĺ¯": 1713,
      "åĩºäºĨ": 1714,
      "è¶ħ": 1715,
      "è¿Ľä¸ĢæŃ¥": 1716,
      "é¡º": 1717,
      "åİĭåĬĽ": 1718,
      "ä¼ĺåĬ¿": 1719,
      "æ³¢": 1720,
      "ä¸ľ": 1721,
      "å®ĩ": 1722,
      "çŃĳ": 1723,
      "æĢĿèĢĥ": 1724,
      "å¤§éĩı": 1725,
      "çļĦåİĨåı²": 1726,
      "om": 1727,
      "ä¼¼": 1728,
      "å®ĺ": 1729,
      "èĭ±": 1730,
      "è¿ħ": 1731,
      "ç£": 1732,
      "åŁºæľ¬": 1733,
      "æİ¨åĬ¨": 1734,
      "è¶³çĲĥ": 1735,
      "½çĦ¶": 1736,
      "ãĢĤåĲĮæĹ¶": 1737,
      "å½©": 1738,
      "åĸľ": 1739,
      "åĨ²": 1740,
      "è¿½æ±Ĥ": 1741,
      "é¼ĵ": 1742,
      "ĠĠĠĠĠĠĠĠ": 1743,
      "éĶĢ": 1744,
      "èĨ": 1745,
      "æĭħ": 1746,
      "çĶµå½±": 1747,
      "åĢĻ": 1748,
      "èĤī": 1749,
      "ï¼Įä¸į": 1750,
      "åħĥç´ł": 1751,
      "ĠS": 1752,
      "åĩłä¸ª": 1753,
      "åª": 1754,
      "å¥³": 1755,
      "é£ŀ": 1756,
      "å¤ª": 1757,
      "å°ıæĺİ": 1758,
      "æĻ¨": 1759,
      "åŃ©åŃĲ": 1760,
      "è´µ": 1761,
      "æī§è¡Į": 1762,
      "èĻ½çĦ¶": 1763,
      "åıĹåĪ°": 1764,
      "æĺİçĻ½": 1765,
      "æĳĦ": 1766,
      "åĽ¾åĥı": 1767,
      "æĮ¥": 1768,
      "ï¼ĮæĤ¨": 1769,
      "è¿ĳ": 1770,
      "è¡Įä¸ļ": 1771,
      "åį´": 1772,
      "æķĻæİĪ": 1773,
      "éĢĤåºĶ": 1774,
      "çļĦåľ°": 1775,
      "éĢĤåĲĪ": 1776,
      "èĩ³åħ³": 1777,
      "çļĦåħ³éĶ®": 1778,
      "äºĴåĬ¨": 1779,
      "åĽº": 1780,
      "ç¼º": 1781,
      "ç»´æĬ¤": 1782,
      "è®¿": 1783,
      "çº¦": 1784,
      "çļĦæĮĳæĪĺ": 1785,
      "æĹłæ³ķ": 1786,
      "é¾": 1787,
      "es": 1788,
      "ï¼ĮåĲĮæĹ¶": 1789,
      "ä¹ĭéĹ´çļĦ": 1790,
      "æķĻå¸Ī": 1791,
      "el": 1792,
      "ç§»": 1793,
      "å»ºçŃĳ": 1794,
      "çī¹å¾ģ": 1795,
      "ap": 1796,
      "çļĦçľ": 1797,
      "ä½Ľ": 1798,
      "åĽłç´ł": 1799,
      "ŁéĢļ": 1800,
      "æľĪ": 1801,
      "åĲ¸å¼ķ": 1802,
      "ï¼Įå¿ĥä¸Ń": 1803,
      "åİļ": 1804,
      "åĵģçīĮ": 1805,
      "è®¡ç®Ĺæľº": 1806,
      "ä»ĺ": 1807,
      "æĸĹ": 1808,
      "è¯¢": 1809,
      "çļĦç¤": 1810,
      "åĩĨç¡®": 1811,
      "å¿«éĢŁ": 1812,
      "çļĦæĬĢ": 1813,
      "æ³ķå¾ĭ": 1814,
      "åĿĩ": 1815,
      "ï¼ĮäºĨè§£": 1816,
      "å¸¸è§ģ": 1817,
      "åıĸå¾Ĺ": 1818,
      "æľĭ": 1819,
      "ç¯": 1820,
      "éĺ¶æ®µ": 1821,
      "Â·": 1822,
      "åĪ¤": 1823,
      "å°¤": 1824,
      "æ·±åĪ»": 1825,
      "æĻ®": 1826,
      "çªģçĦ¶": 1827,
      "éļĲ": 1828,
      "éĶĻ": 1829,
      "çļĦçĶŁæ´»": 1830,
      "//": 1831,
      "å®Ī": 1832,
      "çĹĩ": 1833,
      "çĽ´æİ¥": 1834,
      "æĶ¿åºľ": 1835,
      "ç³»åĪĹ": 1836,
      "çļĦæ·": 1837,
      "æŀ¶": 1838,
      "æłĳ": 1839,
      "è¯»èĢħ": 1840,
      "ä¿Ŀéļľ": 1841,
      "æ»¡è¶³": 1842,
      "æľĭåıĭ": 1843,
      "æĺİç¡®": 1844,
      "èĢĲ": 1845,
      "ä½łçļĦ": 1846,
      "ç±į": 1847,
      "çİ°è±¡": 1848,
      "é£İæł¼": 1849,
      "è¿ŀæİ¥": 1850,
      "å¾®ç¬ĳçĿĢ": 1851,
      "¾çĹħ": 1852,
      "éħĴ": 1853,
      "ĠĠĊ": 1854,
      "çĸĳ": 1855,
      "æ²³": 1856,
      "åľºæĻ¯": 1857,
      "éĵģ": 1858,
      "åªĴ": 1859,
      "ä¸Ģå¤©": 1860,
      "æĭį": 1861,
      "åĨ³çŃĸ": 1862,
      "åŃĺåĤ¨": 1863,
      "ï¼ĮæĽ´æĺ¯": 1864,
      "éĺ¿": 1865,
      "èĤ¡": 1866,
      "é«ĺæķĪ": 1867,
      "ç«ŀäºī": 1868,
      "äºĨä¸Ģä¸ª": 1869,
      "åħ¨çĲĥ": 1870,
      "éĻįä½İ": 1871,
      "is": 1872,
      "äº¤éĢļ": 1873,
      "ä½³": 1874,
      "æŃ£ç¡®": 1875,
      "åĮĹ": 1876,
      "åľ°åĮº": 1877,
      "çī¹åĪ«": 1878,
      "æıŃ": 1879,
      "å°Ĭ": 1880,
      "åº¦åĴĮ": 1881,
      "æ¶Īè´¹": 1882,
      "æĤ£èĢħ": 1883,
      "åºĶè¯¥": 1884,
      "è¿ħéĢŁ": 1885,
      "ï¼ļ**Ċ": 1886,
      "ct": 1887,
      "ç¬Ķ": 1888,
      "å³": 1889,
      "æĢ¥": 1890,
      "æīĢæľī": 1891,
      "ä¸ĭæĿ¥": 1892,
      "æ²ī": 1893,
      "äº§ä¸ļ": 1894,
      "çŁŃ": 1895,
      "ç»¼": 1896,
      "æľĢç»Ī": 1897,
      "çĽ¸ä¿¡": 1898,
      "ä¹¦æ³ķ": 1899,
      "åıĤæķ°": 1900,
      "èĴ": 1901,
      "èĽĭ": 1902,
      "ï¼Įéģ¿åħį": 1903,
      "çļĦæ¸": 1904,
      "æĹ¨": 1905,
      "åįļ": 1906,
      "ï¼ĮæľīåĬ©äºİ": 1907,
      "çļĦæĸ¹æ³ķ": 1908,
      "ç¼ĸç¨ĭ": 1909,
      "è¿ĽæŃ¥": 1910,
      "¹ģ": 1911,
      "ï¼ĮçĦ¶åĲİ": 1912,
      "æ¶µ": 1913,
      "ch": 1914,
      "æĶ¿æ²»": 1915,
      "é»ĺ": 1916,
      "æĢ»ä¹ĭ": 1917,
      "å¦Īå¦Ī": 1918,
      "é¼ĵåĬ±": 1919,
      "å·®": 1920,
      "ä¹°": 1921,
      "çĸ¾çĹħ": 1922,
      "çļĦæ·±": 1923,
      "ä¸įåĲĮçļĦ": 1924,
      "æĹ¶æľŁ": 1925,
      "æľĢåĲİ": 1926,
      "ï¼ģâĢĿ": 1927,
      "æĻºèĥ½": 1928,
      "å·¨": 1929,
      "èĲ½": 1930,
      "ä¾ĭåŃĲ": 1931,
      "éķľ": 1932,
      "é¦Ĩ": 1933,
      "å®ĥä»¬": 1934,
      "çī¹å®ļ": 1935,
      "åīĤ": 1936,
      "ç§ĺå¯Ĩ": 1937,
      "ç»¿": 1938,
      "åªĴä½ĵ": 1939,
      "è®¤è¯Ĩ": 1940,
      "Ġ<": 1941,
      "æĪĲæŀľ": 1942,
      "çģ«": 1943,
      "¦æĥ³": 1944,
      "èįī": 1945,
      "åıĮ": 1946,
      "åĨ·": 1947,
      "çļĦæ¯": 1948,
      "éŁ": 1949,
      "åį±": 1950,
      "èĢĥèĻĳ": 1951,
      "åıĪ": 1952,
      "å¾Ħ": 1953,
      "çļĦåºĶçĶ¨": 1954,
      "è¿ĲçĶ¨": 1955,
      "çļĦæł¸": 1956,
      "æľ¬åįķåħĥ": 1957,
      "çļĦçĥ": 1958,
      "çļĦå·¥ä½ľ": 1959,
      "åĪĽéĢł": 1960,
      ">Ċ": 1961,
      "å½¢å¼ı": 1962,
      "çĥĪ": 1963,
      "ï¼Įèĥ½å¤Ł": 1964,
      "æµĭè¯ķ": 1965,
      "ãĢĤé¦ĸåħĪ": 1966,
      "äººä»¬": 1967,
      "åı¤ä»£": 1968,
      "åıįæĢĿ": 1969,
      "Ġ}": 1970,
      "æī©": 1971,
      "é»ĳ": 1972,
      "è§Ī": 1973,
      "åıĳæĮ¥": 1974,
      "åº§": 1975,
      "åºĹ": 1976,
      "()": 1977,
      "ï¼Įä¸Ģ": 1978,
      "è¯ī": 1979,
      "ad": 1980,
      "ri": 1981,
      "åįģ": 1982,
      "è¡¨ç¤º": 1983,
      "éħ¸": 1984,
      "åıįåºĶ": 1985,
      "Ġåľ¨": 1986,
      "è¯ļ": 1987,
      "ç»ĦæĪĲ": 1988,
      "int": 1989,
      "ç¥ŀç§ĺ": 1990,
      "ï¼Įå®ŀçİ°": 1991,
      "æĹłè®º": 1992,
      "èĢģå¸Ī": 1993,
      "æĹ¨åľ¨": 1994,
      "æĽ²": 1995,
      "yth": 1996,
      "çļĦæķħäºĭ": 1997,
      "æĪĲæľ¬": 1998,
      "åħ¸": 1999,
      "ä¼łæī¿": 2000,
      "åıĤåĬł": 2001,
      "åĲ¯ç¤º": 2002,
      "ython": 2003,
      "çķĻ": 2004,
      "åĳ½ä»¤": 2005,
      "ï¼Įæľī": 2006,
      "çº¢": 2007,
      "åĩ½": 2008,
      "é¢Ŀ": 2009,
      "åĲĪéĢĤ": 2010,
      "æ¯ıä¸ª": 2011,
      "è´Łè´£": 2012,
      "åĪĨäº«": 2013,
      "é²ľ": 2014,
      "æĪĲå°±": 2015,
      "éģĹ": 2016,
      "æľªæĿ¥çļĦ": 2017,
      "åį«": 2018,
      "äººç±»": 2019,
      "éķĩ": 2020,
      "æ³¨éĩį": 2021,
      "çļĦæł¸å¿ĥ": 2022,
      "ĠC": 2023,
      "é¦Ļ": 2024,
      "åĴĮç¤¾ä¼ļ": 2025,
      "ç³»ç»ŁçļĦ": 2026,
      "éĤ£äºĽ": 2027,
      "åĽŀçŃĶ": 2028,
      "ç¿»": 2029,
      "æĸ¹åĲĳ": 2030,
      "å¯»æī¾": 2031,
      "ä¸ŃçļĦåºĶçĶ¨": 2032,
      "èİ·åıĸ": 2033,
      "åŁ¹è®Ń": 2034,
      "çĬ¶æĢģ": 2035,
      "æįŁ": 2036,
      "ï¼Įä½¿å¾Ĺ": 2037,
      "ht": 2038,
      "çĶŁæĪĲ": 2039,
      "ä½¿å¾Ĺ": 2040,
      "çĤ¹äºĨ": 2041,
      "å¿Ĩ": 2042,
      "å¹³è¡¡": 2043,
      "ue": 2044,
      "ãĢĤæĿİ": 2045,
      "çİ°å®ŀ": 2046,
      "æľºæŀĦ": 2047,
      "id": 2048,
      "è¯ĨåĪ«": 2049,
      "çĤ¹äºĨçĤ¹å¤´": 2050,
      "ä¸½": 2051,
      "æĢĿç»´": 2052,
      "å©": 2053,
      "éĿ¢ä¸´": 2054,
      "ä¼łæĴŃ": 2055,
      "èĻ«": 2056,
      "éĩĳèŀį": 2057,
      "æĽ´å¤ļçļĦ": 2058,
      "çļĦæĻ": 2059,
      "åĩ½æķ°": 2060,
      "çļĦæ²": 2061,
      "åıĬæĹ¶": 2062,
      "æĺ¯åľ¨": 2063,
      "äººåĳĺ": 2064,
      "åıĺå¾Ĺ": 2065,
      "ĠP": 2066,
      "è´¢åĬ¡": 2067,
      "å¨ģ": 2068,
      "çľŁæŃ£": 2069,
      "ç¦ı": 2070,
      "æ¯Ĵ": 2071,
      "æ±ĩ": 2072,
      "é¡»": 2073,
      "è¿Ļæł·": 2074,
      "é±": 2075,
      "ãĢĤè¿Ļä¸Ģ": 2076,
      "ï¼ĮéľĢè¦ģ": 2077,
      "ame": 2078,
      "ä¸¾": 2079,
      "åĪĺ": 2080,
      "åĲĹ": 2081,
      "èĻļ": 2082,
      "äºĭä»¶": 2083,
      "ava": 2084,
      "**ï¼ļĊĊ": 2085,
      "æĺ¯æĮĩ": 2086,
      "éĢĴ": 2087,
      "ä¸ĩ": 2088,
      "çº³": 2089,
      "Ġn": 2090,
      "æķ£": 2091,
      "ç¡®å®ļ": 2092,
      "åı¯ä»¥å¸®åĬ©": 2093,
      "ä¹ĭä¸Ģ": 2094,
      "åħ·å¤ĩ": 2095,
      "éķ¿æľŁ": 2096,
      "çļĦæŃ": 2097,
      "èµĦæĸĻ": 2098,
      "æ¶ī": 2099,
      "éģĩåĪ°": 2100,
      "ï¼Įå¼ł": 2101,
      "ç¤¼": 2102,
      "æĿ°": 2103,
      "åºĦ": 2104,
      "å¿ħé¡»": 2105,
      "åºķ": 2106,
      "çĽĸ": 2107,
      "åĬ¨æĢģ": 2108,
      "èĥ½åĬĽåĴĮ": 2109,
      "çĨŁ": 2110,
      "ï¼Įåĩıå°ĳ": 2111,
      "çĲĨå¿µ": 2112,
      "å±ķçİ°": 2113,
      "åıįæĺł": 2114,
      "ä»¿": 2115,
      "åĿĲ": 2116,
      "å®¢æĪ·": 2117,
      "çļĦç²": 2118,
      "äº®": 2119,
      "çĶļ": 2120,
      "ç¤¾äº¤": 2121,
      "æķ´ä¸ª": 2122,
      "éĥ½æľī": 2123,
      "ç»Īäºİ": 2124,
      "å¯¹è±¡": 2125,
      "åĵ²": 2126,
      "æ¥": 2127,
      "åĮ»åŃ¦": 2128,
      "åĮ»çĶŁ": 2129,
      "ä¸Ŀ": 2130,
      "æĻºæħ§": 2131,
      "è®¿éĹ®": 2132,
      "ser": 2133,
      "å·ŀ": 2134,
      "æĶ¹åĸĦ": 2135,
      "çļĦç¤¾": 2136,
      "ï¼ĮæıĲåįĩ": 2137,
      "ç§įæ¤į": 2138,
      "æĺ¯ä¸ĢäºĽ": 2139,
      "èī¯å¥½çļĦ": 2140,
      "é¥®é£Ł": 2141,
      "æ½ľ": 2142,
      "èµ·æĿ¥": 2143,
      "ub": 2144,
      "ä»Ĭ": 2145,
      "åĿļå®ŀ": 2146,
      "----": 2147,
      "åħĪçĶŁ": 2148,
      "æĹ©": 2149,
      "ç½ĳç«Ļ": 2150,
      "ä¸Ńå¿ĥ": 2151,
      "åŃ¦ä¹łåĴĮ": 2152,
      "ç²ī": 2153,
      "åŃ¦çĶŁçļĦ": 2154,
      "æ¶¯": 2155,
      "åĮ»çĸĹ": 2156,
      "æ±Ł": 2157,
      "éĵ¶è¡Į": 2158,
      "èµĸ": 2159,
      "å¤§åŃ¦": 2160,
      "æ¬¢": 2161,
      "èĪŀ": 2162,
      "çĶļèĩ³": 2163,
      "çī©è´¨": 2164,
      "ç©ºéĹ´": 2165,
      "ä¹İ": 2166,
      "èĮĥåĽ´": 2167,
      "æ²¹": 2168,
      "èıĮ": 2169,
      "å°Ĭéĩį": 2170,
      "å®ŀæĸ½": 2171,
      "åĨľæĿĳ": 2172,
      "è¯ĳ": 2173,
      "çĶŁæ¶¯": 2174,
      "èĩªåĬ¨": 2175,
      "åĮĸåŃ¦": 2176,
      "ç¡¬": 2177,
      "æķ´ä½ĵ": 2178,
      "æĭ¥": 2179,
      "æ²ŁéĢļ": 2180,
      "xt": 2181,
      "é¾Ļ": 2182,
      "Ġre": 2183,
      "è¯Ĺ": 2184,
      "å¹¶ä¸į": 2185,
      "ä¹¡": 2186,
      "ç»ıè¿ĩ": 2187,
      "çĽ®çļĦ": 2188,
      "çģµæ´»": 2189,
      "ï¼Įä¸Ģä¸ª": 2190,
      "çļĦæķ°æį®": 2191,
      "éĩĩåıĸ": 2192,
      "çļĦæĦı": 2193,
      "ç»¼åĲĪ": 2194,
      "æĿĳæ°ĳ": 2195,
      "åĨħéĥ¨": 2196,
      "çīĪæľ¬": 2197,
      "ç¹ģ": 2198,
      "ä»¥ä¸Ĭ": 2199,
      "çľģ": 2200,
      "ä¸»é¢ĺ": 2201,
      "ç»ĺ": 2202,
      "éľ²": 2203,
      "åİŁåĪĻ": 2204,
      "ãĢĤæĪĳä»¬": 2205,
      "åģĩ": 2206,
      "é¢Ĩå¯¼": 2207,
      "æĺ¾ç¤º": 2208,
      "çļ®": 2209,
      "ä¼¤": 2210,
      "#####": 2211,
      "oo": 2212,
      "çļĦæĥħæĦŁ": 2213,
      "ä¸įåı¯": 2214,
      "æ¶²": 2215,
      "Ġf": 2216,
      "é±¼": 2217,
      "çļĦæ³": 2218,
      "do": 2219,
      "Ġ\"": 2220,
      "ï¼Įå¦Ĥæŀľ": 2221,
      "çļĦçĶŁ": 2222,
      "et": 2223,
      "åį¡": 2224,
      "åĪĨç±»": 2225,
      "èĮ¶": 2226,
      "åı¯æĮģç»Ń": 2227,
      "è´§": 2228,
      "éĩįæĸ°": 2229,
      "æ®ĸ": 2230,
      "åĵ²åŃ¦": 2231,
      "åľ°ä½į": 2232,
      "æĶ»": 2233,
      "éģĵè·¯": 2234,
      "ä¹¦ç±į": 2235,
      "äºļ": 2236,
      "æĿŁ": 2237,
      "éĹª": 2238,
      "è¯´éģĵ": 2239,
      "å¥ĭ": 2240,
      "éģĵå¾·": 2241,
      "æ¶Īè´¹èĢħ": 2242,
      "éĩĩçĶ¨": 2243,
      "ï¼Įåıªè¦ģ": 2244,
      "åı«": 2245,
      "æĥĬ": 2246,
      "æ¨¡æĭŁ": 2247,
      "çĲĥåĳĺ": 2248,
      "ä»£è¡¨": 2249,
      "å¥¥": 2250,
      "ä¸įä»ħä»ħæĺ¯": 2251,
      "ä¾Ŀèµĸ": 2252,
      "ãĢĤæĪĳ": 2253,
      "éĨ": 2254,
      "çļĦçĲĨè§£": 2255,
      "å¾ĹåĪ°": 2256,
      "æī¾åĪ°äºĨ": 2257,
      "èĩ³åħ³éĩįè¦ģ": 2258,
      "ãĢĤèĢĮ": 2259,
      "çĶ±äºİ": 2260,
      "æĬĺ": 2261,
      "è¿Ľåħ¥": 2262,
      "æ´ģ": 2263,
      "ate": 2264,
      "æ·»": 2265,
      "çļĦçŁ¥": 2266,
      "éº": 2267,
      "çļĦç¬": 2268,
      "æ¶īåıĬ": 2269,
      "ä¿¡åı·": 2270,
      "å½ĵåľ°": 2271,
      "un": 2272,
      "èĥľ": 2273,
      "ç¼©": 2274,
      "ç»ª": 2275,
      "æİ¥ä¸ĭæĿ¥": 2276,
      "èģĶç³»": 2277,
      "èµĦéĩĳ": 2278,
      "ring": 2279,
      "åĬĽåĴĮ": 2280,
      "èį£": 2281,
      "æŃĮ": 2282,
      "ç¤¾åĮº": 2283,
      "èĦĳ": 2284,
      "å³°": 2285,
      "æŃ¦": 2286,
      "å¹´è½»": 2287,
      "èģļ": 2288,
      "çļĦå®īåħ¨": 2289,
      "ç»©": 2290,
      "æķ°åŃ¦": 2291,
      "ç«¥": 2292,
      "å°ģ": 2293,
      "è¿Ļæ¬¡": 2294,
      "è®¤ä¸º": 2295,
      "é¡¾": 2296,
      "å¤ľ": 2297,
      "æĢ§çļĦ": 2298,
      "å¥½å¥ĩ": 2299,
      "æĪĲåĳĺ": 2300,
      "å±ħæ°ĳ": 2301,
      "ç»ĨèĬĤ": 2302,
      "age": 2303,
      "è·¨": 2304,
      "å¥ı": 2305,
      "ç§ĳçłĶ": 2306,
      "çļĦçĥŃ": 2307,
      "å®ŀéĻħåºĶçĶ¨": 2308,
      "Re": 2309,
      "æĪĳä»¬çļĦ": 2310,
      "æĿ¨": 2311,
      "å®ŀä¾ĭ": 2312,
      "è®¢": 2313,
      "éĿł": 2314,
      "è¡ĮåĬ¨": 2315,
      "æ¯į": 2316,
      "éĵ¾": 2317,
      "è¯¾ç¨ĭåįķåħĥ": 2318,
      "åħħåĪĨ": 2319,
      "æĥ¯": 2320,
      "æłĩåĩĨ": 2321,
      ")Ċ": 2322,
      "å¼ĥ": 2323,
      "åı¯ä»¥åľ¨": 2324,
      "æ¿Ģåıĳ": 2325,
      "ï¼Įä¹Łä¸º": 2326,
      "è¾ĵåħ¥": 2327,
      "ï¼Įè¿Ļä¸ª": 2328,
      "æĽ´æĸ°": 2329,
      "åı¥": 2330,
      "åĪĨå¸ĥ": 2331,
      "æµģç¨ĭ": 2332,
      "å£°éŁ³": 2333,
      "åĮħåĲ«": 2334,
      "èģĮä¸ļåıĳå±ķ": 2335,
      "åĶ®": 2336,
      "çļĦéĹ®é¢ĺ": 2337,
      "æľįåĬ¡åĻ¨": 2338,
      "çº·": 2339,
      "é«ĺçļĦ": 2340,
      "åĨħå¿ĥ": 2341,
      "åħ¬åħ±": 2342,
      "åİ¿": 2343,
      "æ¨¡åĿĹ": 2344,
      "å½¢è±¡": 2345,
      "æ·±åħ¥æİ¢è®¨": 2346,
      "ï¼Įéĥ½": 2347,
      "ä»·æł¼": 2348,
      "éĴĪ": 2349,
      "ç§ģ": 2350,
      "äº¤æĺĵ": 2351,
      "éĴŁ": 2352,
      "åĬ¨ä½ľ": 2353,
      "çī©çĲĨ": 2354,
      "ä¸Ģä½į": 2355,
      "èª": 2356,
      "èĦļ": 2357,
      "ï¼Įä»ĸçļĦ": 2358,
      "åģļåĩº": 2359,
      "lic": 2360,
      "Ġ|": 2361,
      "æĦ¿": 2362,
      "æĶ¹åıĺ": 2363,
      "æķ°åŃĹ": 2364,
      "ä¹łæĥ¯": 2365,
      "è¿·": 2366,
      "åı¦": 2367,
      "¢å¤į": 2368,
      "âĢĿï¼Į": 2369,
      "åĪļ": 2370,
      "åĬ³": 2371,
      "è¡¥": 2372,
      "é¢ľ": 2373,
      "è§Ĩé¢ĳ": 2374,
      "ä¸ļåĬ¡": 2375,
      "ä¸įä»ħæĺ¯": 2376,
      "ï¼Įä¸ŃåŃ¦çĶŁ": 2377,
      "åĲİçļĦ": 2378,
      "ä¼Ł": 2379,
      "æ´ŀ": 2380,
      "è´Ńä¹°": 2381,
      "éĹ»": 2382,
      "å°¤åħ¶": 2383,
      "åŃ£": 2384,
      "éĶĻè¯¯": 2385,
      "ï¼ĮæĪĳä»¬å°Ĩ": 2386,
      "ãĢĤä»ĸçļĦ": 2387,
      "¹é¥": 2388,
      "äº¬": 2389,
      "è®°å¿Ĩ": 2390,
      "åķĨä¸ļ": 2391,
      "ä½ĵç³»": 2392,
      "åĮĸçļĦ": 2393,
      "é¦Ī": 2394,
      "åİŁåĽł": 2395,
      "çŁ¿": 2396,
      "¤Ĳ": 2397,
      "åħ·æľīéĩįè¦ģ": 2398,
      "¹é¥ª": 2399,
      "±ä¹Ĳ": 2400,
      "æĢİ": 2401,
      "âĢĶâĢĶ": 2402,
      "èªī": 2403,
      "ç´łè´¨": 2404,
      "çļĦæı": 2405,
      "èµı": 2406,
      "ãĢĤè¿Ļä¸ª": 2407,
      "çĶ·": 2408,
      "Ġs": 2409,
      "å¼ķè¨Ģ": 2410,
      "å®Ŀè´µ": 2411,
      "æĭ¥æľī": 2412,
      "ï¼ĮæĪĲä¸º": 2413,
      "åĴĮè°": 2414,
      "çĹĽ": 2415,
      "çļĦç²¾": 2416,
      "ï¼Įæīįèĥ½": 2417,
      "ç®Ĺæ³ķ": 2418,
      "ãĢĤä»¥ä¸ĭæĺ¯ä¸ĢäºĽ": 2419,
      "è½¬æį¢": 2420,
      "è§¦": 2421,
      "äººæ°ĳ": 2422,
      "éľĩ": 2423,
      "ï¼Įè¿Ļç§į": 2424,
      "åĨ²çªģ": 2425,
      "ãĢĤå¦Ĥæŀľ": 2426,
      "æĶ¶åħ¥": 2427,
      "æ°§": 2428,
      "ä¸įä»ħèĥ½å¤Ł": 2429,
      "ï¼Įçľ¼": 2430,
      "åĴĮæĸĩåĮĸ": 2431,
      "éĢģ": 2432,
      "æĻļ": 2433,
      "çºª": 2434,
      "è¾ĵåĩº": 2435,
      "æĢĿæĥ³": 2436,
      "ï¼Įå°ı": 2437,
      "æ±ī": 2438,
      "å¼ºè°ĥ": 2439,
      "æĮĩå¯¼": 2440,
      "æĢĢ": 2441,
      "è¯ķåĽ¾": 2442,
      "ï¼ĮåĽłä¸º": 2443,
      "è´¥": 2444,
      "æ±½": 2445,
      "æĦıåĳ³": 2446,
      "è®©ä»ĸ": 2447,
      "ä»»ä½ķ": 2448,
      "å±ķç¤ºäºĨ": 2449,
      "è¿ĻéĩĮ": 2450,
      "ä¸įèĥ½": 2451,
      "çīĽ": 2452,
      "æĦıåĳ³çĿĢ": 2453,
      "çĶ³": 2454,
      "è§Ĥä¼Ĺ": 2455,
      "tp": 2456,
      "åĳĬè¯ī": 2457,
      "åĦ¿ç«¥": 2458,
      "he": 2459,
      "çļĦæµ": 2460,
      "å¯¹è¯Ŀ": 2461,
      ".c": 2462,
      "å¸ĥå±Ģ": 2463,
      "åĲĮåŃ¦": 2464,
      "ä»į": 2465,
      "çļĦä¸»è¦ģ": 2466,
      "éĢĶ": 2467,
      "å¾ª": 2468,
      "å¾ĹåĪ°äºĨ": 2469,
      "æ¬£": 2470,
      "çĽ¸å¯¹": 2471,
      "åıįé¦Ī": 2472,
      "Ġm": 2473,
      "ä¼ļè®®": 2474,
      "åĪ¶åº¦": 2475,
      "çĦ¦": 2476,
      "åľ¨äºİ": 2477,
      "ä¸¤ä¸ª": 2478,
      "æķ¬": 2479,
      "æģ¢å¤į": 2480,
      "çļĦçŁ¥è¯Ĩ": 2481,
      "æĬĬ": 2482,
      "ç»ıæµİåıĳå±ķ": 2483,
      "æııè¿°": 2484,
      "æľ¨": 2485,
      "çĶŁåĳ½": 2486,
      "æĮīçħ§": 2487,
      "éªĮè¯ģ": 2488,
      "åį°": 2489,
      "åĮºåŁŁ": 2490,
      "éĺ²æŃ¢": 2491,
      "ut": 2492,
      "è¿¹": 2493,
      "çĶ°": 2494,
      "é¥°": 2495,
      "é¢Ħéĺ²": 2496,
      "pt": 2497,
      "çļĦå°ı": 2498,
      "çļĦåħ´è¶£": 2499,
      "ãĢĤä»¥ä¸ĭæĺ¯": 2500,
      "ï¼ĮéĤ£": 2501,
      "ä»ĸäºº": 2502,
      "åĴĮè°Ĳ": 2503,
      "èĪª": 2504,
      "èĽĭçĻ½": 2505,
      "ç¥¨": 2506,
      "æĺ¥": 2507,
      "æľ¬ä¹¦": 2508,
      "æĪĺæĸĹ": 2509,
      "ç´§å¼ł": 2510,
      "å·´": 2511,
      "æĶ¾å¼ĥ": 2512,
      "çĭ¬ç«ĭ": 2513,
      "ï¼Īå¦Ĥ": 2514,
      "ur": 2515,
      "åĳĺå·¥": 2516,
      "ç»Ħä»¶": 2517,
      "çĵ": 2518,
      "éĻĦ": 2519,
      "çľŁçļĦ": 2520,
      "çļĦæ¦Ĥå¿µ": 2521,
      "çĽĺ": 2522,
      "å¥ĸ": 2523,
      "ç¤ºä¾ĭ": 2524,
      "å°½ç®¡": 2525,
      "éĤ®": 2526,
      "ï¼Įå¿ĥä¸Ńåħħæ»¡äºĨ": 2527,
      "éĢ»": 2528,
      "æīĭæ®µ": 2529,
      "åºĬ": 2530,
      "ï¼ĮæĪĳä»¬éľĢè¦ģ": 2531,
      "å®ŀéªĮå®¤": 2532,
      "éĢı": 2533,
      "å¼ķèµ·": 2534,
      "æĶ¶éĽĨ": 2535,
      "è§£åĨ³éĹ®é¢ĺ": 2536,
      "èģĮä¸ļçĶŁæ¶¯": 2537,
      "é¤Ĳ": 2538,
      "ç³ĸ": 2539,
      "ä¼łéĢĴ": 2540,
      "åĲĪéĢĤçļĦ": 2541,
      "æ·»åĬł": 2542,
      "çļĦçľŁ": 2543,
      "ig": 2544,
      "il": 2545,
      "æĢİä¹Ī": 2546,
      "ç»ĵæĿŁ": 2547,
      "è´¦": 2548,
      "è±Ĩ": 2549,
      "æīĭæľº": 2550,
      "ï¼Įä¸įæĸŃ": 2551,
      "ï¼ĮåŁ¹åħ»": 2552,
      "èµŀ": 2553,
      "çĸ«": 2554,
      "æĪĲåĪĨ": 2555,
      "è½´": 2556,
      "æĶ¹è¿Ľ": 2557,
      "é¸Ł": 2558,
      "pe": 2559,
      "ud": 2560,
      "æ°ĳæĹı": 2561,
      "ver": 2562,
      "åĬłåħ¥": 2563,
      "ï¼Įä½Ĩä»ĸ": 2564,
      "Ġ//": 2565,
      "ï¼ĮçĶļèĩ³": 2566,
      "é«ĺåº¦": 2567,
      "çĪ¶": 2568,
      "ï¼Įå½ĵ": 2569,
      "éĩİ": 2570,
      "æ¢ħ": 2571,
      "ä¸ºä»Ģä¹Ī": 2572,
      "è°ĥæŁ¥": 2573,
      "éĢļè¿ĩä»¥ä¸Ĭ": 2574,
      "æĥĳ": 2575,
      "èį¯çī©": 2576,
      "ç¯ĩ": 2577,
      "éĩįè¦ģæĢ§": 2578,
      "åĢŁ": 2579,
      "ä»¥ä¸ĭåĩłä¸ª": 2580,
      "è®ºæĸĩ": 2581,
      "æ¢°": 2582,
      "åĽ¢éĺŁåĲĪä½ľ": 2583,
      "ľç´¢": 2584,
      "ck": 2585,
      "ä¸įæĺ¯": 2586,
      "çº¸": 2587,
      "æ®Ĭ": 2588,
      "ãĢĤæ¯ı": 2589,
      "éģµ": 2590,
      "if": 2591,
      "éĢ»è¾ĳ": 2592,
      "éĢ¸": 2593,
      "éĿ©åĳ½": 2594,
      "ç£ģ": 2595,
      "èī²å½©": 2596,
      "ãĢĤåĽłæŃ¤": 2597,
      "Ġt": 2598,
      "åĳ¢": 2599,
      "åĬłå¼º": 2600,
      "çī¹æ®Ĭ": 2601,
      "æŀĦå»º": 2602,
      "çĬ¶åĨµ": 2603,
      "çĩ": 2604,
      "æĪĲç»©": 2605,
      "æ·±åħ¥çłĶç©¶": 2606,
      "æ±ł": 2607,
      "æ¡Ĩ": 2608,
      "è½©": 2609,
      "å®£": 2610,
      "è®¾å®ļ": 2611,
      "è¯·æ±Ĥ": 2612,
      "åıįæĺłäºĨ": 2613,
      "è¯Ĭ": 2614,
      "æĹ¢": 2615,
      "è·Ŀ": 2616,
      "ul": 2617,
      "ï¼Įåħ±åĲĮ": 2618,
      "ç§Ģ": 2619,
      "å®ŀçĶ¨": 2620,
      "æ¡Īä¾ĭåĪĨæŀĲ": 2621,
      "ï¼ĮéĢīæĭ©": 2622,
      "æıĴ": 2623,
      "çĽ¸äºĴ": 2624,
      "çĶŁç´ł": 2625,
      "åĿı": 2626,
      "åĽ°å¢ĥ": 2627,
      "æľĿ": 2628,
      "å®½": 2629,
      "æĭĵ": 2630,
      "èĤĮ": 2631,
      "ãĢĤä»ĸåĨ³å®ļ": 2632,
      "åºĶçĶ¨ç¨ĭåºı": 2633,
      "éĥ¨éĹ¨": 2634,
      "è§ĦåĪĻ": 2635,
      "çī¹æĢ§": 2636,
      "ation": 2637,
      "é¡ºåĪ©": 2638,
      "éĺ´": 2639,
      "çĤ¼": 2640,
      "åĨľæ°ĳ": 2641,
      "æĩ": 2642,
      "èĶ": 2643,
      "ä¹ħ": 2644,
      "ï¼Įä¾ĭå¦Ĥ": 2645,
      "æĿİæĻĵ": 2646,
      "çİ¯ä¿Ŀ": 2647,
      "çļĦæĶ¯": 2648,
      "æ¹¿": 2649,
      "æıŃç¤º": 2650,
      "Java": 2651,
      "éĹ®éģĵ": 2652,
      "æıĲé«ĺäºĨ": 2653,
      "åĭĩæ°Ķ": 2654,
      "ä¼łè¾ĵ": 2655,
      "ä¹ĭåīį": 2656,
      "æ¿ĢåĬ±": 2657,
      "çļĦæĮĩ": 2658,
      "çļĦæĬĢæľ¯": 2659,
      "æĦŁåıĹ": 2660,
      "èĢĥè¯ķ": 2661,
      "é£Łçī©": 2662,
      "text": 2663,
      "å®ģ": 2664,
      "èĥ½éĩı": 2665,
      "éĺ»": 2666,
      "è§ĦèĮĥ": 2667,
      "Ġ(": 2668,
      "çļĦæĹ¶éĹ´": 2669,
      "æķ¢": 2670,
      "ãĢĤä½Ĩ": 2671,
      "å»¶": 2672,
      "é¢ĦæľŁ": 2673,
      "çĳ": 2674,
      "ç»ĵè®º": 2675,
      "éĥ½ä¼ļ": 2676,
      "æµĭéĩı": 2677,
      "éĢļä¿¡": 2678,
      "å·¥ä¸ļ": 2679,
      "çİ¯èĬĤ": 2680,
      "çĽĳæİ§": 2681,
      "ĠæŃ¥éª¤": 2682,
      "ï¼Įå°¤åħ¶": 2683,
      "çļĦè®¾è®¡": 2684,
      "ï¼ļ**ĊĊ": 2685,
      "åħŃ": 2686,
      "çļĦçº": 2687,
      "ä»Ķ": 2688,
      "å¥Ĺ": 2689,
      "æĿĳåºĦ": 2690,
      "å®īæİĴ": 2691,
      "ç®ĢåįķçļĦ": 2692,
      "ode": 2693,
      "è§£åĨ³æĸ¹æ¡Ī": 2694,
      "ä¸¥éĩį": 2695,
      "çļĦç¤¾ä¼ļ": 2696,
      "åģľ": 2697,
      "çļĦæĸĩåĮĸ": 2698,
      "çļĦè¿ĩç¨ĭ": 2699,
      "ç©¿": 2700,
      "è¶ĭ": 2701,
      "äº§çĶŁäºĨ": 2702,
      "èĻļæĭŁ": 2703,
      "å¥ł": 2704,
      "ç´¯": 2705,
      "ç´łåħ»": 2706,
      "åľ°æĸ¹": 2707,
      "ï¼ŁĊĊ": 2708,
      "ä»Ķç»Ĩ": 2709,
      "è¸": 2710,
      "äººçī©": 2711,
      "ä¸ĭè½½": 2712,
      "æĹĭ": 2713,
      "çĥ¹é¥ª": 2714,
      "éª¨": 2715,
      "é¢ľèī²": 2716,
      "ħåĬĽ": 2717,
      "æĶ¯ä»ĺ": 2718,
      "æĽ¾": 2719,
      "ass": 2720,
      "ä¸ªä½ĵ": 2721,
      "çļĦåŁºæľ¬æ¦Ĥå¿µ": 2722,
      "èĥŀ": 2723,
      "æµ©": 2724,
      "ä»¿ä½Ľ": 2725,
      "åı¯æĮģç»Ńåıĳå±ķ": 2726,
      "Ġ```": 2727,
      "ï¼Įå¯¼èĩ´": 2728,
      "æķĮ": 2729,
      "æıĲåĩº": 2730,
      "um": 2731,
      "åĬ¨åĬĽ": 2732,
      "åĳ¼": 2733,
      "ä¿¡å¿ĥ": 2734,
      "ä½łä»¬": 2735,
      "ort": 2736,
      "åľ°çĲĨ": 2737,
      "çļĦéľĢæ±Ĥ": 2738,
      "æķ°æį®åºĵ": 2739,
      "æľºæ¢°": 2740,
      "ĠA": 2741,
      "åħļ": 2742,
      "åľ¨è¿Ļä¸ª": 2743,
      "æī¹": 2744,
      "âĢĿçļĦ": 2745,
      "æĬ¥åĳĬ": 2746,
      "æĪĺæľ¯": 2747,
      "åĽ¾ä¹¦": 2748,
      "å¥łå®ļ": 2749,
      "æĸĩåĮĸçļĦ": 2750,
      "çİ°åľ¨": 2751,
      "æ»ĳ": 2752,
      "ï¼Įåį³": 2753,
      "çļĦçĹ": 2754,
      "éĽ¨": 2755,
      "åħĭæľį": 2756,
      "ï¼Įä»¥ä¾¿": 2757,
      "å¤§å®¶": 2758,
      "å¼ĢåıĳèĢħ": 2759,
      "å¼¹": 2760,
      "ç½Ĺ": 2761,
      "å¾Ģå¾Ģ": 2762,
      "è§Ĩè§ī": 2763,
      "å¥½çļĦ": 2764,
      "å¹¼": 2765,
      "åıĤèĢĥ": 2766,
      "åķĨåĵģ": 2767,
      "æĲŃ": 2768,
      "ï¼ĮçĶ¨äºİ": 2769,
      "çļĦåĬĽéĩı": 2770,
      "ä½ĵçİ°äºĨ": 2771,
      "å¤įæĿĤçļĦ": 2772,
      "çļĦä½ľçĶ¨": 2773,
      "è¶ĭåĬ¿": 2774,
      "å¸ģ": 2775,
      "å£¤": 2776,
      "äºĭä¸ļ": 2777,
      "å°±æĺ¯": 2778,
      "ãĢĭä¸Ń": 2779,
      "ä¹Łæĺ¯": 2780,
      "éĢĢ": 2781,
      "åħ´å¥ĭ": 2782,
      "è¹": 2783,
      "ĠæĢ»ç»ĵ": 2784,
      "æ··": 2785,
      "éĥ½æĺ¯": 2786,
      "åı¤èĢģ": 2787,
      "åĿĢ": 2788,
      "æ·±è¿ľ": 2789,
      "æ£Ģæµĭ": 2790,
      "çļĦæĺ¯": 2791,
      "æ³½": 2792,
      "çļĦç¼": 2793,
      "æ±½è½¦": 2794,
      "ol": 2795,
      "æ±¡": 2796,
      "å·®å¼Ĥ": 2797,
      "ç»Ĩèĥŀ": 2798,
      "çļĦç¾": 2799,
      "ä¿¡å¿µ": 2800,
      "ï¼Įä¸İ": 2801,
      "ï¼ļĊ": 2802,
      "åĪĨéħį": 2803,
      "ä¿¡ä»»": 2804,
      "åĨĽäºĭ": 2805,
      "Ġ}Ċ": 2806,
      "Ġå¼ķè¨Ģ": 2807,
      "åĲĮæł·": 2808,
      "æİ¨å¹¿": 2809,
      "å°¼": 2810,
      "è°ĥèĬĤ": 2811,
      "å°±åľ¨": 2812,
      "æĲľç´¢": 2813,
      "åįł": 2814,
      "æĸĩçĮ®": 2815,
      "åĵģè´¨": 2816,
      "åĨħåŃĺ": 2817,
      "åŃ¦ä¼ļäºĨ": 2818,
      "ab": 2819,
      "æľīéĻĲ": 2820,
      "èĩªçĶ±": 2821,
      "æĸĩæľ¬": 2822,
      "ä¿®æĶ¹": 2823,
      "èŃ": 2824,
      "ï¼Įå¢ŀå¼º": 2825,
      "æłĩé¢ĺ": 2826,
      "é£Łåĵģ": 2827,
      "ç¼ĸåĨĻ": 2828,
      "èŃ¦": 2829,
      "èĥ¶": 2830,
      "éĢĤçĶ¨äºİ": 2831,
      "å¾Īå¤ļ": 2832,
      "èĵ": 2833,
      "ãĢĤä»ĸçŁ¥éģĵ": 2834,
      "è§ĤçĤ¹": 2835,
      "è¾¾åĪ°": 2836,
      "éĺµ": 2837,
      "èģĶç½ĳ": 2838,
      "ç¬¦åĲĪ": 2839,
      "sh": 2840,
      "å¡ĳ": 2841,
      "Ġ+": 2842,
      "æį·": 2843,
      "(\"": 2844,
      "æĹ¶åĢĻ": 2845,
      "ä½ĵçİ°åľ¨": 2846,
      "åĨ³å¿ĥ": 2847,
      "çļĦèĥ½åĬĽ": 2848,
      "ä½Ļ": 2849,
      "ä¸»ä¹ī": 2850,
      "ç»ĦæĪĲéĥ¨åĪĨ": 2851,
      "å®ŀæĹ¶": 2852,
      "è·ĳ": 2853,
      "è¿İ": 2854,
      "åı¯éĿł": 2855,
      "æľ¬æĸĩ": 2856,
      "æķı": 2857,
      "åŃĹç¬¦": 2858,
      "ï¼ĮèĢĮæĺ¯": 2859,
      "em": 2860,
      "ä¸ĵå®¶": 2861,
      "å¯¹äºİä¸ŃåŃ¦çĶŁ": 2862,
      "éĢĲæŃ¥": 2863,
      "ï¼Įåħ·æľī": 2864,
      "å¹ķ": 2865,
      "çļĦæ¢": 2866,
      "æĻ°": 2867,
      "act": 2868,
      "çļĦæ°´": 2869,
      "å®Ĺ": 2870,
      "ä½ľçī©": 2871,
      "æľĢå¤§": 2872,
      "æĢ»çļĦ": 2873,
      "èĸ": 2874,
      "ï¼ĮåºĶ": 2875,
      "åŃ¦èĢħ": 2876,
      "è´´": 2877,
      "åľŁå£¤": 2878,
      "çļĦä¸Ģä¸ª": 2879,
      "åĨĮ": 2880,
      "èĭı": 2881,
      "ï¼ĮçĶ¨": 2882,
      "ï¼Įå½¢æĪĲ": 2883,
      "æĥħç»ª": 2884,
      "ï¼Įä»¥ç¡®ä¿Ŀ": 2885,
      "åłĤ": 2886,
      "å®¶éķ¿": 2887,
      "ĠT": 2888,
      "çļĦç®": 2889,
      "çļĦçĭ": 2890,
      "ç»´çĶŁç´ł": 2891,
      "ä¼ĳ": 2892,
      "çļĦçĪ": 2893,
      "ä¸įä¼ļ": 2894,
      "æ·±åħ¥äºĨè§£": 2895,
      "æīĵå¼Ģ": 2896,
      "çŃīæĸ¹éĿ¢": 2897,
      "æ¡£": 2898,
      "åĲĦä¸ª": 2899,
      "é¸¡": 2900,
      "çļĦæķĻèĤ²": 2901,
      "åĪĨä¸º": 2902,
      "å¯Ĩçłģ": 2903,
      "çĶ³è¯·": 2904,
      "ĠM": 2905,
      "Ġb": 2906,
      "èĤ¥": 2907,
      "ï¼īï¼Į": 2908,
      "å¹¶æ²¡æľī": 2909,
      "éĽ·": 2910,
      "ï¼ĮæĹłè®º": 2911,
      "è½®": 2912,
      "æĢ»çļĦæĿ¥è¯´": 2913,
      "åĴĮåºĶçĶ¨": 2914,
      "æĿ¥æºĲ": 2915,
      "ter": 2916,
      "ä»ĸä»¬åľ¨": 2917,
      "åĢº": 2918,
      "çİ¯å¢ĥä¸Ń": 2919,
      "ç§¯ç´¯": 2920,
      "æľ¬æķĻç¨ĭ": 2921,
      "è¯Ħä»·": 2922,
      "åĲ¯åĬ¨": 2923,
      "li": 2924,
      "Ġ\\)": 2925,
      "åĴĮç®¡çĲĨ": 2926,
      "åıªæľī": 2927,
      "åįıä½ľ": 2928,
      "åĬ¨çī©": 2929,
      "çĪ·": 2930,
      "å°ļ": 2931,
      "çĹĩçĬ¶": 2932,
      "å¦Ĥä½ķåľ¨": 2933,
      "å®¹æĺĵ": 2934,
      "æľīæķĪåľ°": 2935,
      "åĿļå®ŀçļĦåŁºç¡Ģ": 2936,
      "è¿ĲèĲ¥": 2937,
      "çļĦå®ļä¹ī": 2938,
      "æľŁå¾ħ": 2939,
      "èĪĴ": 2940,
      "å¤ļæł·æĢ§": 2941,
      "ĠD": 2942,
      "æ¸©åº¦": 2943,
      "æĹ¥å¸¸çĶŁæ´»ä¸Ń": 2944,
      "çļĦæĻº": 2945,
      "ä¸ĢåĲį": 2946,
      "çľŁå®ŀ": 2947,
      "æ¸ħæĻ°": 2948,
      "ä¸Ģç³»åĪĹ": 2949,
      "ä¸ªæĢ§": 2950,
      "éĻ·": 2951,
      "æ´ĭ": 2952,
      "ä¸ĵæ³¨": 2953,
      "èĭ¦": 2954,
      "åĴĮæĮĳæĪĺ": 2955,
      "åĪĨåŃĲ": 2956,
      "çļĦçģ": 2957,
      "éĽħ": 2958,
      "çļĦæĦŁ": 2959,
      "çĤİ": 2960,
      "æĤ¨çļĦ": 2961,
      "ä¼´": 2962,
      "æ¢¦æĥ³": 2963,
      "åıĸå¾ĹäºĨ": 2964,
      "æľīäºĨ": 2965,
      "æµĵ": 2966,
      "çĿ£": 2967,
      "æī©å±ķ": 2968,
      "ä¸įä»ħæľīåĬ©äºİ": 2969,
      "æīĵä¸ĭ": 2970,
      "ew": 2971,
      "åīĳ": 2972,
      "å§Ķ": 2973,
      "ï¼Įçī¹åĪ«": 2974,
      "åĴĮåıĳå±ķ": 2975,
      "é¡¶": 2976,
      "çĤ¹åĩ»": 2977,
      "åģı": 2978,
      "èĽĭçĻ½è´¨": 2979,
      "ï¼Įä¿ĥè¿Ľ": 2980,
      "çİī": 2981,
      "èµ¢": 2982,
      "åĵª": 2983,
      "ï¼Įä½łåı¯ä»¥": 2984,
      "and": 2985,
      "åı¯èĥ½å¯¼èĩ´": 2986,
      "çĪ±æĥħ": 2987,
      "çļĦåħ·ä½ĵ": 2988,
      "èĩªèº«": 2989,
      "è¯´æĺİ": 2990,
      "ï¼Įä¹Łæĺ¯": 2991,
      "ï¼Įå¸ĮæľĽ": 2992,
      "çĶŁéķ¿": 2993,
      "äººçĶŁ": 2994,
      "æİ¥åıĹ": 2995,
      "è½»æĿ¾": 2996,
      "çĽĳæµĭ": 2997,
      "æł¸å¿ĥ": 2998,
      "æĪĸèĢħ": 2999,
      "éģĩåĪ°äºĨ": 3000,
      "ä¸ŃéĹª": 3001,
      "æĦŁåĴĮ": 3002,
      "Ġ```ĊĊ": 3003,
      "äººä½ĵ": 3004,
      "æģ¶": 3005,
      "çļĦçĭ¬": 3006,
      "çļĦä½¿çĶ¨": 3007,
      "åľ¨çº¿": 3008,
      "ä¸įè¶³": 3009,
      "çļĦç½": 3010,
      "Ġç¬¬äºĮ": 3011,
      "è§īå¾Ĺ": 3012,
      "ï¼Įåıªæľī": 3013,
      "SS": 3014,
      "æ¦Ĥ": 3015,
      "æĪĺçķ¥": 3016,
      "æĬķèµĦèĢħ": 3017,
      "æĹ¶ä»£": 3018,
      "ï¼ĮæĽ´æĺ¯ä¸Ģç§į": 3019,
      "æĺ¯çļĦ": 3020,
      "åħ¥äºĨ": 3021,
      "ä»·åĢ¼è§Ĥ": 3022,
      "çļĦæ¯ı": 3023,
      "æł¼å¼ı": 3024,
      "èķ": 3025,
      "é½": 3026,
      "çļĦç»ıæµİ": 3027,
      "ä¸ŃåĮ»": 3028,
      "åĪ¶éĢł": 3029,
      "ç¾İåĽ½": 3030,
      "å±ŀæĢ§": 3031,
      "ĠæķĻç¨ĭ": 3032,
      "ï¼Įè¦ģ": 3033,
      "è¡£": 3034,
      "è¾ħ": 3035,
      "å·¥èīº": 3036,
      "åħ¶ä¸Ń": 3037,
      "çĽ®å½ķ": 3038,
      "ç¨³å®ļæĢ§": 3039,
      "ä¸¥æł¼": 3040,
      "å¸¦æĿ¥äºĨ": 3041,
      "éļĲèĹı": 3042,
      "ä¸Ģæł·": 3043,
      "èĤ©": 3044,
      "åįıè°ĥ": 3045,
      "éĶĢåĶ®": 3046,
      "å±ı": 3047,
      "ï¼Įå¹¶åľ¨": 3048,
      "è§Ĵåº¦": 3049,
      "ä¸ºä¾ĭ": 3050,
      "ä¿ĿéĻ©": 3051,
      "çļĦç¾İ": 3052,
      "ï¼Įåıĳçİ°": 3053,
      "æīĺ": 3054,
      "çĽ¸åºĶ": 3055,
      "è±¡å¾ģ": 3056,
      "å¿ħè¦ģ": 3057,
      "ï¼Įè¯ķåĽ¾": 3058,
      "æŁ¥çľĭ": 3059,
      "åĬłå·¥": 3060,
      "ç«Ļåľ¨": 3061,
      "æħ¢": 3062,
      "åģĩè®¾": 3063,
      "çļĦæ¢¦æĥ³": 3064,
      "éī": 3065,
      "ĠB": 3066,
      "è®¤çŁ¥": 3067,
      "éī´": 3068,
      "St": 3069,
      "çĽĲ": 3070,
      "è°Ī": 3071,
      "æīĢéľĢ": 3072,
      "çıį": 3073,
      "çļĦåĬªåĬĽ": 3074,
      "In": 3075,
      "æĪĺäºī": 3076,
      "éĩįè¦ģä½ľçĶ¨": 3077,
      "äºĨä»ĸ": 3078,
      "æ¶¦": 3079,
      "æļ´": 3080,
      "åħ·æľīéĩįè¦ģæĦıä¹ī": 3081,
      "ĠĠĠĠĠĠĠĠĠĠĠ": 3082,
      "çī¹èī²": 3083,
      "èģĮè´£": 3084,
      "è¯įæ±ĩ": 3085,
      "æ²Ļ": 3086,
      "è¿Ľè¡ĮäºĨ": 3087,
      "è´¹çĶ¨": 3088,
      "çļĦæĶ¿": 3089,
      "å´": 3090,
      "éĻĲåĪ¶": 3091,
      "è¿ĲåĬ¨åĳĺ": 3092,
      "æ°¸": 3093,
      "æĢģåº¦": 3094,
      "èľ": 3095,
      "çļĦå¿ĥ": 3096,
      "çļĦåħī": 3097,
      "æ±¤": 3098,
      "æ·±çŁ¥": 3099,
      "éĶģ": 3100,
      "çĽĳçĿ£": 3101,
      "çļĦæĶ¯æĮģ": 3102,
      "å®ĮåĸĦ": 3103,
      "con": 3104,
      "åĿĲåľ¨": 3105,
      "ï¼Įä¸ŃåŃ¦çĶŁåı¯ä»¥": 3106,
      "ed": 3107,
      "ãĢĤå½ĵ": 3108,
      "æĻ¶": 3109,
      "ç«ĭåĪ»": 3110,
      "ä¼ļè®¡": 3111,
      "è®©æĪĳä»¬": 3112,
      "ï¼ĮæĿİæĺİ": 3113,
      "åĨįæ¬¡": 3114,
      "åħ¶åľ¨": 3115,
      "åĲįåı«": 3116,
      "ï¼Įå®ĥä»¬": 3117,
      "ï¼ĮåŃ¦çĶŁåı¯ä»¥": 3118,
      "æ±¡æŁĵ": 3119,
      "çļĦåıĺåĮĸ": 3120,
      "åĨħæ¶µ": 3121,
      "çĲĥéĺŁ": 3122,
      "å¦Ĥä½ķéĢļè¿ĩ": 3123,
      "å½¢æĢģ": 3124,
      "æŁĲäºĽ": 3125,
      "åĭĩæķ¢": 3126,
      "çļĦç«": 3127,
      "åĪ©çĽĬ": 3128,
      "æĹħæ¸¸": 3129,
      "èĿ": 3130,
      "Ġv": 3131,
      "èĦ±": 3132,
      "èĢĲå¿ĥ": 3133,
      "ĠN": 3134,
      "èµĦäº§": 3135,
      "åºĶçĶ¨äºİ": 3136,
      "æ¯ıå¤©": 3137,
      "å¼Ĥå¸¸": 3138,
      "çĺ": 3139,
      "æķĳ": 3140,
      "è´Ńçī©": 3141,
      "æļĹ": 3142,
      "çļĦæ¸¸": 3143,
      "å¿½": 3144,
      "åĪ°çļĦ": 3145,
      "æħ¨": 3146,
      "åĽ¾ä¹¦é¦Ĩ": 3147,
      "lass": 3148,
      "æĸ½å·¥": 3149,
      "åĨĻä½ľ": 3150,
      "çļĦæīĭ": 3151,
      "åıĺéĩı": 3152,
      "ä¼ĺç§Ģ": 3153,
      "åħ¶çĭ¬çī¹çļĦ": 3154,
      "æŁ¥è¯¢": 3155,
      "å®£ä¼ł": 3156,
      "Ġin": 3157,
      "åħĪè¿Ľ": 3158,
      "æ´²": 3159,
      "æĢĿè¿ľ": 3160,
      "è®¤è¯ĨåĪ°": 3161,
      "è·³": 3162,
      "æĬĢæľ¯çļĦ": 3163,
      "ç½ĳé¡µ": 3164,
      "ç§¯æŀģåıĤä¸İ": 3165,
      "Ġst": 3166,
      "ĽåĽ´": 3167,
      "çļĦæ´": 3168,
      "çĿĽ": 3169,
      "åį±æľº": 3170,
      "æĿ¥çļĦ": 3171,
      "æľĢä½³": 3172,
      "ä¸¤äºº": 3173,
      "ce": 3174,
      "æıĲäº¤": 3175,
      "èĥ½å¤Łåľ¨": 3176,
      "åı£æ°Ķ": 3177,
      "ä½ĵèĤ²": 3178,
      "ĠĠĠĠĠĠ": 3179,
      "ä¾ĽåºĶ": 3180,
      "æķ°éĩı": 3181,
      "åī¯": 3182,
      "ata": 3183,
      "æī¬": 3184,
      "åĺ": 3185,
      "å¼±": 3186,
      "åį·": 3187,
      "é¢Ħæµĭ": 3188,
      "æĳ©": 3189,
      "æĺİçĻ½äºĨ": 3190,
      "ãĢĤå¸ĮæľĽ": 3191,
      "èĭ¥": 3192,
      "äºĭé¡¹": 3193,
      "è§£æŀĲ": 3194,
      "æĸ°éĹ»": 3195,
      "å¼ķå¯¼": 3196,
      "æĢ»æĺ¯": 3197,
      "å¤±è´¥": 3198,
      "son": 3199,
      "çļĦåħ³ç³»": 3200,
      "æĸĩç«ł": 3201,
      "ç²Ĵ": 3202,
      "çģ¯": 3203,
      "ç¼ĵè§£": 3204,
      "ä¼¼ä¹İ": 3205,
      "ãĢĤéļıçĿĢ": 3206,
      "æĸĩåŃĹ": 3207,
      "æ¹ĸ": 3208,
      "æ¡Ĩæŀ¶": 3209,
      "çļĦç½ĳ": 3210,
      "èī¾": 3211,
      "èĦ¸": 3212,
      "Ġç¬¬ä¸ī": 3213,
      "åłĨ": 3214,
      "ï¼ĮéĻĪ": 3215,
      "æĿ¥è¶Ĭ": 3216,
      "è·Ł": 3217,
      "èĬĤçĤ¹": 3218,
      "è¶ĬæĿ¥è¶Ĭ": 3219,
      "å±ŀäºİ": 3220,
      "åĸľæ¬¢": 3221,
      "æĶ»åĩ»": 3222,
      "æī®": 3223,
      "ç«ĭåį³": 3224,
      "åŁºç¡Ģè®¾æĸ½": 3225,
      "ï¼ĮæŀĹ": 3226,
      "çļĦåĨħå®¹": 3227,
      "åĩºèī²": 3228,
      "çĶµè¯Ŀ": 3229,
      "ç¿¼": 3230,
      "ç§»åĬ¨": 3231,
      "ĠH": 3232,
      "çļĦè¿ĩç¨ĭä¸Ń": 3233,
      "éĽª": 3234,
      "æ¸¸æĪıä¸Ń": 3235,
      "łéģĵ": 3236,
      "æī°": 3237,
      "åĽ½åĨħ": 3238,
      "åĲİç»Ń": 3239,
      "è§Ħæ¨¡": 3240,
      "ä¸ĸçºª": 3241,
      "åĲ§": 3242,
      "ï¼Įå¦Ĥä½ķ": 3243,
      "ä¿®å¤į": 3244,
      "ç¬¦åı·": 3245,
      "çĪ±å¥½": 3246,
      "åĩĢ": 3247,
      "èĬĤå¥ı": 3248,
      "é£ŁæĿĲ": 3249,
      "äºĴèģĶç½ĳ": 3250,
      "èµ¢å¾Ĺ": 3251,
      "ç¥Ŀ": 3252,
      "http": 3253,
      "çļĦæıĲ": 3254,
      "ple": 3255,
      "æıĲåıĸ": 3256,
      "ãĢĤä»ĸå¼Ģå§ĭ": 3257,
      "éĨĴ": 3258,
      "å°±ä¸ļ": 3259,
      "çĹħæ¯Ĵ": 3260,
      "æĭ¿": 3261,
      "å¤§å°ı": 3262,
      "æĦŁæħ¨": 3263,
      "é¡µéĿ¢": 3264,
      "ä¸ĢçĽ´": 3265,
      "å¥¶": 3266,
      "ä»ģ": 3267,
      "åŁºäºİ": 3268,
      "çľĭåĪ°äºĨ": 3269,
      "å®Ŀè´µçļĦ": 3270,
      "æľŁéĹ´": 3271,
      "è®©æĪĳ": 3272,
      "åķĨåĬ¡": 3273,
      "eb": 3274,
      "pen": 3275,
      "æ³ķè§Ħ": 3276,
      "æ´Ĺ": 3277,
      "æŃ£å¸¸": 3278,
      "å®ŀéĻħæĵįä½ľ": 3279,
      "æ¢ģ": 3280,
      "Python": 3281,
      "ï¼ĮåĪĨæŀĲ": 3282,
      "åıĳå¸ĥ": 3283,
      "ç¤¾ä¼ļçļĦ": 3284,
      "æ¯Ķå¦Ĥ": 3285,
      "åħįçĸ«": 3286,
      "çıŃ": 3287,
      "ï¼ģâĢĿĊĊ": 3288,
      "ï¼Įä¿ĿæĮģ": 3289,
      "ä¼¯": 3290,
      "ç®±": 3291,
      "åŁºéĩĳ": 3292,
      "éĥ½èĥ½": 3293,
      "ä»įçĦ¶": 3294,
      "è½´æī¿": 3295,
      "æľīä¸Ģä¸ª": 3296,
      "èĦĤ": 3297,
      "éĴĪå¯¹": 3298,
      "èĢħçļĦ": 3299,
      "åħ¬ä¼Ĺ": 3300,
      "çĲĨè§£åĴĮ": 3301,
      "çĻ»": 3302,
      "è¯¦ç»ĨçļĦ": 3303,
      "å¹¸": 3304,
      "è¾ī": 3305,
      "æľīæķĪçļĦ": 3306,
      "åľŁåľ°": 3307,
      "çļĦæİ¢": 3308,
      ":Ċ": 3309,
      "æĸ¹ä¾¿": 3310,
      "ä¼łè¯´": 3311,
      "è·¯å¾Ħ": 3312,
      "çªĹ": 3313,
      "å¸¸è§ģçļĦ": 3314,
      "ç»¿èī²": 3315,
      "rint": 3316,
      "ä¸²": 3317,
      "æĹ§": 3318,
      "è¯ģæĺİ": 3319,
      "èĤĮèĤī": 3320,
      "ï¼ĮæľĢç»Ī": 3321,
      "æī®æ¼Ķ": 3322,
      "çļĦç¥": 3323,
      "éĶ»": 3324,
      "éŃħåĬĽ": 3325,
      "</": 3326,
      "æĻ®éĢļ": 3327,
      "ãĢĤå¼ł": 3328,
      "çĶµèĦĳ": 3329,
      "Ġ\\(": 3330,
      "çļĦçĥŃçĪ±": 3331,
      "éĶ»çĤ¼": 3332,
      "åħ¬åı¸çļĦ": 3333,
      "èĪĴéĢĤ": 3334,
      "å¯¹æīĭ": 3335,
      "äºĪ": 3336,
      "èĥ½æºĲ": 3337,
      "èĬĴ": 3338,
      "çĶµæ±ł": 3339,
      "ä½įäºİ": 3340,
      "è¯ĬæĸŃ": 3341,
      "ç¨ĭåº¦": 3342,
      "ç¡®å®ŀ": 3343,
      "å¼ºå¤§çļĦ": 3344,
      "çļĦæĬķ": 3345,
      "èħĲ": 3346,
      "éħĴåºĹ": 3347,
      "ï¼Įå¼Ģå§ĭ": 3348,
      "æľīäºĽ": 3349,
      "åĵįåºĶ": 3350,
      "åĮ»éĻ¢": 3351,
      "åľ¨çİ°ä»£": 3352,
      "å±ķè§Ī": 3353,
      "ç¡®è®¤": 3354,
      "è®°ä½ı": 3355,
      "iv": 3356,
      "¨è¯¢": 3357,
      "ç»Ŀ": 3358,
      "ile": 3359,
      "ï¼ĮçĶ¨æĪ·": 3360,
      "ï¼Įä»¿ä½Ľ": 3361,
      "åĴ¨è¯¢": 3362,
      "ä½ľä¸ºä¸Ģç§į": 3363,
      "å®ĺæĸ¹": 3364,
      "å·¨å¤§": 3365,
      "å±ķçİ°äºĨ": 3366,
      "åĴĮå¯¹": 3367,
      "æ¢¦": 3368,
      "çļĦæĶ¶": 3369,
      "åĨľä¸ļçĶŁäº§": 3370,
      "ï¼ĮåĲĮæĹ¶ä¹Ł": 3371,
      "çļĦæĻºæħ§": 3372,
      "çļĦæ¡": 3373,
      "è¡¨éĿ¢": 3374,
      "ç¼ĸè¾ĳ": 3375,
      "ç«ŀäºīåĬĽ": 3376,
      "æĦŁåıĹåĪ°": 3377,
      "ç¤¼ä»ª": 3378,
      "ä»Ģä¹Īæĺ¯": 3379,
      "å¯¹äºİä¸ŃåŃ¦çĶŁæĿ¥è¯´": 3380,
      "æķħéļľ": 3381,
      "åĴĮå®ŀè·µ": 3382,
      "å¹ħ": 3383,
      "å¢ŀéķ¿": 3384,
      "Ġä½¿çĶ¨": 3385,
      "å²Ľ": 3386,
      "æļĸ": 3387,
      "çļĦæĥħåĨµ": 3388,
      "çļĦæ¸¸æĪı": 3389,
      "ï¼ĮåĽłæŃ¤": 3390,
      "æ¯Ľ": 3391,
      "çļĦæĦıä¹ī": 3392,
      "ä¿Ŀè¯ģ": 3393,
      "ä¼łæĦŁ": 3394,
      "åıªæĺ¯": 3395,
      "=\"": 3396,
      "ĠF": 3397,
      "ï¼Įå¯¹äºİ": 3398,
      "æĽ´æ·±åħ¥": 3399,
      "è°¢è°¢": 3400,
      "ä¸Ģä¸Ŀ": 3401,
      "æľªçŁ¥": 3402,
      "å®Įåħ¨": 3403,
      "ï¼Įä¸»è¦ģ": 3404,
      "åı¯èĥ½æĺ¯": 3405,
      "çļĦç§ĺå¯Ĩ": 3406,
      "æ´¾": 3407,
      "æŃ£æĺ¯": 3408,
      "çļĦæĮĩå¯¼": 3409,
      "è®¤åı¯": 3410,
      "ä¼ģä¸ļçļĦ": 3411,
      "pring": 3412,
      "æķ´çĲĨ": 3413,
      "çĥģ": 3414,
      "ä»ĸåľ¨": 3415,
      "çĲĨæĥ³": 3416,
      "æ³¡": 3417,
      "å¹¶éĿŀ": 3418,
      "ä¾Ŀæį®": 3419,
      "ç¢į": 3420,
      "åĽºå®ļ": 3421,
      "ä¼łæĦŁåĻ¨": 3422,
      "åĨ·éĿĻ": 3423,
      "ĠG": 3424,
      "ï¼ī**ï¼ļ": 3425,
      "çİ¯å¢ĥä¿ĿæĬ¤": 3426,
      "çļĦæİ¨": 3427,
      "name": 3428,
      "ï¼Įä½¿çĶ¨": 3429,
      "è¿ĩåº¦": 3430,
      "é¢Ĺ": 3431,
      "ï¼ĮéļıçĿĢ": 3432,
      "ãĢĤä½ł": 3433,
      "åŃ¦ç§ĳ": 3434,
      "æĿ¥èĩª": 3435,
      "çķĮéĿ¢": 3436,
      "çļĦç²¾ç¥ŀ": 3437,
      "çļĦçĽ®æłĩ": 3438,
      "çļĦé£İéĻ©": 3439,
      "è¿ģ": 3440,
      "å¸¸çĶ¨": 3441,
      "åŁºåĽł": 3442,
      "è¾ĥé«ĺ": 3443,
      "ma": 3444,
      "è¿«": 3445,
      "è¿Ķ": 3446,
      "åĨĴ": 3447,
      "è¿ĺæĺ¯": 3448,
      "æ¥¼": 3449,
      "æķĪçİĩåĴĮ": 3450,
      "port": 3451,
      "ublic": 3452,
      "ıè§Ī": 3453,
      "äºĨå¤§éĩı": 3454,
      "ç¨»": 3455,
      "è°ľ": 3456,
      "æł¡åĽŃ": 3457,
      "æĽ´å¤ļçļĦäºº": 3458,
      "ãĢĤåħ¶æ¬¡": 3459,
      "ç»ıèĲ¥": 3460,
      "å§ĭç»Ī": 3461,
      "ç¥ŀç»ı": 3462,
      "æĶ¹éĿ©": 3463,
      "åĿĩè¡¡": 3464,
      "æĮĩæłĩ": 3465,
      "ä¾¿æį·": 3466,
      "cker": 3467,
      "Ġç»ĵè®º": 3468,
      "çļĦæĵ": 3469,
      "æįķ": 3470,
      "è¶³å¤Ł": 3471,
      "å°º": 3472,
      "æĦıå¤ĸ": 3473,
      "åħ¬å¹³": 3474,
      "ï¼īåĴĮ": 3475,
      "åĪ¤æĸŃ": 3476,
      "æ¬£èµı": 3477,
      "od": 3478,
      "é©±": 3479,
      "ç£¨": 3480,
      "ä¹¦ä¸Ń": 3481,
      "ack": 3482,
      "ï¼Įæ¯ıä¸ª": 3483,
      "çļĦæŀ": 3484,
      "é£ŀè¡Į": 3485,
      "å¯¿": 3486,
      "æĢ§è´¨": 3487,
      "çªģçł´": 3488,
      "app": 3489,
      "æĦ¿æĦı": 3490,
      "ĠW": 3491,
      "æľºåĻ¨": 3492,
      "åħģ": 3493,
      "åľĨ": 3494,
      "åİĨç¨ĭ": 3495,
      "ï¼ĮæĪĳä»¬åı¯ä»¥çľĭåĪ°": 3496,
      "ç¨İæĶ¶": 3497,
      "åĩĿ": 3498,
      "èŀįåĲĪ": 3499,
      "å®Ļ": 3500,
      "ä¼¦": 3501,
      "è¡¨æĺİ": 3502,
      "ä¼ĺè´¨": 3503,
      "å½ĵåīį": 3504,
      "çļĦéĩįè¦ģç»ĦæĪĲéĥ¨åĪĨ": 3505,
      "é¢Ħç®Ĺ": 3506,
      "èĴĻ": 3507,
      "Ġd": 3508,
      "æľīè¶£": 3509,
      "å½Ĵ": 3510,
      "è¡¨æ¼Ķ": 3511,
      "æŃ£åľ¨": 3512,
      "è´¨éĩıåĴĮ": 3513,
      "iz": 3514,
      "ype": 3515,
      "âĢĻ": 3516,
      "è¿ĩåİ»": 3517,
      "ç»´æĮģ": 3518,
      "æĿĥçĽĬ": 3519,
      "èĨľ": 3520,
      "çļĦæ²»": 3521,
      "ä»ĵ": 3522,
      "èĢĹ": 3523,
      "æĿ¥çľĭ": 3524,
      "åŃĲçļĦ": 3525,
      "åĳ½è¿Ĳ": 3526,
      "å¨±ä¹Ĳ": 3527,
      "å©ļ": 3528,
      "è¡ĮæĶ¿": 3529,
      "ï¼Įè¯´": 3530,
      "å®ĩå®Ļ": 3531,
      "ï¼ĮæıĲä¾Ľ": 3532,
      "çļĦæľºä¼ļ": 3533,
      "åįĵ": 3534,
      "äºĭåĬ¡": 3535,
      "ãĢĭï¼Į": 3536,
      "æ°§åĮĸ": 3537,
      "âĢĺ": 3538,
      "æıĲåįĩäºĨ": 3539,
      "å¯»æ±Ĥ": 3540,
      "åħģè®¸": 3541,
      "æĪĲä¸ºäºĨ": 3542,
      "äº«åıĹ": 3543,
      "çļĦæ³ķ": 3544,
      "çļĦç¼ĸ": 3545,
      "æĪĳåĽ½": 3546,
      "åİĤ": 3547,
      "ç¬¬ä¸ī": 3548,
      "ç¢ĳ": 3549,
      "\",": 3550,
      "çļĦåģ¥åº·": 3551,
      "åľ¨ä¸ŃåĽ½": 3552,
      "ä¸įæĩ": 3553,
      "åįĬ": 3554,
      "çŃ¾": 3555,
      "èĤ¤": 3556,
      "å¸¸å¸¸": 3557,
      "åį«çĶŁ": 3558,
      "è·Ŀç¦»": 3559,
      "ĠL": 3560,
      "çļĦä¿¡æģ¯": 3561,
      "è¿Ļæĺ¯": 3562,
      "æľīæīĢ": 3563,
      "åįĥ": 3564,
      "éĩįè§Ĩ": 3565,
      "æĳĩ": 3566,
      "ity": 3567,
      "åĪĽå»ºä¸Ģä¸ª": 3568,
      "å°ıæĹ¶": 3569,
      "çĶµåĬĽ": 3570,
      "åĢ¾": 3571,
      "éĽĦ": 3572,
      "ä½ĽæķĻ": 3573,
      "æĦŁæ¿Ģ": 3574,
      "æ·±åİļ": 3575,
      "ï¼Įè¿Ļæĺ¯": 3576,
      "è§Ĥå¿µ": 3577,
      "åĬŀåħ¬": 3578,
      "ess": 3579,
      "çļĦçľ¼": 3580,
      "æ½ľåľ¨": 3581,
      "ï¼Įå¢ŀåĬł": 3582,
      "æ»¤": 3583,
      "å¿Ĺè¿ľ": 3584,
      "å¡Ķ": 3585,
      "æ¶µçĽĸ": 3586,
      "å·¨å¤§çļĦ": 3587,
      "åħµ": 3588,
      "èĢ³": 3589,
      "æľīåĬĽ": 3590,
      "æĬķåħ¥": 3591,
      "çļĦè¯¦ç»Ĩ": 3592,
      "æ²¿": 3593,
      "æĹłæķ°": 3594,
      "ï¼Įæİ¨åĬ¨": 3595,
      "æµıè§Ī": 3596,
      "æķĻç»ĥ": 3597,
      "è§Ħå®ļ": 3598,
      "éļľç¢į": 3599,
      "çĥĪçļĦ": 3600,
      "çļĦçī¹çĤ¹": 3601,
      "æĦŁæŁĵ": 3602,
      "æıĲä¾ĽäºĨä¸Ģä¸ª": 3603,
      "æ¼«": 3604,
      "çļĦåľ°æĸ¹": 3605,
      "åįıè®®": 3606,
      "æŀ¶æŀĦ": 3607,
      "è´§å¸ģ": 3608,
      "ï¼Įè¿Ľè¡Į": 3609,
      "èī°": 3610,
      "å°Ĩåħ¶": 3611,
      "å¼ķåıĳ": 3612,
      "æĥ³ä¸į": 3613,
      "å±Ĥæ¬¡": 3614,
      "ï¼Įçİ©å®¶": 3615,
      "éĢĤå½ĵ": 3616,
      "ash": 3617,
      "èĩ³åħ³éĩįè¦ģçļĦ": 3618,
      "çļĦç¥ŀ": 3619,
      "://": 3620,
      "çļĦæĪĲåĬŁ": 3621,
      "å¦Ļ": 3622,
      "å¼Ģå±ķ": 3623,
      "äº§éĩı": 3624,
      "çĻ¾": 3625,
      "æ¿ĢåĬ¨": 3626,
      "æĺłå°Ħ": 3627,
      "python": 3628,
      "çĶŁæ´»ä¸ŃçļĦ": 3629,
      "å®Įæķ´": 3630,
      "éĺ²æ²»": 3631,
      "çĽ´è§Ĥ": 3632,
      "è´£ä»»æĦŁ": 3633,
      "éŃĶ": 3634,
      "æĲŃéħį": 3635,
      "çŀ": 3636,
      "Ġåįķåħĥ": 3637,
      "å®«": 3638,
      "çŃīå¾ħ": 3639,
      "å¿ĥçĲĨåŃ¦": 3640,
      ";ĊĊ": 3641,
      "æĦıæĥ³ä¸į": 3642,
      "æģĲ": 3643,
      "èº«ä»½": 3644,
      "æĵį": 3645,
      "çļĦæ·±åħ¥": 3646,
      "ç¤¾äº¤åªĴä½ĵ": 3647,
      "åľ°åĿĢ": 3648,
      "åĬ¨æľº": 3649,
      "ç»ĦåĲĪ": 3650,
      "æ·±åħ¥çĲĨè§£": 3651,
      "æ¯ĶèµĽä¸Ń": 3652,
      "æŃ»": 3653,
      "åĲĪçī©": 3654,
      "å°ıæĿ°": 3655,
      "ä¼łè¾¾": 3656,
      "æ¯ıä¸Ģä¸ª": 3657,
      "æ£®": 3658,
      "éĢłæĪĲ": 3659,
      "åħ«": 3660,
      "è®¤è¯ģ": 3661,
      "å¹´è½»äºº": 3662,
      "å¯¹æ¯Ķ": 3663,
      "æĬ½": 3664,
      "åĭ¤": 3665,
      "å¿ĥçĲĨåģ¥åº·": 3666,
      "æ¬§": 3667,
      "æıŃç¤ºäºĨ": 3668,
      "çļĦé«ĺ": 3669,
      "ï¼Įè¿Ļä¸Ģ": 3670,
      "èįĲ": 3671,
      "ä¾¿åĪ©": 3672,
      "å¡«": 3673,
      "æľ«": 3674,
      "åľ°éĹ®": 3675,
      "å®ļä½į": 3676,
      "çĪ¬": 3677,
      "æĴ°": 3678,
      "out": 3679,
      "ãĢĤä¸ºäºĨ": 3680,
      "åĩŃ": 3681,
      "å°Ĩèĥ½å¤Ł": 3682,
      "çķħ": 3683,
      "äºĨä¸ĢäºĽ": 3684,
      "éº»": 3685,
      "åįĵè¶Ĭ": 3686,
      "ra": 3687,
      "çļĦè¡Įä¸º": 3688,
      "éĹŃ": 3689,
      "å¦Ĥä½ķä½¿çĶ¨": 3690,
      "å¼ķåħ¥": 3691,
      "ç¬Ķè®°": 3692,
      "ç¥ŀç§ĺçļĦ": 3693,
      "çļĦæĵįä½ľ": 3694,
      "ot": 3695,
      "åĮ¹": 3696,
      "éĤĢ": 3697,
      "ä¸ĥ": 3698,
      "ä¸Ģèĩ´": 3699,
      "æľ¬è¯¾ç¨ĭåįķåħĥ": 3700,
      "ç»ıåħ¸": 3701,
      "åĲįç§°": 3702,
      "Ġ'": 3703,
      "æĤī": 3704,
      "é¢ĨåŁŁçļĦ": 3705,
      "ç¿»è¯ĳ": 3706,
      "åŃĶ": 3707,
      "ç¼ĺ": 3708,
      "è±ª": 3709,
      "æĿĥåĬĽ": 3710,
      "ä¸´åºĬ": 3711,
      "('": 3712,
      "éĢļè¿ĩè¿ĻäºĽ": 3713,
      "éĽ¶": 3714,
      "è¿Ļæľ¬ä¹¦": 3715,
      "æĺ¾å¾Ĺ": 3716,
      "get": 3717,
      "å¿½è§Ĩ": 3718,
      "ex": 3719,
      "ä¾µ": 3720,
      "ĠĠĠĠĠ": 3721,
      "æĺ¯ä¸Ģä½į": 3722,
      "æīĭæľ¯": 3723,
      "éļ¾ä»¥": 3724,
      "PI": 3725,
      "éĴ®": 3726,
      "çŃĶæ¡Ī": 3727,
      "çļĦéĢīæĭ©": 3728,
      "å¤®": 3729,
      "åľ¨ä¸įåĲĮ": 3730,
      "ä¹ı": 3731,
      "æĢ§æł¼": 3732,
      "åĲįä¸º": 3733,
      "æ¶Ľ": 3734,
      "å¥³æĢ§": 3735,
      "éĢĶå¾Ħ": 3736,
      "ä¸įæĩĪ": 3737,
      "cri": 3738,
      "ä»°": 3739,
      "çĶŁåĬ¨": 3740,
      "äººéĻħ": 3741,
      "èµ·æºĲ": 3742,
      "çĶ¨æĪ·ä½ĵéªĮ": 3743,
      "çļĦæŃ¥": 3744,
      "æĴ°åĨĻ": 3745,
      "ç»Łè®¡": 3746,
      "ä»Ĭå¤©": 3747,
      "ï¼ĮæĹ¨åľ¨": 3748,
      "äººå·¥": 3749,
      "âĢĿãĢĤ": 3750,
      "æ¸łéģĵ": 3751,
      "æĺİæĺ¾": 3752,
      "ãĢĤä»ĸæĦıè¯ĨåĪ°": 3753,
      "é©¾": 3754,
      "ï¼Įå°±ä¸Ģå®ļ": 3755,
      "åĳ¼åĲ¸": 3756,
      "ï¼Įèĩªå·±": 3757,
      "åħ·ä½ĵçļĦ": 3758,
      "åı³": 3759,
      "èĥģ": 3760,
      "å®ŀä¹ł": 3761,
      "ä¿ĿåŃĺ": 3762,
      "çĥģçĿĢ": 3763,
      "ï¼Įè¿Ļæ¬¡": 3764,
      "ç§ĳåŃ¦å®¶": 3765,
      "çļĦç®¡": 3766,
      "çļĦæ´»": 3767,
      "OS": 3768,
      "ï¼ĮéĢļå¸¸": 3769,
      "è§£è¯»": 3770,
      "èļ": 3771,
      "ĠE": 3772,
      "åºĨ": 3773,
      "éĩĮçļĦ": 3774,
      "çļĦä¸Ģéĥ¨åĪĨ": 3775,
      "cript": 3776,
      "la": 3777,
      "åĵ¥": 3778,
      "ä¸įä»ħä¸º": 3779,
      "æ¡¥": 3780,
      "å½¢çĬ¶": 3781,
      "åĲī": 3782,
      "è¦Ĩ": 3783,
      "æī«": 3784,
      "ï¼Įä»ĸåĨ³å®ļ": 3785,
      "èĭ±è¯Ń": 3786,
      "éģµå¾ª": 3787,
      "ï¼Įéĺ²æŃ¢": 3788,
      "Ġç¬¬åĽĽ": 3789,
      "`ï¼ļ": 3790,
      "Ġ$": 3791,
      "æľīçļĦ": 3792,
      "ç¬¬äºĮ": 3793,
      "èĦī": 3794,
      "è¾ĥä¸º": 3795,
      "æ½®": 3796,
      "è¿ĶåĽŀ": 3797,
      "è´Ŀ": 3798,
      "æĪĸç¼º": 3799,
      "å¼łä¼Ł": 3800,
      "éĤ£ä¸ª": 3801,
      "æ³¨æĦıäºĭé¡¹": 3802,
      "åŃ©åŃĲä»¬": 3803,
      "çĨŁæĤī": 3804,
      "å±ıå¹ķ": 3805,
      "Ġ*": 3806,
      "æĿĢ": 3807,
      "å¹¿åĳĬ": 3808,
      "---": 3809,
      "éģį": 3810,
      "å®¶äºº": 3811,
      "åħ»æ®ĸ": 3812,
      "our": 3813,
      "ç¡¬ä»¶": 3814,
      "å®ľ": 3815,
      "çļĦæ¯Ķ": 3816,
      "ä¸Ńå¤®": 3817,
      "çĦĬ": 3818,
      "äºĭæĥħ": 3819,
      "å®¹åĻ¨": 3820,
      "LE": 3821,
      "æ©": 3822,
      "çļĦæ¼": 3823,
      "çŃīå¤ļä¸ª": 3824,
      "éĿ¢ç§¯": 3825,
      "ä¸ĭçļĦ": 3826,
      "å²Ĺ": 3827,
      "é½Ĳ": 3828,
      "å¯¹æĸ¹": 3829,
      "äººæīį": 3830,
      "èĩªä¿¡": 3831,
      "åĢĴ": 3832,
      "å¼ºå¤§": 3833,
      "æīĢåŃ¦": 3834,
      "çģ¾": 3835,
      "æĭįæĳĦ": 3836,
      "åıĺå¾ĹæĽ´åĬł": 3837,
      "ä»¥ä¸ĭåĩłä¸ªæĸ¹éĿ¢": 3838,
      "å¹¸ç¦ı": 3839,
      "ä¿±ä¹Ĳ": 3840,
      "è°·": 3841,
      "æĤŁ": 3842,
      "ãĢĤåľ¨è¿Ļä¸ª": 3843,
      "åĳ¨æľŁ": 3844,
      "éĻ¤äºĨ": 3845,
      "æıŃå¼Ģ": 3846,
      "çļĦç¬¬": 3847,
      "éĤĢè¯·": 3848,
      "ä¿±ä¹Ĳéĥ¨": 3849,
      "}Ċ": 3850,
      "åºĻ": 3851,
      "åľ°çĲĨè§£": 3852,
      "å¤ļæ¬¡": 3853,
      "å¢¨": 3854,
      "ä¸ĵä¸ļçļĦ": 3855,
      "æĮīéĴ®": 3856,
      "æ¦": 3857,
      "Ġä¸Ģ": 3858,
      "åıĳéĢģ": 3859,
      "æĸĩæ¡£": 3860,
      "å¤ĸéĥ¨": 3861,
      "æĹ¥æľ¬": 3862,
      "èĦı": 3863,
      "udent": 3864,
      "è¹Ī": 3865,
      "èķ´": 3866,
      "å®īåħ¨æĢ§": 3867,
      "ç»ĵæŀĦåĴĮ": 3868,
      ".j": 3869,
      ".p": 3870,
      "ï¼Įçİĭ": 3871,
      "æĥħèĬĤ": 3872,
      "åĨľäº§åĵģ": 3873,
      "æŁĶ": 3874,
      "art": 3875,
      "åħ°": 3876,
      "å°¿": 3877,
      "å°ıè¯´": 3878,
      "è£ħé¥°": 3879,
      "èĥĮåĲİ": 3880,
      "åĳ¨åĽ´": 3881,
      "çĳŀ": 3882,
      "å°¾": 3883,
      "çļĦç´": 3884,
      "æķ°æį®åĪĨæŀĲ": 3885,
      "¡èĲ": 3886,
      "ãĢĤè¿Ļæł·": 3887,
      "å°±åĥı": 3888,
      "éĴ¥": 3889,
      "æľ¬åįķåħĥçļĦåŃ¦ä¹ł": 3890,
      "èĪŀè¹Ī": 3891,
      "ä¸įåı¯æĪĸç¼º": 3892,
      "åŃĹç¬¦ä¸²": 3893,
      "æ´Ľ": 3894,
      "å¸¦çĿĢ": 3895,
      "éĽĨä¸Ń": 3896,
      "æİ¨èįĲ": 3897,
      "åĪĿå§ĭ": 3898,
      "å¹¼åĦ¿": 3899,
      "Ġo": 3900,
      "éĩįå¤į": 3901,
      "èĨĢ": 3902,
      "çļĦæ²»çĸĹ": 3903,
      "ï¼ĮæıĲé«ĺäºĨ": 3904,
      "å²ģ": 3905,
      "çļĦæĶ¿æ²»": 3906,
      "åĵĪ": 3907,
      "åĳĪ": 3908,
      "åį±éĻ©": 3909,
      "æ¯Ķè¾ĥ": 3910,
      "å®¡ç¾İ": 3911,
      "ç¼ĵåŃĺ": 3912,
      "å¨ģèĥģ": 3913,
      "çļĦç®¡çĲĨ": 3914,
      "çļĦéģĵè·¯": 3915,
      "çĲ´": 3916,
      "çĽ¾": 3917,
      "ç»ıéªĮåĴĮ": 3918,
      "çļĦæĬķèµĦ": 3919,
      "ï¼Į`": 3920,
      "ï¼Įä¸ŃåĽ½": 3921,
      "ï¼ĮåıĪ": 3922,
      "çĶ²": 3923,
      "ï¼Įä»İèĢĮæıĲé«ĺ": 3924,
      "çĽĳç®¡": 3925,
      "éŁ§": 3926,
      "åĮĸä¸º": 3927,
      "ä»ĸä»¬å¯¹": 3928,
      "è®¤åĲĮ": 3929,
      "åĽ°æĥĳ": 3930,
      "å°¤ä¸º": 3931,
      "å¸Ŀ": 3932,
      "å¼łæĻĵ": 3933,
      "æĮĩå®ļ": 3934,
      "åħ¼": 3935,
      "æĵįä½ľç³»ç»Ł": 3936,
      "ç®Ģæ´ģ": 3937,
      "ï¼Įå¤§": 3938,
      "çļĦæķ´ä½ĵ": 3939,
      "åľ¨ä¸Ģä¸ª": 3940,
      "åĮĢ": 3941,
      "ä½ľä¸ļ": 3942,
      "å²©": 3943,
      "çĽ´æİ¥å½±åĵį": 3944,
      "é¢ĦæľŁç»ĵæŀľ": 3945,
      "Ġw": 3946,
      "ĠãĢĬ": 3947,
      "çļĦèīºæľ¯": 3948,
      "åľ¨ä¸Ģæ¬¡": 3949,
      "å¿Ļ": 3950,
      "å¼ºåº¦": 3951,
      "æŁ±": 3952,
      "çĥŃçĪ±": 3953,
      "è²": 3954,
      "ĠI": 3955,
      "åĪº": 3956,
      "åŃ¦éĻ¢": 3957,
      "å£ģ": 3958,
      "åĪĻæĺ¯": 3959,
      "æ¼ı": 3960,
      "è®¢åįķ": 3961,
      "åĨ°": 3962,
      "ä¸ĭéĻį": 3963,
      "ç«Ł": 3964,
      "æĿİæ¸ħ": 3965,
      "çŁ¥è¯ĨåĴĮ": 3966,
      "è²Į": 3967,
      "ä¸Ģä¸ĭ": 3968,
      "çŁ¥åĲį": 3969,
      "å¤įä¹ł": 3970,
      "åı¦ä¸Ģä¸ª": 3971,
      "Ġå®ŀè·µ": 3972,
      "äººåı£": 3973,
      "åħ±äº«": 3974,
      "åĽ¢éĺŁæĪĲåĳĺ": 3975,
      "çļĦçĭ¬çī¹": 3976,
      "ä¸Ĭè¿°": 3977,
      "ç®¡çĲĨåĴĮ": 3978,
      "èĢģäºº": 3979,
      "æĿĥéĻĲ": 3980,
      "å¼ķèµ·äºĨ": 3981,
      "éĩįå¤§": 3982,
      "è§Ħå¾ĭ": 3983,
      "åıĬåħ¶åľ¨": 3984,
      "çļĦæ°Ķ": 3985,
      "çĦ¦èĻĳ": 3986,
      "ï¼Įç»§ç»Ń": 3987,
      "ï¼ĮéĻįä½İ": 3988,
      "æıĲåĩºäºĨ": 3989,
      "èĩªå®ļä¹ī": 3990,
      "å¼ĢæĶ¾": 3991,
      "æ·±åº¦": 3992,
      "åĲĮåŃ¦ä»¬": 3993,
      "çļĦæĸ¹å¼ı": 3994,
      "ä¹ĺ": 3995,
      "æłı": 3996,
      "æĹ¶çļĦ": 3997,
      "çİ°åľº": 3998,
      "æ°ĽåĽ´": 3999,
      "ç½²": 4000,
      "äº¤äºĴ": 4001,
      "ï¼ĮæĤ¨åı¯ä»¥": 4002,
      "å¯¸": 4003,
      "èµĭ": 4004,
      "æµª": 4005,
      "é«ĺçº§": 4006,
      "çī©æµģ": 4007,
      "åĵģç§į": 4008,
      "éĩĳå±ŀ": 4009,
      "èĲ¥éĶĢ": 4010,
      "é©¶": 4011,
      "é²ģ": 4012,
      ".com": 4013,
      "ä¸ªæĢ§åĮĸ": 4014,
      "ml": 4015,
      "ä¸Ńåįİ": 4016,
      "å¹»": 4017,
      "æŁ¥éĺħ": 4018,
      "å¾ªçİ¯": 4019,
      "ãĢĤæĹłè®º": 4020,
      "è°¨": 4021,
      "ä¼ĺçĤ¹": 4022,
      "åĩıè½»": 4023,
      "çº·çº·": 4024,
      "ï¼Įå°¤åħ¶æĺ¯": 4025,
      "QL": 4026,
      "è¿Ľç¨ĭ": 4027,
      "è¿ĽåĪ¶": 4028,
      "éĢĤéĩı": 4029,
      "éķľåĥı": 4030,
      "Ġå°Ĩ": 4031,
      "Ġä¸ī": 4032,
      "ï¼Įä¼ģä¸ļ": 4033,
      "ä½©": 4034,
      "å·¦": 4035,
      "å§Ĩ": 4036,
      "éĤ£ä¹Ī": 4037,
      "ãĢĤæľ¬åįķåħĥ": 4038,
      "è´·": 4039,
      "æĮ¯": 4040,
      "è¾Ĩ": 4041,
      "ä¸ĭåİ»": 4042,
      "ç±»ä¼¼": 4043,
      "çľ¼çĿĽ": 4044,
      "å¡ŀ": 4045,
      "çļĦæŃ£": 4046,
      "çĪ¶æ¯į": 4047,
      "æĭĽ": 4048,
      "è¾ĥä½İ": 4049,
      "åĿĩåĮĢ": 4050,
      "çļĦçĹħ": 4051,
      "ĠçļĦ": 4052,
      "çļĦè¡¨çİ°": 4053,
      "èĬ¯": 4054,
      "åĪĽä¸ļ": 4055,
      "é¡¹çĽ®çļĦ": 4056,
      "æĿĳæ°ĳä»¬": 4057,
      "ï¼Įçī¹åĪ«æĺ¯": 4058,
      "__": 4059,
      "ect": 4060,
      "ï¼ĮåıĬæĹ¶": 4061,
      "ä¸Ģéĥ¨åĪĨ": 4062,
      "ä¾§": 4063,
      "æĹ¶åĪ»": 4064,
      "å®¶æĹı": 4065,
      "ä»İæľª": 4066,
      "åĽ¢ç»ĵ": 4067,
      "è¯¾åłĤ": 4068,
      "çļĦçĶŁéķ¿": 4069,
      "çļĦçĪ±": 4070,
      "åĴĮçĶŁæ´»": 4071,
      "å¿ł": 4072,
      "çĽ¸åħ³çļĦ": 4073,
      "æķĮäºº": 4074,
      "ãĢĤä¸Ģä¸ª": 4075,
      "å®¾": 4076,
      "å°ĺ": 4077,
      "è¿ĩç¨ĭä¸ŃçļĦ": 4078,
      "å½±åĵįåĬĽ": 4079,
      "åīįæĻ¯": 4080,
      "èĪ¬": 4081,
      "è¯¦ç»Ĩä»ĭç»į": 4082,
      "dow": 4083,
      "æĭĵå±ķ": 4084,
      "åĵªäºĽ": 4085,
      "èµ¢å¾ĹäºĨ": 4086,
      "çŃīæĸ¹å¼ı": 4087,
      "çĿĢä¸Ģ": 4088,
      "çķª": 4089,
      "è§Ĩéĩİ": 4090,
      "ï¼Įä½¿åħ¶": 4091,
      "èĳĹåĲį": 4092,
      "çļĦåħīèĬĴ": 4093,
      "ĠäºĮ": 4094,
      "ï¼ĮåĪ¶å®ļ": 4095,
      "åĬłå¯Ĩ": 4096,
      "éķ¿æĹ¶éĹ´": 4097,
      "çĥŁ": 4098,
      "ç½ĳç»ľå®īåħ¨": 4099,
      "åĲ«æľī": 4100,
      "åĮ¹éħį": 4101,
      "..": 4102,
      "ï¼Įåı¯èĥ½ä¼ļ": 4103,
      "çļĦæĭ": 4104,
      "ä»İä¸Ń": 4105,
      "èģĮåľº": 4106,
      "æ°ĶåĢĻ": 4107,
      "ï¼Įåı¯ä»¥å¸®åĬ©": 4108,
      "ç¼ĸè¯ĳ": 4109,
      "è½»è½»": 4110,
      "ï¼Įåħ¶ä¸Ń": 4111,
      "å®ĹæķĻ": 4112,
      "op": 4113,
      "çļĦæĸ°": 4114,
      "ãĢĤåıªæľī": 4115,
      "åĪ¸": 4116,
      "éĩıåŃĲ": 4117,
      "ï¼Įè¿Ļæł·": 4118,
      "é¢ĳçİĩ": 4119,
      "èĥľåĪ©": 4120,
      "ï¼ĮãĢĬ": 4121,
      "åı¹": 4122,
      "å±ķæľĽ": 4123,
      "åĪĽæĦı": 4124,
      "ç¾İä¸½": 4125,
      "ç¦ģ": 4126,
      "å±ħä½ı": 4127,
      "è¸ª": 4128,
      "åıĻ": 4129,
      "èĥ½æī¾åĪ°": 4130,
      "çļĦæ¶": 4131,
      "æĽ¿": 4132,
      "å¿ĥåİ»": 4133,
      "è¿ĺæľī": 4134,
      "éĢīæĭ©åĲĪéĢĤçļĦ": 4135,
      "é¸£": 4136,
      "ä¼łç»ŁæĸĩåĮĸ": 4137,
      "æ·±è¿ľçļĦå½±åĵį": 4138,
      "æ¡Į": 4139,
      "è§Ĥçľĭ": 4140,
      "ç²¾ç¡®": 4141,
      "çļ®èĤ¤": 4142,
      "ä¿Ĺ": 4143,
      "èµĦæľ¬": 4144,
      "åıªè¦ģ": 4145,
      "ä¾ĿçĦ¶": 4146,
      "å¥łå®ļäºĨ": 4147,
      "ä¸ģ": 4148,
      "è®¶": 4149,
      "ä¸įå®ī": 4150,
      "çľŁçĽ¸": 4151,
      "æ¶Īæģ¯": 4152,
      "ä¸Ģå®ļçļĦ": 4153,
      "éģĹäº§": 4154,
      "çļĦæ²ŁéĢļ": 4155,
      "åĴĮåħ¶ä»ĸ": 4156,
      "æľīä¸Ģå¤©": 4157,
      "åŃ¦çĶŁåľ¨": 4158,
      "éļĶ": 4159,
      "ç»Łä¸Ģ": 4160,
      "çļĦçłĶç©¶æĪĲæŀľ": 4161,
      "åĲĪçĲĨçļĦ": 4162,
      "æĥĬè®¶": 4163,
      "äºİæĺ¯": 4164,
      "è¿Ĳä½ľ": 4165,
      "çĥŃæĥħ": 4166,
      "è®²è§£": 4167,
      "æµĵåİļ": 4168,
      "nd": 4169,
      "Ġth": 4170,
      "è¿Ļæ®µ": 4171,
      "ä»¥åħ¶": 4172,
      "ä¸įä»ħåľ¨": 4173,
      "æİ¥åı£": 4174,
      "æ³¨åĨĮ": 4175,
      "ï¼ĮèĢĮä¸Ķ": 4176,
      "çļĦæµģ": 4177,
      "åĲĥ": 4178,
      "åľ°åĽ¾": 4179,
      "èĥ½å¤Łå¸®åĬ©": 4180,
      "çĥ¤": 4181,
      "æĹ¶éĹ´åĴĮ": 4182,
      "éĵģè·¯": 4183,
      "ww": 4184,
      "ï¼Įè®¸å¤ļ": 4185,
      "æĸ¹ç¨ĭ": 4186,
      "å¾®ç¬ĳçĿĢè¯´": 4187,
      "oid": 4188,
      "ĠéĢļè¿ĩ": 4189,
      "çļĦèĲ¥åħ»": 4190,
      "èĥĥ": 4191,
      "è¿ĻæĹ¶": 4192,
      "ç»ıå¸¸": 4193,
      "è¿Ĳè¾ĵ": 4194,
      "ç§ĳåŃ¦çłĶç©¶": 4195,
      "ç¢³": 4196,
      "ç§įç±»": 4197,
      "å¢Ļ": 4198,
      "çĻĮ": 4199,
      "è´¢å¯Į": 4200,
      "åĿļå®ļåľ°è¯´": 4201,
      "èĤª": 4202,
      "éĽĨæĪĲ": 4203,
      "äº²èĩª": 4204,
      "çļĦå·¥ä½ľåİŁçĲĨ": 4205,
      "çĽ¸åºĶçļĦ": 4206,
      "èĦĤèĤª": 4207,
      "åķĬ": 4208,
      "çĬ¯": 4209,
      "è´¢æĶ¿": 4210,
      "ï¼Įçľ¼ä¸ŃéĹª": 4211,
      "ow": 4212,
      "ocker": 4213,
      "Ġè¯¾ç¨ĭåįķåħĥ": 4214,
      "é«ĺè´¨éĩı": 4215,
      "æ·±æ·±": 4216,
      "ç³»ç»Łä¸Ń": 4217,
      "åĽŀåĪ°": 4218,
      "éĴ±": 4219,
      "éķľå¤´": 4220,
      "--------": 4221,
      "Ġret": 4222,
      "urn": 4223,
      "ï¼ĮåĲ¸å¼ķ": 4224,
      "è¯º": 4225,
      "è´¯": 4226,
      "çĤĴ": 4227,
      "åĢ¼å¾Ĺ": 4228,
      "æĹħç¨ĭ": 4229,
      "çļĦæ·±åĪ»": 4230,
      "æ°´èµĦæºĲ": 4231,
      "å¥¹çļĦ": 4232,
      "ç¼ºä¹ı": 4233,
      "éĤ®ä»¶": 4234,
      "ï¼Įå¤§åŃ¦çĶŁ": 4235,
      "åİħ": 4236,
      "ç¬ĳäºĨ": 4237,
      "èĩªåĬ¨åĮĸ": 4238,
      "Lin": 4239,
      "pp": 4240,
      "ãĢĭä¸ŃçļĦ": 4241,
      "ä»ĵåºĵ": 4242,
      "è¦ĨçĽĸ": 4243,
      "æī«æıı": 4244,
      "çļĦæĢ§èĥ½": 4245,
      "åľ°äº§": 4246,
      "å°ıéķĩ": 4247,
      "æľºéģĩ": 4248,
      "ï¼Įåį´": 4249,
      "çļĦä¸ĸçķĮ": 4250,
      "ãĢĤåħ¶": 4251,
      "ä½ľèĢħ": 4252,
      "å¤ļåħĥ": 4253,
      "çº¯": 4254,
      "ä¸ŃçļĦéĩįè¦ģæĢ§": 4255,
      "æıĲä¾ĽäºĨä¸°å¯ĮçļĦ": 4256,
      "ç¼ĸçłģ": 4257,
      "ç©ºæ°Ķ": 4258,
      "çĶŁæĢģçİ¯å¢ĥ": 4259,
      "Ġcon": 4260,
      "è½¬æį¢ä¸º": 4261,
      "çļĦæ¼Ķ": 4262,
      "æĦŁåħ´è¶£": 4263,
      "ä½łåľ¨": 4264,
      "ï¼ĪC": 4265,
      "æ»¡æĦı": 4266,
      "éĺ²å®Ī": 4267,
      "æŁĲä¸ª": 4268,
      "è®²åº§": 4269,
      "https": 4270,
      "so": 4271,
      "Ġg": 4272,
      "åľ°çĤ¹": 4273,
      "å¿ĥçģµ": 4274,
      "èĩªå·±çļĦæ¢¦æĥ³": 4275,
      "è£Ĥ": 4276,
      "ç´¢å¼ķ": 4277,
      "é¼ł": 4278,
      "åĶ±": 4279,
      "è®²è¿°": 4280,
      "çļĦçº¿": 4281,
      "io": 4282,
      "ï¼Įå°ıæĺİ": 4283,
      "åĴĮåĪĨæŀĲ": 4284,
      "åĴĮæĬĢæľ¯": 4285,
      "å¹½": 4286,
      "å°ıå¿ĥ": 4287,
      "æİ¥è§¦": 4288,
      "çģĮ": 4289,
      "èĤ¡ç¥¨": 4290,
      "æĻļä¸Ĭ": 4291,
      "çļĦä¸Ģç§į": 4292,
      "ãĢĤåħ·ä½ĵ": 4293,
      "çļĦçĸ": 4294,
      "åĲĪæĪĲ": 4295,
      "ä¹¦æ³ķèīºæľ¯": 4296,
      "çĩ¥": 4297,
      "çļĦåĲĮæĹ¶": 4298,
      "åĲĪæ³ķ": 4299,
      "æ¯ķ": 4300,
      "çĽ¸æľº": 4301,
      "æĥ³è¦ģ": 4302,
      "éļ¾é¢ĺ": 4303,
      "ä¸ªäººçļĦ": 4304,
      "æ·±åĪ»çļĦ": 4305,
      "æ¥ļ": 4306,
      "èĮĥåĽ´åĨħ": 4307,
      "çļĦåĬŁèĥ½": 4308,
      "ãĢĤå°½ç®¡": 4309,
      "å¤«": 4310,
      "åľ°äºĨè§£": 4311,
      "æĸĩæĺİ": 4312,
      "è°ĥåĳ³": 4313,
      "ç»ĺçĶ»": 4314,
      "åľ°çĲĨä½įç½®": 4315,
      "åı¤èĢģçļĦ": 4316,
      "åĨĴéĻ©": 4317,
      "å¦Ĥä¸ĭ": 4318,
      "æµ¸": 4319,
      "é«ĺæ¸©": 4320,
      "æ¶Į": 4321,
      "åĪĨæŀĲåĴĮ": 4322,
      "æĥ³è±¡": 4323,
      "è§Ĩè§Ĵ": 4324,
      "å¥¥ç§ĺ": 4325,
      "LL": 4326,
      "TM": 4327,
      "ç§ĭ": 4328,
      "æĪĲç«ĭ": 4329,
      "æĻĭ": 4330,
      "éĥ¨ç½²": 4331,
      "çľŁæŃ£çļĦ": 4332,
      "èĶ¬": 4333,
      "å°ºå¯¸": 4334,
      "us": 4335,
      "åĪĨéĴŁ": 4336,
      "åĦĴ": 4337,
      "éº¦": 4338,
      "çļĦæŃ¥éª¤": 4339,
      "Ġreturn": 4340,
      "ãĢĤäºĨè§£": 4341,
      "ä¼¸": 4342,
      "åħ¬å¼ı": 4343,
      "è®¤çľŁ": 4344,
      "çļĦæłĩ": 4345,
      "çļ±": 4346,
      "ãĢĤå¯¹äºİ": 4347,
      "å®ı": 4348,
      "çī©ä½ĵ": 4349,
      "ä¹ĭè·¯": 4350,
      "èį·": 4351,
      "æĹ©æľŁ": 4352,
      "SQL": 4353,
      "åĴĮæĻºæħ§": 4354,
      "æĢĴ": 4355,
      "æ³Ħ": 4356,
      "æĬµ": 4357,
      "æĬĳ": 4358,
      "ç¨¿": 4359,
      "ï¼Įä»ĸåľ¨": 4360,
      "ï¼īãĢģ": 4361,
      "èŀįåħ¥": 4362,
      "çħ§çīĩ": 4363,
      "è¯ĹæŃĮ": 4364,
      "åŃ¦ä¼ļäºĨå¦Ĥä½ķ": 4365,
      "å¿į": 4366,
      "çļĦç©": 4367,
      "è·ĥ": 4368,
      "ãĢĤéĢļè¿ĩè¿ĻäºĽ": 4369,
      "æĻ¯è§Ĥ": 4370,
      "å¯ĨåĪĩ": 4371,
      "ç®ĢåĮĸ": 4372,
      "æī¿æĭħ": 4373,
      "èħĶ": 4374,
      "è¡¥åħħ": 4375,
      "ãĢĤä»İ": 4376,
      "ï¼Įä»ĸå¼Ģå§ĭ": 4377,
      "çĶŁæ´»çļĦ": 4378,
      "ç¾İå¥½": 4379,
      "èİī": 4380,
      "ç»ĻäºĪ": 4381,
      "æĥħåĨµä¸ĭ": 4382,
      "éģµå®Ī": 4383,
      "çļĦæ±": 4384,
      "äºĭæķħ": 4385,
      "æ»ļ": 4386,
      "åįķä½į": 4387,
      "æĶ¶çĽĬ": 4388,
      "å¸¦é¢Ĩ": 4389,
      "èĵĿ": 4390,
      "åīª": 4391,
      "ãĢĭçļĦ": 4392,
      "èİ·å¾ĹäºĨ": 4393,
      "po": 4394,
      "äººåĬĽ": 4395,
      "ä¸İåħ¶ä»ĸ": 4396,
      "æİ¥æĶ¶": 4397,
      "ç¬¬ä¸Ģ": 4398,
      "æĿĳçļĦ": 4399,
      "åı£æĦŁ": 4400,
      "æ¦Ĥè¿°": 4401,
      "é¹": 4402,
      "éħµ": 4403,
      "åģļåĩºäºĨ": 4404,
      "èŀº": 4405,
      "ç¾¤ä½ĵ": 4406,
      "æŃ£ç¡®çļĦ": 4407,
      "ï¼ĮçĲĨè§£": 4408,
      "ä¹±": 4409,
      "å±ĭ": 4410,
      "éĿ¢è¯ķ": 4411,
      "éĺ²æĬ¤": 4412,
      "è¿ª": 4413,
      "è¿Ļåľº": 4414,
      "å¿§": 4415,
      "è¾¨": 4416,
      "ç«¹": 4417,
      "ä¿¡çĶ¨": 4418,
      "åģ¶": 4419,
      "åĬ³åĬ¨": 4420,
      "æ£®æŀĹ": 4421,
      "ï¼Įæī¾åĪ°": 4422,
      "ï¼ĮæĪĸèĢħ": 4423,
      "çļĦåĩĨç¡®": 4424,
      "åĴĮæĥħæĦŁ": 4425,
      "ä»ĸå¯¹": 4426,
      "åı¯ä»¥æł¹æį®": 4427,
      "æĶ¾æĿ¾": 4428,
      "åģļå¥½": 4429,
      "ä¼ĳæģ¯": 4430,
      "å¤ı": 4431,
      "åľ°çĲĥ": 4432,
      "åĬłæ·±": 4433,
      "ä¿¡ä»°": 4434,
      "åıĳå±ķçļĦ": 4435,
      "èĲ¨": 4436,
      "éĺ³åħī": 4437,
      "çł´åĿı": 4438,
      "çĶ·åŃĲ": 4439,
      "My": 4440,
      "åĪĢ": 4441,
      "ãĢģæĸĩåĮĸ": 4442,
      "log": 4443,
      "ist": 4444,
      "åĲ´": 4445,
      "æŃ£ä¹ī": 4446,
      "åĲĦç±»": 4447,
      "å®ŀéĻħæ¡Īä¾ĭ": 4448,
      "èıĩ": 4449,
      "èĳ¡èĲ": 4450,
      "æĳĦåĥı": 4451,
      "ç»ĵæĿŁåĲİ": 4452,
      "èĬ¯çīĩ": 4453,
      "èĳ¡èĲĦ": 4454,
      "æĪª": 4455,
      "ä¸Ģéĺµ": 4456,
      "éĥģ": 4457,
      "æĥ§": 4458,
      "å½±åĵįäºĨ": 4459,
      "åĮĹäº¬": 4460,
      "èĿ¶": 4461,
      "åĴĮä¼ĺåĮĸ": 4462,
      "æıĲéĨĴ": 4463,
      "éģ¥": 4464,
      "æīĵä¸ĭåĿļå®ŀçļĦåŁºç¡Ģ": 4465,
      "è¡Ĺ": 4466,
      "åįĸ": 4467,
      "é¡¿": 4468,
      "æµģåĬ¨": 4469,
      "æŁ¥æī¾": 4470,
      "å¢ŀå¼ºäºĨ": 4471,
      "ï¼Įä¸Ĭ": 4472,
      "å°ıç»Ħ": 4473,
      "éĽķ": 4474,
      "å°ĳå¹´": 4475,
      "å®ģéĿĻ": 4476,
      "ï¼ĮæİĮæı¡": 4477,
      "ï¼ĮçªģçĦ¶": 4478,
      "æ³¢åĬ¨": 4479,
      "æ½ľåĬĽ": 4480,
      "çĽĽ": 4481,
      "çº¤": 4482,
      "èĤ´": 4483,
      "æĸ¹æ³ķåĴĮ": 4484,
      "åīįå¾Ģ": 4485,
      "åİŁåŃĲ": 4486,
      "ens": 4487,
      "çļĦçģµ": 4488,
      "java": 4489,
      "æľµ": 4490,
      "çŃīé¢ĨåŁŁ": 4491,
      "ä¹Ĳè¶£": 4492,
      "çħ®": 4493,
      "roid": 4494,
      "ample": 4495,
      "set": 4496,
      "import": 4497,
      "æ²īæĢĿ": 4498,
      "å¡ĳéĢł": 4499,
      "CP": 4500,
      "åĴĮçłĶç©¶": 4501,
      "æľīåħ³": 4502,
      "çļĦæ¨": 4503,
      "å®ŀæĪĺ": 4504,
      "çļĦçŁ": 4505,
      "æ¯«": 4506,
      "end": 4507,
      "è¯ģæį®": 4508,
      "æłĳç«ĭ": 4509,
      "ï¼ĮéĤ£ä¹Ī": 4510,
      "ï¼ĮåŃ¦ä¹ł": 4511,
      "ï¼Įæİ¢è®¨": 4512,
      "ï¼Įè¯·": 4513,
      "åºĶçĶ¨åĪ°": 4514,
      "æ²»çĲĨ": 4515,
      "éŁ©": 4516,
      "ult": 4517,
      "ä¸ĵæ³¨äºİ": 4518,
      "ain": 4519,
      "çļĦå£°éŁ³": 4520,
      "çľł": 4521,
      "å°ıå®Ŀ": 4522,
      "åĽ¾æ¡Ī": 4523,
      "ç´§æĢ¥": 4524,
      "å¤ļæł·åĮĸ": 4525,
      "çļĦæ¯ıä¸Ģä¸ª": 4526,
      "çļĦæ³ķå¾ĭ": 4527,
      "nt": 4528,
      "ĠR": 4529,
      "Ġ[": 4530,
      "åĿļä¿¡": 4531,
      "çģŃ": 4532,
      "åıĳçİ°äºĨä¸Ģ": 4533,
      "ord": 4534,
      "ä¸¾åĬŀ": 4535,
      "ï¼Įä¿ĿæĬ¤": 4536,
      "æľ±": 4537,
      "ä¸Ńåħħæ»¡äºĨ": 4538,
      "ç»ıçĲĨ": 4539,
      "ä¸ŃçļĦä½ľçĶ¨": 4540,
      "å§ĵ": 4541,
      "è§Ĥæµĭ": 4542,
      "up": 4543,
      "ä¹³": 4544,
      "çļĦç½ĳç»ľ": 4545,
      "Ser": 4546,
      "ä¸Ģæ®µ": 4547,
      "ä¸Ńèį¯": 4548,
      "ä¸įåĨį": 4549,
      "å¦ĤæŃ¤": 4550,
      "æ·±åĲ¸": 4551,
      "å½ĵæĹ¶": 4552,
      "èµĦæºĲåĴĮ": 4553,
      "é¡¹çĽ®ä¸Ń": 4554,
      "çĸĹæ³ķ": 4555,
      "æħ°": 4556,
      "ä¸°å¯ĮäºĨ": 4557,
      "ç¢İ": 4558,
      "èĤ©èĨĢ": 4559,
      "çļĦåŃ¦æľ¯": 4560,
      "ãĢĤç»ıè¿ĩ": 4561,
      "åįĩçº§": 4562,
      "æĹ¥å¿Ĺ": 4563,
      "ice": 4564,
      "ç§°ä¸º": 4565,
      "æ§": 4566,
      "ï¼ĮéĢĤåĲĪ": 4567,
      "åĪĨåĪ«": 4568,
      "æįī": 4569,
      "indow": 4570,
      "èĢĥéªĮ": 4571,
      "åº·å¤į": 4572,
      "å¿Ĺå¼º": 4573,
      "çļĦæĬĢèĥ½": 4574,
      "çļĦæ¸©": 4575,
      "æ¶µçĽĸäºĨ": 4576,
      "ï¼Įè¯»èĢħ": 4577,
      "å¯º": 4578,
      "è°ĥçĶ¨": 4579,
      "çľĭçľĭ": 4580,
      "éŁ³é¢ĳ": 4581,
      "res": 4582,
      "æĭħå¿ĥ": 4583,
      "é¢Ŀå¤ĸ": 4584,
      "çļĦç«ŀ": 4585,
      "ï¼Įé¼ĵåĬ±": 4586,
      "çĶŁåŃĺ": 4587,
      "ä¸įä»ħåı¯ä»¥": 4588,
      "æĪĸåħ¶ä»ĸ": 4589,
      "æ¤Ĵ": 4590,
      "çıł": 4591,
      "æĳĦå½±": 4592,
      "åı¯éĿłæĢ§": 4593,
      "Ģæľī": 4594,
      "çļĦç¨³å®ļ": 4595,
      "è¯¸": 4596,
      "çļĦæ½": 4597,
      "çĽ¸ç»ĵåĲĪ": 4598,
      "çĶŁæ´»è´¨éĩı": 4599,
      "ï¼ĮèĢĮä¸įæĺ¯": 4600,
      "åĩłå¤©": 4601,
      "çļĦæ³¨": 4602,
      "å¹¼åĦ¿åĽŃ": 4603,
      "çļĦä½įç½®": 4604,
      "ãĢģç¤¾ä¼ļ": 4605,
      "æİĺ": 4606,
      "è¡ĮçļĦ": 4607,
      "âĢľæĪĳ": 4608,
      "å¤§åĪ©": 4609,
      "åħ¨åĽ½": 4610,
      "è¿Ĳç®Ĺ": 4611,
      "èµ·äºĨ": 4612,
      "ï¼Įåı¯ä»¥éĢļè¿ĩ": 4613,
      "ä¸¤ç§į": 4614,
      "ç¦»å¼Ģ": 4615,
      "å®ĪæĬ¤": 4616,
      "oot": 4617,
      "èĶ¬èıľ": 4618,
      "ï¼Įè¿Ľä¸ĢæŃ¥": 4619,
      "æķĪçĽĬ": 4620,
      "æĹ¶éĹ´åĨħ": 4621,
      "æĽ´åĬłåĿļå®ļ": 4622,
      "èĥĮæĻ¯åĴĮ": 4623,
      "åĬŀæ³ķ": 4624,
      "èį£èªī": 4625,
      "\\(": 4626,
      "bash": 4627,
      "ĠåĴĮ": 4628,
      "ï¼ĮæĿ¥": 4629,
      "åĴĮæĸ¹æ³ķ": 4630,
      "å·©": 4631,
      "æĥľ": 4632,
      "è°±": 4633,
      "ï¼Įè¿ĺåı¯ä»¥": 4634,
      "æłĩå¿Ĺ": 4635,
      "æľĢæĸ°": 4636,
      "åħħè¶³": 4637,
      "for": 4638,
      "ment": 4639,
      "pro": 4640,
      "çļĩ": 4641,
      "çļĦéŁ³ä¹Ĳ": 4642,
      "çīĻ": 4643,
      "ç§įåŃĲ": 4644,
      "çĶµæµģ": 4645,
      "éĶħ": 4646,
      "åı¯èĥ½éľĢè¦ģ": 4647,
      "è®¾è®¡å¸Ī": 4648,
      "è®°è½½": 4649,
      "è¯»åıĸ": 4650,
      "å¨ĺ": 4651,
      "å¹²æī°": 4652,
      "éģĹä¼ł": 4653,
      "æ··åĲĪ": 4654,
      "Ġa": 4655,
      "ï¼Įæł¹æį®": 4656,
      "çļĦæĽ": 4657,
      "è¿Ľå±ķ": 4658,
      "çĶµæľº": 4659,
      "çĶµåİĭ": 4660,
      "åħ¬æŃ£": 4661,
      "éĢīé¡¹": 4662,
      "è§ĴèĲ½": 4663,
      "è½¬åĮĸä¸º": 4664,
      "all": 4665,
      "ç§¦": 4666,
      "ink": 4667,
      "æŀĦæĪĲ": 4668,
      "let": 4669,
      "ï¼ĮèĻ½çĦ¶": 4670,
      "äºĨèĩªå·±çļĦ": 4671,
      "ä¸ĢåĪĩ": 4672,
      "âĢľæĪĳä»¬": 4673,
      "ä½¿åĳ½": 4674,
      "åĻª": 4675,
      "é¥²": 4676,
      "è´ŁéĿ¢": 4677,
      "éļĲç§ģ": 4678,
      "å¿ħè¦ģçļĦ": 4679,
      "çļĦæ¡Ī": 4680,
      "äºĨè®¸å¤ļ": 4681,
      "æīİ": 4682,
      "åİ¨": 4683,
      "æĿİå¤§": 4684,
      "éĶĲ": 4685,
      "åĲ«ä¹ī": 4686,
      "();Ċ": 4687,
      "ï¼ĮåŃ¦æł¡": 4688,
      "ä¹Ŀ": 4689,
      "å·Ŀ": 4690,
      "çŃīå¤ļç§į": 4691,
      "çłĤ": 4692,
      "çĶµæºĲ": 4693,
      "ç§ĳåŃ¦çļĦ": 4694,
      "æĪĲä¸ºä¸ĢåĲį": 4695,
      "å¿«ä¹Ĳ": 4696,
      "æī¹åĪ¤": 4697,
      "Git": 4698,
      "ir": 4699,
      "tim": 4700,
      "yst": 4701,
      "ï¼ĮæĹł": 4702,
      "ãĢĤ###": 4703,
      "å¯Ĵ": 4704,
      "çľī": 4705,
      "å®ŀçİ°é¢ĦæľŁç»ĵæŀľ": 4706,
      "èİ«": 4707,
      "æĹ¥å¸¸çĶŁæ´»": 4708,
      "é£ŀæľº": 4709,
      "ight": 4710,
      "è¾Ľ": 4711,
      "è½¨": 4712,
      "å§¿": 4713,
      "æĳĺ": 4714,
      "ä½ıå®": 4715,
      "ï¼ĮæĽ´æĺ¯å¯¹": 4716,
      "éĢ¸é£İ": 4717,
      "çļĦæ½ľ": 4718,
      "çļĦä¸ĵä¸ļ": 4719,
      "çļĦä¼ĺåĬ¿": 4720,
      "ä¸Ģå®¶": 4721,
      "åĮĸåĴĮ": 4722,
      "çļĦç±": 4723,
      "éĺĶ": 4724,
      "éĴ¢": 4725,
      "è½¦è¾Ĩ": 4726,
      "é¾Ħ": 4727,
      "å¿łè¯ļ": 4728,
      "user": 4729,
      "å¹´ä»£": 4730,
      "éľĢæ±ĤåĴĮ": 4731,
      "åĽ¢éĺŁåįıä½ľ": 4732,
      "åĲ¸æĶ¶": 4733,
      "HP": 4734,
      "çļĦåŃ¦çĶŁ": 4735,
      "ä¸ŃåŃ¦": 4736,
      "èĥĢ": 4737,
      "è¿Ļä¹Ī": 4738,
      "åĩ¡": 4739,
      "ä¸»äºº": 4740,
      "å£®": 4741,
      "ä¸īä¸ª": 4742,
      "èĭ±éĽĦ": 4743,
      "è¯ļä¿¡": 4744,
      "å·©åĽº": 4745,
      "ï¼Įæ¯Ķå¦Ĥ": 4746,
      "çļĦè¯Ŀ": 4747,
      "çĶ¨æĿ¥": 4748,
      "åĲĮäºĭ": 4749,
      "ï¼Įè¿ĺéľĢè¦ģ": 4750,
      "åķĨæłĩ": 4751,
      "ç´§å¯Ĩ": 4752,
      "çłĶåıĳ": 4753,
      "ç«ŀèµĽ": 4754,
      "Ġpublic": 4755,
      "èĮ¶åı¶": 4756,
      "å²Ĺä½į": 4757,
      "ve": 4758,
      "ï¼Įä¼ļ": 4759,
      "çļĦçİ¯å¢ĥ": 4760,
      "åľĪ": 4761,
      "è¿Ļä»½": 4762,
      "çŃ¹": 4763,
      "çº¹": 4764,
      "ä¹ĭå¤Ħ": 4765,
      "ï¼īĊĊ": 4766,
      "ç¾İé£Ł": 4767,
      "çīĩåĪ»": 4768,
      "æ¸ħæ´ģ": 4769,
      "Ġæķħäºĭ": 4770,
      "ä¼į": 4771,
      "åĲĪåĲĮ": 4772,
      "èĬ³": 4773,
      "åĳ¨è¾¹": 4774,
      "åıĳçĶŁäºĨ": 4775,
      "ello": 4776,
      "çĵ¶": 4777,
      "æ³ķåĴĮ": 4778,
      "å·¥ä½ľä¸Ń": 4779,
      "è¿Ļä¸ªéĹ®é¢ĺ": 4780,
      "åıĳæĮ¥çĿĢ": 4781,
      "çļĦæİ¢ç´¢": 4782,
      "çļĦæ¨¡": 4783,
      "çļĦå»ºè®®": 4784,
      "è¿Ŀ": 4785,
      "åºŁ": 4786,
      "æĺ¯ä»Ģä¹Ī": 4787,
      "èĢķ": 4788,
      "å¿ĺ": 4789,
      "åĿĽ": 4790,
      "èģĺ": 4791,
      "æľĢè¿ĳ": 4792,
      "è£ħç½®": 4793,
      "Ġç¬¬äºĶ": 4794,
      "æııç»ĺ": 4795,
      "çİĽ": 4796,
      "çļĦæŁ": 4797,
      "æıĲç¤º": 4798,
      "æĮ«": 4799,
      "å±ķå¼Ģ": 4800,
      "æľ¬åľ°": 4801,
      "åĽ½çļĦ": 4802,
      "ä¼ĺåħĪ": 4803,
      "æĪ¿åľ°äº§": 4804,
      "ĠåĽĽ": 4805,
      "ĽçĽ¾": 4806,
      "è¿ĩäºİ": 4807,
      "çļĦæ¤": 4808,
      "æĺĵäºİ": 4809,
      "åĳĬè¯īæĪĳä»¬": 4810,
      "ize": 4811,
      "ID": 4812,
      "ag": 4813,
      "Ġde": 4814,
      "çĶĺ": 4815,
      "æ°ı": 4816,
      "å¿ĥæĢģ": 4817,
      "è¾Ĳ": 4818,
      "æºª": 4819,
      "åĨľä½ľçī©": 4820,
      "åĽŀåºĶ": 4821,
      "ä¿ĥè¿ĽäºĨ": 4822,
      "èıľèĤ´": 4823,
      "ĠäºĨè§£": 4824,
      "çļĦæĪĲéķ¿": 4825,
      "åĴĮæĶ¯æĮģ": 4826,
      "åĽĬ": 4827,
      "çĪ¸": 4828,
      "åĽŀé¡¾": 4829,
      "åĢŁéī´": 4830,
      "çļĦå¿ĥæĢģ": 4831,
      "çĻ»å½ķ": 4832,
      "é©¾é©¶": 4833,
      "ï¼ĮæĪĲåĬŁ": 4834,
      "ä¸ĢèĤ¡": 4835,
      "âĢ¦": 4836,
      "ç§Ł": 4837,
      "å½¼": 4838,
      "çİ°çĬ¶": 4839,
      "åĩºæĿ¥": 4840,
      "çĸ²": 4841,
      "åĽ¾çīĩ": 4842,
      "Ġ\\]": 4843,
      "ase": 4844,
      "ache": 4845,
      "å¹²çĩ¥": 4846,
      "åĬŀåħ¬å®¤": 4847,
      "å®¶ä¹¡": 4848,
      "åĩłç§į": 4849,
      "åĪĹè¡¨": 4850,
      "èħ¿": 4851,
      "çļĦåŁºæľ¬åİŁçĲĨ": 4852,
      "å¹¿æ³ĽåºĶçĶ¨äºİ": 4853,
      "åĪĿæŃ¥": 4854,
      "åĿļæĮģä¸įæĩĪ": 4855,
      "çļĦç©º": 4856,
      "çļĦæĹ¶åĢĻ": 4857,
      "åĴĮå°ı": 4858,
      "åĴĮä½¿çĶ¨": 4859,
      "åįĪ": 4860,
      "çĶµè·¯": 4861,
      "ï¼Įè¿ĺè¦ģ": 4862,
      "æľįè£ħ": 4863,
      "åĿļéŁ§": 4864,
      "çļĦæĶ¹": 4865,
      "ĠSt": 4866,
      "æŃ¦åĻ¨": 4867,
      "æĹĭè½¬": 4868,
      "åĴĮåŃ¦ä¹ł": 4869,
      "çĶµè§Ĩ": 4870,
      "çĽ¸æ¯Ķ": 4871,
      "çĽ¸ä¼¼": 4872,
      "æģĴ": 4873,
      "ä¹ĭæĹħ": 4874,
      "è¯Ħè®º": 4875,
      "è§ģè§£": 4876,
      "çĨĬ": 4877,
      "è¿Ļæł·çļĦ": 4878,
      "æ¶īåıĬåĪ°": 4879,
      "æĭĵå®½": 4880,
      "è¾Ĳå°Ħ": 4881,
      "åĩºçīĪ": 4882,
      "ä¸»åĬ¨": 4883,
      "å¹´çļĦ": 4884,
      "å¼ķçĶ¨": 4885,
      "æħİ": 4886,
      "äºĨä¸Ģç³»åĪĹ": 4887,
      "èħ¹": 4888,
      "æļĤ": 4889,
      "ç±»åŀĭçļĦ": 4890,
      "åĪĽéĢłåĩº": 4891,
      "Ġnew": 4892,
      "æİ¥ä¸ĭæĿ¥çļĦ": 4893,
      "èĦļæľ¬": 4894,
      "çĪ±å¥½èĢħ": 4895,
      "æĳĦåĥıå¤´": 4896,
      "Con": 4897,
      "çļĦåıĳçĶŁ": 4898,
      "ãĢĤè®°ä½ı": 4899,
      "éĢĥ": 4900,
      "æıĲåīį": 4901,
      "æĮĸ": 4902,
      "åĨħçļĦ": 4903,
      "æİ¥çĿĢ": 4904,
      "æ¸¸æĪıçļĦ": 4905,
      "æĤ¨åľ¨": 4906,
      "æĳĨ": 4907,
      "æŁ³": 4908,
      "Ġå¦Ĥä½ķ": 4909,
      "ï¼ĮæķĻå¸Ī": 4910,
      "ä»Ļ": 4911,
      "äººå£«": 4912,
      "åĪĨè§£": 4913,
      "å¤§åŀĭ": 4914,
      "æĦŁè°¢": 4915,
      "ï¼Įä½Ĩåľ¨": 4916,
      "ãĢĤéĢļè¿ĩåŃ¦ä¹ł": 4917,
      "çĶ»éĿ¢": 4918,
      "æŁĲç§į": 4919,
      "æĭįäºĨ": 4920,
      "çŁ¿çī©è´¨": 4921,
      "æĢĢçĸĳ": 4922,
      "ï¼Įèµµ": 4923,
      "åŃ¤": 4924,
      "è´«": 4925,
      "éļĨ": 4926,
      "æµ·æ´ĭ": 4927,
      "åŃ¦æł¡çļĦ": 4928,
      "é¡¾å®¢": 4929,
      "çļĦæıĲåįĩ": 4930,
      "é©±åĬ¨": 4931,
      "çļĦåıĳ": 4932,
      "åĨ¬": 4933,
      "ç½ª": 4934,
      "æ¸¸å®¢": 4935,
      "å¯ĨéĴ¥": 4936,
      "éļ¾åº¦": 4937,
      "åı¤ç±į": 4938,
      "çĮª": 4939,
      "åİĭç¼©": 4940,
      "æĪ¿éĹ´": 4941,
      "æĭħä»»": 4942,
      "å¤ªéĺ³": 4943,
      "æ¬¢è¿İ": 4944,
      "æµıè§ĪåĻ¨": 4945,
      "ip": 4946,
      "ux": 4947,
      "åŃĻ": 4948,
      "åľ°éĹ®éģĵ": 4949,
      "çºł": 4950,
      "äº¤å¾Ģ": 4951,
      "åħ³ç³»åĪ°": 4952,
      "è¿ŀç»Ń": 4953,
      "è¡Ģç®¡": 4954,
      "çī¹å®ļçļĦ": 4955,
      "ç»¼åĲĪç´łè´¨": 4956,
      "çļĦç±»": 4957,
      "æĭįäºĨæĭį": 4958,
      "to": 4959,
      "çļĦæģ": 4960,
      "ä¸ºæĪĳä»¬": 4961,
      "æĭĮ": 4962,
      "çķĮçļĦ": 4963,
      "ä¼Ĺå¤ļ": 4964,
      "æĬ¥è¡¨": 4965,
      "å®ĮæĪĲåĲİ": 4966,
      "add": 4967,
      "éĢıæĺİ": 4968,
      "æĽ¾ç»ı": 4969,
      "æµĵåİļçļĦåħ´è¶£": 4970,
      "',": 4971,
      "ãĢĤæĿİæĺİ": 4972,
      "ä¼ļåľ¨": 4973,
      "åľºæīĢ": 4974,
      "æ¸¸æĪıä¸ŃçļĦ": 4975,
      "èĴ¸": 4976,
      "æī©å¤§": 4977,
      "---ĊĊ": 4978,
      "ĠåĪĨæŀĲ": 4979,
      "åľ°çľĭçĿĢ": 4980,
      "è§£å¼Ģ": 4981,
      "åĮĸåĲĪçī©": 4982,
      "åĽ¾å½¢": 4983,
      "æŀģå¤§": 4984,
      "ä¸ªäººæĪĲéķ¿": 4985,
      "èģĮä¸ļè§ĦåĪĴ": 4986,
      "å¤±åİ»": 4987,
      "ãĢĤä»¥ä¸ĭæĺ¯ä¸Ģä¸ª": 4988,
      "indows": 4989,
      "éŀ": 4990,
      "Ġ/": 4991,
      "Ġy": 4992,
      "ï¼ĮåĨ³å®ļ": 4993,
      "çļĦå¤įæĿĤ": 4994,
      "çļĦç»ıåİĨ": 4995,
      "åĴĮåĭĩæ°Ķ": 4996,
      "æĸĳ": 4997,
      "åŃ¦ä¸ļ": 4998,
      "æºī": 4999,
      "åīįæīĢ": 5000,
      "çĬ¹": 5001,
      "åºıåĪĹ": 5002,
      "åĤħ": 5003,
      "å¢ŀåĬłäºĨ": 5004,
      "åħ¸åŀĭ": 5005,
      "ndroid": 5006,
      "ensor": 5007,
      "ï¼ĮåĪĻ": 5008,
      "ãĢĤèĻ½çĦ¶": 5009,
      "ä½ĵä¼ļ": 5010,
      "èµĦæºĲçļĦ": 5011,
      "èĢģèĢħ": 5012,
      "å®ĿèĹı": 5013,
      "åĿļå®ŀåŁºç¡Ģ": 5014,
      "å°±åľ¨è¿ĻæĹ¶": 5015,
      "äººå·¥æĻºèĥ½": 5016,
      "ç¬ĳäºĨç¬ĳ": 5017,
      "ç¾İåĳ³": 5018,
      "ç»´ä¿®": 5019,
      "åĩºçİ°äºĨ": 5020,
      "éĢļè¿ĩä»¥ä¸ĬæŃ¥éª¤": 5021,
      "åıĸå¾ĹäºĨæĺ¾èĳĹ": 5022,
      "çİīç±³": 5023,
      "SE": 5024,
      "ran": 5025,
      "ä¸¹": 5026,
      "çļĦæľªæĿ¥": 5027,
      "åıĶ": 5028,
      "æĢª": 5029,
      "çļĦæ»": 5030,
      "å¾¡": 5031,
      "çĪĨ": 5032,
      "çĶ¨æĪ·çļĦ": 5033,
      "å®ŀéĻħæĥħåĨµ": 5034,
      "ï¼Įè®©æĪĳä»¬": 5035,
      "çĸĳæĥĳ": 5036,
      "æĻ¶ä½ĵ": 5037,
      "Ġvoid": 5038,
      "mp": 5039,
      "Ġe": 5040,
      "ï¼ĮæĹ¢": 5041,
      "çĶ¨å¿ĥåİ»": 5042,
      "æĪĲçĨŁ": 5043,
      "æĽ´æį¢": 5044,
      "éĩįçĤ¹": 5045,
      "æ´ª": 5046,
      "åĴĸ": 5047,
      "ä¿Ħ": 5048,
      "å¦Ĥåħ¶": 5049,
      "æĮĤ": 5050,
      "è°ĥè¯ķ": 5051,
      "çľŁæĺ¯": 5052,
      "èĨ³": 5053,
      "ction": 5054,
      "èĻ«å®³": 5055,
      "çº³ç¨İ": 5056,
      "éĻ·åħ¥äºĨ": 5057,
      "çļĦä½ľåĵģ": 5058,
      "åľ£": 5059,
      "èĤ¿": 5060,
      "èĭĹ": 5061,
      "è½¬æĬĺ": 5062,
      "æĴĳ": 5063,
      "å¹¿æ³ĽçļĦåºĶçĶ¨": 5064,
      "çĶŁçī©åŃ¦": 5065,
      "è¶ħå¯¼": 5066,
      "æľĭåıĭä»¬": 5067,
      "é¡ºåĪ©è¿Ľè¡Į": 5068,
      "äººéĻħåħ³ç³»": 5069,
      "çº¤ç»´": 5070,
      "åīįæīĢæľª": 5071,
      "Ġè¯·": 5072,
      "çļĦçĲĨè®º": 5073,
      "ä¼ª": 5074,
      "æĢķ": 5075,
      "åıĳè¡¨": 5076,
      "æĭĨ": 5077,
      "è¿ĺåı¯ä»¥": 5078,
      "åĲįåŃĹ": 5079,
      "Ġclass": 5080,
      "è´¦æĪ·": 5081,
      "ke": 5082,
      "que": 5083,
      "çļĦæķĪæŀľ": 5084,
      "çļĦæĳ": 5085,
      "èĤł": 5086,
      "è®©ä»ĸä»¬": 5087,
      "åīįè¡Į": 5088,
      "è¯ķéªĮ": 5089,
      "çªģå¦Ĥåħ¶": 5090,
      "èħ»": 5091,
      "åĽŃåĮº": 5092,
      "åħ´è¶£åĴĮ": 5093,
      "å·¥ç¨ĭå¸Ī": 5094,
      "Ġh": 5095,
      "ï¼Įä¸ĢäºĽ": 5096,
      "çļĦå¸Ĥåľº": 5097,
      "çļĦçª": 5098,
      "ä¸įä»ħèĥ½": 5099,
      "å¤Ħäºİ": 5100,
      "åİŁæĸĻ": 5101,
      "ath": 5102,
      "èĪ¹": 5103,
      "ç¯®": 5104,
      "SO": 5105,
      "ãĢĤç¥Ŀ": 5106,
      "åĪĬ": 5107,
      "å¦ĩ": 5108,
      "æĬĵ": 5109,
      "éĹ²": 5110,
      "èĩªä¸»": 5111,
      "åħ¬éĩĮ": 5112,
      "è¿ľç¨ĭ": 5113,
      "çŁŃæľŁ": 5114,
      "ption": 5115,
      "ST": 5116,
      "ç©´": 5117,
      "åĬłè½½": 5118,
      "èĩªå·±åľ¨": 5119,
      "ç¼Ŀ": 5120,
      "æ¶Ĥ": 5121,
      "æĤ¦": 5122,
      "ï¼Įä½Ĩä¹Ł": 5123,
      "æĵİ": 5124,
      "æĮĳæĪĺåĴĮ": 5125,
      "å®ŀéĻħåºĶçĶ¨ä¸Ń": 5126,
      "çıįæĥľ": 5127,
      "çļĦæĶ¶åħ¥": 5128,
      "ï¼Įåİ»": 5129,
      "ãĢĤæŀĹ": 5130,
      "ä¸Ģåľº": 5131,
      "ãĢģé«ĺ": 5132,
      "çĽĪ": 5133,
      "åĬ¨çĶ»": 5134,
      "æ¬²": 5135,
      "å¹³éĿĻ": 5136,
      "äº¤æį¢": 5137,
      "éĹ®é¢ĺçļĦ": 5138,
      "æĬĢæľ¯åĴĮ": 5139,
      "ï¼Įä»¥ä¸ĭ": 5140,
      "ï¼Įå¹¶ä¸Ķ": 5141,
      "èĮĦ": 5142,
      "å¯Ĩåº¦": 5143,
      "ä¼łç»ŁçļĦ": 5144,
      "çļĦåľ°çĲĨ": 5145,
      "ell": 5146,
      "ï¼Įçľ¼ç¥ŀ": 5147,
      "æľ¬æĸĩå°Ĩ": 5148,
      "IP": 5149,
      "qu": 5150,
      "å½»": 5151,
      "ä¸ŃçļĦä¸Ģä¸ª": 5152,
      "äºĨè§£åĴĮ": 5153,
      "äºĨè§£åĪ°": 5154,
      "å¸ĪåĤħ": 5155,
      "è§Ĩä¸º": 5156,
      "å¹¿æ³ĽçļĦ": 5157,
      "Ġfor": 5158,
      "åħĪè¿ĽçļĦ": 5159,
      "æ¯ķä¸ļ": 5160,
      "çļĦæ¡Īä¾ĭ": 5161,
      "åµ": 5162,
      "ãĢĤæł¹æį®": 5163,
      "åĴĮå¹³": 5164,
      "æ³°": 5165,
      "æ¸¡": 5166,
      "åĿ¦": 5167,
      "æľŁæľĽ": 5168,
      "ï¼īãĢĤ": 5169,
      "å¼ķæĵİ": 5170,
      "é¡ºåºı": 5171,
      "æĳĦåħ¥": 5172,
      "ç¼ºçĤ¹": 5173,
      "ç¿»éĺħ": 5174,
      "ï¼Įåıªè¦ģæĪĳä»¬": 5175,
      "æĦŁåıĹåĪ°äºĨ": 5176,
      "`ï¼Į": 5177,
      "ç§Ĵ": 5178,
      "æľīçĽĬ": 5179,
      "éĻĨ": 5180,
      "åħ¬æ°ĳ": 5181,
      "éĺŁåıĭ": 5182,
      "å¤§éĩıçļĦ": 5183,
      "å¥ĸåĬ±": 5184,
      "++": 5185,
      "ä¸§": 5186,
      "ï¼Įå½±åĵį": 5187,
      "èĩªè¡Į": 5188,
      "æĭĶ": 5189,
      "âĢľè¿Ļ": 5190,
      "æĸĩçī©": 5191,
      "ï¼Įè¿ĺæľī": 5192,
      "å¤ĩä»½": 5193,
      "æīĭæ³ķ": 5194,
      "æ¸¸æĪıè®¾è®¡": 5195,
      "æıĲä¾ĽäºĨå®Ŀè´µçļĦ": 5196,
      "åħ±é¸£": 5197,
      "æĸ¹éĿ¢çļĦ": 5198,
      "åŃ¦ä¼ļå¦Ĥä½ķ": 5199,
      "ãĢĤå®ĥä¸įä»ħ": 5200,
      "é¸¡èĽĭ": 5201,
      "ï¼ĮåĲĳ": 5202,
      "åĴĮæľįåĬ¡": 5203,
      "æĺĨ": 5204,
      "ãĢģæ°´": 5205,
      "æĹģ": 5206,
      "åĩī": 5207,
      "æģĭ": 5208,
      "ï¼Įä»ĸçŁ¥éģĵ": 5209,
      "æķĻèĤ²æĦıä¹ī": 5210,
      "è£ģ": 5211,
      "æıĲåįĩèĩªå·±çļĦ": 5212,
      "å¯ĮåĲ«": 5213,
      "çº¿ç´¢": 5214,
      "ä¸»è¦ģåĮħæĭ¬": 5215,
      "èĥĮåĲİçļĦ": 5216,
      "ç¡¬çĽĺ": 5217,
      "åĪĿå§ĭåĮĸ": 5218,
      "Ġ#": 5219,
      "åĴĮåĪĽæĸ°": 5220,
      "åľ¨æĹ¥å¸¸çĶŁæ´»ä¸Ń": 5221,
      "æĢ§æĢĿç»´": 5222,
      "ç³Ĭ": 5223,
      "åıĺè¿ģ": 5224,
      "èº«å¿ĥ": 5225,
      "çļĦæĬĹ": 5226,
      "åŃ¦æľ¯çłĶç©¶": 5227,
      "Ġ.": 5228,
      "Ġå¦Ĥæŀľ": 5229,
      "ï¼ĮçĽ´": 5230,
      "äºĨå¯¹": 5231,
      "çļĦæ£": 5232,
      "çĤ¹çĤ¹å¤´": 5233,
      "è±«": 5234,
      "åĩłä¹İ": 5235,
      "é¢ĳç¹ģ": 5236,
      "å®¡æł¸": 5237,
      "ä»ªå¼ı": 5238,
      "ä¸ĩåħĥ": 5239,
      "ä¼ı": 5240,
      "å®ŀåĬĽ": 5241,
      "æĿİæµ©": 5242,
      "æģ©": 5243,
      "åĨ³å®ļäºĨ": 5244,
      "Ġç¬¬ä¸ĢæŃ¥": 5245,
      "æ²īé»ĺ": 5246,
      "çļĦæ¶Ī": 5247,
      "å½¼æŃ¤": 5248,
      "file": 5249,
      "æĽ¦": 5250,
      "ï¼Įè¿ĺæĺ¯": 5251,
      "æ·±åħ¥è§£éĩĬ": 5252,
      "èİ±": 5253,
      "èı²": 5254,
      "å¥½å¥ĩå¿ĥ": 5255,
      "Ġç¬¬äºĮæŃ¥": 5256,
      "åľ¨çİ°ä»£ç¤¾ä¼ļ": 5257,
      "Serv": 5258,
      "çļĦæ¤į": 5259,
      "dis": 5260,
      "ean": 5261,
      "my": 5262,
      "æľĹ": 5263,
      "ä¸Ģåı£æ°Ķ": 5264,
      "æĽ´å¤§çļĦ": 5265,
      "åĲĮæŃ¥": 5266,
      "éªĳ": 5267,
      "éĶĭ": 5268,
      "æ»¡äºĨ": 5269,
      "åĸľçĪ±": 5270,
      "åľ°åĮºçļĦ": 5271,
      "å¯¿åĳ½": 5272,
      "ç«ŁçĦ¶": 5273,
      "çĴ": 5274,
      "ï¼ĮæĢ»": 5275,
      "åıĳèĤ²": 5276,
      "éĢŁåº¦åĴĮ": 5277,
      "éĿ¢ä¸´çĿĢ": 5278,
      "Ġç¬¬ä¸īæŃ¥": 5279,
      "åĽ½åĨħå¤ĸ": 5280,
      "æ·±åĲ¸ä¸Ģåı£æ°Ķ": 5281,
      "çļĦç«ŀäºī": 5282,
      "Web": 5283,
      "ä¼ļåĳĺ": 5284,
      "çļĦçŁ³": 5285,
      "çļĦç¹ģ": 5286,
      "åĩºçļĦ": 5287,
      "åĬłéĢŁ": 5288,
      "åľºä¸Ĭ": 5289,
      "å¯¼å¼¹": 5290,
      "è®ºåĿĽ": 5291,
      "ä»¥ä¸ĭåĳ½ä»¤": 5292,
      "çļĦåŃ¦ä¹łåĴĮ": 5293,
      "éĿĴå°ĳå¹´": 5294,
      "éŃı": 5295,
      "åĪļåĪļ": 5296,
      "æī®æ¼ĶçĿĢ": 5297,
      "çļĦæ³¨æĦı": 5298,
      "ï¼ĮçłĶç©¶": 5299,
      "ï¼Įä¾¿": 5300,
      "è®¯": 5301,
      "çī§": 5302,
      "è§£çŃĶ": 5303,
      "å¿ĥèĦı": 5304,
      "æķ°ç»Ħ": 5305,
      "ãĢĤè¿ĻæĦıåĳ³çĿĢ": 5306,
      "dex": 5307,
      "åıĮæĸ¹": 5308,
      "åı¦ä¸Ģ": 5309,
      "\");Ċ": 5310,
      "AT": 5311,
      "put": 5312,
      "ĠéĢīæĭ©": 5313,
      "æĿ¥åĪ°": 5314,
      "æĭ³": 5315,
      "è®¾ç«ĭ": 5316,
      "æķĻæĿĲ": 5317,
      "å£¶": 5318,
      "ç¥ŀå¥ĩ": 5319,
      "ï¼Įåı¯ä»¥ä½¿çĶ¨": 5320,
      "ç¹ģæ®ĸ": 5321,
      "é¥²æĸĻ": 5322,
      "Id": 5323,
      "æĺ¯éĢļè¿ĩ": 5324,
      "è¿Ļçīĩ": 5325,
      "åı¯ä»¥ä½¿çĶ¨": 5326,
      "æĽ´é«ĺ": 5327,
      "ä¿ĿçķĻ": 5328,
      "éĢĤçĶ¨": 5329,
      "æİĴåºı": 5330,
      "ç»ıåİĨäºĨ": 5331,
      "ï¼Įå°±ä¸Ģå®ļèĥ½å¤Ł": 5332,
      "ystem": 5333,
      "du": 5334,
      "gin": 5335,
      "ial": 5336,
      "å«": 5337,
      "ï¼Įå¯»æī¾": 5338,
      "çļĦç»ĵæŀĦ": 5339,
      "çļĦåĪ¶ä½ľ": 5340,
      "å°ĸ": 5341,
      "ä¸įèī¯": 5342,
      "åľ°è´¨": 5343,
      "éģŃ": 5344,
      "ï¼Įä½ĨæĪĳ": 5345,
      "åıįå¤į": 5346,
      "æĹ¥çĽĬ": 5347,
      "æĲº": 5348,
      "ï¼Įè¿ĺèĥ½åŁ¹åħ»": 5349,
      "æįķæįī": 5350,
      "ost": 5351,
      "ãĢĤå°ı": 5352,
      "åĴĮèµĦæºĲ": 5353,
      "æ³ķåĽ½": 5354,
      "æĦŁè§ī": 5355,
      "ç¥ĸ": 5356,
      "å¯Įæľī": 5357,
      "è¯ģä¹¦": 5358,
      "åĲ¯åıĳ": 5359,
      "æĸĩåŃ¦ä½ľåĵģ": 5360,
      "çļĦçľŁå®ŀ": 5361,
      "å¹½é»ĺ": 5362,
      "åľ¨éĿ¢å¯¹": 5363,
      "åĿĬ": 5364,
      "å»·": 5365,
      "å¦Ĥä½ķå¸®åĬ©": 5366,
      "æľĽçĿĢ": 5367,
      "è£ħå¤ĩ": 5368,
      "çļĦæĥ³": 5369,
      "able": 5370,
      "æīĢåŃ¦çŁ¥è¯Ĩ": 5371,
      "ä¸»äººåħ¬": 5372,
      "Android": 5373,
      "RE": 5374,
      "SP": 5375,
      "Ġi": 5376,
      "ï¼Įæ»¡è¶³": 5377,
      "çļĦæľįåĬ¡": 5378,
      "ç»ķ": 5379,
      "æĿ¯": 5380,
      "åŃĲéĩĮ": 5381,
      "åī²": 5382,
      "ç¾Ĭ": 5383,
      "æīĢåľ¨": 5384,
      "å¾Īå¥½": 5385,
      "æ¸©æļĸ": 5386,
      "Ġpro": 5387,
      "åī§æľ¬": 5388,
      "åĩĨç¡®åľ°": 5389,
      "å¾®ç¬ĳçĿĢåĽŀçŃĶ": 5390,
      "ä¾ĭåŃĲä¸Ń": 5391,
      "ç¿¼ç¿¼": 5392,
      "å°¤ä¸ºéĩįè¦ģ": 5393,
      "åµĮ": 5394,
      "NA": 5395,
      "Ġæł¹æį®": 5396,
      "ãĢĤéĻĪ": 5397,
      "åĪł": 5398,
      "åĴĮæ²»çĸĹ": 5399,
      "è¿ĩä¸Ģä¸Ŀ": 5400,
      "é«ĺéĢŁ": 5401,
      "ä¸įä»ħæıĲé«ĺäºĨ": 5402,
      "æ°´ç¨»": 5403,
      "å¼ºçļĦ": 5404,
      "çĥ§": 5405,
      "åİŁå§ĭ": 5406,
      "éĽĨåĽ¢": 5407,
      "ä»¤äºº": 5408,
      "ï¼Įä¸Ģä½į": 5409,
      "çļĦç¥ŀç§ĺ": 5410,
      "æ¬§æ´²": 5411,
      "çģĮæºī": 5412,
      "pon": 5413,
      "åĴĮç»´æĬ¤": 5414,
      "ãĢģãĢĬ": 5415,
      "è¡°": 5416,
      "åĬĽäºİ": 5417,
      "æĽ´é«ĺçļĦ": 5418,
      "åħ³å¿ĥ": 5419,
      "æĿİéĿĴ": 5420,
      "çķı": 5421,
      "åľºåĲĪ": 5422,
      "åħ¬åĽŃ": 5423,
      "æķ°æį®çļĦ": 5424,
      "å¤©æĸĩåŃ¦": 5425,
      "åİŁæĿ¥": 5426,
      "ä¸ŃåĽ½åı¤ä»£": 5427,
      "çĬ¹è±«": 5428,
      "ï¼Įäººä»¬": 5429,
      "çļĦå¤§": 5430,
      "è´¸": 5431,
      "çļĦçĬ": 5432,
      "ä¸ĬæīĢ": 5433,
      "å¤įåĪ¶": 5434,
      "ç¾İè§Ĥ": 5435,
      "çİ°ä»£ç¤¾ä¼ļ": 5436,
      "æĺŁæĺŁ": 5437,
      "éĩĬæĶ¾": 5438,
      "åįļå£«": 5439,
      "ä¼¤å®³": 5440,
      "Windows": 5441,
      "Ġint": 5442,
      "ï¼Įè¯¥": 5443,
      "ä¼Ļ": 5444,
      "æ·¡": 5445,
      "æĬĢèīº": 5446,
      "æĤł": 5447,
      "äºĨè§£äºĨ": 5448,
      "ï¼īçļĦ": 5449,
      "æĺ¯ä¸Ģæ¬¡": 5450,
      "æ¯ıä¸Ģ": 5451,
      "åĪ°äºĨä¸Ģä¸ª": 5452,
      "ory": 5453,
      "åŃĹæ®µ": 5454,
      "str": 5455,
      "å®ŀè·µä¸Ń": 5456,
      "åºĶå¯¹çŃĸçķ¥": 5457,
      "ç§ĳæĬĢåĪĽæĸ°": 5458,
      "åı¯ä»¥å¸®åĬ©ä½ł": 5459,
      "æĮ«æĬĺ": 5460,
      "Spring": 5461,
      "ĠV": 5462,
      "ä¸Ģç¬ĳ": 5463,
      "ç§©": 5464,
      "ãĢĤä»ĸæ·±çŁ¥": 5465,
      "çĹħèĻ«å®³": 5466,
      "åĽŀå¿Ĩ": 5467,
      "éħįåĲĪ": 5468,
      "äºĨä¸Ģç§į": 5469,
      "äº§åĵģçļĦ": 5470,
      "åŁİå¸Ĥè§ĦåĪĴ": 5471,
      "çļĦæĻ®": 5472,
      "Ġè¾ĵåĩº": 5473,
      "ï¼ĮåĨį": 5474,
      "ï¼ĮçľĭçĿĢ": 5475,
      "åľ¨å®ŀéĻħ": 5476,
      "ãĢģâĢľ": 5477,
      "ä»ĸäººçļĦ": 5478,
      "åĬĽåŃ¦": 5479,
      "å°Ĩç»§ç»Ń": 5480,
      "çĽ¸åĲĮ": 5481,
      "æµģéĩı": 5482,
      "æĢĿè·¯": 5483,
      "èĩªå·±çļĦåĬĽéĩı": 5484,
      "æİ¨åĬ¨äºĨ": 5485,
      "lication": 5486,
      "ç§©åºı": 5487,
      "\\[": 5488,
      "ĠO": 5489,
      "Ġif": 5490,
      "æ³ķè¯Ń": 5491,
      "æĸ°åŀĭ": 5492,
      "æº¯": 5493,
      "æī¾åĩº": 5494,
      "è®¨ä¼ļ": 5495,
      "å¸ĤåľºçļĦ": 5496,
      "æī¿è½½": 5497,
      "ï¼ĮæĪĳä»¬åı¯ä»¥æĽ´å¥½åľ°çĲĨè§£": 5498,
      "å±ĢéĻĲ": 5499,
      "çĶŁçī©å¤ļæł·æĢ§": 5500,
      "åħ¨éĿ¢åıĳå±ķ": 5501,
      "ä¸ľè¥¿": 5502,
      "éļĲèĹıçĿĢ": 5503,
      "åħ¼å®¹": 5504,
      "Ġx": 5505,
      "åĪĨæķ£": 5506,
      "ç»Ĩèħ»": 5507,
      "å½ĵä»£": 5508,
      "ãĢĭçŃī": 5509,
      "èĢĥçĶŁ": 5510,
      "å®Įç¾İ": 5511,
      "è¡¨çİ°åĩº": 5512,
      "å¸¦æĿ¥çļĦ": 5513,
      "è´·æ¬¾": 5514,
      "git": 5515,
      "æ¾": 5516,
      "ï¼ĮéĢĲæŃ¥": 5517,
      "ãĢĤä»ĸä»¬çļĦ": 5518,
      "ãĢĤçĶ±äºİ": 5519,
      "äº¡": 5520,
      "è¿Ļæ¬¾": 5521,
      "æĦĪ": 5522,
      "çļĦç¡": 5523,
      "éľĢè¦ģåľ¨": 5524,
      "æ¡ĥ": 5525,
      "èĤ²ç§į": 5526,
      "åıĤè§Ĥ": 5527,
      "æ°ĳä¸»": 5528,
      "èĢĥå¯Ł": 5529,
      "æĮĩåįĹ": 5530,
      "åħīçº¿": 5531,
      "ç²¾åº¦": 5532,
      "çĪ±å¿ĥ": 5533,
      "çĮ«": 5534,
      "per": 5535,
      "åľ°éľĩ": 5536,
      "ãĢĤä»ĸçĽ¸ä¿¡": 5537,
      "ï¼Įè¿ĺä¸º": 5538,
      "å·¥ä½ľçļĦ": 5539,
      "è¯Ńæ³ķ": 5540,
      "çģ°": 5541,
      "å¾®å¾®": 5542,
      "åĶĲ": 5543,
      "åľ°è¯´éģĵ": 5544,
      "åį«æĺŁ": 5545,
      "çļĦæıı": 5546,
      "çĩĥ": 5547,
      "è°¢è°¢ä½ł": 5548,
      "Ġç¬¬åĽĽæŃ¥": 5549,
      "çĦĬæİ¥": 5550,
      "sole": 5551,
      "TML": 5552,
      "Docker": 5553,
      "ï¼Įè¢«": 5554,
      "ä¹Łä¼ļ": 5555,
      "ãĢĤä»ĸæĺİçĻ½": 5556,
      "æ¯ıä¸ªäºº": 5557,
      "çļĦæĥħèĬĤ": 5558,
      "éĢĤåºĶæĢ§": 5559,
      "ç»¼ä¸ĬæīĢ": 5560,
      "Linux": 5561,
      "åģ¶çĦ¶": 5562,
      "ç¿¼ç¿¼åľ°": 5563,
      "ç»¼ä¸ĬæīĢè¿°": 5564,
      "ï¼ĮçĶ±äºİ": 5565,
      "çļĦèĩªçĦ¶": 5566,
      "è¿Ļéģĵ": 5567,
      "æĪĳçļĦ": 5568,
      "æĦī": 5569,
      "éĥŃ": 5570,
      "è°ĭ": 5571,
      "è´¨çĸĳ": 5572,
      "åħ¬å¼Ģ": 5573,
      "è¾ĥé«ĺçļĦ": 5574,
      "å±ĤéĿ¢": 5575,
      "çļĦæĬĢå·§": 5576,
      "åĨħå¿ĥçļĦ": 5577,
      "æĹĭå¾ĭ": 5578,
      "ĠæĢ»ç»ĵä¸İ": 5579,
      "çļĦç¼ĸç¨ĭ": 5580,
      "quest": 5581,
      "åĴĮå¼ł": 5582,
      "å¥Ī": 5583,
      "ç¡ħ": 5584,
      "ä¿Ŀåģ¥": 5585,
      "çĶµç£ģ": 5586,
      "ç²ĺ": 5587,
      "éĵĿ": 5588,
      "èĭ¹": 5589,
      "èĪį": 5590,
      "åı°ä¸Ĭ": 5591,
      "å¾ĭå¸Ī": 5592,
      "èŀįèµĦ": 5593,
      "åį³å°Ĩ": 5594,
      "ä»ªåĻ¨": 5595,
      "æ³ķå¾ĭæ³ķè§Ħ": 5596,
      "æįŁå¤±": 5597,
      "çļĦç»ĵæŀľ": 5598,
      "åĴĮçĲĨè§£": 5599,
      "ä¸Ģæľ¬": 5600,
      "çļĦæĤ": 5601,
      "âĢĿãĢģâĢľ": 5602,
      "æĿİæĸĩ": 5603,
      "çľĭèµ·æĿ¥": 5604,
      "æĹ¶éĹ´çļĦæİ¨": 5605,
      "èº«è¾¹": 5606,
      "ç²¾åĩĨ": 5607,
      "è´Łæĭħ": 5608,
      "åŁºæľ¬çļĦ": 5609,
      "é£İæł¼åĴĮ": 5610,
      "é«ĺæķĪçļĦ": 5611,
      "è·ĳæŃ¥": 5612,
      "å±ŀäºİèĩªå·±çļĦ": 5613,
      "è¶³å¤ŁçļĦ": 5614,
      "æĦıæĥ³ä¸įåĪ°": 5615,
      "TP": 5616,
      "ï¼Įå±ķçİ°äºĨ": 5617,
      "çĽŁ": 5618,
      "çŃĽ": 5619,
      "è¾ŀ": 5620,
      "èĤº": 5621,
      "è°Ĭ": 5622,
      "æ¡Īä»¶": 5623,
      "ãĢĭãĢģãĢĬ": 5624,
      "ä¸ĵéĹ¨": 5625,
      "é¢Ħè®¢": 5626,
      "ï¼Įå®ĥä¸įä»ħ": 5627,
      "æ¿ĢçĥĪçļĦ": 5628,
      "è¾ĥå¤§": 5629,
      "é¸¿": 5630,
      "ä¸Ģå®ļä¼ļ": 5631,
      "éŃĤ": 5632,
      "å®¡æŁ¥": 5633,
      "è§£åĨ³éĹ®é¢ĺçļĦèĥ½åĬĽ": 5634,
      "è°ľåĽ¢": 5635,
      "èĭ¹æŀľ": 5636,
      "æĹ¶éĹ´çļĦæİ¨ç§»": 5637,
      "åĴĮè°ĥæķ´": 5638,
      "äºĨä»ĸçļĦ": 5639,
      "èĥº": 5640,
      "æľīæľº": 5641,
      "åľ°ä¸ĭ": 5642,
      "æıĲåĪ°": 5643,
      "æµ®": 5644,
      "âĢľæĿİ": 5645,
      "è¿ĽæĶ»": 5646,
      "å¤©çĦ¶": 5647,
      "åıĹåĪ°äºĨ": 5648,
      "lex": 5649,
      "åĪĽéĢłåĬĽ": 5650,
      "å¸¸çĶ¨çļĦ": 5651,
      "çļĦæ´»åĬ¨": 5652,
      "åĪłéĻ¤": 5653,
      "ff": 5654,
      "ï¼Įæīĭ": 5655,
      "ï¼ļäºĨè§£": 5656,
      "æĺ¯ä¸Ģé¡¹": 5657,
      "èĬ±åĽŃ": 5658,
      "éĿŀå¸¸éĩįè¦ģçļĦ": 5659,
      "éĻĦå½ķ": 5660,
      "èĴĻåı¤": 5661,
      "èķ´åĲ«": 5662,
      "æĮĸæİĺ": 5663,
      "åı¬": 5664,
      "åĴĮå¸Ĥåľº": 5665,
      "ç»ĳ": 5666,
      "æĪ´": 5667,
      "å®¶çļĦ": 5668,
      "å¹³åĿĩ": 5669,
      "åıĺéĿ©": 5670,
      "ç¾½": 5671,
      "ï¼īæĺ¯": 5672,
      "æ¨ª": 5673,
      "åĲĦèĩª": 5674,
      "enc": 5675,
      "åĪĩæį¢": 5676,
      "èĭ±åĽ½": 5677,
      "æĤ£èĢħçļĦ": 5678,
      "æ²īæµ¸": 5679,
      "ç»Īäºİæī¾åĪ°äºĨ": 5680,
      "è¾ħåĬ©": 5681,
      "å®ĺæĸ¹ç½ĳç«Ļ": 5682,
      "xx": 5683,
      "çļĦèµ·æºĲ": 5684,
      "ãĢĤä¸Ģ": 5685,
      "åľ¨è¿ĻéĩĮ": 5686,
      "æĽ´ä¸º": 5687,
      "å¤©æĸĩ": 5688,
      "ï¼ĪA": 5689,
      "æµģçķħ": 5690,
      "ç»ıæµİçļĦ": 5691,
      "æĽ´å¥½åľ°åºĶå¯¹": 5692,
      "æ¤°": 5693,
      "æ¼Ķå¥ı": 5694,
      "éĩįè¦ģçļĦæĺ¯": 5695,
      "å»¶éķ¿": 5696,
      "ĠU": 5697,
      "æĽ´åħ¨éĿ¢": 5698,
      "ä¿Ŀé²ľ": 5699,
      "æĺİæĻº": 5700,
      "ï¼Įä»ĸæĦıè¯ĨåĪ°": 5701,
      "è®¾è®¡åĴĮ": 5702,
      "alue": 5703,
      "çłĶè®¨ä¼ļ": 5704,
      "omm": 5705,
      "äº§çĶŁäºĨæ·±è¿ľçļĦå½±åĵį": 5706,
      "èĸĦ": 5707,
      "çĪ¬èĻ«": 5708,
      "IN": 5709,
      "ï¼ĮéĢĲæ¸Ĳ": 5710,
      "åľ°åĽŀçŃĶ": 5711,
      "åıĳåĩº": 5712,
      "åıĳéħµ": 5713,
      "åĪĨæĶ¯": 5714,
      "æİ¢éĻ©": 5715,
      "ï¼Įä¸ºæľªæĿ¥": 5716,
      "é¥Ń": 5717,
      "è¯¦ç»Ĩæİ¢è®¨": 5718,
      "åĲ¬äºĨ": 5719,
      "é¸Łç±»": 5720,
      "æĩĤ": 5721,
      "æķıæĦŁ": 5722,
      "æ°¸è¿ľ": 5723,
      "ï¼ĮçĶ¨æĪ·åı¯ä»¥": 5724,
      "co": 5725,
      "çļĦåİŁåĽł": 5726,
      "ãĢĤå¯¹äºİä¸ŃåŃ¦çĶŁæĿ¥è¯´": 5727,
      "åıł": 5728,
      "ä»¥æĿ¥": 5729,
      "éħ·": 5730,
      "åĪ©æ¶¦": 5731,
      "æķ´åĲĪ": 5732,
      "èį¡": 5733,
      "æĹħè¡Į": 5734,
      "html": 5735,
      "çģµæ´»æĢ§": 5736,
      "ä¾Ŀèµĸäºİ": 5737,
      "åĳĪçİ°": 5738,
      "ec": 5739,
      "ï¼Įæ¿Ģåıĳ": 5740,
      "æĿ¥å®ŀçİ°": 5741,
      "âĢĿãĢĤĊĊ": 5742,
      "æĪĺèĥľ": 5743,
      "å¸®åĬ©æĪĳä»¬": 5744,
      "æ£ĭ": 5745,
      "å£°èªī": 5746,
      "arch": 5747,
      "å¹¶ä¸įæĺ¯": 5748,
      "æ¦ľ": 5749,
      "çļĦçº¿ç´¢": 5750,
      "æ§½": 5751,
      "ug": 5752,
      "äº©": 5753,
      "ãĢģç»ıæµİ": 5754,
      "çĶŁçĲĨ": 5755,
      "ä¸įçŁ¥éģĵ": 5756,
      "å¥ĳ": 5757,
      "ä¹Łæľī": 5758,
      "é¢ĺçĽ®": 5759,
      "çĶµåķĨ": 5760,
      "å§ľ": 5761,
      "éħ±": 5762,
      "ä¹¦åĨĻ": 5763,
      "æĹ¥è®°": 5764,
      "å¸Ĥåľºä¸Ĭ": 5765,
      "å¹¿éĺĶ": 5766,
      "æĶ¾åħ¥": 5767,
      "æĬķå½±": 5768,
      "è¿½æº¯": 5769,
      "æĲħ": 5770,
      "çģµæĦŁ": 5771,
      "çĶŁæĢģç³»ç»Ł": 5772,
      "å®¢æĪ·ç«¯": 5773,
      "åĢºåĪ¸": 5774,
      "´æľĽ": 5775,
      "ï¼Įåħ¬åı¸": 5776,
      "ãĢĤçİĭ": 5777,
      "å®ĭ": 5778,
      "åľ¨ä¸Ģèµ·": 5779,
      "å®ŀåľ°": 5780,
      "æĽ´æ·±": 5781,
      "err": 5782,
      "èĻİ": 5783,
      "æ¯Ķä¾ĭ": 5784,
      "èĩ´åĬĽäºİ": 5785,
      "è½¬ç§»": 5786,
      "å¿ĥä¸Ńåħħæ»¡äºĨ": 5787,
      "åĶ¯": 5788,
      "é«ĺæķĪåľ°": 5789,
      "éĩĩçĶ¨äºĨ": 5790,
      "çļĦçľ¼ç¥ŀ": 5791,
      "çļĦæ¤įçī©": 5792,
      "ph": 5793,
      "¬éĹ´": 5794,
      "æłª": 5795,
      "æĽ¼": 5796,
      "éĿ¢åīį": 5797,
      "å®¶ä¸Ń": 5798,
      "æ®ĭ": 5799,
      "èĲ¥éĢł": 5800,
      "çİ°ä»£åĮĸ": 5801,
      "çļĦæī§": 5802,
      "çļĦæīĢæľī": 5803,
      "éŁµ": 5804,
      "å¥½å¥ĩåľ°éĹ®": 5805,
      "Node": 5806,
      "ï¼ĮåĩĨå¤ĩ": 5807,
      "åįľ": 5808,
      "ä»İäºĭ": 5809,
      "æº¶": 5810,
      "éĥ½åľ¨": 5811,
      "å¤©æĪĲ": 5812,
      "æĽ´å¥½çļĦ": 5813,
      "è®¡ç®Ĺæľºç§ĳåŃ¦": 5814,
      "æ©¡": 5815,
      "è¿Ĳç®Ĺç¬¦": 5816,
      "ä¸Ńåħ·æľī": 5817,
      "ä¸Ńæī¾åĪ°": 5818,
      "åºŀ": 5819,
      "åĬĽçļĦ": 5820,
      "çĿ¡": 5821,
      "ä¸Ĭæµ·": 5822,
      "åĩºè¡Į": 5823,
      "ä¸įä»ħæĺ¯ä¸Ģç§į": 5824,
      "çī©åĵģ": 5825,
      "ç»ĵè¯Ń": 5826,
      "æķĪåºĶ": 5827,
      "å¯¼åħ¥": 5828,
      "åıĭè°Ĭ": 5829,
      "å®¡è§Ĩ": 5830,
      "ç¼ĸç¨ĭè¯Ńè¨Ģ": 5831,
      "çģ¾å®³": 5832,
      "çľīå¤´": 5833,
      "Ġ\\]ĊĊ": 5834,
      "²æŁĵ": 5835,
      "ï¼Įæ°´": 5836,
      "åħ½": 5837,
      "åĪĳ": 5838,
      "æĺ¯å¯¹": 5839,
      "çĶ¨éĢĶ": 5840,
      "æľ¬è´¨": 5841,
      "çĽ®åħī": 5842,
      "ãĢĤä»ĸåıĳçİ°": 5843,
      "å¯¼èĪª": 5844,
      "æĹ¥æľŁ": 5845,
      "åı£èħĶ": 5846,
      "å¹¿æ³ĽåºĶçĶ¨": 5847,
      "æıĴä»¶": 5848,
      "çĽ¸äºĴä½ľçĶ¨": 5849,
      "çĪ·çĪ·": 5850,
      "çªĹåı£": 5851,
      "ï¼Įçľ¼ä¸ŃéĹªçĥģçĿĢ": 5852,
      "çĽĪåĪ©": 5853,
      "Pro": 5854,
      "Type": 5855,
      "cess": 5856,
      "²åıĸ": 5857,
      "ï¼Įé¦ĸåħĪ": 5858,
      "ï¼Įå»ºç«ĭ": 5859,
      "åĲķ": 5860,
      "æı´": 5861,
      "åħ³éĹŃ": 5862,
      "æ±ģ": 5863,
      "éĢĤå®ľ": 5864,
      "ï¼Įå¹¶éĢļè¿ĩ": 5865,
      "æĹ¶éĹ´ç®¡çĲĨ": 5866,
      "ï¼ŁĊ": 5867,
      "è¢Ń": 5868,
      "ç®Ģä»ĭ": 5869,
      "ä¹ĭéĹ´çļĦåħ³ç³»": 5870,
      "çº¢èī²": 5871,
      "ä¼ĺç§ĢçļĦ": 5872,
      "ï¼Įä»Ķç»Ĩ": 5873,
      "åĴĮåİĨåı²": 5874,
      "ï¼ļå¦Ĥä½ķ": 5875,
      "æĺ¯ç¡®ä¿Ŀ": 5876,
      "ä¸įç¡®å®ļ": 5877,
      "è¦ģç´ł": 5878,
      "æ³ī": 5879,
      "ä¼ļå¯¼èĩ´": 5880,
      "ä¸įä»ħéľĢè¦ģ": 5881,
      "è°ĥçłĶ": 5882,
      "çłĶç©¶çļĦ": 5883,
      "åĲĦé¡¹": 5884,
      "çĭ¬èĩª": 5885,
      "è´¡çĮ®èĩªå·±çļĦåĬĽéĩı": 5886,
      "ä»ĺåĩº": 5887,
      "example": 5888,
      "Ġand": 5889,
      "ãĢĤè¯¥": 5890,
      "ãĢĤæľ¬æĸĩå°Ĩ": 5891,
      "åĴĮå»ºè®®": 5892,
      "æĹ¦": 5893,
      "éĢļè¿ĩå¯¹": 5894,
      "æ±²åıĸ": 5895,
      "ï¼Įè¿ĺåľ¨": 5896,
      "åĸ·": 5897,
      "æĶ¶èİ·": 5898,
      "å®ŀéĻħéĹ®é¢ĺ": 5899,
      "æĶ¾åľ¨": 5900,
      "åıĬåħ¶å¯¹": 5901,
      "é¤Ĳé¥®": 5902,
      "çļĦæĥħåĨµä¸ĭ": 5903,
      "çļĦç´§": 5904,
      "çļĦæŁĲ": 5905,
      "data": 5906,
      "¼çĹĽ": 5907,
      "ï¼Įè´Łè´£": 5908,
      "çļĦäºĨè§£": 5909,
      "çļĦè®¤è¯Ĩ": 5910,
      "çļĦåĲ¯ç¤º": 5911,
      "ãĢĤâĢľ": 5912,
      "ãĢĤä¸ŃåŃ¦çĶŁ": 5913,
      "ä¸ŃæľĢ": 5914,
      "çī²": 5915,
      "çĽ²": 5916,
      "èµ¶": 5917,
      "åıĳè¡Į": 5918,
      "ç¤¾åĽ¢": 5919,
      "å¯¼å¸Ī": 5920,
      "æĹłæ¯Ķ": 5921,
      "æ¤ħ": 5922,
      "çªģåĩº": 5923,
      "ç¿ħ": 5924,
      "åĲ¬è¯´": 5925,
      "image": 5926,
      "ï¼Įä¸įè¦ģ": 5927,
      "ä¸įä»ħæĺ¯å¯¹": 5928,
      "æ»¤æ³¢": 5929,
      "æĦıæĥ³ä¸įåĪ°çļĦ": 5930,
      "CT": 5931,
      "fr": 5932,
      "ĸæģ¯": 5933,
      "åħĶ": 5934,
      "æĭ¼": 5935,
      "ï¼Įä»¥æıĲé«ĺ": 5936,
      "å¹´é¾Ħ": 5937,
      "ãĢĤéĢļè¿ĩæľ¬åįķåħĥçļĦåŃ¦ä¹ł": 5938,
      "ï¼Įä¸ºäºĨ": 5939,
      "å¾®ä¿¡": 5940,
      "çħĮ": 5941,
      "ard": 5942,
      "åĲ«éĩı": 5943,
      "è¡Ģæ¶²": 5944,
      "ç«¯åı£": 5945,
      "çļĦç¬¦": 5946,
      "è¸ı": 5947,
      "èĩªè¡Įè½¦": 5948,
      "çļĦæĲ": 5949,
      "ä¼ļåĦ¿": 5950,
      "ãĢĤä»ĸåľ¨": 5951,
      "æ°´åĪĨ": 5952,
      "ï¼ĪM": 5953,
      "çŃĸåĪĴ": 5954,
      "çĭ®": 5955,
      "åĸ»": 5956,
      "åĩłä½ķ": 5957,
      "ang": 5958,
      "è´Łè½½": 5959,
      "ç«ŀæĬĢ": 5960,
      "èıľåįķ": 5961,
      ");": 5962,
      "çļĦå¸®åĬ©": 5963,
      "åĨł": 5964,
      "éĺĲ": 5965,
      "å°ıä¼Ĺ": 5966,
      "åĲİä¸ĸ": 5967,
      "ä¹¦ä¸ŃçļĦ": 5968,
      "æķ°æį®å¤ĦçĲĨ": 5969,
      "è®¾è®¡çļĦ": 5970,
      "äºĴçĽ¸": 5971,
      "Ġ</": 5972,
      "çļĦç¬Ķ": 5973,
      "åħħåĪĨåĪ©çĶ¨": 5974,
      "çī©çĲĨåŃ¦": 5975,
      "èī°éļ¾": 5976,
      "times": 5977,
      "ä¼Ļä¼´": 5978,
      "PC": 5979,
      "ï¼Įä½ľä¸º": 5980,
      "ãĢĤæľĢåĲİ": 5981,
      "æĺ¯æĪĳä»¬": 5982,
      "è¿Ľåº¦": 5983,
      "é«ĵ": 5984,
      "çº²": 5985,
      "çº½": 5986,
      "æ·±åıĹ": 5987,
      "ï¼Įè¿ĻéĩĮ": 5988,
      "çİ¯å¢ĥåĴĮ": 5989,
      "éĺŁåĪĹ": 5990,
      "ä¸ªäººåĵģçīĮ": 5991,
      "æ¼Ķè®²": 5992,
      "sel": 5993,
      "è¿Ļæ¬¡ç»ıåİĨ": 5994,
      "Ġ|Ċ": 5995,
      "åĢ¾åĲ¬": 5996,
      "åĩŃåĢŁ": 5997,
      "çļĦè¿ĲåĬ¨": 5998,
      "ä¸Ģä»½": 5999,
      "èĥ¡": 6000,
      "ãĢģ`": 6001,
      "åĮĸå·¥": 6002,
      "ãĢĤè¿Ļä¸įä»ħæľīåĬ©äºİ": 6003,
      "éľĢè¦ģéĢļè¿ĩ": 6004,
      "åı¯èĥ½æĢ§": 6005,
      "æŃ£å¼ı": 6006,
      "èµ°åĲĳ": 6007,
      "å¤ļæł·åĮĸçļĦ": 6008,
      "å§Ķåĳĺ": 6009,
      "è½»æĿ¾åľ°": 6010,
      "å´ĩ": 6011,
      ".js": 6012,
      "æ¶Įèµ·": 6013,
      "](": 6014,
      "}ĊĊ": 6015,
      "ï¼Įè¯Ħä¼°": 6016,
      "éĢļéģĵ": 6017,
      "é¢ĸ": 6018,
      "è¾©": 6019,
      "åħ³èģĶ": 6020,
      "ï¼Įè¿Ļä½¿å¾Ĺ": 6021,
      "èĥ½å¤Łä¸º": 6022,
      "ï¼Įä»ĸåıĳçİ°": 6023,
      "å¯¼æ¼Ķ": 6024,
      "å¼łå¤§": 6025,
      "æīĢä»¥": 6026,
      "åĽŀæĬ¥": 6027,
      "ï¼Įä»İèĢĮåľ¨": 6028,
      "åĪĽæĸ°åĴĮ": 6029,
      "ï¼Įè¿ĺèĥ½ä¸º": 6030,
      "ä¸¥è°¨": 6031,
      "æįŁåĿı": 6032,
      "åĨľæĿĳç»ıæµİåıĳå±ķ": 6033,
      "å¤ľæĻļ": 6034,
      "åŃ£èĬĤ": 6035,
      "åįłæį®": 6036,
      "Hello": 6037,
      "`ãĢģ`": 6038,
      "çļĦç§ĳåŃ¦": 6039,
      "çļĦå¥¥ç§ĺ": 6040,
      "ä¸įè¦ģ": 6041,
      "æĦıå¤§åĪ©": 6042,
      "çĶµç«Ļ": 6043,
      "æķ°æį®ä¼łè¾ĵ": 6044,
      "æł·å¼ı": 6045,
      "æľīåĬ©äºİæıĲé«ĺ": 6046,
      "åĽ½å®¶åĴĮ": 6047,
      "åĳ½ä»¤è¡Į": 6048,
      "String": 6049,
      "mare": 6050,
      "å§ĵåĲį": 6051,
      "ightmare": 6052,
      "ĠJ": 6053,
      "ï¼ĮåĪĨäº«": 6054,
      "åĴĮçİ¯å¢ĥ": 6055,
      "ä¼Ĭ": 6056,
      "çĲ³": 6057,
      "åħ³èĬĤ": 6058,
      "ä¸ĬäºĨ": 6059,
      "æĦıè§ģ": 6060,
      "æľĢé«ĺ": 6061,
      "å®¹éĩı": 6062,
      "çº¿ç¨ĭ": 6063,
      "ï¼Įä»İèĢĮå®ŀçİ°": 6064,
      "ä¿®åħ»": 6065,
      "ç¨³å®ļçļĦ": 6066,
      "åĽ½å®¶éĺŁ": 6067,
      "åĪĿæľŁ": 6068,
      "ount": 6069,
      "æĲŃå»º": 6070,
      "åĢºåĬ¡": 6071,
      "çļĦå¯¹è¯Ŀ": 6072,
      "ãĢĤæ¯ıä¸ª": 6073,
      "éĢļè¿ĩä¸Ĭè¿°": 6074,
      "ç¡Ŀ": 6075,
      "æĿİæĻ¨": 6076,
      "ï¼īĊ": 6077,
      "éĤ¦": 6078,
      "èĥĮæĻ¯ä¸ĭ": 6079,
      "ç«łèĬĤ": 6080,
      "åł¡": 6081,
      "ï¼Įä»¥åıĬå¦Ĥä½ķ": 6082,
      "ç»ĺåĪ¶": 6083,
      "è¾īçħĮ": 6084,
      "AR": 6085,
      "cal": 6086,
      "sq": 6087,
      "ï¼Įæĸ°": 6088,
      "ï¼Įéĺ¿": 6089,
      "çļĦåı¯": 6090,
      "ãĢĤè®¸å¤ļ": 6091,
      "åĴĮåĬŁèĥ½": 6092,
      "ä¸ºä¸»": 6093,
      "çĲĨæĢ§": 6094,
      "å½±è§Ĩ": 6095,
      "éĤ»": 6096,
      "ï¼Įä¸ºæľªæĿ¥çļĦ": 6097,
      "èµĦæºĲç®¡çĲĨ": 6098,
      "ç»Īç«¯": 6099,
      "ï¼ĮæĿİæĻĵ": 6100,
      "æĸĹäºī": 6101,
      "head": 6102,
      "åħ´å¥ĭåľ°": 6103,
      "èī¾ç±³": 6104,
      "åıĻäºĭ": 6105,
      "ï¼Įå®ļæľŁ": 6106,
      "çļĦå·¥åħ·": 6107,
      "çļĦè±¡å¾ģ": 6108,
      "å¼¯": 6109,
      "è¿ĩæĿ¥": 6110,
      "åľ°çļĦ": 6111,
      "ä½ĵèĥ½": 6112,
      "åħ³çĪ±": 6113,
      "èĤĥ": 6114,
      "å°±ä¼ļ": 6115,
      "æİ¨è¿Ľ": 6116,
      "ition": 6117,
      "ï¼ĮæĪĳä»¬åı¯ä»¥éĢļè¿ĩ": 6118,
      "å¿ĥä¸Ńä¸Ģ": 6119,
      "å°½éĩı": 6120,
      "Ġname": 6121,
      "éĺĲè¿°": 6122,
      "ðŁ": 6123,
      "ï¼ĮåĲĪçĲĨ": 6124,
      "åĴĮçŃĸçķ¥": 6125,
      "æĿľ": 6126,
      "çİ»": 6127,
      "å®ŀä½ĵ": 6128,
      "å¤ļå¹´": 6129,
      "æ¸¯": 6130,
      "æ¡ĳ": 6131,
      "åĮħè£ħ": 6132,
      "æµģè¡Į": 6133,
      "æ¯ıæ¬¡": 6134,
      "é£ŁçĶ¨": 6135,
      "è¥¿èĹı": 6136,
      "ĠĠĠĠĠĠĠĠĠĠ": 6137,
      "è´¢åĬ¡ç®¡çĲĨ": 6138,
      "è·¨å¹³åı°": 6139,
      ",Ċ": 6140,
      "Script": 6141,
      "ï¼Įå°Ŀè¯ķ": 6142,
      "ï¼ĮéĢĤçĶ¨äºİ": 6143,
      "çļĦæĢģåº¦": 6144,
      "ä¹Ķ": 6145,
      "å¯¹ä¸ŃåĽ½": 6146,
      "äººåľ¨": 6147,
      "ä¸İèĩªçĦ¶": 6148,
      "ä¸ĭéĿ¢": 6149,
      "åĲĪè§Ħ": 6150,
      "ä¸įä»ħè¦ģ": 6151,
      "èĤĿ": 6152,
      "å§»": 6153,
      "åĻ¨çļĦ": 6154,
      "å£³": 6155,
      "éĩĮéĿ¢": 6156,
      "åĽŀæĶ¶": 6157,
      "è½¬åıĺ": 6158,
      "å®¤åĨħ": 6159,
      "åĽ¾åĥıå¤ĦçĲĨ": 6160,
      "æĹ¶æľŁçļĦ": 6161,
      "çļĦç¤¾äº¤": 6162,
      "æıĴåħ¥": 6163,
      "æī¹åĪ¤æĢ§æĢĿç»´": 6164,
      "è¿½æº¯åĪ°": 6165,
      "ï¼Įä¸Ń": 6166,
      "åĴĮå¤ĦçĲĨ": 6167,
      "å¤§æ°Ķ": 6168,
      "å°ıçİĭ": 6169,
      "çī©ç§į": 6170,
      "èĩªå·±çļĦåĬªåĬĽ": 6171,
      "ç²¾åĬĽ": 6172,
      "å®ŀè·µä¾ĭåŃĲ": 6173,
      "åħ³éĶ®ä½ľçĶ¨": 6174,
      "èĲ¥åħ»æĪĲåĪĨ": 6175,
      "å°ĬéĩįåĴĮ": 6176,
      "åı¥è¯Ŀ": 6177,
      "æĬĳåĪ¶": 6178,
      "çŃĽéĢī": 6179,
      "åĶ¯ä¸Ģ": 6180,
      ")ĊĊ": 6181,
      "PHP": 6182,
      "Ġl": 6183,
      "æĺ¯ä¸ºäºĨ": 6184,
      "ä¸įåıĬ": 6185,
      "ä¼ļçļĦ": 6186,
      "çļĦç³": 6187,
      "åŃĲè½©": 6188,
      "æ·±å¤Ħ": 6189,
      "ï¼Įè¿ĺéĢļè¿ĩ": 6190,
      "ind": 6191,
      "ï¼Ł**ĊĊ": 6192,
      "éĺ²å¾¡": 6193,
      "æĪĲåĬŁçļĦåħ³éĶ®": 6194,
      "ï¼Įæ¯ıä¸Ģä¸ª": 6195,
      "ä½ıå®ħ": 6196,
      "ne": 6197,
      "Ġä»Ģä¹Īæĺ¯": 6198,
      "æĪĲåĽł": 6199,
      "èĩªä¿¡å¿ĥ": 6200,
      "æµĨ": 6201,
      "å¿ĥéĩĮ": 6202,
      "éĿ¢åĽ¢": 6203,
      "åĿ¡": 6204,
      "ĠĠĠĠĊ": 6205,
      "åĮºçļĦ": 6206,
      "æĪıåī§": 6207,
      "ãĢĭĊĊ": 6208,
      "æĿ¡æ¬¾": 6209,
      "æĪĲåĬŁçļĦ": 6210,
      "èĬ±æľµ": 6211,
      "æĬ¥éģĵ": 6212,
      "ï¼Įå°±åĥı": 6213,
      "ç¹ģèį£": 6214,
      ".print": 6215,
      "çļĦéģĵè·¯ä¸Ĭ": 6216,
      "-c": 6217,
      "ber": 6218,
      "ĠçĲĨè§£": 6219,
      "åĴĮä»ĸçļĦ": 6220,
      "èĥİ": 6221,
      "æ¸²æŁĵ": 6222,
      "æĿİæĢĿè¿ľ": 6223,
      "ä¸ŃçļĦéĩįè¦ģ": 6224,
      "ï¼ĪS": 6225,
      "èĭ¯": 6226,
      "èĢģæĿ¿": 6227,
      "èĢģåħĪçĶŁ": 6228,
      "æ¹¾": 6229,
      "éĢĤåĲĪèĩªå·±çļĦ": 6230,
      "åıĳæĮ¥äºĨ": 6231,
      "æ³½å®ĩ": 6232,
      "pend": 6233,
      "ä¼¦çĲĨ": 6234,
      "çļĦæŃ£å¸¸": 6235,
      "å¥łå®ļäºĨåŁºç¡Ģ": 6236,
      "ĥåľ": 6237,
      "æĿĨ": 6238,
      "æĬ¬": 6239,
      "çľĭä¼¼": 6240,
      "çĶŁæ´»æĸ¹å¼ı": 6241,
      "åŀĥåľ": 6242,
      "ï¼Įç¡®ä¿Ŀåħ¶": 6243,
      "éļıæľº": 6244,
      "çŁĽçĽ¾": 6245,
      "ace": 6246,
      "çĶµåŃĲåķĨåĬ¡": 6247,
      "è´¡çĮ®åĬĽéĩı": 6248,
      "æī©æķ£": 6249,
      "Ġres": 6250,
      "æ·±è¿ľå½±åĵį": 6251,
      "æģ¶æĦı": 6252,
      "ä¸¥æł¼çļĦ": 6253,
      "cont": 6254,
      "åŀĥåľ¾": 6255,
      "ll": 6256,
      "rue": 6257,
      "Ġæĺ¯": 6258,
      "ï¼Įç³»ç»Ł": 6259,
      "ï¼Įå±ķç¤º": 6260,
      "ï¼Įæĺİç¡®": 6261,
      "ï¼Įå°½ç®¡": 6262,
      "ãĢĤæİ¥ä¸ĭæĿ¥": 6263,
      "å¦Ĩ": 6264,
      "åĪ°è¾¾": 6265,
      "æ´»æĢ§": 6266,
      "çĶµåĬ¨": 6267,
      "å·¥ä½ľèĢħ": 6268,
      "å¤´çĹĽ": 6269,
      "åĨľèį¯": 6270,
      "ç¾İå¥½çļĦ": 6271,
      "Ġç¬¬ä¸Ģéĥ¨åĪĨ": 6272,
      "å¾Īå¿«": 6273,
      "åĳ³éģĵ": 6274,
      "åĩĨå¤ĩå·¥ä½ľ": 6275,
      "çļĦç¾İå¥½": 6276,
      "çķªèĮĦ": 6277,
      "Ġç¬¬äºĶæŃ¥": 6278,
      "æĲħæĭĮ": 6279,
      "vi": 6280,
      "½åŁ¹": 6281,
      "Ġä¸Ń": 6282,
      "äºķ": 6283,
      "åĩĮ": 6284,
      "ä¸Ĭä¸ĭ": 6285,
      "åĲĮæĦı": 6286,
      "å¼ĢæºĲ": 6287,
      "æłĩçŃ¾": 6288,
      "æİ¢æµĭ": 6289,
      "åĸĬ": 6290,
      "çŁ¥è¯ĨçļĦ": 6291,
      "ç¢°": 6292,
      "åĽ°éļ¾åĴĮæĮĳæĪĺ": 6293,
      "åı¶çīĩ": 6294,
      "åĭĩæķ¢åľ°": 6295,
      "é¢Ĺç²Ĵ": 6296,
      "æģĲæĥ§": 6297,
      "æ»¡æĦıåº¦": 6298,
      "å°ıå¿ĥç¿¼ç¿¼åľ°": 6299,
      "è´¸æĺĵ": 6300,
      "ï¼Įåħ¨": 6301,
      "å¤º": 6302,
      "ä¸Ģæ¬¾": 6303,
      "çİ°æľī": 6304,
      "åºĶæĢ¥": 6305,
      "çĤ¸": 6306,
      "æľºåħ³": 6307,
      "ç»Łæ²»": 6308,
      "åħ»çĶŁ": 6309,
      "å¸ĤåľºéľĢæ±Ĥ": 6310,
      "æĢ§èĥ½åĴĮ": 6311,
      "çļĦæ°ĳ": 6312,
      "è¶ħè¿ĩ": 6313,
      "çļĦæĥħæĦŁåĴĮ": 6314,
      "éľĩæĥĬ": 6315,
      "æĢİä¹ĪåĬŀ": 6316,
      "çļĦä¸Ģä¸ªéĩįè¦ģ": 6317,
      "åĺī": 6318,
      "MySQL": 6319,
      "::": 6320,
      "De": 6321,
      "çļĦèĤ©èĨĢ": 6322,
      "åĴĮåĬªåĬĽ": 6323,
      "ä¸ĭäºĨ": 6324,
      "ç½ļ": 6325,
      "åĬŁæķĪ": 6326,
      "æĬĢæľ¯åľ¨": 6327,
      "æķĻèĤ²åĴĮ": 6328,
      "çĹħæĥħ": 6329,
      "éļıæĹ¶": 6330,
      "æīįåįİ": 6331,
      "ï¼Įå°±åľ¨": 6332,
      "ool": 6333,
      "çĪ¶äº²": 6334,
      "é½¿": 6335,
      "ãĢĤæľ¬åįķåħĥå°Ĩ": 6336,
      "ĠåŃ¦ä¹ł": 6337,
      "çļĦè¯Ńè¨Ģ": 6338,
      "çļĦä¹¦ç±į": 6339,
      "åĴĮèīºæľ¯": 6340,
      "å¤¹": 6341,
      "ä¸Ģçīĩ": 6342,
      "èĥĨ": 6343,
      "å¼Ī": 6344,
      "æķĻè®Ń": 6345,
      "ä»İå°ı": 6346,
      "éķ¿åº¦": 6347,
      "æĥ³åĪ°": 6348,
      "æĶ¯åĩº": 6349,
      "å®Ŀå®Ŀ": 6350,
      "ï¼ĮæĪĳä¼ļ": 6351,
      "éĿŀå¸¸éĩįè¦ģ": 6352,
      "åħ±åĲĮåĬªåĬĽ": 6353,
      "()`": 6354,
      "éľ²åĩº": 6355,
      "éĵ¾æİ¥": 6356,
      "éĢĢç¼©": 6357,
      "çļĦæĽ´": 6358,
      "åµĮåħ¥": 6359,
      "ld": 6360,
      "ln": 6361,
      "çļĦæľīæķĪ": 6362,
      "çļĦäºĴåĬ¨": 6363,
      "å¿Į": 6364,
      "éĻ¶": 6365,
      "åĪĨè¾¨": 6366,
      "æĭľ": 6367,
      "å¿ĥå¾Ĺ": 6368,
      "æĪĸè®¸": 6369,
      "ä¼ĺå¼Ĥ": 6370,
      "ãĢĤéĢļè¿ĩåĪĨæŀĲ": 6371,
      "ä¸įä»ħä»ħæĺ¯ä¸Ģä¸ª": 6372,
      "çº³ç±³": 6373,
      "å©ļå§»": 6374,
      "è¯¸å¤ļ": 6375,
      "çļĦçĬ¶": 6376,
      "ĠRe": 6377,
      "ï¼Įæĸ¹ä¾¿": 6378,
      "ãĢĤæ¯Ķå¦Ĥ": 6379,
      "ãĢĤäºİæĺ¯": 6380,
      "çĶľ": 6381,
      "æĹ¶ç©º": 6382,
      "èĩªè±ª": 6383,
      "è¿ĺéľĢè¦ģ": 6384,
      "èĬ¦": 6385,
      "ï¼ĮæĪĳä»¬è¦ģ": 6386,
      "```Ċ": 6387,
      "æ£ĢéªĮ": 6388,
      "æ¶ĪåĮĸ": 6389,
      "ï¼Įè®©æĽ´å¤ļçļĦäºº": 6390,
      "ä½³ä½³": 6391,
      "åı¯ä»¥å¸®åĬ©æĪĳä»¬": 6392,
      "å¦Ĥä½ķå¸®åĬ©å®ŀçİ°é¢ĦæľŁç»ĵæŀľ": 6393,
      "ç»ĳå®ļ": 6394,
      "App": 6395,
      "Open": 6396,
      "´è¿·": 6397,
      "çļĦçĽ®çļĦ": 6398,
      "è¿Ļç¯ĩ": 6399,
      "å¯¹æľªæĿ¥çļĦ": 6400,
      "ä¼ļä¸Ĭ": 6401,
      "åı¯ä»¥æĺ¯": 6402,
      "âĢĿè¿Ļä¸Ģ": 6403,
      "äºĭçī©": 6404,
      "åħ¬çĽĬ": 6405,
      "åŀĦ": 6406,
      "éĵľ": 6407,
      "ï¼Įä½łéľĢè¦ģ": 6408,
      "äºĨä¸Ģä¼ļåĦ¿": 6409,
      "å¿ĹåĿļ": 6410,
      "ç¿°": 6411,
      "ä½ıäºĨ": 6412,
      "unction": 6413,
      "ï¼Įçī¹åĪ«æĺ¯åľ¨": 6414,
      "æĦŁæħ¨åľ°è¯´": 6415,
      "è´ŁéĿ¢å½±åĵį": 6416,
      "udo": 6417,
      "ï¼ĮæĶ¹åĸĦ": 6418,
      "çļĦåŁ¹åħ»": 6419,
      "çļĦçŃĸçķ¥": 6420,
      "èµ«": 6421,
      "æĪĳä»¬åı¯ä»¥": 6422,
      "éĿ¢åĮħ": 6423,
      "æľ¬èº«": 6424,
      "å°ıçļĦ": 6425,
      "ç´«": 6426,
      "å°Ĩè¿ĻäºĽ": 6427,
      "åŃ¦çĶŁä»¬": 6428,
      "ï¼Įä»ĸä¸įä»ħ": 6429,
      "åĪ©çİĩ": 6430,
      "æĬĢæľ¯çļĦåıĳå±ķ": 6431,
      "ç¾İæľ¯": 6432,
      "ä¸įæĸŃè¿ĽæŃ¥": 6433,
      "ä¿ĿæĮģåĨ·éĿĻ": 6434,
      "ç¦»åŃĲ": 6435,
      "æ²³æµģ": 6436,
      "çļĦæŀĦ": 6437,
      "Ġåįķåħĥæłĩé¢ĺ": 6438,
      "æŀģå¤§åľ°": 6439,
      "self": 6440,
      "âĶ": 6441,
      "ï¼Įè°ĥæķ´": 6442,
      "ä¸įå·²": 6443,
      "æ¯ħåĬĽ": 6444,
      "å¼ºçĥĪ": 6445,
      "æľįé¥°": 6446,
      "æĶ¯æĴĳ": 6447,
      "å¹¿åľº": 6448,
      "åħ±äº§": 6449,
      "æĿĥå¨ģ": 6450,
      "å¿ĹæĦ¿": 6451,
      "ãĢĤä»ĸä»¬çŁ¥éģĵ": 6452,
      "ç¼ĵç¼ĵ": 6453,
      "è¯ĨåĪ«åĴĮ": 6454,
      "éĥ½æľīåħ¶çĭ¬çī¹çļĦ": 6455,
      "èĪªç©º": 6456,
      "éŀĭ": 6457,
      "SON": 6458,
      "åĴĮåĲĪä½ľ": 6459,
      "è¿ĩå¤ļ": 6460,
      "è¿ĩæ»¤": 6461,
      "çļĦæį": 6462,
      "åı¯ä»¥è¿½æº¯åĪ°": 6463,
      "æĿ¥åĪ°äºĨ": 6464,
      "ãĢĤè¿Ļæ¬¡": 6465,
      "å¹¶æľª": 6466,
      "å¼ºçĥĪçļĦ": 6467,
      "èĬĤçĽ®": 6468,
      "åķ¡": 6469,
      "æĵ¦": 6470,
      "æ£Ĵ": 6471,
      "org": 6472,
      "æĦıè¯ĨåĴĮ": 6473,
      "å¯¼èĩ´çļĦ": 6474,
      "çļĦæł·": 6475,
      "çļĦç¤º": 6476,
      "éĩįæĸ°å®¡è§Ĩ": 6477,
      "æĶ¹åıĺäºĨ": 6478,
      "æ©¡èĥ¶": 6479,
      "PS": 6480,
      "public": 6481,
      "é¬": 6482,
      "ä¹Ļ": 6483,
      "æĽ´å®¹æĺĵ": 6484,
      "ä½ĵçļĦ": 6485,
      "ä½ĵåĪ¶": 6486,
      "è¾°": 6487,
      "æĿİäºĳ": 6488,
      "å®ĥçļĦ": 6489,
      "çĸ¼çĹĽ": 6490,
      "ç²®": 6491,
      "éĩĳé¢Ŀ": 6492,
      "è·¯çĶ±": 6493,
      "é¢ĦèŃ¦": 6494,
      "æĽ´å¥½åľ°æİĮæı¡": 6495,
      "æ¿Ģåħī": 6496,
      "æĿĤå¿Ĺ": 6497,
      "ä»·åĢ¼åĴĮ": 6498,
      "èĳĹç§°": 6499,
      "æ³¨æĦıåĬĽ": 6500,
      "åįļå¼Ī": 6501,
      "è±ĨèħĲ": 6502,
      "JavaScript": 6503,
      "éĻ·åħ¥": 6504,
      "åĴĸåķ¡": 6505,
      "åĪĨè¾¨çİĩ": 6506,
      "->": 6507,
      "ãĢĤèµµ": 6508,
      "æĺ¯å¦Ĥä½ķ": 6509,
      "çĲĨè´¢": 6510,
      "çİ°éĩĳ": 6511,
      "âĢľä½ł": 6512,
      "å¤§å¤§": 6513,
      "ä¹Łåľ¨": 6514,
      "ï¼Įä¹Łè®©": 6515,
      "çħİ": 6516,
      "åĽ½å®¶çļĦ": 6517,
      "åĸľæĤ¦": 6518,
      "æĪĺæĸĹä¸Ń": 6519,
      "çĵľ": 6520,
      "æ¹¿åº¦": 6521,
      "Ġç¬¬äºĮéĥ¨åĪĨ": 6522,
      "åĩŃè¯ģ": 6523,
      "çļĦç¬¦åı·": 6524,
      "ï¼ĮéĿ¢å¯¹": 6525,
      "ä¸İä»ĸäºº": 6526,
      "æĥł": 6527,
      "ä¸įä»ħå±ķç¤ºäºĨ": 6528,
      "åģ¿": 6529,
      "æľŁåĪĬ": 6530,
      "åĲįè¨Ģ": 6531,
      "æĮĩçļĦæĺ¯": 6532,
      "æľįåĬ¡çļĦ": 6533,
      "ï¼Įä»ĸä»¬çļĦ": 6534,
      "å·§å¦Ļ": 6535,
      "ãĢĤè¿Ļç§įæĸ¹æ³ķ": 6536,
      "æ¼Ķåĩº": 6537,
      "ï¼Įæ¯ıä¸ªäºº": 6538,
      "éĨĩ": 6539,
      "ä¸Ģä½įåĲįåı«": 6540,
      "çļĦçľŁçĽ¸": 6541,
      "ç¬Ķè®°æľ¬": 6542,
      "Ex": 6543,
      "ï¼Įè®°å½ķ": 6544,
      "çļĦäºĭæĥħ": 6545,
      "è¿Ń": 6546,
      "æĺŃ": 6547,
      "æĺ¯åĽłä¸º": 6548,
      "äººç¾¤": 6549,
      "ä»ħä»ħ": 6550,
      "æľºçļĦ": 6551,
      "ï¼Įè¿ĻæľīåĬ©äºİ": 6552,
      "éľĢè¦ģæł¹æį®": 6553,
      "åįķä¸Ģ": 6554,
      "æ¸ħæ´Ĺ": 6555,
      "æĪĲåĬŁåľ°": 6556,
      "çĲĨè®ºçŁ¥è¯Ĩ": 6557,
      "ãĢĤæĹłè®ºæĺ¯": 6558,
      "å½»åºķ": 6559,
      "ttp": 6560,
      "ĠäºĶ": 6561,
      "ï¼Įæĭ¥æľī": 6562,
      "ï¼Įä¸¤äºº": 6563,
      "éĢĨ": 6564,
      "ä¼ļå½±åĵį": 6565,
      "åĬ¨æīĭ": 6566,
      "è®¾æľī": 6567,
      "æĦıå¿Ĺ": 6568,
      "å¹¶è¡Į": 6569,
      "çĶ¨æĪ·åľ¨": 6570,
      "æ´»åĬ¨ä¸Ń": 6571,
      "è½»æĺĵ": 6572,
      "ask": 6573,
      "æĸĩåŃ¦åĪĽä½ľ": 6574,
      "é»ĺè®¤": 6575,
      "èģĮä¸ļçĶŁæ¶¯ä¸Ń": 6576,
      "åĩĿèģļ": 6577,
      "å·¦åı³": 6578,
      "æĺĨèĻ«": 6579,
      "çļĦæĻ®åıĬ": 6580,
      "åŀĦæĸŃ": 6581,
      "Ġ:": 6582,
      "Ġæīĵå¼Ģ": 6583,
      "ï¼ĮåŃ¦ä¼ļ": 6584,
      "ï¼Įè§Ĥå¯Ł": 6585,
      "çļĦä¿¡ä»»": 6586,
      "ãĢĤä½ľä¸º": 6587,
      "åĴĮæĹł": 6588,
      "ä¸ĢæĿ¡": 6589,
      "æľīä»Ģä¹Ī": 6590,
      "Ġ**ãĢĬ": 6591,
      "åįµ": 6592,
      "èĤ¯": 6593,
      "æĸ°é²ľ": 6594,
      "ä¼łå¥ĩ": 6595,
      "ï¼ĮæĪĳä»¬æīįèĥ½": 6596,
      "æłĩè®°": 6597,
      "æľįçĶ¨": 6598,
      "å¼ķè¿Ľ": 6599,
      "å¸Ĥåľºç«ŀäºī": 6600,
      "ä¸ªäººä¿¡æģ¯": 6601,
      "è¯¦ç»Ĩè§£éĩĬ": 6602,
      "ç»§ç»ŃåĬªåĬĽ": 6603,
      "ç¿Ķ": 6604,
      "åĲ¬ä¼Ĺ": 6605,
      "åıįæĢĿä¸İ": 6606,
      "æŃ¦æľ¯": 6607,
      "çĩķ": 6608,
      "æľīéĻĲåħ¬åı¸": 6609,
      "è¾ħå¯¼": 6610,
      "æµªè´¹": 6611,
      "æĤłä¹ħ": 6612,
      "PE": 6613,
      "ºçī²": 6614,
      "Ġ@": 6615,
      "æľīçĶ¨": 6616,
      "çīºçī²": 6617,
      "éĢļçŁ¥": 6618,
      "ä¼ļå¯¹": 6619,
      "ä¸İåıĳå±ķ": 6620,
      "èī³": 6621,
      "ä¸įä»ħä¸°å¯ĮäºĨ": 6622,
      "éĩįè¦ģè´¡çĮ®": 6623,
      "åŃ¦ä¹łæķĪçİĩ": 6624,
      "èģª": 6625,
      "æīĭåĨĮ": 6626,
      "æĿĥåĪ©": 6627,
      "ç»§æī¿": 6628,
      "æĬĢå·§åĴĮ": 6629,
      "çļĦæ°ĽåĽ´": 6630,
      "å¤ªæŀģ": 6631,
      "ï¼Įå°¤åħ¶æĺ¯åľ¨": 6632,
      "æĭĽèģĺ": 6633,
      "UI": 6634,
      "¤æĢĴ": 6635,
      "çļĦè§Ĵèī²": 6636,
      "æĹ¶å°ļ": 6637,
      "åŁĥ": 6638,
      "å¤ļåªĴä½ĵ": 6639,
      "å°ıé¸Ł": 6640,
      "åħ¨æĸ°çļĦ": 6641,
      "æıĲä¾ĽçļĦ": 6642,
      "ä¹ĭåĲİ": 6643,
      "çļĦéĩįè¦ģæīĭæ®µ": 6644,
      "æĮĩæķ°": 6645,
      "è·¯çº¿": 6646,
      "éĴ»": 6647,
      "ï¼Įæ¯ıå¤©": 6648,
      "æİĪæĿĥ": 6649,
      "æĽ´å¥½åľ°çĲĨè§£åĴĮ": 6650,
      "éĿĴå¹´": 6651,
      "åĬ³åĬ¨åĬĽ": 6652,
      "ï¼Įä¸Ķ": 6653,
      "ä¸Ģä»£": 6654,
      "åľ¨çłĶç©¶": 6655,
      "åľ¨æľªæĿ¥": 6656,
      "ä¾ł": 6657,
      "çļĦçķ": 6658,
      "æ¨¡æĿ¿": 6659,
      "éĺŁä¼į": 6660,
      "è§£åĨ³äºĨ": 6661,
      "æ¶ĪèĢĹ": 6662,
      "éĩĩéĽĨ": 6663,
      "åĪĩçīĩ": 6664,
      "çļĦæİ§": 6665,
      "Ġto": 6666,
      "åħįçĸ«åĬĽ": 6667,
      "www": 6668,
      "èĳ¡èĲĦéħĴ": 6669,
      "çļĦçªģ": 6670,
      ");ĊĊ": 6671,
      "ject": 6672,
      "ss": 6673,
      "åĬ£": 6674,
      "åĴĮæĿİ": 6675,
      "æŀĿ": 6676,
      "å¥ī": 6677,
      "âĢĿãĢĤĊ": 6678,
      "èīĩ": 6679,
      "è¿ĺèĥ½": 6680,
      "éĥ¨ä»¶": 6681,
      "ç¤¾ä¼ļä¿Ŀéļľ": 6682,
      "æķĻèĤ²çļĦ": 6683,
      "éĵº": 6684,
      "ä»¥ä¸ĭæĺ¯ä¸Ģä¸ª": 6685,
      "åģ¥åº·çļĦ": 6686,
      "èģĶåĲĪ": 6687,
      "æĿ¡ä»¶ä¸ĭ": 6688,
      "ãĢĤå¥¹çŁ¥éģĵ": 6689,
      "é©¬åħĭ": 6690,
      "å¸¸è§ģéĹ®é¢ĺ": 6691,
      "çģ«æĺŁ": 6692,
      "æ´ŀå¯Ł": 6693,
      "æĬ½è±¡": 6694,
      "åĬłæ·±å¯¹": 6695,
      "çļĦç©ºéĹ´": 6696,
      "map": 6697,
      "çļĦåıĳçİ°": 6698,
      "äºĨèĩªå·±": 6699,
      "ãĢģæķĻèĤ²": 6700,
      "å¯¹ä»ĸ": 6701,
      "âĢĿæĮīéĴ®": 6702,
      "èĢĮåĩº": 6703,
      "åı¯èĥ½çļĦ": 6704,
      "éĤª": 6705,
      "é£İåĳ³": 6706,
      "ãĢĤéĢļè¿ĩäºĨè§£": 6707,
      "æĥ³èµ·": 6708,
      "éĵŃ": 6709,
      "çº¿ä¸Ĭ": 6710,
      "éĽĨä½ĵ": 6711,
      "äºĨä¸Ģåľº": 6712,
      "æī¿åıĹ": 6713,
      "çŁ©": 6714,
      "èº«ä½ĵåģ¥åº·": 6715,
      "æĺ¯åĲ¦æľī": 6716,
      "åĲ¸å¼ķåĬĽ": 6717,
      "Ġ}ĊĊ": 6718,
      "èĦ¸ä¸Ĭ": 6719,
      "æĻĭåįĩ": 6720,
      ".log": 6721,
      "ï¼Įä¸Ģå®ļ": 6722,
      "åľ¨å¼Ģå§ĭ": 6723,
      "å¯Ħ": 6724,
      "éĢļè¿ĩä¸įæĸŃ": 6725,
      "éĻĮ": 6726,
      "è¾£": 6727,
      "éĿ¢çļĦ": 6728,
      "çĤī": 6729,
      "å¾Ĺä»¥": 6730,
      "éľĢè¦ģåħ·å¤ĩ": 6731,
      "ï¼Įä½Ĩåıªè¦ģ": 6732,
      "åİĨåı²çļĦ": 6733,
      "ï¼ĮæĽ´æĺ¯ä¸Ģä¸ª": 6734,
      "èĩ³å°ĳ": 6735,
      "èģĶèµĽ": 6736,
      "ä¸ĸçķĮçļĦ": 6737,
      "çľ¼åīį": 6738,
      "æĦŁåĪ°æĹłæ¯Ķ": 6739,
      "åĭĩäºİ": 6740,
      "çļĦçĲĨè§£åĴĮ": 6741,
      "åĽ¢éĺŁåĲĪä½ľç²¾ç¥ŀ": 6742,
      "ä¸įåı¯æĪĸç¼ºçļĦä¸Ģéĥ¨åĪĨ": 6743,
      "é«ĺè´¨éĩıçļĦ": 6744,
      "æĦīå¿«": 6745,
      "div": 6746,
      "nc": 6747,
      "ãĢĤçĲĨè§£": 6748,
      "ä¸ºäºº": 6749,
      "å¯¹ç¤¾ä¼ļ": 6750,
      "æ³¥": 6751,
      "é¢Ī": 6752,
      "âĢľå°ı": 6753,
      "åºĶå½ĵ": 6754,
      "æ²ĥ": 6755,
      "å°Ĩä¸º": 6756,
      "æĤ¬": 6757,
      "å¤ĸè§Ĥ": 6758,
      "éĴĻ": 6759,
      "éĢłä»·": 6760,
      "æĶ¾ç½®": 6761,
      "Ġç¬¬ä¸Ģ": 6762,
      "èĳ±": 6763,
      "æİĮæı¡äºĨ": 6764,
      "row": 6765,
      "ï¼Įä¸įä»ħä»ħ": 6766,
      "å®ļæľŁæ£ĢæŁ¥": 6767,
      "éħįç½®æĸĩä»¶": 6768,
      "å©·": 6769,
      "èµŀåĲĮ": 6770,
      "éĺ´éĺ³": 6771,
      "å¤ļåħĥåĮĸ": 6772,
      "CPU": 6773,
      ".println": 6774,
      "tu": 6775,
      "åĹ": 6776,
      "ä¸¢": 6777,
      "ï¼Įåıį": 6778,
      "çļĦæĪĲå°±": 6779,
      "åĴĮè¡Įä¸º": 6780,
      "æĺ¯å°Ĩ": 6781,
      "æĪĳä»¬åľ¨": 6782,
      "å¤ļæķ°": 6783,
      "åĩºåı£": 6784,
      "èĢĮè¨Ģ": 6785,
      "è¡¨æĥħ": 6786,
      "ä¼łçĲĥ": 6787,
      "ï¼ĮæĪĳä»¬ä¹Ł": 6788,
      "åºĶçĶ¨åľºæĻ¯": 6789,
      "æĤ²": 6790,
      "å·¥ä½ľæķĪçİĩ": 6791,
      "ä¹ĲåĻ¨": 6792,
      "æ°Ķè±¡": 6793,
      "éħįå¤ĩ": 6794,
      "ence": 6795,
      "çĥŃéĩı": 6796,
      "ç»§ç»Ńæ·±åħ¥çłĶç©¶": 6797,
      "ä¸ºäºĨæĽ´å¥½åľ°çĲĨè§£": 6798,
      "ä¸¥èĤĥ": 6799,
      "æĬĢèĥ½åĴĮ": 6800,
      "çļĦæīį": 6801,
      "çŁŃæĹ¶éĹ´åĨħ": 6802,
      "èįīèį¯": 6803,
      "æıĴæ§½": 6804,
      "æĽ´æ·±åħ¥åľ°çĲĨè§£": 6805,
      "äº§éĩıåĴĮ": 6806,
      "çŀ¬éĹ´": 6807,
      ".t": 6808,
      "å¼¥": 6809,
      "æ°¨": 6810,
      "è¿ĽçĲĥ": 6811,
      "å¾Ĺä¸į": 6812,
      "å¹¶åıĳ": 6813,
      "ä¸ŃçļĦè§Ĵèī²": 6814,
      "one": 6815,
      "èģĮèĥ½": 6816,
      "åĪĻéĢļè¿ĩ": 6817,
      "åİĨåı²ä¸Ĭ": 6818,
      "èĮİ": 6819,
      "æľªæĿ¥åıĳå±ķ": 6820,
      "äºĨä¸Ģä¸ĭ": 6821,
      "å¿«éĢŁåıĳå±ķ": 6822,
      "ä¸Ģå¤©æĻļä¸Ĭ": 6823,
      "ä»¿çľŁ": 6824,
      "ï¼ĮçĽ´åĪ°": 6825,
      "è¿Ńä»£": 6826,
      "User": 6827,
      "\\)": 6828,
      "pack": 6829,
      "ï¼Įé«ĺ": 6830,
      "çļĦå¹´è½»äºº": 6831,
      "ä¸Ģç¯ĩ": 6832,
      "ä¸įéĢĤ": 6833,
      "éĢļè¿ĩæľ¬åįķåħĥçļĦåŃ¦ä¹ł": 6834,
      "åı¯ä»¥ç¡®ä¿Ŀ": 6835,
      "å¥½åıĭ": 6836,
      "æ»´": 6837,
      "åĽłåħ¶": 6838,
      "çİ¯å¢ĥçļĦ": 6839,
      "ï¼Įå¹¶ä¸º": 6840,
      "æĽ´åĬłæ³¨éĩį": 6841,
      "åĲ¬åĪ°": 6842,
      "çļĦæĥħç»ª": 6843,
      "èµ°åĪ°": 6844,
      "æĿ¾é¼ł": 6845,
      "å¥³åŃ©": 6846,
      "å®ĥä»¬åľ¨": 6847,
      "æĿİæĻĵå³°": 6848,
      "èĢķåľ°": 6849,
      "çļĦç¤ºä¾ĭ": 6850,
      "ç°": 6851,
      "ï¼Įä¿Ŀéļľ": 6852,
      "äºĨä»ĸä»¬çļĦ": 6853,
      "åľ¨æ¸¸æĪıä¸Ń": 6854,
      "æĺ¯ä¸ŃåĽ½": 6855,
      "ä¸įå¼Ģ": 6856,
      "å¯¹ä¸ŃåŃ¦çĶŁ": 6857,
      "åı¯ä»¥æıĲä¾Ľ": 6858,
      "åı¯ä»¥åĪĨä¸º": 6859,
      "å®ļåĪ¶": 6860,
      "éĩįå»º": 6861,
      "å¼łæĺİ": 6862,
      "æ°ĳéĹ´": 6863,
      "å¤´éĥ¨": 6864,
      "æ·±åħ¥åĪĨæŀĲ": 6865,
      "éĺ²èĮĥ": 6866,
      "rom": 6867,
      "åĩĨç¡®æĢ§": 6868,
      "ï¼ĮæĽ´æĺ¯ä¸ºäºĨ": 6869,
      "åĨľæĿĳç»ıæµİ": 6870,
      "çĺ¤": 6871,
      "Ġç¬¬ä¸īéĥ¨åĪĨ": 6872,
      "Ar": 6873,
      "ï¼Įå±ķç¤ºäºĨ": 6874,
      "çļĦåīį": 6875,
      "çļĦå½¢æĪĲ": 6876,
      "åĴĮå½±åĵį": 6877,
      "æĺ¯æĢİä¹Ī": 6878,
      "çŃīçº§": 6879,
      "åŃ¦çĶŁå¯¹": 6880,
      "é¥±": 6881,
      "èĮĤ": 6882,
      "æŀĹæĻ¨": 6883,
      "çļĦæł¹": 6884,
      "ted": 6885,
      "ãĢĤå®ĥä»¬": 6886,
      "ĠSystem": 6887,
      "æĻ®éģį": 6888,
      "æĹ¨åľ¨æ·±åħ¥æİ¢è®¨": 6889,
      "ä¼łæī¿åĴĮ": 6890,
      "åŃ¦ä¹łåĴĮå®ŀè·µ": 6891,
      "æīĢéľĢçļĦ": 6892,
      "å½¢æĢģçī¹å¾ģ": 6893,
      "èĢĲå¿ĥåĴĮ": 6894,
      "åºĨç¥Ŀ": 6895,
      "çļĦæ¯ĶèµĽ": 6896,
      "æłĩå¿ĹçĿĢ": 6897,
      "åīįæīĢæľªæľīçļĦ": 6898,
      "rit": 6899,
      "çļĦå¿ĥçĲĨ": 6900,
      "æ³ª": 6901,
      "åĬ¨äºĨ": 6902,
      "è¿ĺæ¬¾": 6903,
      "èµĦæł¼": 6904,
      "èĥ½å¤ŁæĽ´å¥½åľ°": 6905,
      "ä¸»ä»»": 6906,
      "éħ¶": 6907,
      "æķ°æį®åĴĮ": 6908,
      "åŀĤ": 6909,
      "æ¨¡ç³Ĭ": 6910,
      "å½ĵçĦ¶": 6911,
      "èģĮä½į": 6912,
      "èİ²": 6913,
      "ç²¾å¿ĥ": 6914,
      "åĤ¬": 6915,
      "ï¼ĽèĢĮ": 6916,
      "éĵģæŁ±": 6917,
      "é¢Ĩå¯¼åĬĽ": 6918,
      "olor": 6919,
      "ï¼Įå½¢æĪĲäºĨ": 6920,
      "çļĦå®ļä¹īä¸İ": 6921,
      "è°¨æħİ": 6922,
      "æ¶Įèµ·ä¸ĢèĤ¡": 6923,
      ").": 6924,
      "gro": 6925,
      "ï¼ĮçĤ¹åĩ»": 6926,
      "åĴĮéĻĪ": 6927,
      "ï¼ļãĢĬ": 6928,
      "è¡į": 6929,
      "å¯¹æĬĹ": 6930,
      "åĮĸå¦Ĩ": 6931,
      "âĢĿåĴĮ": 6932,
      "åħ¶ä¸ŃçļĦ": 6933,
      "å¼ĢåĲ¯": 6934,
      "åĪ©äºİ": 6935,
      "æºĲäºİ": 6936,
      "éĢłåŀĭ": 6937,
      "çªģåıĳ": 6938,
      "åĨħå®¹åĴĮ": 6939,
      "æĴŃæĶ¾": 6940,
      "é»Ħæ²³": 6941,
      "åĩºçİ°åľ¨": 6942,
      "ï¼ĮæĪĲä¸ºäºĨ": 6943,
      "ï¼Įåį³ä½¿": 6944,
      "è·³è·ĥ": 6945,
      "åŁºç¡Ģè®¾æĸ½å»ºè®¾": 6946,
      "åĪºæ¿Ģ": 6947,
      "form": 6948,
      "åŃ¤çĭ¬": 6949,
      "çļĦç¹ģèį£": 6950,
      "æ²īæµ¸åľ¨": 6951,
      "éĻĮçĶŁ": 6952,
      "\":": 6953,
      "==": 6954,
      "DLL": 6955,
      "ï¼ĮåĪ©çĶ¨": 6956,
      "ï¼Įå¿ħé¡»": 6957,
      "ç»£": 6958,
      "å¤§è§Ħæ¨¡": 6959,
      "éĿ¢æĿ¿": 6960,
      "åĲĪå¹¶": 6961,
      "æ·ĭ": 6962,
      "ä¾ĽçĶµ": 6963,
      "éķ¿çļĦ": 6964,
      "æĥħå¢ĥ": 6965,
      "æĺ¯ä¸ĢåĲį": 6966,
      "è¯Ńåı¥": 6967,
      "å®ŀéĻħä¸Ĭ": 6968,
      "é¥¼": 6969,
      "é¡¹çĽ®ç®¡çĲĨ": 6970,
      "ï¼ĮæĪĳä»¬åı¯ä»¥æĽ´å¥½åľ°": 6971,
      "æĴŀ": 6972,
      "æ¼Ķåıĺ": 6973,
      "search": 6974,
      "å»ºçŃĳçī©": 6975,
      "éĹ»åĲį": 6976,
      "éĻĦè¿ĳ": 6977,
      "åģľæŃ¢": 6978,
      "èĸª": 6979,
      "lient": 6980,
      "çıįè´µ": 6981,
      "Ġthe": 6982,
      "åģļå¥½åĩĨå¤ĩ": 6983,
      "è½¨è¿¹": 6984,
      "ç¯®çĲĥ": 6985,
      ".s": 6986,
      ".get": 6987,
      "CSS": 6988,
      "ï¼Įæ²¡æľī": 6989,
      "çļĦä½ĵçİ°": 6990,
      "çļĦåŃĺåľ¨": 6991,
      "ãĢĤçĦ¶åĲİ": 6992,
      "çĽĴ": 6993,
      "ä¾¯": 6994,
      "æ±ª": 6995,
      "å°ıåŀĭ": 6996,
      "ãĢĤè¿ĻåĮħæĭ¬": 6997,
      "çĸı": 6998,
      "ï¼īãĢĤĊĊ": 6999,
      "èĬĤèĥ½": 7000,
      "ç¤¾ä¼ļè´£ä»»": 7001,
      "å®ŀçİ°äºĨ": 7002,
      "åİĨåı²èĥĮæĻ¯": 7003,
      "è¾¾åĪ°äºĨ": 7004,
      "æīĵçł´": 7005,
      "ï¼Įè®©åŃ¦çĶŁ": 7006,
      "ï¼Įå¸®åĬ©ä»ĸä»¬": 7007,
      "riv": 7008,
      "åį°åº¦": 7009,
      "é¤Ĳåİħ": 7010,
      "é£ŀè¡Įåĳĺ": 7011,
      "å¡«åĨĻ": 7012,
      "çŃīå¤ļä¸ªæĸ¹éĿ¢": 7013,
      "çļĦæĳĦ": 7014,
      "sql": 7015,
      "çļĦçĬ¶æĢģ": 7016,
      "cv": 7017,
      "lu": 7018,
      "æĺ¯çĶ±": 7019,
      "çļĦæ¬": 7020,
      "éĿ¢åĲĳ": 7021,
      "ä»£è°¢": 7022,
      "ç¼´": 7023,
      "è°ĥåº¦": 7024,
      "åīįè¿Ľ": 7025,
      "åĮºåĪ«": 7026,
      "æ¿ĢçĥĪ": 7027,
      "çļĦäººçĶŁ": 7028,
      "æĿĲæĸĻçļĦ": 7029,
      "æĦŁåĪ°ä¸Ģéĺµ": 7030,
      "å¤ļæł·æĢ§åĴĮ": 7031,
      "éĵ¶æ²³": 7032,
      "è¶³çĲĥè¿ĲåĬ¨åĳĺ": 7033,
      "åħĭæľįåĽ°éļ¾": 7034,
      "è¿«ä¸įåıĬ": 7035,
      "è¯¦ç»Ĩä»ĭç»įäºĨ": 7036,
      "çļĦç±»åŀĭ": 7037,
      "åħ±äº§åħļ": 7038,
      "èģªæĺİ": 7039,
      "è¿«ä¸įåıĬå¾ħ": 7040,
      "JSON": 7041,
      "`çļĦ": 7042,
      "ï¼ĮåĪĺ": 7043,
      "ï¼Įå¼ºè°ĥ": 7044,
      "çļĤ": 7045,
      "åĪ·": 7046,
      "åĴĮç»ıæµİ": 7047,
      "ä¸Ģé¡¹": 7048,
      "ãĢģå¸Ĥåľº": 7049,
      "æŀª": 7050,
      "åĩ¯": 7051,
      "ä¸İäºº": 7052,
      "âĢĿçŃī": 7053,
      "éĩıåĴĮ": 7054,
      "ä¸įä»ħæıĲåįĩäºĨ": 7055,
      "æĿİæ¢ħ": 7056,
      "äºĨè§£åĨ³": 7057,
      "æĸĩåĮĸåĴĮ": 7058,
      "æĸĩåĮĸéģĹäº§": 7059,
      "è£ħä¿®": 7060,
      "å¤ĦçĲĨåĻ¨": 7061,
      "æ¶Īæ¯Ĵ": 7062,
      "èµ°è¿Ľ": 7063,
      "åĪĿåŃ¦èĢħ": 7064,
      "æĥħæĦŁè¡¨è¾¾": 7065,
      "æĺ¾èĳĹæıĲé«ĺ": 7066,
      "å¥ĭæĸĹ": 7067,
      "çļĦæµĭ": 7068,
      "çļĦçŁ¥è¯ĨåĴĮ": 7069,
      "åĩºèī²çļĦ": 7070,
      "çĬ¯ç½ª": 7071,
      "php": 7072,
      "å¤ªæŀģæĭ³": 7073,
      "`æĸ¹æ³ķ": 7074,
      "are": 7075,
      "çļĦå®ŀéªĮ": 7076,
      "åĴĮæŀĹ": 7077,
      "å¸ĸ": 7078,
      "èĢ¶": 7079,
      "å¯¹åħ¶": 7080,
      "ï¼Įè¿Ļåľº": 7081,
      "ç®¡çĲĨåĳĺ": 7082,
      "ï¼Įä½Ĩä»ĸä»¬": 7083,
      "ä¸ŃåĽ½çļĦ": 7084,
      "è¯·æķĻ": 7085,
      "åĪĽæĸ°æĢĿç»´": 7086,
      "åįıåĲĮ": 7087,
      "çīĪæĿĥ": 7088,
      "ï¼Įå¸®åĬ©åŃ¦çĶŁ": 7089,
      "ï¼ĮåŃ¦çĶŁå°Ĩèĥ½å¤Ł": 7090,
      "åĿļå®ļçļĦ": 7091,
      "èĨ¨": 7092,
      "åıĸå¾ĹæĪĲåĬŁ": 7093,
      "ï¼Įä¸Ģè¾¹": 7094,
      "çİ°å®ŀçĶŁæ´»ä¸Ń": 7095,
      "æŃĮæĽ²": 7096,
      "åĮħåĲ«äºĨ": 7097,
      "éĺ»æŃ¢": 7098,
      "çļĦæ°ĶåĢĻ": 7099,
      "é²ģè¿ħ": 7100,
      "çļĦæ¸©åº¦": 7101,
      "jav": 7102,
      "Ġ&": 7103,
      "åŃķ": 7104,
      "æī£": 7105,
      "éľī": 7106,
      "ä¸Ĭä¼ł": 7107,
      "Ġ--": 7108,
      "æĹłéĻĲ": 7109,
      "æĵħ": 7110,
      "åĽ°æī°": 7111,
      "ç½ĳç»ľçĪ¬èĻ«": 7112,
      "å®¢äºº": 7113,
      "çĶŁäº§æķĪçİĩ": 7114,
      "lot": 7115,
      "åįģåĪĨ": 7116,
      "çĨŁç»ĥ": 7117,
      "å°¿çĹħ": 7118,
      "ĠâĢľ": 7119,
      "æĺĬ": 7120,
      "è¿ĩæ¸¡": 7121,
      "å°ıåŃ¦": 7122,
      "åĬłçĥŃ": 7123,
      "åĲİæŀľ": 7124,
      "åıĤå±ķ": 7125,
      "æŀĦéĢł": 7126,
      "éĵ¸": 7127,
      "çº¿æĢ§": 7128,
      "äºĨä¸Ģåı£æ°Ķ": 7129,
      "äºīè®®": 7130,
      "èµ°äºĨ": 7131,
      "å®ĺåĳĺ": 7132,
      "ĠĠĠĠĠĠĠĠĠĠĠĠĠĠĠ": 7133,
      "åį±å®³": 7134,
      "é»ĳæļĹ": 7135,
      "ãĢĤä»¥ä¸ĭæĺ¯ä¸ĢäºĽå»ºè®®": 7136,
      "çī¹æ®ĬçļĦ": 7137,
      "odel": 7138,
      "çļĦæĦŁåıĹ": 7139,
      "çĴĥ": 7140,
      "):Ċ": 7141,
      "IT": 7142,
      "cre": 7143,
      "Ġå®īè£ħ": 7144,
      "è¿Ī": 7145,
      "åŃ¦åĳĺ": 7146,
      "çļĦçĦ": 7147,
      "ä¸Ģä¸ªç®ĢåįķçļĦ": 7148,
      "çī©ä¸ļ": 7149,
      "æĦŁåºĶ": 7150,
      "åĿĿ": 7151,
      "ä¸ŃçļĦåľ°ä½į": 7152,
      "å®īéĿĻ": 7153,
      "ï¼Įè¿ĺèĥ½å¤Ł": 7154,
      "ç®¡çĲĨç³»ç»Ł": 7155,
      "éĢīæĭ©åĲĪéĢĤ": 7156,
      "è¿Ļä¸ªæķħäºĭ": 7157,
      "çļĦéĩįè¦ģéĢĶå¾Ħ": 7158,
      "æŀģé«ĺçļĦ": 7159,
      "Ġç¬¬åħŃ": 7160,
      "æĺŁç©º": 7161,
      "åĲ¦åĪĻ": 7162,
      "åĿļæĮģä¸ĭåİ»": 7163,
      "ãĢĤæ¯ıå½ĵ": 7164,
      "è¿İæİ¥": 7165,
      "æĭ¿èµ·": 7166,
      "èĳĹåĲįçļĦ": 7167,
      "ï¼Įå¤§åŃ¦çĶŁåı¯ä»¥": 7168,
      "ponse": 7169,
      "ä¸¢å¤±": 7170,
      "ax": 7171,
      "¥çĶ¨": 7172,
      "ï¼Įè®¾è®¡": 7173,
      "ï¼ĮçĶ±": 7174,
      "åĴĮæĵįä½ľ": 7175,
      "ä¸ºåŃ¦çĶŁ": 7176,
      "æĹ¶åħī": 7177,
      "éĢļè¿ĩåĪĨæŀĲ": 7178,
      "ä¸İæĮĳæĪĺ": 7179,
      "ä¸įä»ħä½ĵçİ°åľ¨": 7180,
      "åĬłåī§": 7181,
      "éĽĮ": 7182,
      "çłĶç©¶æĪĲæŀľ": 7183,
      "æİ¥è¿ĳ": 7184,
      "åĩĨå¤ĩå¥½": 7185,
      "ï¼ĽĊ": 7186,
      "ï¼ĮæľīåĬ©äºİæĪĳä»¬": 7187,
      "éģĵè·¯ä¸Ĭ": 7188,
      "ç§ģæľī": 7189,
      "rivate": 7190,
      "%ï¼Į": 7191,
      "(n": 7192,
      "ob": 7193,
      "ĠæİĮæı¡": 7194,
      "çļĦåĲĪä½ľ": 7195,
      "åĴĮæķ°æį®": 7196,
      "åĴĮæİ¢ç´¢": 7197,
      "åŃ¦åĪ°äºĨ": 7198,
      "ãĢģæľī": 7199,
      "åĨ¥": 7200,
      "å·¡": 7201,
      "ï¼Įä»ĸå¯¹": 7202,
      "åħ¬è·¯": 7203,
      "ine": 7204,
      "æľĢæĸ°çļĦ": 7205,
      "ç»ĨèıĮ": 7206,
      "å·¥ä½ľåİŁçĲĨ": 7207,
      "orch": 7208,
      "åģ¥åº·é¥®é£Ł": 7209,
      "æĪĲä¸ºä¸Ģä¸ª": 7210,
      "èĳĹä½ľ": 7211,
      "éĿ¢å¯¹æĮĳæĪĺ": 7212,
      "ç¦»ä¸įå¼Ģ": 7213,
      "low": 7214,
      "è¾¹ç¼ĺ": 7215,
      "åĨ²åĩ»": 7216,
      "èĴĤ": 7217,
      "çļĦæ¸ħ": 7218,
      "çļĦçĥ¹é¥ª": 7219,
      "è·¨åŃ¦ç§ĳ": 7220,
      "äº¬åī§": 7221,
      "æķ¬çķı": 7222,
      "çļĦçĹĩ": 7223,
      "ï¼Įä¸ī": 7224,
      "çļĦä¸»": 7225,
      "çļĦå®ŀçİ°": 7226,
      "çļĦä¸įåĲĮ": 7227,
      "çļĦå®ŀè·µ": 7228,
      "çļĦåħ³æ³¨": 7229,
      "ãĢĤçī¹åĪ«": 7230,
      "**ï¼Ī": 7231,
      "éĻµ": 7232,
      "èĩªè¯Ń": 7233,
      "çļĦçĤ": 7234,
      "é«ĺåħ´": 7235,
      "èĩªå·±çļĦçłĶç©¶": 7236,
      "ãĢĤè¿ĻæľīåĬ©äºİ": 7237,
      "åŁºåľ°": 7238,
      "index": 7239,
      "å¹´æĿ¥": 7240,
      "è½¬åŀĭ": 7241,
      "è§£åĨ³æĸ¹æ³ķ": 7242,
      "èħĬ": 7243,
      "temp": 7244,
      "ç¨İåĬ¡": 7245,
      "ï¼Įæľīä¸Ģä¸ª": 7246,
      "åĮ»çĸĹä¿ĿéĻ©": 7247,
      "çļĦçĶŁå¹³": 7248,
      "ãĢĤæĪĳçĽ¸ä¿¡": 7249,
      "ç³ĸå°¿çĹħ": 7250,
      "ãĢĤä½Ĩæĺ¯": 7251,
      "èĵĦ": 7252,
      "HTML": 7253,
      "TTP": 7254,
      "ft": 7255,
      "Ġç»ĵè¯Ń": 7256,
      "ï¼ĮæŃ£æĺ¯": 7257,
      "èĥ¸": 7258,
      "æĺ¯ä¸ª": 7259,
      "æīĳ": 7260,
      "åľ°å½¢": 7261,
      "éĻª": 7262,
      "æ³ķéĻ¢": 7263,
      "å±ķä¼ļ": 7264,
      "ä¸įä»ħæĺ¯ä¸Ģ": 7265,
      "æıĲä¾Ľä¸Ģä¸ª": 7266,
      "åıĺæį¢": 7267,
      "å¢ŀæ·»": 7268,
      "ä¹Ĳè§Ĥ": 7269,
      "è¢«è§Ĩä¸º": 7270,
      "çº¿è·¯": 7271,
      "åİ»éĻ¤": 7272,
      "è®¾å¤ĩçļĦ": 7273,
      "åŁºç¡ĢçŁ¥è¯Ĩ": 7274,
      "loy": 7275,
      "èĽ¾": 7276,
      "äºĳåįĹ": 7277,
      "Ġprint": 7278,
      "è§Ĥå¯ŁåĴĮ": 7279,
      "èĩªæĪĳåıįæĢĿ": 7280,
      "éĺ¿æĿ°": 7281,
      "çļĦå®īåħ¨æĢ§": 7282,
      "ild": 7283,
      "èĶ½": 7284,
      "ç´łåħ»åĴĮ": 7285,
      "èĦ±é¢ĸ": 7286,
      "çļĦçĹĩçĬ¶": 7287,
      "[i": 7288,
      "type": 7289,
      "é³": 7290,
      "ï¼Įåı¯èĥ½": 7291,
      "ï¼Įä¸Ģèµ·": 7292,
      "ï¼Įçľĭçľĭ": 7293,
      "çļĦæķĪçİĩ": 7294,
      "ãĢĤè®©æĪĳä»¬": 7295,
      "åĴĮå¿ĥçĲĨ": 7296,
      "ä¸Ģå¼ł": 7297,
      "æĺ¯åķĬ": 7298,
      "åı¯ä»¥çĶ¨äºİ": 7299,
      "æĽ´å¿«": 7300,
      "å¤§èĦĳ": 7301,
      "ï¼Įè¿ĻæĦıåĳ³çĿĢ": 7302,
      "æ»ĭ": 7303,
      "æĸĩåĮĸäº¤æµģ": 7304,
      "ï¼Įä½ĨåĲĮæĹ¶": 7305,
      "æĹłå°½": 7306,
      "éĢīæĭĶ": 7307,
      "ãĢĭãĢĤ": 7308,
      "ï¼Įä¸ºä»Ģä¹Ī": 7309,
      "ä»¥ä¸ĭæŃ¥éª¤": 7310,
      "éħįæĸ¹": 7311,
      "éħįå¥Ĺ": 7312,
      "å¯Ĩå°ģ": 7313,
      "orld": 7314,
      "stall": 7315,
      "æ¢¯": 7316,
      "éĻĪå°ı": 7317,
      "ç»ĻäºĨ": 7318,
      "å®ĮæĪĲäºĨ": 7319,
      "åĶ¤": 7320,
      "è¯¢éĹ®": 7321,
      "çļĦçĶŁæ´»è´¨éĩı": 7322,
      "è¿ŀæİ¥åĪ°": 7323,
      "åĽŀçŃĶéģĵ": 7324,
      "æ¬£æħ°": 7325,
      "æķ¬ä½©": 7326,
      "éĢ»è¾ĳæĢĿç»´": 7327,
      "çļĦçĪ¶": 7328,
      "ä¸Ńåįİæ°ĳæĹı": 7329,
      "...": 7330,
      "æĳĺå½ķ": 7331,
      "èĨ³é£Ł": 7332,
      "çļĦåľ°çĲĨä½įç½®": 7333,
      "çļĦæİ§åĪ¶": 7334,
      "èĨ¨èĥĢ": 7335,
      "ure": 7336,
      "Ġæĸ¹æ³ķ": 7337,
      "ä¸Ļ": 7338,
      "ï¼Įç»ĵåĲĪ": 7339,
      "çļĦäº§åĵģ": 7340,
      "çļĦäº¤éĢļ": 7341,
      "åĲ¹": 7342,
      "æĢ§åĪ«": 7343,
      "åı¯ä»¥è®©": 7344,
      "ä¸İå®ŀè·µ": 7345,
      "æ´¥": 7346,
      "åĲĮä¸Ģ": 7347,
      "éªĦ": 7348,
      "ä¼łæİĪ": 7349,
      "éħ°": 7350,
      "çĹ´è¿·": 7351,
      "ï¼Įä»¥åħį": 7352,
      "æ¸¸æĪıå¼Ģåıĳ": 7353,
      "æŁľ": 7354,
      "å¾Īå¤§": 7355,
      "ç»ĥä¹łé¢ĺ": 7356,
      "é»ĳè¡£": 7357,
      "ï¼Įå®ŀçİ°äºĨ": 7358,
      "åĿĲæłĩ": 7359,
      "untu": 7360,
      "çļĦæµ·": 7361,
      "åľ¨è¿Ļä¸ªä¾ĭåŃĲä¸Ń": 7362,
      "ï¼Įè¯»èĢħåı¯ä»¥": 7363,
      "åıĳæĮ¥çĿĢéĩįè¦ģä½ľçĶ¨": 7364,
      "pendenc": 7365,
      "sion": 7366,
      "®ä¸§": 7367,
      "ï¼Įå¼ĢåıĳèĢħ": 7368,
      "æĸľ": 7369,
      "ä¸ĢèĪ¬": 7370,
      "åľ¨å¤ĦçĲĨ": 7371,
      "åŃ¦å®¶": 7372,
      "ãĢģæĢ»ç»ĵ": 7373,
      "æł½åŁ¹": 7374,
      "ä¼ļæľī": 7375,
      "æĮ¡": 7376,
      "æĿ¥æıĲé«ĺ": 7377,
      "ä¹łæĢ§": 7378,
      "å®¶å±ħ": 7379,
      "åŃĲæ¶µ": 7380,
      "ä½łå¯¹": 7381,
      "åĬŁçİĩ": 7382,
      "ï¼īï¼ļ": 7383,
      "æŃ£å½ĵ": 7384,
      "ï¼Įä»¥å®ŀçİ°": 7385,
      "éĢīæĭ©ä¸Ģä¸ª": 7386,
      "ãĢĭï¼Ī": 7387,
      "åħ·æľīéĩįè¦ģçļĦ": 7388,
      "åĲ¬åĲİ": 7389,
      "ç¢Į": 7390,
      "ï¼ĮåŃ¦çĶŁä»¬": 7391,
      "çļĦæİĴ": 7392,
      "åºķèķ´": 7393,
      "ook": 7394,
      "shell": 7395,
      "ä¸ĢçĽ´åľ¨": 7396,
      "å¥¶å¥¶": 7397,
      "ĸæģ¯åľ°": 7398,
      "è´Łè½½åĿĩè¡¡": 7399,
      "åıĳæĮ¥äºĨéĩįè¦ģä½ľçĶ¨": 7400,
      "åĤ¬åĮĸ": 7401,
      "èĦ±é¢ĸèĢĮåĩº": 7402,
      "og": 7403,
      "å®¿": 7404,
      "åĴĮéľĢæ±Ĥ": 7405,
      "æĺĮ": 7406,
      "ä¸Ģè¾¹": 7407,
      "ç¨Ģ": 7408,
      "ä½ĵåĨħ": 7409,
      "åº¦è¿ĩ": 7410,
      "åĢį": 7411,
      "æĥ³æ³ķ": 7412,
      "ore": 7413,
      "ork": 7414,
      "å½ķéŁ³": 7415,
      "æ´»åĬ¨çļĦ": 7416,
      "å£°æ³¢": 7417,
      "å®ĿçŁ³": 7418,
      "è¡¨çİ°ä¸º": 7419,
      "é»ĺé»ĺ": 7420,
      "çļĦçĶŁåĳ½": 7421,
      "çļĦçĥŃæĥħ": 7422,
      "çļĦçľŁæŃ£": 7423,
      "very": 7424,
      "è¡Ĺéģĵ": 7425,
      "çļĦæ»¡": 7426,
      "ï¼Įä¾¿äºİ": 7427,
      "çļĦæķĻåŃ¦": 7428,
      "åĴĮæ°´": 7429,
      "çĶ¨æ°´": 7430,
      "éĢļé£İ": 7431,
      "ç½ķ": 7432,
      "åĬłå¿«": 7433,
      "åĲİæľŁ": 7434,
      "éĶĤ": 7435,
      "æł·æľ¬": 7436,
      "ä¸ĵåĪ©": 7437,
      "ä¿ĿæĬ¤åĴĮ": 7438,
      "çĮľ": 7439,
      "éļıåĲİ": 7440,
      "èĬ±è´¹": 7441,
      "çļĦæĶ»": 7442,
      "å¹²é¢Ħ": 7443,
      "åħ¨éĿ¢äºĨè§£": 7444,
      "è¯¯è§£": 7445,
      "ä¹¡æĿĳ": 7446,
      "çĦ¦æĢ¥": 7447,
      "ä½ĵçİ°åľ¨ä»¥ä¸ĭåĩłä¸ªæĸ¹éĿ¢": 7448,
      "å¯ĨåĪĩçĽ¸åħ³": 7449,
      "çĸ²åĬ³": 7450,
      "çªģå¦Ĥåħ¶æĿ¥çļĦ": 7451,
      "å§Ķåĳĺä¼ļ": 7452,
      "ä¸ºäººçŁ¥": 7453,
      "\">": 7454,
      ".out": 7455,
      "AL": 7456,
      "«èĬ¦": 7457,
      "ĠIn": 7458,
      "äº¿": 7459,
      "åĴĮæĮĩå¯¼": 7460,
      "åľ¨åħ¨çĲĥ": 7461,
      "æĦ¤æĢĴ": 7462,
      "æĽ´æĶ¹": 7463,
      "çķľ": 7464,
      "çĽ®åīį": 7465,
      "äºĭè¿¹": 7466,
      "ãĢĤä»ĸä¸įä»ħ": 7467,
      "æºĥ": 7468,
      "ï¼ĪP": 7469,
      "èĬĤçľģ": 7470,
      "ç¥ŀè¯Ŀ": 7471,
      "çľŁçĲĨ": 7472,
      "éĤ£éĩĮ": 7473,
      "ï¼Įä½łçļĦ": 7474,
      "å¾®çĶŁçī©": 7475,
      "èĳ«èĬ¦": 7476,
      "ï¼Įä¸įä»ħèĥ½å¤Ł": 7477,
      "çļĦæĮĳæĪĺåĴĮ": 7478,
      "éŁ¬": 7479,
      "æįŁä¼¤": 7480,
      "åį°è±¡": 7481,
      "çļĦåĩĨç¡®æĢ§": 7482,
      "rans": 7483,
      "åħĶåŃĲ": 7484,
      "Ġar": 7485,
      "çļĦå±±": 7486,
      "è¿Ł": 7487,
      "ãĢģå®īåħ¨": 7488,
      "å¸Ń": 7489,
      "å¯¹å¾ħ": 7490,
      "æİī": 7491,
      "ä¹łä¿Ĺ": 7492,
      "æĦŁçŁ¥": 7493,
      "éģĵçĲĨ": 7494,
      "åĨħåľ¨": 7495,
      "éĥ½è¦ģ": 7496,
      "ä¹¦åºĹ": 7497,
      "å¤©æ°Ķ": 7498,
      "ç´łæĿĲ": 7499,
      "åĪ¶å®ļåĴĮ": 7500,
      "ï¼Įè¿ĺèĥ½æıĲé«ĺ": 7501,
      "æĮīæĹ¶": 7502,
      "å£«å¿Į": 7503,
      "ä¸įä»ħä»ħæĺ¯ä¸Ģ": 7504,
      "æľīçĿĢæµĵåİļçļĦåħ´è¶£": 7505,
      "å¨ģå£«å¿Į": 7506,
      "çļĦçĭ¬ç«ĭ": 7507,
      "çļĦåĩĨç¡®æĢ§åĴĮ": 7508,
      "ĺç±³": 7509,
      "åĴĮé«ĺ": 7510,
      "è¿Ļæĺ¯ä¸Ģä¸ª": 7511,
      "å¯¹èĩªçĦ¶": 7512,
      "æłĭ": 7513,
      "åħ¶å®ŀ": 7514,
      "éª¼": 7515,
      "è°ģ": 7516,
      "ãĢĤè¿Ļä¸įä»ħ": 7517,
      "ç¥¥": 7518,
      "ï¼īæĺ¯ä¸Ģç§į": 7519,
      "è®¾è®¡ä¸Ń": 7520,
      "åıĹçĽĬ": 7521,
      "çĭĤ": 7522,
      "è¢«ç§°ä¸º": 7523,
      "ï¼Įä½łä»¬": 7524,
      "äºīåıĸ": 7525,
      "å¾Īæľī": 7526,
      "èį¯åĵģ": 7527,
      "çļĦæĮģ": 7528,
      "åĨľä¸ļæĬĢæľ¯": 7529,
      "ç§¯æŀģçļĦå¿ĥæĢģ": 7530,
      "å¼ĤæŃ¥": 7531,
      "æĮīæĳ©": 7532,
      "ï¼Įå¸®åĬ©æĤ¨": 7533,
      "æİ¢ç´¢åĴĮ": 7534,
      "é»Ħèī²": 7535,
      "é±¼ç±»": 7536,
      "Ref": 7537,
      "Redis": 7538,
      "æ±īåŃĹ": 7539,
      "éª¨éª¼": 7540,
      "umber": 7541,
      "Ġof": 7542,
      "Ġåĩ½æķ°": 7543,
      "çļĦä¸ĢäºĽ": 7544,
      "åħĦ": 7545,
      "åľ¨åĽ½éĻħ": 7546,
      "ä¼½": 7547,
      "å¼Ĺ": 7548,
      "å¼Ł": 7549,
      "å½¹": 7550,
      "åİĺç±³": 7551,
      "çĽ¸è§Ĩ": 7552,
      "æķ°æį®éĽĨ": 7553,
      "ç»Ĩèĩ´": 7554,
      "æĿĳéĩĮ": 7555,
      "ä¸įæĸŃåıĳå±ķ": 7556,
      "åıĤä¸İèĢħ": 7557,
      "çļĦåİĨåı²èĥĮæĻ¯": 7558,
      "è¿ĳå¹´æĿ¥": 7559,
      "éĩĳèŀįæľºæŀĦ": 7560,
      "éĩĩåıĸä»¥ä¸ĭ": 7561,
      "çĹĽèĭ¦": 7562,
      "èĥ¶åĽĬ": 7563,
      "æ·±åº¦åŃ¦ä¹ł": 7564,
      "æĵħéķ¿": 7565,
      "DE": 7566,
      "Un": 7567,
      "ï¼ĮâĢĿ": 7568,
      "ï¼Įè¯´éģĵ": 7569,
      "çļĦç»ĨèĬĤ": 7570,
      "çļĦå¤§å°ı": 7571,
      "ä¸Ģçķª": 7572,
      "ãĢģæıĲé«ĺ": 7573,
      "çİ²": 7574,
      "äººæĢ§": 7575,
      "ä½ĵéĩį": 7576,
      "ä¸Ĭåįĩ": 7577,
      "åŃ¦çĶŁçļĦåŃ¦ä¹ł": 7578,
      "å½±åĥı": 7579,
      "å¸®åĬ©ä½ł": 7580,
      "ï¼Įä»¥éĢĤåºĶ": 7581,
      "ãĢĭåĴĮ": 7582,
      "ï¼Įä¸ºåĲİç»Ń": 7583,
      "çľŁè¯ļ": 7584,
      "æĶ¶èĹı": 7585,
      "æıĲä¾ĽäºĨæĸ°çļĦ": 7586,
      "çĽ®æłĩåĴĮ": 7587,
      "èīºæľ¯å½¢å¼ı": 7588,
      "å£°æĺİ": 7589,
      "æĸĩä»¶ä¸Ń": 7590,
      "çļĦåıĳå±ķåİĨç¨ĭ": 7591,
      "äº«åıĹåĪ°": 7592,
      "å»ºç«ĭäºĨ": 7593,
      "è¡Ģåİĭ": 7594,
      "å®³æĢķ": 7595,
      "åĵģçīĮå½¢è±¡": 7596,
      "ï¼Įéģ¿åħįåĽł": 7597,
      "çļĦæĻ¯": 7598,
      "ĠPro": 7599,
      "éŃĶæ³ķ": 7600,
      "çļĦæįŁ": 7601,
      "åĨ¥æĥ³": 7602,
      "FF": 7603,
      "ï¼ĮçľĭåĪ°": 7604,
      "ï¼Įå®¶éķ¿": 7605,
      "çļĦéĤ£": 7606,
      "çļĦèģĮä¸ļ": 7607,
      "åľ¨æİ¥ä¸ĭæĿ¥çļĦ": 7608,
      "è¿Ļé¦ĸ": 7609,
      "åı¯è¡Į": 7610,
      "æ³µ": 7611,
      "é¢Ĭ": 7612,
      "æĮĳ": 7613,
      "æµ°": 7614,
      "åħ¨åĬĽ": 7615,
      "ä¸ŃçļĦåħ³éĶ®": 7616,
      "è¯´å¾Ĺ": 7617,
      "åĨ³äºİ": 7618,
      "ï¼Įä»ĸéĥ½ä¼ļ": 7619,
      "æĤĦ": 7620,
      "å¤ĸåĽ½": 7621,
      "åıĸåĨ³äºİ": 7622,
      "ï¼Įå¹¶å°Ĩåħ¶": 7623,
      "åıįå°Ħ": 7624,
      "çŁ¥è¯ĨçĤ¹": 7625,
      "èģĶçĽŁ": 7626,
      "äº§åĵģè´¨éĩı": 7627,
      "éĢļå¸¸åĮħæĭ¬": 7628,
      "åĤ²": 7629,
      "å¨ľ": 7630,
      "æ¸Ĳæ¸Ĳ": 7631,
      "ï¼Įå¸®åĬ©è¯»èĢħ": 7632,
      "åī§æĥħ": 7633,
      "çīĽå¥¶": 7634,
      "èľľ": 7635,
      "ç¥ŀç»ıç½ĳç»ľ": 7636,
      "åģļåĩºäºĨéĩįè¦ģè´¡çĮ®": 7637,
      "ï¼Įä¸ĬéĿ¢": 7638,
      "çİ»çĴĥ": 7639,
      "å¥īçĮ®": 7640,
      "CV": 7641,
      "DA": 7642,
      "çļĦå¼Ģ": 7643,
      "çļĦä»»åĬ¡": 7644,
      "ãĢĤç¡®ä¿Ŀ": 7645,
      "ãĢĤåŃ¦æł¡": 7646,
      "åĴĮå®īåħ¨": 7647,
      "äºĨåı£æ°Ķ": 7648,
      "åľ¨ä½¿çĶ¨": 7649,
      "æľīäºº": 7650,
      "å¦¹": 7651,
      "çļĦçħ": 7652,
      "ä½ĵç§¯": 7653,
      "å¤ļæĸ¹éĿ¢": 7654,
      "æķĻå®¤": 7655,
      "åĩºçĶŁ": 7656,
      "æ²®ä¸§": 7657,
      "ä¼łæĿ¥": 7658,
      "çĶµéĺ»": 7659,
      "æĹłçº¿": 7660,
      "æıĲåįĩèĩªå·±": 7661,
      "student": 7662,
      "åħįè´¹": 7663,
      "ä¸ĵä¸ļçŁ¥è¯Ĩ": 7664,
      "åįıä¼ļ": 7665,
      "å¹¿æ³Ľåħ³æ³¨": 7666,
      "ï¼Įè¿ĺèĥ½åľ¨": 7667,
      "loud": 7668,
      "æķ°åŃĹåĮĸ": 7669,
      "çĵ¦": 7670,
      "ign": 7671,
      "ãĢĤæ¯ıå¤©": 7672,
      "ï¼Įè¯ķåĽ¾æī¾åĪ°": 7673,
      "ç¨ĭåº¦ä¸Ĭ": 7674,
      "Ġdata": 7675,
      "åĦĴå®¶": 7676,
      "Servlet": 7677,
      "çĭ®åŃĲ": 7678,
      "Ġåīį": 7679,
      "ï¼ĮåĬªåĬĽ": 7680,
      "ï¼Įè¿ħéĢŁ": 7681,
      "çļĦå»ºè®¾": 7682,
      "ãĢĤä¸į": 7683,
      "æĹ±": 7684,
      "æıĲéĹ®": 7685,
      "åı¯ä»¥ä»İ": 7686,
      "æ´Ĵ": 7687,
      "å¿ĥè¡Ģç®¡": 7688,
      "å®¶åĽŃ": 7689,
      "æĦŁåĬ¨": 7690,
      "åĪ¶å¤ĩ": 7691,
      "æ¡Ĥ": 7692,
      "è®©å¥¹": 7693,
      "å½ĵä»Ĭ": 7694,
      "ä»¥ä¸ĭåĩł": 7695,
      "æŁı": 7696,
      "æĻĵæĻ¨": 7697,
      "åĽ´ç»ķ": 7698,
      "ascript": 7699,
      "è¡¡éĩı": 7700,
      "Ġcv": 7701,
      "èº«ä½ĵç´łè´¨": 7702,
      "ĠSpring": 7703,
      "()Ċ": 7704,
      "è´¢åĬ¡çĬ¶åĨµ": 7705,
      "æĿĳåºĦçļĦ": 7706,
      "åĺ´": 7707,
      "å®¾é¦Ĩ": 7708,
      "javascript": 7709,
      "_c": 7710,
      "Ġå¯¹": 7711,
      "ï¼ĮåĪĽéĢłåĩº": 7712,
      "çļĦåĲĦä¸ª": 7713,
      "åĴĮä½ľçĶ¨": 7714,
      "åĴĮæĬĢå·§": 7715,
      "åĴĮæĪĲå°±": 7716,
      "ãĢģæĬĹ": 7717,
      "è¿Ļéĥ¨": 7718,
      "è´¾": 7719,
      "éĢļè¿ĩäºĨè§£": 7720,
      "åı¯ä»¥éĢīæĭ©": 7721,
      "å¤§äºĨ": 7722,
      "éĥĳ": 7723,
      "æĪĳä»¬å°Ĩ": 7724,
      "éĩįè¦ģå½±åĵį": 7725,
      "æ´»åĬĽ": 7726,
      "éļĻ": 7727,
      "åľºåľ°": 7728,
      "éľĢè¦ģä¸įæĸŃ": 7729,
      "åĽ¾è¡¨": 7730,
      "æİ¢ç©¶": 7731,
      "ï¼Įä¹Łå¯¹": 7732,
      "ï¼Įä¸ºåŃ¦çĶŁ": 7733,
      "å¸ĥç½®": 7734,
      "ä¸ĵä¸ļäººå£«": 7735,
      "dependenc": 7736,
      "è§Ĵèī²çļĦ": 7737,
      "ç¬ĳçĿĢåĽŀçŃĶ": 7738,
      "çļĦåŁºç¡Ģä¸Ĭ": 7739,
      "çº¦ä¸º": 7740,
      "ĠPython": 7741,
      "ä¼ļè®®ä¸Ĭ": 7742,
      "æĬĬæı¡": 7743,
      "æııè¿°äºĨ": 7744,
      "æ¿ĢåĬ±çĿĢ": 7745,
      "ï¼Įä¿ĥè¿ĽäºĨ": 7746,
      "è¿ĽåĪ¶æķ°": 7747,
      "åħ¼å®¹æĢ§": 7748,
      "Ub": 7749,
      "Ġr": 7750,
      "ï¼Įæ¸¸æĪı": 7751,
      "ï¼Įè®¤ä¸º": 7752,
      "ãĢĤä»¥": 7753,
      "ä¸Ģéģĵ": 7754,
      "èĥ½åľ¨": 7755,
      "æĽ´åħ·": 7756,
      "éĩįéĩı": 7757,
      "è¿ĽåĮĸ": 7758,
      "æķ°åĢ¼": 7759,
      "ä½¿ä»ĸ": 7760,
      "èĤ¾": 7761,
      "å°ıæĿİ": 7762,
      "ãĢĤè¿Ļå¯¹äºİ": 7763,
      "ï¼Įåı¯ä»¥åľ¨": 7764,
      "èħº": 7765,
      "å®ĮæĪĲä»»åĬ¡": 7766,
      "å¤§åŃ¦çĶŁåľ¨": 7767,
      "çļĦåİĨåı²åĴĮæĸĩåĮĸ": 7768,
      "ĠĠĠĠĠĠĠĠĠĠĠĠĠĠĠĠ": 7769,
      "ä¼ĳéĹ²": 7770,
      "åģıå¥½": 7771,
      "è·Łè¸ª": 7772,
      "ï¼ĮåĪĨæŀĲåħ¶": 7773,
      "çļĦçĥŃçĪ±åĴĮ": 7774,
      "éĢĤå½ĵçļĦ": 7775,
      "èļĢ": 7776,
      "lay": 7777,
      "æĽ´åĬłåĿļå®ļäºĨ": 7778,
      "å§¿åĬ¿": 7779,
      "âĢ¦âĢ¦": 7780,
      "UR": 7781,
      "ï¼Įèĩªå·±çļĦ": 7782,
      "ï¼ĮæķĻèĤ²": 7783,
      "çļĦè´¨éĩı": 7784,
      "çļĦéŃħåĬĽ": 7785,
      "åĴĮçĽ®æłĩ": 7786,
      "æĪĲäºĨ": 7787,
      "ä¸İçİ°ä»£": 7788,
      "ä½ĵæ£Ģ": 7789,
      "å·¥åİĤ": 7790,
      "ä»£çĲĨ": 7791,
      "ï¼ĮæĪĳä»¬åºĶè¯¥": 7792,
      "ï¼īçŃī": 7793,
      "æĬĢæľ¯åĪĽæĸ°": 7794,
      "æīĭä¸ŃçļĦ": 7795,
      "ç»ıæµİåŃ¦": 7796,
      "ç´¢å°¼": 7797,
      "åĥıç´ł": 7798,
      "éĩĩè´Ń": 7799,
      "æİ§åĪ¶åĻ¨": 7800,
      "ç¨³å®ļæĢ§åĴĮ": 7801,
      "ç¿ł": 7802,
      "åŃ©åŃĲçļĦ": 7803,
      "é»ĳèī²": 7804,
      "æīĺè½¦": 7805,
      "å®«å»·": 7806,
      "çĥ¤ç®±": 7807,
      "åºĶçĶ¨åĪ°å®ŀéĻħ": 7808,
      "åİ¨æĪ¿": 7809,
      "ï¼Įä½ĨåĲĮæĹ¶ä¹Ł": 7810,
      "AI": 7811,
      "RO": 7812,
      "SI": 7813,
      "WM": 7814,
      "Ġæ¦Ĥå¿µ": 7815,
      "ï¼Įåı¯": 7816,
      "ï¼Įé¢Ħéĺ²": 7817,
      "çļĦæľĢå¤§": 7818,
      "å®ł": 7819,
      "ä¸įéľĢè¦ģ": 7820,
      "æĬ±": 7821,
      "æĸĩèīº": 7822,
      "åĨħæł¸": 7823,
      "éĥ½åħħæ»¡äºĨ": 7824,
      "åİĨåı²äºĭä»¶": 7825,
      "åĪ«åĲį": 7826,
      "åħħæ»¡æĮĳæĪĺ": 7827,
      "ith": 7828,
      "ark": 7829,
      "æĬķèµĦçŃĸçķ¥": 7830,
      "é£İéĻ©ç®¡çĲĨ": 7831,
      "å¹²åĩĢ": 7832,
      "èĲ¥åħ»ä»·åĢ¼": 7833,
      "æįŁå®³": 7834,
      "è¿Ļæł·åģļ": 7835,
      "æ¶Īè´¹èĢħçļĦ": 7836,
      "éºĭ": 7837,
      "lib": 7838,
      "Ġinstall": 7839,
      "error": 7840,
      "By": 7841,
      "]Ċ": 7842,
      "ãĢĤä¸Ģå¤©": 7843,
      "è¿Ļä½į": 7844,
      "åľ°éĿ¢": 7845,
      "âĢĿï¼Ī": 7846,
      "åĩºç§Ł": 7847,
      "å¢ĵ": 7848,
      "æĸ°æĬĢæľ¯": 7849,
      "åħ¨éĥ¨": 7850,
      "åŃ¦ä¹łå¦Ĥä½ķ": 7851,
      "åŃ¦ä¹łæķĪæŀľ": 7852,
      "èģĬ": 7853,
      "ä½¿çĶ¨çļĦ": 7854,
      "å¹³æĸ¹": 7855,
      "ç¡®ä¿ĿäºĨ": 7856,
      "å¤©å®ĩ": 7857,
      "æľĢåĪĿ": 7858,
      "æ¨¡åħ·": 7859,
      "ä¸ĵè¾ĳ": 7860,
      "è¯¾å¤ĸ": 7861,
      "æħĮ": 7862,
      "æĳ¸": 7863,
      "æı¡ä½ı": 7864,
      "å¸ĮèħĬ": 7865,
      "çŁ¥éģĵåĲĹ": 7866,
      "itle": 7867,
      "æīĵéĢł": 7868,
      "æĦŁåĪ°éĿŀå¸¸": 7869,
      "è¡¨è¾¾å¼ı": 7870,
      "çº¦ç¿°": 7871,
      "å©Ĩ": 7872,
      "èĪŀåı°": 7873,
      "çļĦæĦıè§ģ": 7874,
      "æ´ŀç©´": 7875,
      "ï¼Įä»¥ä¾¿åľ¨": 7876,
      "å°±ä¸ļæľºä¼ļ": 7877,
      "åı¹äºĨåı£æ°Ķ": 7878,
      "æ³Ħéľ²": 7879,
      "éĽķå¡ĳ": 7880,
      "åĩºçīĪç¤¾": 7881,
      "èĤ¯å®ļ": 7882,
      "API": 7883,
      "os": 7884,
      "vent": 7885,
      "Â°": 7886,
      "ï¼ĮåĪ°": 7887,
      "ï¼Įç»Ļ": 7888,
      "ï¼Įç§¯æŀģ": 7889,
      "ï¼ĮæıĲåĩº": 7890,
      "çļĦç»ĵåĲĪ": 7891,
      "ãĢĤæľ¬è¯¾ç¨ĭåįķåħĥ": 7892,
      "åĴĮèµµ": 7893,
      "æĺĤ": 7894,
      "åĲĽ": 7895,
      "çļĦç£": 7896,
      "ä¸ĭåįĪ": 7897,
      "æķĻç§ĳ": 7898,
      "ä¸įä»ħåħ·æľī": 7899,
      "çī¹æķĪ": 7900,
      "è¿Ľè¡Įè°ĥæķ´": 7901,
      "èµ·åĪ°äºĨ": 7902,
      "å°±èĥ½": 7903,
      "å¼ķäºº": 7904,
      "è¯ŃéŁ³": 7905,
      "åĲĦåĽ½": 7906,
      "ç¾İçļĦ": 7907,
      "ç§ĳåŃ¦ä¾Ŀæį®": 7908,
      "éĽĨç¾¤": 7909,
      "è¯¦ç»ĨåĪĨæŀĲ": 7910,
      "æ¶Īå¤±": 7911,
      "åŁİå¸Ĥåıĳå±ķ": 7912,
      "æĥħæĦŁåĴĮ": 7913,
      "æ¹Ľ": 7914,
      "æĺ¾èĳĹæıĲåįĩ": 7915,
      "å±ķçİ°åĩº": 7916,
      "ï¼Įéĥ½æĺ¯": 7917,
      "ç©¿è¶Ĭ": 7918,
      "ĠBoot": 7919,
      "ive": 7920,
      "æ°¨åŁº": 7921,
      "PP": 7922,
      "pl": 7923,
      "ĠK": 7924,
      "ĠåĪĽå»º": 7925,
      "ï¼Įä¼¼ä¹İ": 7926,
      "ï¼Į\\(": 7927,
      "ï¼ĮæľĽçĿĢ": 7928,
      "çļĦå®īè£ħ": 7929,
      "çļĦäº¤æµģ": 7930,
      "çļĦä¼łæĴŃ": 7931,
      "çļĦé¢ľèī²": 7932,
      "åĴĮæķĻèĤ²": 7933,
      "äºĨä¸°å¯ĮçļĦ": 7934,
      "ä¹Į": 7935,
      "å¼ĺ": 7936,
      "çĶ¨æĢ§": 7937,
      "æµħ": 7938,
      "åĲĮè¡Į": 7939,
      "è°Ľ": 7940,
      "éĥ½éľĢè¦ģ": 7941,
      "æĸĩåĮĸä¸Ń": 7942,
      "ers": 7943,
      "ç³»ç»ŁåĴĮ": 7944,
      "æľĢå¤§çļĦ": 7945,
      "ï¼ĪT": 7946,
      "ont": 7947,
      "åĸĿ": 7948,
      "std": 7949,
      "ç¦ħ": 7950,
      "è§ģè¯ģ": 7951,
      "ä¿®çĤ¼": 7952,
      "å¸ĮæľĽéĢļè¿ĩ": 7953,
      "çŁ³å¤´": 7954,
      "å°½å¿«": 7955,
      "ä»ĭç»įäºĨ": 7956,
      "å³»": 7957,
      "åīĤéĩı": 7958,
      "é¦Ļæ°Ķ": 7959,
      "server": 7960,
      "è§£åĨ³éĹ®é¢ĺçļĦæĸ¹æ³ķ": 7961,
      "ï¼ĮæĹłè®ºæĺ¯": 7962,
      "æīĵä¸ĭåĿļå®ŀåŁºç¡Ģ": 7963,
      "éļĲèĹıåľ¨": 7964,
      "æĻ®éĢļçļĦ": 7965,
      "åĢ¾åĲĳ": 7966,
      "åĻªå£°": 7967,
      "çļĦç¡¬": 7968,
      "çļĦçªģçł´": 7969,
      "ire": 7970,
      "Ġæ¸¸æĪı": 7971,
      "ĠåıįæĢĿä¸İ": 7972,
      "ï¼Įå»ºè®®": 7973,
      "ï¼ĮæĬķèµĦèĢħ": 7974,
      "çļĦè®¡ç®Ĺ": 7975,
      "çļĦçĽ¸åħ³": 7976,
      "çļĦè¦ģæ±Ĥ": 7977,
      "åĴ½": 7978,
      "åĴĮåģ¥åº·": 7979,
      "åĴĮçŁ¿çī©è´¨": 7980,
      "çĶ¨æ³ķ": 7981,
      "è¦ģçĤ¹": 7982,
      "æī¶": 7983,
      "åıĳå°Ħ": 7984,
      "åıĳåĬ¨æľº": 7985,
      "å®ļå¾ĭ": 7986,
      "æĽ´å¤§": 7987,
      "å¼Ģå¿ĥ": 7988,
      "éģĵåħ·": 7989,
      "å½±çīĩ": 7990,
      "çĶµåĻ¨": 7991,
      "ä¸»è§Ĵ": 7992,
      "æºĲçłģ": 7993,
      "æĸĩåĮĸä¼łæī¿": 7994,
      "åīįæ²¿": 7995,
      "ãĢĤéĢļè¿ĩä¸įæĸŃ": 7996,
      "æĮĩçĿĢ": 7997,
      "èĭį": 7998,
      "æľīåĬ©äºİæĪĳä»¬": 7999,
      "ä¸ŃåŃ¦çĶŁçļĦ": 8000,
      "åĽ¢éĺŁçļĦ": 8001,
      "æ¡Īä¾ĭçłĶç©¶": 8002,
      "å¥ĩå¦Ļ": 8003,
      "ï¼ĮåŃ¦çĶŁå°Ĩ": 8004,
      "çļĦç¤¼": 8005,
      "è§Ĩè§īæķĪæŀľ": 8006,
      "éļĶç¦»": 8007,
      "æīİå®ŀ": 8008,
      "çŃ¹éĽĨ": 8009,
      "çļĦç³»": 8010,
      "é¬¼": 8011,
      "è¿«ä¸įåıĬå¾ħåľ°": 8012,
      "Mac": 8013,
      "PU": 8014,
      "pm": 8015,
      "uild": 8016,
      "Ġ>": 8017,
      "Ġè§£éĩĬ": 8018,
      "ĠéĻĦå½ķ": 8019,
      "ï¼Įç»´æĬ¤": 8020,
      "ï¼ĮæĿ¨": 8021,
      "ï¼ĮæĦŁåıĹ": 8022,
      "ä¼Ĳ": 8023,
      "çļĦæ¿Ģ": 8024,
      "æŀ¢": 8025,
      "äººå¿ĥ": 8026,
      "åı¯ä»¥æıĲé«ĺ": 8027,
      "æ¬º": 8028,
      "å»ºéĢł": 8029,
      "è¯ģåĪ¸": 8030,
      "åŁ¹åħ»åŃ¦çĶŁçļĦ": 8031,
      "åĪĹåĩº": 8032,
      "ï¼ģĊ": 8033,
      "æĺŁè¾°": 8034,
      "è¡¨è¾¾èĩªå·±": 8035,
      "å®ļæľŁè¿Ľè¡Į": 8036,
      "ï¼Ľåľ¨": 8037,
      "çĸĳéĹ®": 8038,
      "è´¢åĬ¡æĬ¥è¡¨": 8039,
      "åģļåĩºè´¡çĮ®": 8040,
      "ï¼ĮåĽłä¸ºå®ĥ": 8041,
      "å®ŀéªĮå®¤éĩĮ": 8042,
      "ç½Ĺæĸ¯": 8043,
      "èľĤ": 8044,
      "ç¬¬ä¸īæĸ¹": 8045,
      "çĽ´æİ¥å½±åĵįåĪ°": 8046,
      "æ»¤æ³¢åĻ¨": 8047,
      "åĸĬéģĵ": 8048,
      "æĨ": 8049,
      "ï¼Įè¡¨ç¤º": 8050,
      "çļĦä¿ĿæĬ¤": 8051,
      "çļĦçİ¯å¢ĥä¸Ń": 8052,
      "åĴĮå·¥åħ·": 8053,
      "äºĨå¤ļ": 8054,
      "è¿Ļä¸¤ä¸ª": 8055,
      "ä¸ºä»ĸ": 8056,
      "èĩªå¾ĭ": 8057,
      "æĽ´æľīæķĪåľ°": 8058,
      "éĿ¢ç²ī": 8059,
      "æĿİéĢ¸é£İ": 8060,
      "æĦŁæĤŁ": 8061,
      "æ±Ĥè§£": 8062,
      "ï¼īãĢĤĊ": 8063,
      "å¦Ĥä½ķå½±åĵį": 8064,
      "ï¼Įä¹Łè®©ä»ĸ": 8065,
      "ï¼Įä¹ŁåıįæĺłäºĨ": 8066,
      "è¢ĭ": 8067,
      "åıĳçİ°äºĨ": 8068,
      "ä¸¤åĽ½": 8069,
      "çļĦçłĶ": 8070,
      "def": 8071,
      "ï¼Įè®©ä»ĸ": 8072,
      "éļıçĿĢæĹ¶éĹ´çļĦæİ¨ç§»": 8073,
      "æķĻåŃ¦æĸ¹æ³ķ": 8074,
      "åĨĽéĺŁ": 8075,
      "æĬĺå°Ħ": 8076,
      "å°ģè£ħ": 8077,
      "çļĦæķĻèĤ²æĦıä¹ī": 8078,
      "è±¡å¾ģçĿĢ": 8079,
      "æľºåĻ¨äºº": 8080,
      "ourse": 8081,
      "çļĦæ½ľåĬĽ": 8082,
      "duct": 8083,
      "è¾©è®º": 8084,
      "Http": 8085,
      "ies": 8086,
      "ï¼ĮæľªæĿ¥": 8087,
      "çļĦèĥĮæĻ¯": 8088,
      "ãĢĤä¸İ": 8089,
      "åľ¨ç¤¾ä¼ļ": 8090,
      "éĢĬ": 8091,
      "æĺ¯éĿŀå¸¸éĩįè¦ģçļĦ": 8092,
      "åĬĽåº¦": 8093,
      "éĢļè¿ĩåŃ¦ä¹ł": 8094,
      "æĭĸ": 8095,
      "âĢĿæĪĸ": 8096,
      "æĪĳä»¬éľĢè¦ģ": 8097,
      "çŃīåĽłç´ł": 8098,
      "åĢ¡": 8099,
      "æıĲé«ĺèĩªå·±çļĦ": 8100,
      "å¤ĸçķĮ": 8101,
      "ï¼Įä»¥åħ¶": 8102,
      "èģĮåĬ¡": 8103,
      "åĲĦåľ°": 8104,
      "è¿Ļä¸ªä¸ĸçķĮ": 8105,
      "æĮĩä»¤": 8106,
      "åħīèĬĴ": 8107,
      "read": 8108,
      "åģļå¾Ĺ": 8109,
      "è®¸åı¯": 8110,
      "ä¸¤èĢħ": 8111,
      "åįİçļĦ": 8112,
      "è§Ĵèī²æī®æ¼Ķ": 8113,
      "åĪĩåī²": 8114,
      "åĽ°éļ¾æĹ¶": 8115,
      "æĢĿèĢĥåĴĮ": 8116,
      "æĺİç¡®çļĦ": 8117,
      "éĻįä½İäºĨ": 8118,
      "æĿİæĻĵæĻ¨": 8119,
      "å®ŀéĻħæĵįä½ľä¸Ń": 8120,
      "éĴĪå¯¹æĢ§": 8121,
      "ï¼Įçľ¼ä¸ŃéĹªè¿ĩä¸Ģä¸Ŀ": 8122,
      "covery": 8123,
      "çļĦæĶ»åĩ»": 8124,
      "FE": 8125,
      "mat": 8126,
      "ton": 8127,
      "xy": 8128,
      "çļĦåĪĨæŀĲ": 8129,
      "çļĦå¹³åı°": 8130,
      "çļĦåĨ³çŃĸ": 8131,
      "åĴĮçĶŁæĢģ": 8132,
      "è¿Ļåı¥è¯Ŀ": 8133,
      "ä¸įå¤Ł": 8134,
      "è¡ĮæĿİ": 8135,
      "æĪĳä»¬è¦ģ": 8136,
      "æĬĢæ³ķ": 8137,
      "è¡¨æł¼": 8138,
      "å®īæħ°": 8139,
      "å¸Ĥæ°ĳ": 8140,
      "æ»¥çĶ¨": 8141,
      "éĽ¾": 8142,
      "æĸĩåĮĸåĨħæ¶µ": 8143,
      "è§Ĥèµı": 8144,
      "æĺ¯ä¸Ģæ¬¾": 8145,
      "ï¼Įä½Ĩå®ĥ": 8146,
      "ä¼ĺç¼ºçĤ¹": 8147,
      "åıĹä¼Ĺ": 8148,
      "æĿĳéĩĮçļĦ": 8149,
      "çļĦéĩįè¦ģåĽłç´ł": 8150,
      "åıªæĺ¯ä¸Ģä¸ª": 8151,
      "çĮĽ": 8152,
      "ç®Ģç§°": 8153,
      "æīĵåį°": 8154,
      "åĩıå°ĳäºĨ": 8155,
      "ãĢĤä»¥ä¸ĭå°Ĩ": 8156,
      "è®°å½ķäºĨ": 8157,
      "åİĭåĬĽåĴĮ": 8158,
      "åĩłä¸ªåħ³éĶ®": 8159,
      "æĻºèĥ½åĮĸ": 8160,
      "ä¸ªæĢ§åĮĸçļĦ": 8161,
      "SSL": 8162,
      "äºĨå¤§éĩıçļĦ": 8163,
      "å¼ķåıĳäºĨ": 8164,
      "è´«åĽ°": 8165,
      "ï¼ĮåıįèĢĮ": 8166,
      ".d": 8167,
      "}{": 8168,
      "ï¼ĮæĶ¿åºľ": 8169,
      "å®ª": 8170,
      "åĲŀ": 8171,
      "åľ¨æ¯ĶèµĽä¸Ń": 8172,
      "å¯¹åºĶ": 8173,
      "åıĳåŀĭ": 8174,
      "æ¯ģ": 8175,
      "åĪ¶åĵģ": 8176,
      "ãĢĤè¿ĻéĩĮ": 8177,
      "æ¡¶": 8178,
      "å¤©ç©º": 8179,
      "è®©æĿİ": 8180,
      "è®°è´¦": 8181,
      "ï¼Ł**Ċ": 8182,
      "ç²¾ç»Ĩ": 8183,
      "èµĽåŃ£": 8184,
      "Ġ=>": 8185,
      "æ£Ģç´¢": 8186,
      "è¯¾ç¨ĭåĨħå®¹": 8187,
      "åŃ¦æľ¯äº¤æµģ": 8188,
      "é¡¾éĹ®": 8189,
      "åĭĩæ°ĶåĴĮ": 8190,
      "çļĦçĪ±æĥħ": 8191,
      "çļĩå¸Ŀ": 8192,
      "èķ´åĲ«çĿĢ": 8193,
      "`åĴĮ": 8194,
      "oc": 8195,
      "¨çŁ³": 8196,
      "ï¼ĮåĲ¦åĪĻ": 8197,
      "åĴª": 8198,
      "ãĢģèīºæľ¯": 8199,
      "åĩ¹": 8200,
      "éĻ¨çŁ³": 8201,
      "ä¸İç¤¾ä¼ļ": 8202,
      "åĩºåıĳ": 8203,
      "çī©èģĶç½ĳ": 8204,
      "å°Ĩä¼ļ": 8205,
      "ï¼Įä»ĸä¹Ł": 8206,
      "å¸®åĬ©åŃ¦çĶŁ": 8207,
      "å¤įåĲĪ": 8208,
      "ä¼ĺæĥł": 8209,
      "è¢ĸ": 8210,
      "ä¿¡æģ¯çļĦ": 8211,
      "çº¿æĿ¡": 8212,
      "æŀģå¤§çļĦ": 8213,
      "åģ¥åº·åĴĮ": 8214,
      "è§£åĨ³å®ŀéĻħéĹ®é¢ĺ": 8215,
      "è¶£åĳ³": 8216,
      "ï¼Įä»İèĢĮä¸º": 8217,
      "æīĵåĩ»": 8218,
      "èĩªçĦ¶èµĦæºĲ": 8219,
      "è´ŁåĢº": 8220,
      "çļĦäººéĻħ": 8221,
      "ï¼ģĊĊ": 8222,
      "é¼»": 8223,
      "ï¼ĮåŃ¦çĶŁåºĶ": 8224,
      "çĶµåŃĲéĤ®ä»¶": 8225,
      "é¾Ļå£¶": 8226,
      "çļĦçĶŁåŃĺ": 8227,
      "æĸ¹ä¾¿åľ°": 8228,
      "çļĦæĮĩå¯¼ä¸ĭ": 8229,
      "frac": 8230,
      "IM": 8231,
      "çĶ¨èį¯": 8232,
      "ä¸įç¦ģ": 8233,
      "æĬļ": 8234,
      "åľ°åŁŁ": 8235,
      "æĦ£": 8236,
      "é«ĺå±Ĥ": 8237,
      "åħ³æĢĢ": 8238,
      "æķĻä¼ļ": 8239,
      "ä¸įä»ħå¯¹": 8240,
      "ç»ĵè¯Ĩ": 8241,
      "èĬ½": 8242,
      "æķ°æį®ç±»åŀĭ": 8243,
      "éĹ®é¢ĺæĹ¶": 8244,
      "åĮºåĿĹ": 8245,
      "è¯Ńæ°Ķ": 8246,
      "åħ·æľīæĺ¾èĳĹ": 8247,
      "æĶ¶åĪ°äºĨ": 8248,
      "å¸Ĥåľºä¸Ń": 8249,
      "å¹¿è¥¿": 8250,
      "å¤ĦçĲĨåĴĮ": 8251,
      "åı¤æµ°": 8252,
      "æĽ´å¤ļåħ³äºİ": 8253,
      "ary": 8254,
      "ç´§ç´§": 8255,
      "å·²ç»ıæĪĲä¸º": 8256,
      "æĭħå¿§": 8257,
      "æļ´åĬĽ": 8258,
      "è¶ĬæĿ¥è¶Ĭå¤ļ": 8259,
      "ä½ĽæķĻæĸĩåĮĸ": 8260,
      "æľīåĬĽæĶ¯æĮģ": 8261,
      "çļĦçĹħæĥħ": 8262,
      "ç¡ħæ©¡èĥ¶": 8263,
      "æĿİæĸĩåįļ": 8264,
      "çĶµåķĨå¹³åı°": 8265,
      "çļĦæĮģç»Ń": 8266,
      "çļĦç³»ç»Ł": 8267,
      "fig": 8268,
      "éĦ": 8269,
      "ï¼ĮåıĤä¸İ": 8270,
      "ï¼Įç¡®å®ļ": 8271,
      "çļĦé¢Ĩå¯¼": 8272,
      "ãĢģæĬĢæľ¯": 8273,
      "å¸Ĩ": 8274,
      "çĲª": 8275,
      "æľīä¸Ģ": 8276,
      "æľīæĹ¶åĢĻ": 8277,
      "å¾½": 8278,
      "æĬ«": 8279,
      "è¿ĽæĿ¥": 8280,
      "ï¼Įè¿Ļæľ¬ä¹¦": 8281,
      "ä¹¦æĪ¿": 8282,
      "è®©äºº": 8283,
      "åĿļå®Ī": 8284,
      "åĨľçĶ°": 8285,
      "ç¾İåŃ¦": 8286,
      "åıĳçİ°åĴĮ": 8287,
      "æĶ¾å¤§": 8288,
      "åı¸æ³ķ": 8289,
      "ä¿®è¡Į": 8290,
      "å·¥åħ·åĴĮ": 8291,
      "è¿ŀè´¯": 8292,
      "å¡ĺ": 8293,
      "è¿½è¸ª": 8294,
      "åį³åı¯": 8295,
      "åĤ¨åŃĺ": 8296,
      "çļĦæİ¥": 8297,
      "åĩłä¸ªæľĪ": 8298,
      "çĽ¸ä¿¡ä½ł": 8299,
      "çķĻä¸ĭ": 8300,
      "æ¶²åİĭ": 8301,
      "æĲľç´¢å¼ķæĵİ": 8302,
      "çļĦæĶ¿çŃĸ": 8303,
      "åī¯ä½ľçĶ¨": 8304,
      "çļĦæİ¢è®¨": 8305,
      "çŁ¥è¯ĨåĴĮæĬĢèĥ½": 8306,
      "æĽ¿ä»£": 8307,
      "æ¯«ä¸į": 8308,
      "çĪ¸çĪ¸": 8309,
      "æĬ¬èµ·": 8310,
      "AC": 8311,
      "HTTP": 8312,
      "VM": 8313,
      "ï¼Įè¦ģæ±Ĥ": 8314,
      "ï¼Įäº«åıĹ": 8315,
      "çļĦçĶ¨æĪ·": 8316,
      "çļĦåĨħæ¶µ": 8317,
      "ãĢĤåħ¶ä¸Ń": 8318,
      "åħ¹": 8319,
      "ï¼ļåľ¨": 8320,
      "æĹĹ": 8321,
      "æ²Ī": 8322,
      "ä¹Łèĥ½": 8323,
      "èĥ½å¤Łå°Ĩ": 8324,
      "ç¼Ģ": 8325,
      "ç³»ç»Łåľ°": 8326,
      "åīįæĿ¥": 8327,
      "æīĭä¸Ń": 8328,
      "æľįåĬ¡è´¨éĩı": 8329,
      "åĳ½åĲį": 8330,
      "æĽ´å¥½åľ°äºĨè§£": 8331,
      "åĬŁèĥ½åĴĮ": 8332,
      "rec": 8333,
      "å¿ĥçĲĨç´łè´¨": 8334,
      "Ġprivate": 8335,
      "ä¸įä»ħä»ħæĺ¯ä¸Ģç§į": 8336,
      "è½¯ä»¶å¼Ģåıĳ": 8337,
      "èĲ¥åħ»ç´ł": 8338,
      "åįģä¸ī": 8339,
      "ï¼Įæīįèĥ½çľŁæŃ£": 8340,
      "éĻĦåĬł": 8341,
      "çļĦç®Ģ": 8342,
      "å¼ķå¯¼åŃ¦çĶŁ": 8343,
      "ray": 8344,
      "èĲ¥éĶĢçŃĸçķ¥": 8345,
      "æ³Ħæ¼ı": 8346,
      "ä¿Ħç½Ĺæĸ¯": 8347,
      "éªĦåĤ²": 8348,
      "ï¼Įèİ·åıĸ": 8349,
      "çļĦç¨³å®ļæĢ§": 8350,
      "æľīä»·åĢ¼": 8351,
      "éĢļçĶ¨": 8352,
      "èµ´": 8353,
      "åľ°ä¸Ĭ": 8354,
      "è§£é¢ĺ": 8355,
      "æĸ¹çļĦ": 8356,
      "å¤§å¹ħ": 8357,
      "ä½¿åħ¶": 8358,
      "åŃ¦ä¹łåĪ°": 8359,
      "åŃ¦ä¹łè¿ĩç¨ĭä¸Ń": 8360,
      "æ»¨": 8361,
      "ĠĠĠĊ": 8362,
      "è¿ĻäºĽæĮĳæĪĺ": 8363,
      "ãĢĤéĢļè¿ĩåĲĪçĲĨ": 8364,
      "èº²": 8365,
      "æ°Ķä½ĵ": 8366,
      "åıĳçİ°äºĨä¸Ģä¸ª": 8367,
      "æĽ´å¤ļäºº": 8368,
      "åıĭå¥½": 8369,
      "è¡Įä¸ºåĴĮ": 8370,
      "ãĢĤä»ĸä»¬åĨ³å®ļ": 8371,
      "ï¼Įæ¯ıæ¬¡": 8372,
      "æ¯ĶèµĽä¸ŃçļĦ": 8373,
      "æĻºèĥ½æīĭæľº": 8374,
      "ä¸įåı¯å¿½è§Ĩ": 8375,
      "èĸĩ": 8376,
      "çļĦçľ¼çĿĽ": 8377,
      "å¿Ļç¢Į": 8378,
      "æµģåĬ¨æĢ§": 8379,
      "æ²īæĢĿçīĩåĪ»": 8380,
      "åĩłå¤©åĲİ": 8381,
      "çļĦæģĲ": 8382,
      "éģŃéģĩ": 8383,
      "å¾®å¾®ä¸Ģç¬ĳ": 8384,
      "å®ŀåľ°èĢĥå¯Ł": 8385,
      "HE": 8386,
      "Name": 8387,
      "size": 8388,
      "Ġå°ı": 8389,
      "ï¼ĮåĬłå¼º": 8390,
      "çļĦåı£": 8391,
      "çļĦä»·åĢ¼": 8392,
      "äºĨçīĩåĪ»": 8393,
      "å¯¨": 8394,
      "è¿Ļåº§": 8395,
      "çĶ¨åĵģ": 8396,
      "ä»¥åħ¶çĭ¬çī¹çļĦ": 8397,
      "ä¸įå½ĵ": 8398,
      "èĢį": 8399,
      "å¾Ĵ": 8400,
      "æłĪ": 8401,
      "çļĦçĻ": 8402,
      "çļĦçĿ": 8403,
      "èĥ½å¤ŁæĽ´åĬł": 8404,
      "éĶ¦": 8405,
      "æº¢": 8406,
      "åħ¬åĬ¡": 8407,
      "å¤ĸç§ĳ": 8408,
      "åįķè¯į": 8409,
      "ï¼ĮæĽ´æĺ¯ä¸Ģ": 8410,
      "ä¼ģä¸ļåĴĮ": 8411,
      "ï¼Įå®ĥéĢļè¿ĩ": 8412,
      "åĭĥ": 8413,
      "å¥ĩè¿¹": 8414,
      "åºĵåŃĺ": 8415,
      "æİĴåĪĹ": 8416,
      "ï¼Įå°±èĥ½": 8417,
      "åŁºæľ¬æ¦Ĥå¿µ": 8418,
      "ï¼ĮæĤ¨å°Ĩèĥ½å¤Ł": 8419,
      "æĻ®åıĬ": 8420,
      "äº§ä¸ļéĵ¾": 8421,
      "äººä»¬å¯¹": 8422,
      "utton": 8423,
      "çĳ¶": 8424,
      "çļĦåŁºæľ¬æ¦Ĥå¿µåĴĮ": 8425,
      "æľ¬æķĻç¨ĭæĹ¨åľ¨": 8426,
      "çļĦæĻºæħ§åĴĮ": 8427,
      "çļĦç¬¬ä¸ĢæŃ¥": 8428,
      "èµĭäºĪ": 8429,
      "çļĦæ·±åĪ»çĲĨè§£": 8430,
      "æī¿è½½çĿĢ": 8431,
      "å±ĢéĻĲæĢ§": 8432,
      "OpenCV": 8433,
      "çļĦçħ§": 8434,
      "å®łçī©": 8435,
      "ian": 8436,
      "´èĿ¶": 8437,
      "ï¼ĮæĶ¯æĮģ": 8438,
      "ï¼Įç§ĳåŃ¦å®¶": 8439,
      "ï¼Įå¾®ç¬ĳçĿĢè¯´": 8440,
      "çļĦå¥½": 8441,
      "çļĦåİŁçĲĨ": 8442,
      "çļĦä¸»é¢ĺ": 8443,
      "çļĦå½¢è±¡": 8444,
      "çļĦèģĮä¸ļçĶŁæ¶¯": 8445,
      "çļĦæĹħç¨ĭ": 8446,
      "ãĢĤä½¿çĶ¨": 8447,
      "åľ¨åŃ¦æľ¯": 8448,
      "éĢļè®¯": 8449,
      "å¼Ģåħ³": 8450,
      "åĵģå¾·": 8451,
      "ï¼Įä»ĸè¿ĺ": 8452,
      "å¤©èµĭ": 8453,
      "ï¼ĪG": 8454,
      "å¦Ĥä½ķå°Ĩ": 8455,
      "è¿ĻäºĽéĹ®é¢ĺ": 8456,
      "ï¼Įä¹Łèĥ½": 8457,
      "éĤ£å¤©": 8458,
      "åĽŀåĪ°äºĨ": 8459,
      "å¹¿å¤§": 8460,
      "åħ±åĴĮ": 8461,
      "æħĪ": 8462,
      "å¾Īé«ĺçļĦ": 8463,
      "æİ§åĪ¶ç³»ç»Ł": 8464,
      "åħĭæĸ¯": 8465,
      "è®Ńç»ĥåĴĮ": 8466,
      "åĿļå®ļåľ°": 8467,
      "èĪªå¤©": 8468,
      "å´©": 8469,
      "èĿ´èĿ¶": 8470,
      "æŃ»äº¡": 8471,
      "å¿įèĢĲ": 8472,
      "ä¸Ģæ®µæĹ¶éĹ´": 8473,
      "åĻªéŁ³": 8474,
      "ä¼ĺåħĪçº§": 8475,
      "æĲºå¸¦": 8476,
      "DLLæĸĩä»¶": 8477,
      "Data": 8478,
      "ï¼Įæĺ¯ä¸Ģä¸ª": 8479,
      "ï¼Įä¼ĺåĮĸ": 8480,
      "ï¼Įä½ĵçİ°äºĨ": 8481,
      "çļĦä¸Ń": 8482,
      "çļĦé£Łçī©": 8483,
      "åĴĮä¼ģä¸ļ": 8484,
      "åĴĮä»·åĢ¼è§Ĥ": 8485,
      "ä¸Ńæī®æ¼ĶçĿĢ": 8486,
      "æĺ¯ä»ĸ": 8487,
      "æĢĸ": 8488,
      "è¿ĻæĿ¡": 8489,
      "æŃ§": 8490,
      "éĢļè¿ĩè¿Ļæ¬¡": 8491,
      "åŁĭ": 8492,
      "ä¸İåºĶçĶ¨": 8493,
      "æ°¢": 8494,
      "æ°Ľ": 8495,
      "æĸĩè¨Ģ": 8496,
      "å¤§å¤ļæķ°": 8497,
      "çī©èµĦ": 8498,
      "æĮģæľī": 8499,
      "ç®¡éģĵ": 8500,
      "åı¯èĥ½å¯¹": 8501,
      "èĬĤçº¦": 8502,
      "éĢīæĭ©åĴĮ": 8503,
      "éŁ³èī²": 8504,
      "æ´»åĬ¨åĴĮ": 8505,
      "æ¸ħçĲĨ": 8506,
      "èĳĽ": 8507,
      "çİ©èĢį": 8508,
      "æİĮæı¡è¿ĻäºĽ": 8509,
      "è¡¨çİ°åĩºèī²": 8510,
      "ç¢±": 8511,
      "åĤ¨å¤ĩ": 8512,
      "é»Ħéĩĳ": 8513,
      "ĠSer": 8514,
      "çļĦæŃ¦": 8515,
      "å±ķçİ°åĩºäºĨ": 8516,
      "éĥ½æľīåħ¶": 8517,
      "åı«åģļ": 8518,
      "ç£ģåľº": 8519,
      "ä¸ŃéĹªçĥģçĿĢ": 8520,
      "ç¾İä¸½çļĦ": 8521,
      "çļĦæĥ³æ³ķ": 8522,
      "ç½ķè§ģ": 8523,
      "ay": 8524,
      "ï¼Įæĺ¯ä¸Ģç§į": 8525,
      "çļĦé¢ĨåŁŁ": 8526,
      "ä¸Ńä¿ĿæĮģ": 8527,
      "ä¿Ĭ": 8528,
      "åį¸": 8529,
      "çŃĭ": 8530,
      "è¿Ľåı£": 8531,
      "å®¶åħ·": 8532,
      "ç§ĳçĽ®": 8533,
      "æ°´è´¨": 8534,
      "æłĩå®ļ": 8535,
      "å¸®åĬ©æĤ¨": 8536,
      "æ¨¡ä»¿": 8537,
      "èĢĥæł¸": 8538,
      "ä¸ŃåĽ½ä¼łç»Ł": 8539,
      "çļĦæĬ¥": 8540,
      "å±±è¥¿": 8541,
      "å±Ģéĥ¨": 8542,
      "åĽĽä¸ª": 8543,
      "è®¨è®ºåĴĮ": 8544,
      "è§£éĩĬéģĵ": 8545,
      "ç¨İæ³ķ": 8546,
      "åĿļå®ļçļĦåħīèĬĴ": 8547,
      "èĴ¿": 8548,
      "cho": 8549,
      "ãĢĤè¿Ļä¸Ģè¿ĩç¨ĭ": 8550,
      "å¯¹è±¡çļĦ": 8551,
      "docker": 8552,
      "ä¸įä»ħä»ħæĺ¯ä¸ºäºĨ": 8553,
      "éĢıéľ²åĩº": 8554,
      "ä¸¥éĩįçļĦ": 8555,
      "å©ļç¤¼": 8556,
      "æ¼ıæ´ŀ": 8557,
      "ãĢĤåħ·ä½ĵæĿ¥è¯´": 8558,
      "èĤ¿çĺ¤": 8559,
      "rap": 8560,
      "ï¼ĮåıįæĺłäºĨ": 8561,
      "çļĦä¹¦": 8562,
      "çļĦè¿ĽæŃ¥": 8563,
      "çļĦè§ĴèĲ½": 8564,
      "åĴĮä¸°å¯ĮçļĦ": 8565,
      "åĴĮå°Ĭéĩį": 8566,
      "è¯±": 8567,
      "ãĢģå¦Ĥä½ķ": 8568,
      "åĪĨåĮº": 8569,
      "å¤ļå°ĳ": 8570,
      "åī©": 8571,
      "èĬĤæĹ¥": 8572,
      "æľªèĥ½": 8573,
      "æĹ¥åŃĲéĩĮ": 8574,
      "çĹħåıĺ": 8575,
      "æŀĹéĢ¸": 8576,
      "æĺ¾çĦ¶": 8577,
      "åħ´èµ·": 8578,
      "æ¸ħæ¥ļ": 8579,
      "æĸĩä»¶å¤¹": 8580,
      "çļĦæİĮ": 8581,
      "æĬĹæĹ¥": 8582,
      "æ³¨æĦıåĪ°": 8583,
      "åħĥç´łçļĦ": 8584,
      "åĲ¸å¼ķäºĨ": 8585,
      "å³¡": 8586,
      "è´§çī©": 8587,
      "èĦļæŃ¥": 8588,
      "å¼ºè°ĥäºĨ": 8589,
      "äº§çĶŁäºĨæ·±è¿ľå½±åĵį": 8590,
      "ĠMy": 8591,
      "ï¼Įä»¿ä½Ľåľ¨": 8592,
      "æľ¬è¯¾ç¨ĭåįķåħĥçļĦåŃ¦ä¹ł": 8593,
      "çļĦçĪ±å¥½": 8594,
      "Ġæķħäºĭå¼Ģå§ĭ": 8595,
      "èħ¿éĥ¨": 8596,
      "çļĦæ¶Īè´¹": 8597,
      "æ¾³": 8598,
      "Application": 8599,
      "Ġç¬¬åħŃæŃ¥": 8600,
      "éħ°èĥº": 8601,
      "RA": 8602,
      "ry": 8603,
      "çļĦèµ·": 8604,
      "çļĦçĶŁæĢģ": 8605,
      "çļĦæľĭåıĭ": 8606,
      "çļĦæĪĲç»©": 8607,
      "ãĢĤä¸ĢäºĽ": 8608,
      "åĴĮçİĭ": 8609,
      "åľ¨æķĻèĤ²": 8610,
      "åľ¨å¤ļä¸ª": 8611,
      "çĶŁæ®ĸ": 8612,
      "æ³Ĭ": 8613,
      "èĩªè¨Ģ": 8614,
      "ä¿Ŀåħ»": 8615,
      "é«ĺæł¡": 8616,
      "éĿ¢éĥ¨": 8617,
      "çī¹å°Ķ": 8618,
      "äº§æĿĥ": 8619,
      "çĽ¸åıį": 8620,
      "ãĢĤä»ĸéĢļè¿ĩ": 8621,
      "æ°´åĪ©": 8622,
      "æ°´åĮĸåĲĪçī©": 8623,
      "ç±»çļĦ": 8624,
      "åħ»æĪĲ": 8625,
      "æ¯ıåĳ¨": 8626,
      "æĹłéľĢ": 8627,
      "æĹłçĸĳ": 8628,
      "åĽ¾å±Ĥ": 8629,
      "çİ¯å¢ĥä¸ĭ": 8630,
      "åıĹä¼¤": 8631,
      "æµĭå®ļ": 8632,
      "çĭĹ": 8633,
      "ï¼ĮæĽ´éľĢè¦ģ": 8634,
      "å®ŀè·µåºĶçĶ¨": 8635,
      "è¾ĥå°ı": 8636,
      "æĢ§åĴĮåı¯": 8637,
      "çĽĬå¤Ħ": 8638,
      "èĩªçĦ¶æĿĳ": 8639,
      "çŁ³ç¢ĳ": 8640,
      "çļĦæł¡": 8641,
      "åĸĦäºİ": 8642,
      "æĹ¥å¸¸çĶŁæ´»ä¸ŃçļĦ": 8643,
      "çļĦåľ°ä½į": 8644,
      "æħ¢æĢ§": 8645,
      "åĩĿåľŁ": 8646,
      "äººéĻħäº¤å¾Ģ": 8647,
      "åĽ¢éĺŁæĪĲåĳĺä»¬": 8648,
      "Ġconsole": 8649,
      "æ¤°åŃĲ": 8650,
      "å¯¹æľªæĿ¥çļĦæľŁå¾ħ": 8651,
      "èĩªè¨Ģèĩªè¯Ń": 8652,
      ".x": 8653,
      "bl": 8654,
      "class": 8655,
      "fo": 8656,
      "ï¼ĮæıĲä¾ĽäºĨ": 8657,
      "ï¼ĮåĮ»çĶŁ": 8658,
      "åľ¨å½ĵä»Ĭ": 8659,
      "å¯ĵ": 8660,
      "æĺ¯æľĢ": 8661,
      "æľīå¾Īå¤ļ": 8662,
      "çī¢": 8663,
      "ä¼ļæł¹æį®": 8664,
      "æ°Ł": 8665,
      "åħ¨ä¹¦": 8666,
      "ä¸»æĮģ": 8667,
      "ä½¿çĶ¨äºĨ": 8668,
      "éĥ½å¸Ĥ": 8669,
      "ä¹¦è®°": 8670,
      "æķ°æį®è¿Ľè¡Į": 8671,
      "åīįç«¯": 8672,
      "ï¼Įä½Ĩå¥¹": 8673,
      "ï¼ŁæĪĳ": 8674,
      "ï¼Įåı¯ä»¥æľīæķĪ": 8675,
      "èĭĶ": 8676,
      "åħīæĺİ": 8677,
      "æŀĹæ¶Ľ": 8678,
      "ï¼Įç¡®ä¿ĿäºĨ": 8679,
      "ç²¾æ¹Ľ": 8680,
      "äºĨä¸Ģæ¬¡": 8681,
      "èį¯çĶ¨": 8682,
      "åĲĦç§įæĮĳæĪĺ": 8683,
      "äº«æľī": 8684,
      "åĬŀåŃ¦": 8685,
      "çł´è§£": 8686,
      "ï¼ĮæľīåĬ©äºİæıĲé«ĺ": 8687,
      "ç»¿åĮĸ": 8688,
      "èģļåĲĪ": 8689,
      "è±Ĩè§Ĵ": 8690,
      "ĠDocker": 8691,
      "è¯ģæĺİäºĨ": 8692,
      "å¯¹æīĭçļĦ": 8693,
      "æĬķåħ¥åĪ°": 8694,
      "last": 8695,
      "ç¬¬äºĮå¤©": 8696,
      "æ¶ĤæĸĻ": 8697,
      "é»ĳè¡£äºº": 8698,
      "Ubuntu": 8699,
      "\"Ċ": 8700,
      "Flex": 8701,
      "SM": 8702,
      "clu": 8703,
      "var": 8704,
      "åĴĮéģĵå¾·": 8705,
      "åĲ»": 8706,
      "èĢĢ": 8707,
      "æľīæľºä¼ļ": 8708,
      "çļĦæº": 8709,
      "ä½ľæĸĩ": 8710,
      "éĢļè¿ĩè¿Ļä¸ª": 8711,
      "èĩªæ²»": 8712,
      "æĿ¥äºĨ": 8713,
      "æĥ«": 8714,
      "èĤĽ": 8715,
      "ä¿¡ä¸Ń": 8716,
      "è¡¨åįķ": 8717,
      "ï¼Įè¿Ļå¯¹äºİ": 8718,
      "ä¹ĭä¸Ń": 8719,
      "ï¼Įä½Ĩä»ĸçļĦ": 8720,
      "æĪ·å¤ĸ": 8721,
      "å®īåħ¨åĴĮ": 8722,
      "è·¯ä¸Ĭ": 8723,
      "åŃĹä½ĵ": 8724,
      "ä¸įæĸŃåıĺåĮĸ": 8725,
      "åĭĴ": 8726,
      "éĢļå¸¸ä¼ļ": 8727,
      "çİ©åħ·": 8728,
      "æĻĵæĺİ": 8729,
      "ï¼Įè®©ä»ĸä»¬": 8730,
      "è¥¿æĸ¹": 8731,
      "äºĶè¡Į": 8732,
      "å½ĵåľ°å±ħæ°ĳ": 8733,
      "åħ¬åħ±åį«çĶŁ": 8734,
      "çīĽèĤī": 8735,
      "åĳĬè¯īä»ĸ": 8736,
      "å¥łå®ļåĿļå®ŀçļĦåŁºç¡Ģ": 8737,
      "éģĩåĪ°äºĨä¸Ģä¸ª": 8738,
      "ĠæķĻç¨ĭæłĩé¢ĺ": 8739,
      "èĢĲå¿ĥåľ°": 8740,
      "äººåĬĽèµĦæºĲ": 8741,
      "åĪļåĪļå¼Ģå§ĭ": 8742,
      "ginx": 8743,
      "ä¸Ĭä¸ĭæĸĩ": 8744,
      "éĵ¶æ²³ç³»": 8745,
      "å¼ĺæī¬": 8746,
      "æĸĩè¨Ģæĸĩ": 8747,
      "Mapp": 8748,
      "print": 8749,
      "ï¼ĮçĲĥåĳĺ": 8750,
      "çļĦè®¤åı¯": 8751,
      "å¤¸": 8752,
      "æĸ©": 8753,
      "ä¸Ģäº®": 8754,
      "ä»¥åĲİ": 8755,
      "ä¸įä½ı": 8756,
      "éĢļè¿ĩæľ¬æķĻç¨ĭ": 8757,
      "åı¯ä»¥ä¸º": 8758,
      "ä¸Ģä¸ªå°ı": 8759,
      "ç³ķ": 8760,
      "æĦıåĽ¾": 8761,
      "èĤ²åĦ¿": 8762,
      "ï¼Įä»¥éĺ²æŃ¢": 8763,
      "ç²Ĺ": 8764,
      "é¥º": 8765,
      "éĺ²çģ«": 8766,
      "äºĮç»´": 8767,
      "åĪ©çĶ¨æķĪçİĩ": 8768,
      "è®¾å¤ĩåĴĮ": 8769,
      "éĻĲäºİ": 8770,
      "æ¼Ķåĳĺ": 8771,
      "å¥ĩå¹»": 8772,
      "è½½èį·": 8773,
      "tes": 8774,
      "åħ¨éĿ¢çļĦ": 8775,
      "æĹħå®¢": 8776,
      "èĩªæĪĳè®¤çŁ¥": 8777,
      "å¾®ç¬ĳçĿĢçĤ¹å¤´": 8778,
      "åįļçī©": 8779,
      "éĺ´è°ĭ": 8780,
      "å°¼äºļ": 8781,
      "æ²Ļå§Ĩ": 8782,
      "Ġstat": 8783,
      "Ġstudent": 8784,
      "èĭ¥æºª": 8785,
      "å¹¶éĿŀä¸Ģ": 8786,
      "ãĢĤåľ¨è¿Ļä¸ªè¿ĩç¨ĭä¸Ń": 8787,
      "ãĢĤäºĨè§£è¿ĻäºĽ": 8788,
      "çļĦçĦ¦": 8789,
      "Ch": 8790,
      "gle": 8791,
      "lab": 8792,
      "link": 8793,
      "word": 8794,
      "ä¸¸": 8795,
      "ï¼ĮæĶ¶éĽĨ": 8796,
      "çļĦåĢ¼": 8797,
      "çļĦéĢŁåº¦": 8798,
      "çļĦå¹´è½»": 8799,
      "çļĦåĴĮè°Ĳ": 8800,
      "åĴĮè®¾è®¡": 8801,
      "å¾Ĳ": 8802,
      "æĪĲæķĪ": 8803,
      "é«ĺè¶ħ": 8804,
      "æ¸Ķ": 8805,
      "åħ¥æīĭ": 8806,
      "çĤĸ": 8807,
      "ä¸»ç®¡": 8808,
      "å¹³éĿ¢": 8809,
      "ï¼Įè¿ĺåĮħæĭ¬": 8810,
      "çĥ¯": 8811,
      "è¿ĻäºĽç¬¦åı·": 8812,
      "æĥ³è¿ĩ": 8813,
      "å¸ĪèµĦ": 8814,
      "æŁ¯": 8815,
      "ator": 8816,
      "èĪ°": 8817,
      "æĺ¯ä¸Ģä¸ªå¤įæĿĤ": 8818,
      "æ¼Ĥ": 8819,
      "ä¿ĿæĬ¤åĮº": 8820,
      "åĪĽæĸ°ç²¾ç¥ŀ": 8821,
      "è½½ä½ĵ": 8822,
      "å²³": 8823,
      "load": 8824,
      "çıħ": 8825,
      "æĬĹæ°§åĮĸ": 8826,
      "else": 8827,
      "æ·±åĪ»åľ°": 8828,
      "å©´": 8829,
      "æ²ŁéĢļèĥ½åĬĽ": 8830,
      "åĪĨå¸ĥå¼ı": 8831,
      "æĳĩå¤´": 8832,
      "èī°è¾Ľ": 8833,
      "æļĤæĹ¶": 8834,
      "Def": 8835,
      "|--------": 8836,
      "Ġå®ļä¹ī": 8837,
      "ľä¼½": 8838,
      "ï¼Įè¡¨è¾¾": 8839,
      "ï¼Įå¾Ģå¾Ģ": 8840,
      "ï¼Įæī¾åĩº": 8841,
      "çļĦèģĮè´£": 8842,
      "åıī": 8843,
      "åŃ¦åĪ°": 8844,
      "åŃ¦çłĶç©¶": 8845,
      "ãĢģåı¯": 8846,
      "èµ¤": 8847,
      "åıĳçĶµæľº": 8848,
      "å®ļä»·": 8849,
      "é«ĺæĢ§èĥ½": 8850,
      "ä½ĵè´¨": 8851,
      "æ³ķå®ĺ": 8852,
      "å¿ĥæĥħ": 8853,
      "åħ¶å¯¹": 8854,
      "åº¦çļĦ": 8855,
      "åĿ¤": 8856,
      "ä¹Łä¸º": 8857,
      "åĲİæĿ¥": 8858,
      "æľŁéĻĲ": 8859,
      "éħ®": 8860,
      "å¼ºåĮĸ": 8861,
      "åı¯èĥ½åŃĺåľ¨": 8862,
      "æĢģåº¦åĴĮ": 8863,
      "åħĪèĴ¿": 8864,
      "é£İæĻ¯": 8865,
      "å¢ŀè¿Ľ": 8866,
      "çģ¸": 8867,
      "è¯¾é¢ĺ": 8868,
      "æ¸ħéĻ¤": 8869,
      "å¤įæĿĤæĢ§": 8870,
      "çļĦåŁºæľ¬ä¿¡æģ¯": 8871,
      "æĬ¥åĲį": 8872,
      "äº§çĶŁçļĦ": 8873,
      "é©¬åħĪèĴ¿": 8874,
      "æĹ©æĻ¨": 8875,
      "çĶ·åŃ©": 8876,
      "ï¼ĮéĢīæĭ©åĲĪéĢĤçļĦ": 8877,
      "æ··åĩĿåľŁ": 8878,
      "old": 8879,
      "åįłçĶ¨": 8880,
      "ç»´çĶŁç´łC": 8881,
      "é¡¶å°ĸ": 8882,
      "æĳ©æīĺè½¦": 8883,
      "ï¼Įæİ¨åĬ¨äºĨ": 8884,
      "çŃīå¾ħçĿĢ": 8885,
      "å®ĪæĬ¤èĢħ": 8886,
      "èĴ¸æ±½": 8887,
      "ãĢĤç¥ĿæĤ¨": 8888,
      "çļĦæııè¿°": 8889,
      "çĽ²çĽ®": 8890,
      "çļĦäººéĻħåħ³ç³»": 8891,
      "%ãĢĤ": 8892,
      "`åĩ½æķ°": 8893,
      "mis": 8894,
      "ï¼ĮæĤ£èĢħ": 8895,
      "ãĢĤæľ¬": 8896,
      "èĥ½åĲ¦": 8897,
      "ä¸įå¿ħè¦ģçļĦ": 8898,
      "ä¸ºäºĨè§£åĨ³": 8899,
      "åı¯ä»¥æĽ´å¥½åľ°": 8900,
      "åĮĸè®¾è®¡": 8901,
      "âĢľå¼ł": 8902,
      "åħ³ä¹İ": 8903,
      "å°ıæ¢ħ": 8904,
      "æ°´æµģ": 8905,
      "æ¬¡æķ°": 8906,
      "æķ´æķ°": 8907,
      "èĢĥåı¤": 8908,
      "è§Ĩç½ĳ": 8909,
      "è¾ĥå¤§çļĦ": 8910,
      "åģļæ³ķ": 8911,
      "item": 8912,
      "å¾ģæĶ¶": 8913,
      "åĨįçĶŁ": 8914,
      "æĭīæĸ¯": 8915,
      "è®¡ç®Ĺæľºç¡¬ä»¶": 8916,
      "æ·±åĪ»ä½ĵä¼ļ": 8917,
      "éģĹåĿĢ": 8918,
      "éĥ½æľīèĩªå·±çļĦ": 8919,
      "å®ŀä¾ĭåĪĨæŀĲ": 8920,
      "çŁ¿çī©": 8921,
      "Ġmy": 8922,
      "è°ĪåĪ¤": 8923,
      "çļĦæ¸¸æĪıä½ĵéªĮ": 8924,
      "ä¸Ģèĩ´æĢ§": 8925,
      "åĨ¬åŃ£": 8926,
      "åĩĿèģļåĬĽ": 8927,
      "çļĦçĤ¹": 8928,
      "åĮºåĿĹéĵ¾": 8929,
      "Client": 8930,
      "_{": 8931,
      "ia": 8932,
      "json": 8933,
      "ĠçĤ¹åĩ»": 8934,
      "ï¼Įèĩª": 8935,
      "ï¼ĮæŃ£": 8936,
      "ï¼ĮéĩĮéĿ¢": 8937,
      "çļĦçĶŁäº§": 8938,
      "æľ´": 8939,
      "ä¸Ģå°ģ": 8940,
      "åľ¨è¿Ľè¡Į": 8941,
      "ä¸įåıĺ": 8942,
      "ä½ľå®¶": 8943,
      "å±¥": 8944,
      "å½°": 8945,
      "å¤§èĩªçĦ¶": 8946,
      "æĸ°åħ´": 8947,
      "åĵģå°Ŀ": 8948,
      "éķ¿è¿ľ": 8949,
      "ç¥Ń": 8950,
      "éĹ®é¢ĺè§£åĨ³": 8951,
      "æ°ĳä¼Ĺ": 8952,
      "é¢Ĩè¢ĸ": 8953,
      "çĹħåĽł": 8954,
      "è¿ľå¤Ħ": 8955,
      "å®ŀè·µæ´»åĬ¨": 8956,
      "reate": 8957,
      "è½¬åĲĳ": 8958,
      "è§ģè¿ĩ": 8959,
      "arser": 8960,
      "éĢļå¸¸åľ¨": 8961,
      "é¸¦": 8962,
      "å¿ħéľĢ": 8963,
      "åį³ä½¿": 8964,
      "åı¯èĥ½ä¼ļå¯¼èĩ´": 8965,
      "åĲĪçĲĨå®īæİĴ": 8966,
      "çİ©å®¶çļĦ": 8967,
      "æī§çĿĢ": 8968,
      "çĨĶ": 8969,
      "ç£Ĭ": 8970,
      "cher": 8971,
      "ĠCom": 8972,
      "é¥®é£Łä¹łæĥ¯": 8973,
      "çļĦç¬ĳ": 8974,
      "æĳ©æĵ¦": 8975,
      "èĭ¥æĽ¦": 8976,
      "å®Įæķ´çļĦ": 8977,
      "åĵĪå¸Į": 8978,
      "çªģå¦Ĥåħ¶æĿ¥": 8979,
      "ï¼ĮåĨįåĪ°": 8980,
      "çĿ¡çľł": 8981,
      ".h": 8982,
      "Ġè¯¾ç¨ĭ": 8983,
      "ï¼Įå¤ļ": 8984,
      "ï¼Įéĩįæĸ°": 8985,
      "çļĦè´£ä»»": 8986,
      "ãĢĤçİ°åľ¨": 8987,
      "åĴĮå¸ĮæľĽ": 8988,
      "ä¹¾": 8989,
      "ï¼ļçĲĨè§£": 8990,
      "æĺ¯æıĲé«ĺ": 8991,
      "çĲĨå·¥": 8992,
      "åı¯ä»¥å°Ĩ": 8993,
      "ä¿Ŀä¿®": 8994,
      "åħ¥ä¾µ": 8995,
      "åĲİç«¯": 8996,
      "å»ī": 8997,
      "ãĢĤä»ĸåĿļä¿¡": 8998,
      "ä»İä¸ļ": 8999,
      "çĸĨ": 9000,
      "æ°´ä¸Ń": 9001,
      "æ®¿": 9002,
      "å¢ŀåĢ¼": 9003,
      "æŃ¤æĹ¶": 9004,
      "éĢīæĭ©äºĨ": 9005,
      "èĦ¾": 9006,
      "çļĦåŁºçŁ³": 9007,
      "ï¼ĮæĽ´éĩįè¦ģçļĦæĺ¯": 9008,
      "åĨĻåħ¥": 9009,
      "çħ²": 9010,
      "ï¼ĮæĿİæĻ¨": 9011,
      "æ²¡æĥ³åĪ°": 9012,
      "ä¾ĿéĿł": 9013,
      "æ°´å¹³åĴĮ": 9014,
      "img": 9015,
      "çļĦæī©": 9016,
      "ï¼Įå¿ĥä¸Ńæ¶Įèµ·ä¸ĢèĤ¡": 9017,
      "èĢĲåĬĽ": 9018,
      "ä¹¦æ³ķä½ľåĵģ": 9019,
      "çļĦæ¸´æľĽ": 9020,
      "åĨ·åį´": 9021,
      "æ¥£": 9022,
      "Ġmain": 9023,
      "å»¶è¿Ł": 9024,
      "ç©¿çĿĢ": 9025,
      "å¥łå®ļåŁºç¡Ģ": 9026,
      "èĩªçĶ±æĦıå¿Ĺ": 9027,
      "çªĹå¤ĸ": 9028,
      "è¡ĮæĶ¿åĮº": 9029,
      "æ²¿çĿĢ": 9030,
      "ä¹ĺå®¢": 9031,
      "æĦıæĥ³ä¸įåĪ°çļĦæĥħèĬĤ": 9032,
      "åįļçī©é¦Ĩ": 9033,
      "/s": 9034,
      "Ġuser": 9035,
      "ï¼Įæ³¨æĦı": 9036,
      "ï¼ĮåĬłåħ¥": 9037,
      "çļĦç»ĥä¹ł": 9038,
      "çļĦå½¢å¼ı": 9039,
      "çļĦç§įæ¤į": 9040,
      "åĴĮå¸®åĬ©": 9041,
      "åĴĮçıħ": 9042,
      "åŃĿ": 9043,
      "åľ¨åĽ¾ä¹¦é¦Ĩ": 9044,
      "ï¼ļä½¿çĶ¨": 9045,
      "å¼¦": 9046,
      "ãĢģå¤§": 9047,
      "ãĢģç½ĳç»ľ": 9048,
      "ä¸įç¨³å®ļ": 9049,
      "ä»¬çļĦ": 9050,
      "æľīæ²¡æľī": 9051,
      "é«ĺçŃī": 9052,
      "å¤§å£°": 9053,
      "å·¥äºº": 9054,
      "åĽ½æ¥£": 9055,
      "æĺİäºĨ": 9056,
      "åĲİäºº": 9057,
      "èĩªå·±åĴĮ": 9058,
      "å»ºåĽ½": 9059,
      "ä¼łæŁĵ": 9060,
      "éĥ¨ä½į": 9061,
      "éĢīæīĭ": 9062,
      "ery": 9063,
      "ï¼ĪD": 9064,
      "è®©ä½ł": 9065,
      "ï¼Įä»¥éģ¿åħį": 9066,
      "è®¾è®¡ä¸Ģä¸ª": 9067,
      "æīĭåĬ¨": 9068,
      "åŃĺæ¬¾": 9069,
      "ãĢĭ**ï¼ļ": 9070,
      "çİĩåĴĮ": 9071,
      "å¸ĪçĶŁ": 9072,
      "ï¼Įç¡®ä¿Ŀåľ¨": 9073,
[...]
