{
  "version": "1.0",
  "truncation": null,
  "padding": null,
  "added_tokens": [
    {
      "id": 0,
      "content": "<s>",
      "single_word": false,
      "lstrip": false,
      "rstrip": false,
      "normalized": false,
      "special": true
    },
    {
      "id": 1,
      "content": "</s>",
      "single_word": false,
      "lstrip": false,
      "rstrip": false,
      "normalized": false,
      "special": true
    },
    {
      "id": 2,
      "content": "<unk>",
      "single_word": false,
      "lstrip": false,
      "rstrip": false,
      "normalized": false,
      "special": true
    },
    {
      "id": 3,
      "content": "<pad>",
      "single_word": false,
      "lstrip": false,
      "rstrip": false,
      "normalized": false,
      "special": true
    },
    {
      "id": 4,
      "content": "<mask>",
      "single_word": false,
      "lstrip": false,
      "rstrip": false,
      "normalized": false,
      "special": true
    }
  ],
  "normalizer": null,
  "pre_tokenizer": {
    "type": "Sequence",
    "pretokenizers": [
      {
        "type": "Split",
        "pattern": {
          "Regex": "(?i:'s|'t|'re|'ve|'m|'ll|'d)|[^\\r\\n\\p{L}\\p{N}]?\\p{L}+|\\p{N}| ?[^\\s\\p{L}\\p{N}]+[\\r\\n]*|\\s*[\\r\\n]+|\\s+(?!\\S)|\\s+"
        },
        "behavior": "Isolated",
        "invert": false
      },
      {
        "type": "ByteLevel",
        "add_prefix_space": false,
        "trim_offsets": true,
        "use_regex": false
      }
    ]
  },
  "post_processor": null,
  "decoder": {
    "type": "ByteLevel",
    "add_prefix_space": true,
    "trim_offsets": true,
    "use_regex": true
  },
  "model": {
    "type": "BPE",
    "dropout": null,
    "unk_token": null,
    "continuing_subword_prefix": null,
    "end_of_word_suffix": null,
    "fuse_unk": false,
    "byte_fallback": false,
    "ignore_merges": false,
    "vocab": {
      "<s>": 0,
      "</s>": 1,
      "<unk>": 2,
      "<pad>": 3,
      "<mask>": 4,
      "!": 5,
      "\"": 6,
      "#": 7,
      "$": 8,
      "%": 9,
      "&": 10,
      "'": 11,
      "(": 12,
      ")": 13,
      "*": 14,
      "+": 15,
      ",": 16,
      "-": 17,
      ".": 18,
      "/": 19,
      "0": 20,
      "1": 21,
      "2": 22,
      "3": 23,
      "4": 24,
      "5": 25,
      "6": 26,
      "7": 27,
      "8": 28,
      "9": 29,
      ":": 30,
      ";": 31,
      "<": 32,
      "=": 33,
      ">": 34,
      "?": 35,
      "@": 36,
      "A": 37,
      "B": 38,
      "C": 39,
      "D": 40,
      "E": 41,
      "F": 42,
      "G": 43,
      "H": 44,
      "I": 45,
      "J": 46,
      "K": 47,
      "L": 48,
      "M": 49,
      "N": 50,
      "O": 51,
      "P": 52,
      "Q": 53,
      "R": 54,
      "S": 55,
      "T": 56,
      "U": 57,
      "V": 58,
      "W": 59,
      "X": 60,
      "Y": 61,
      "Z": 62,
      "[": 63,
      "\\": 64,
      "]": 65,
      "^": 66,
      "_": 67,
      "`": 68,
      "a": 69,
      "b": 70,
      "c": 71,
      "d": 72,
      "e": 73,
      "f": 74,
      "g": 75,
      "h": 76,
      "i": 77,
      "j": 78,
      "k": 79,
      "l": 80,
      "m": 81,
      "n": 82,
      "o": 83,
      "p": 84,
      "q": 85,
      "r": 86,
      "s": 87,
      "t": 88,
      "u": 89,
      "v": 90,
      "w": 91,
      "x": 92,
      "y": 93,
      "z": 94,
      "{": 95,
      "|": 96,
      "}": 97,
      "~": 98,
      "¡": 99,
      "¢": 100,
      "£": 101,
      "¤": 102,
      "¥": 103,
      "¦": 104,
      "§": 105,
      "¨": 106,
      "©": 107,
      "ª": 108,
      "«": 109,
      "¬": 110,
      "®": 111,
      "¯": 112,
      "°": 113,
      "±": 114,
      "²": 115,
      "³": 116,
      "´": 117,
      "µ": 118,
      "¶": 119,
      "·": 120,
      "¸": 121,
      "¹": 122,
      "º": 123,
      "»": 124,
      "¼": 125,
      "½": 126,
      "¾": 127,
      "¿": 128,
      "Â": 129,
      "Ã": 130,
      "Ä": 131,
      "Å": 132,
      "Ç": 133,
      "É": 134,
      "Ê": 135,
      "Ë": 136,
      "Ì": 137,
      "Î": 138,
      "Ï": 139,
      "Ð": 140,
      "Ñ": 141,
      "Ø": 142,
      "Ù": 143,
      "â": 144,
      "ã": 145,
      "ä": 146,
      "å": 147,
      "æ": 148,
      "ç": 149,
      "è": 150,
      "é": 151,
      "ï": 152,
      "ð": 153,
      "ĉ": 154,
      "Ċ": 155,
      "Ġ": 156,
      "Ģ": 157,
      "ģ": 158,
      "Ĥ": 159,
      "ĥ": 160,
      "Ħ": 161,
      "ħ": 162,
      "Ĩ": 163,
      "ĩ": 164,
      "Ī": 165,
      "ī": 166,
      "Ĭ": 167,
      "ĭ": 168,
      "Į": 169,
      "į": 170,
      "İ": 171,
      "ı": 172,
      "Ĳ": 173,
      "ĳ": 174,
      "Ĵ": 175,
      "ĵ": 176,
      "Ķ": 177,
      "ķ": 178,
      "ĸ": 179,
      "Ĺ": 180,
      "ĺ": 181,
      "Ļ": 182,
      "ļ": 183,
      "Ľ": 184,
      "ľ": 185,
      "Ŀ": 186,
      "ŀ": 187,
      "Ł": 188,
      "ł": 189,
      "Ń": 190,
      "ï¼": 191,
      "ä¸": 192,
      "ï¼Į": 193,
      "çļ": 194,
      "çļĦ": 195,
      "ãĢ": 196,
      "ä»": 197,
      "ãĢĤ": 198,
      "äº": 199,
      "åı": 200,
      "è¿": 201,
      "åħ": 202,
      "ĊĊ": 203,
      "æľ": 204,
      "åľ": 205,
      "å®": 206,
      "åĪ": 207,
      "ä½": 208,
      "åĬ": 209,
      "åĴ": 210,
      "çĶ": 211,
      "**": 212,
      "åĴĮ": 213,
      "å¤": 214,
      "ç»": 215,
      "æĪ": 216,
      "æĸ": 217,
      "åŃ": 218,
      "åĲ": 219,
      "è®": 220,
      "æĺ": 221,
      "è¯": 222,
      "ãĢĤĊĊ": 223,
      "äºĨ": 224,
      "ä¸Ģ": 225,
      "##": 226,
      "éĢ": 227,
      "åľ¨": 228,
      "ï¼ļ": 229,
      "ä¹": 230,
      "æķ": 231,
      "æĿ": 232,
      "ä¸Ń": 233,
      "è§": 234,
      "ä¼": 235,
      "å¯": 236,
      "èĥ": 237,
      "åº": 238,
      "å¼": 239,
      "å°": 240,
      "éĩ": 241,
      "ĠĠ": 242,
      "æĺ¯": 243,
      "ãĢģ": 244,
      "æĢ": 245,
      "åŃ¦": 246,
      "æĹ": 247,
      "åĽ": 248,
      "ä»ĸ": 249,
      "è¿Ļ": 250,
      "å¸": 251,
      "âĢ": 252,
      "èĥ½": 253,
      "çĲ": 254,
      "çİ": 255,
      "ä»¥": 256,
      "çĶ¨": 257,
      "åĮ": 258,
      "è¡": 259,
      "åĨ": 260,
      "ç§": 261,
      "ä¸į": 262,
      "çĶŁ": 263,
      "ä»¬": 264,
      "ä¸ª": 265,
      "èĢ": 266,
      "Ġ**": 267,
      "ä¿": 268,
      "è¿ĩ": 269,
      "åı¯": 270,
      "å·": 271,
      "æľī": 272,
      "çļĦæ": 273,
      "¦ģ": 274,
      "çĲĨ": 275,
      "å¿": 276,
      "**ï¼ļ": 277,
      "è¦ģ": 278,
      "æī": 279,
      "ä¸º": 280,
      "å¾": 281,
      "æŀ": 282,
      "çī": 283,
      "åį": 284,
      "éĢļ": 285,
      "åĩ": 286,
      "å¹": 287,
      "çĽ": 288,
      "æı": 289,
      "å¯¹": 290,
      "æ³": 291,
      "ä¾": 292,
      "æł": 293,
      "¦Ĥ": 294,
      "ä½ľ": 295,
      "åľ°": 296,
      "èĩ": 297,
      "å±": 298,
      "æİ": 299,
      "è´": 300,
      "æŃ": 301,
      "å½": 302,
      "æĪĳ": 303,
      "éĹ": 304,
      "æĬ": 305,
      "åĪ°": 306,
      "æĦ": 307,
      "åıĳ": 308,
      "å¥": 309,
      "çŃ": 310,
      "èµ": 311,
      "äºº": 312,
      "å¦Ĥ": 313,
      "æĽ": 314,
      "è§£": 315,
      "é¢": 316,
      "éĿ": 317,
      "æıĲ": 318,
      "æĹ¶": 319,
      "æĢ§": 320,
      "åĬĽ": 321,
      "å®ŀ": 322,
      "éĢļè¿ĩ": 323,
      "æĪĲ": 324,
      "åı¯ä»¥": 325,
      "è¡Į": 326,
      "ç¨": 327,
      "åİ": 328,
      "éĻ": 329,
      "æĮ": 330,
      "ä¼ļ": 331,
      "çİ°": 332,
      "æĽ´": 333,
      "äºİ": 334,
      "åĪĨ": 335,
      "åĬ¨": 336,
      "åŁ": 337,
      "å®ļ": 338,
      "æµ": 339,
      "æĭ": 340,
      "èĩª": 341,
      "åĮĸ": 342,
      "æĶ": 343,
      "æĸ¹": 344,
      "æĿ¥": 345,
      "æĸĩ": 346,
      "ä¸İ": 347,
      "éĺ": 348,
      "åĵ": 349,
      "çļĦç": 350,
      "âĢĿ": 351,
      "âĢľ": 352,
      "ä¸ļ": 353,
      "ç¨ĭ": 354,
      "éĩį": 355,
      "éģ": 356,
      "è¿Ľ": 357,
      "å¤§": 358,
      "é«": 359,
      "é«ĺ": 360,
      "æ°": 361,
      "åĳ": 362,
      "åºĶ": 363,
      "ç¡": 364,
      "ç§į": 365,
      "æį": 366,
      "ä½ĵ": 367,
      "æ³ķ": 368,
      "æĪĳä»¬": 369,
      "ç®": 370,
      "æĥ": 371,
      "ä¿Ŀ": 372,
      "ãĢĤĊ": 373,
      "éĥ": 374,
      "äºĽ": 375,
      "è¾": 376,
      "åħ¶": 377,
      "æķ°": 378,
      "ä¸Ģä¸ª": 379,
      "å¿ĥ": 380,
      "èī": 381,
      "çĿ": 382,
      "æ´": 383,
      "éľ": 384,
      "ç¤": 385,
      "çŃī": 386,
      "ä»ħ": 387,
      "çº": 388,
      "è½": 389,
      "ä¸Ĭ": 390,
      "åħ³": 391,
      "åĲĪ": 392,
      "å¤ļ": 393,
      "æĻ": 394,
      "å±ķ": 395,
      "è®¾": 396,
      "ä¸ĭ": 397,
      "æ¸": 398,
      "çĿĢ": 399,
      "Ł¥": 400,
      "æ¯": 401,
      "ç«": 402,
      "çľ": 403,
      "ç½": 404,
      "ç³": 405,
      "éĿ¢": 406,
      "æľ¯": 407,
      "####": 408,
      "éĩı": 409,
      "åĲĮ": 410,
      "å·¥": 411,
      "ä½¿": 412,
      "éª": 413,
      "ç»ı": 414,
      "éľĢ": 415,
      "å¢": 416,
      "æľ¬": 417,
      "ä¸įä»ħ": 418,
      "çī©": 419,
      "æ·": 420,
      "çĤ": 421,
      "æ±": 422,
      "ä¿¡": 423,
      "æķĻ": 424,
      "çł": 425,
      "èĢĮ": 426,
      "ç´": 427,
      "ä¾ĭ": 428,
      "åĩº": 429,
      "è°": 430,
      "æį®": 431,
      "æĦŁ": 432,
      "ç¡®": 433,
      "åħ¥": 434,
      "ç³»": 435,
      "ä¹ł": 436,
      "å¼Ģ": 437,
      "åĬł": 438,
      "åº¦": 439,
      "æĿİ": 440,
      "å°Ĩ": 441,
      "åħ·": 442,
      "æ²": 443,
      "å°ı": 444,
      "èĤ": 445,
      "åĪ¶": 446,
      "çĦ": 447,
      "ç¬": 448,
      "æľº": 449,
      "æ¬": 450,
      "ç©": 451,
      "éĩįè¦ģ": 452,
      "å®¶": 453,
      "è·": 454,
      "ä¹Ł": 455,
      "åĽ½": 456,
      "å¾Ĺ": 457,
      "ä»ĸä»¬": 458,
      "æĬĢ": 459,
      "æĦı": 460,
      "ä½ł": 461,
      "è¶": 462,
      "æĺİ": 463,
      "æ·±": 464,
      "å¥½": 465,
      "æŃ¥": 466,
      "æ´»": 467,
      "æĸ°": 468,
      "è®¡": 469,
      "çī¹": 470,
      "åŃĲ": 471,
      "é£": 472,
      "çĤ¹": 473,
      "éģĵ": 474,
      "è¿ĺ": 475,
      "åĬ©": 476,
      "åī": 477,
      "çĦ¶": 478,
      "éķ": 479,
      "å¸¸": 480,
      "åĲİ": 481,
      "åĿ": 482,
      "éĹ´": 483,
      "ç»ĵ": 484,
      "åŃ¦çĶŁ": 485,
      "å»": 486,
      "éļ": 487,
      "###": 488,
      "è¡¨": 489,
      "é¢ĺ": 490,
      "èĬ": 491,
      "ãĢĤè¿Ļ": 492,
      "é¡": 493,
      "å·±": 494,
      "åĨħ": 495,
      "èĩªå·±": 496,
      "éĹ®": 497,
      "èĢħ": 498,
      "ä»£": 499,
      "æķĪ": 500,
      "ĠĠĠĠ": 501,
      "ç»Ł": 502,
      "ä»¶": 503,
      "å¤Ł": 504,
      "æĮģ": 505,
      "äºĭ": 506,
      "åĬ¡": 507,
      "åħ¨": 508,
      "äº§": 509,
      "åĵģ": 510,
      "çķ": 511,
      "ä¼ł": 512,
      "ä¸ŃçļĦ": 513,
      "éĶ": 514,
      "å»º": 515,
      "ä¾Ľ": 516,
      "å¹¶": 517,
      "è¯Ĩ": 518,
      "åģ": 519,
      "æŀľ": 520,
      "åıĳå±ķ": 521,
      "èĥ½å¤Ł": 522,
      "è´¨": 523,
      "ç±": 524,
      "Ġ-": 525,
      "å½±": 526,
      "åĨ³": 527,
      "åľº": 528,
      "èģ": 529,
      "çĽ®": 530,
      "åŁº": 531,
      "åŃ¦ä¹ł": 532,
      "éľĢè¦ģ": 533,
      "æģ": 534,
      "è¿Ľè¡Į": 535,
      "ï¼Įè¿Ļ": 536,
      "è¯´": 537,
      "çŁ¥": 538,
      "çĽ¸": 539,
      "éĥ¨": 540,
      "ãĢĤâĢĿ": 541,
      "å¼ı": 542,
      "æıĲä¾Ľ": 543,
      "ç®¡": 544,
      "æķ°æį®": 545,
      "æĪĺ": 546,
      "ä»İ": 547,
      "å®ī": 548,
      "æ¶": 549,
      "æĪĸ": 550,
      "ãĢĤä»ĸ": 551,
      "æĥħ": 552,
      "éķ¿": 553,
      "ä¹ĭ": 554,
      "ï¼ĮæĪĳä»¬": 555,
      "ï¼Įä»ĸ": 556,
      "åºĶçĶ¨": 557,
      "èµĦ": 558,
      "éªĮ": 559,
      "ç¤¾": 560,
      "ä¸»": 561,
      "æ¬¡": 562,
      "æ±Ĥ": 563,
      "å®ĥ": 564,
      "Ł³": 565,
      "ç©¶": 566,
      "æ¡": 567,
      "æľŁ": 568,
      "ä½¿çĶ¨": 569,
      "æ»": 570,
      "åĪĽ": 571,
      "åħ¬": 572,
      "æº": 573,
      "å¸Ĥ": 574,
      "çĶµ": 575,
      "æıĲé«ĺ": 576,
      "ç¼": 577,
      "ä½į": 578,
      "çłĶ": 579,
      "åĢ": 580,
      "éĢī": 581,
      "èī²": 582,
      "åİĨ": 583,
      "äºĨè§£": 584,
      "æĤ": 585,
      "``": 586,
      "çĲĨè§£": 587,
      "ä½ķ": 588,
      "çĲĥ": 589,
      "çİ¯": 590,
      "**ĊĊ": 591,
      "åĬŁ": 592,
      "é¦": 593,
      "åıĺ": 594,
      "åıĬ": 595,
      "å¼º": 596,
      "æłĩ": 597,
      "è¿Ĳ": 598,
      "å¤ĩ": 599,
      "æŀĲ": 600,
      "éĥ½": 601,
      "å§": 602,
      "è®º": 603,
      "è°ĥ": 604,
      "åĻ": 605,
      "åĵį": 606,
      "æĸĩåĮĸ": 607,
      "ï¼ļâĢľ": 608,
      "å¼ł": 609,
      "éħ": 610,
      "çĸ": 611,
      "ç¥": 612,
      "åĮħ": 613,
      "ï¼Įå¦Ĥ": 614,
      "in": 615,
      "ç¤º": 616,
      "ï¼Įè¿ĺ": 617,
      "ä½Ĩ": 618,
      "è¿ĩç¨ĭ": 619,
      "éĽ": 620,
      "åĽł": 621,
      "æİ¥": 622,
      "ä¹¦": 623,
      "å¹³": 624,
      "æºĲ": 625,
      "åĪĨæŀĲ": 626,
      "æ°´": 627,
      "è§Ĥ": 628,
      "ç³»ç»Ł": 629,
      "ç¡®ä¿Ŀ": 630,
      "å¸®": 631,
      "åĪ©": 632,
      "éĹ®é¢ĺ": 633,
      "å¢ĥ": 634,
      "åĻ¨": 635,
      "çľĭ": 636,
      "ç§ĳ": 637,
      "äº¤": 638,
      "è¯ķ": 639,
      "èµ·": 640,
      "åı¯èĥ½": 641,
      "åīį": 642,
      "å¤ĸ": 643,
      "èį": 644,
      "éĢĤ": 645,
      "å¸®åĬ©": 646,
      "è®©": 647,
      "ç®¡çĲĨ": 648,
      "ç½ĳ": 649,
      "ï¼ī": 650,
      "æīĭ": 651,
      "ï¼Ī": 652,
      "æľį": 653,
      "å½±åĵį": 654,
      "åįķ": 655,
      "æĺ¯ä¸Ģ": 656,
      "æģ¯": 657,
      "æĸ¹æ³ķ": 658,
      "ä¾ĭå¦Ĥ": 659,
      "æĪ·": 660,
      "¨¡": 661,
      "å¤Ħ": 662,
      "èĬĤ": 663,
      "ç¾": 664,
      "æĢģ": 665,
      "å¯¼": 666,
      "æľĢ": 667,
      "éĻħ": 668,
      "åĳĺ": 669,
      "æĹł": 670,
      "ä¹ī": 671,
      "æµģ": 672,
      "åŀ": 673,
      "åħ»": 674,
      "æĢĿ": 675,
      "er": 676,
      "æ¸¸": 677,
      "ï¼ļĊĊ": 678,
      "æķ´": 679,
      "éĤ": 680,
      "ãĢĤâĢĿĊĊ": 681,
      "æ¯ı": 682,
      "å°±": 683,
      "ç±»": 684,
      "æŃ£": 685,
      "è±": 686,
      "èĥ½åĬĽ": 687,
      "å¹´": 688,
      "ï¼Įä»¥": 689,
      "ä¼ĺ": 690,
      "å¼ķ": 691,
      "ï¼Įä½Ĩ": 692,
      "ç»Ĩ": 693,
      "ĠĠĠ": 694,
      "æ³¨": 695,
      "æ¨¡": 696,
      "å£": 697,
      "ç²": 698,
      "å¦Ĥä½ķ": 699,
      "å½¢": 700,
      "åĲį": 701,
      "ç´ł": 702,
      "çĶŁæ´»": 703,
      "å¤©": 704,
      "éĢīæĭ": 705,
      "èĢĥ": 706,
      "çłĶç©¶": 707,
      "çĹ": 708,
      "éĢīæĭ©": 709,
      "æĬĢæľ¯": 710,
      "è®¾è®¡": 711,
      "åĽ¾": 712,
      "å¤į": 713,
      "ç½®": 714,
      "çĥ": 715,
      "éŁ³": 716,
      "é£İ": 717,
      "åıĤ": 718,
      "æĬ¤": 719,
      "æ»¡": 720,
      "æī¾": 721,
      "å½ĵ": 722,
      "èĤ²": 723,
      "åŃĹ": 724,
      "ç¤¾ä¼ļ": 725,
      "åħĪ": 726,
      "åŀĭ": 727,
      "è¯»": 728,
      "å§ĭ": 729,
      "è¿ĻäºĽ": 730,
      "åıĸ": 731,
      "æ¡Ī": 732,
      "æŀĦ": 733,
      "èĻ": 734,
      "on": 735,
      "èĩªå·±çļĦ": 736,
      "å¿µ": 737,
      "åĩĨ": 738,
      "çŃĸ": 739,
      "ä»»": 740,
      "åĮº": 741,
      "æ®": 742,
      "ç¬¬": 743,
      "æīĢ": 744,
      "åıį": 745,
      "åįĩ": 746,
      "æŃ¤": 747,
      "æĹ¥": 748,
      "è§Ħ": 749,
      "ç»Ń": 750,
      "ãĢĬ": 751,
      "ãĢĭ": 752,
      "ç«ĭ": 753,
      "è¯Ń": 754,
      "é¡¹": 755,
      "ï¼Įå¹¶": 756,
      "å¢ŀ": 757,
      "å¥¹": 758,
      "ãĢĤä¾ĭå¦Ĥ": 759,
      "æł·": 760,
      "çİ¯å¢ĥ": 761,
      "èĲ": 762,
      "æľª": 763,
      "åħĥ": 764,
      "å·¥ä½ľ": 765,
      "å®¹": 766,
      "ç¥ŀ": 767,
      "èīº": 768,
      "ç»Ħ": 769,
      "æĥ³": 770,
      "åı²": 771,
      "ãĢĤéĢļè¿ĩ": 772,
      "çº¿": 773,
      "åİŁ": 774,
      "çİĩ": 775,
      "ï¼Ł": 776,
      "ç»´": 777,
      "æĢ»": 778,
      "çĪ": 779,
      "éĢŁ": 780,
      "éĩĮ": 781,
      "æİ¢": 782,
      "ä»·": 783,
      "æł¼": 784,
      "æĹ¶éĹ´": 785,
      "è®°": 786,
      "åĪ°äºĨ": 787,
      "ä¿¡æģ¯": 788,
      "æĻ¯": 789,
      "åıĹ": 790,
      "åħħ": 791,
      "ä»¥ä¸ĭ": 792,
      "æĸŃ": 793,
      "æĭ¬": 794,
      "ï¼Įä¹Ł": 795,
      "éĺŁ": 796,
      "æĪı": 797,
      "ç»ĥ": 798,
      "å®ŀçİ°": 799,
      "æ¯Ķ": 800,
      "æ°ĳ": 801,
      "åĮħæĭ¬": 802,
      "ç®Ĺ": 803,
      "åħ·æľī": 804,
      "å¤´": 805,
      "åķ": 806,
      "çģ": 807,
      "æķħ": 808,
      "è®¤": 809,
      "è§Ĩ": 810,
      "æŁ¥": 811,
      "è®¨": 812,
      "åĿļ": 813,
      "èĦ": 814,
      "èº": 815,
      "é¢Ĩ": 816,
      "ä¸ĵ": 817,
      "èģĮ": 818,
      "åŃĺ": 819,
      "ãĢĤåľ¨": 820,
      "è¢": 821,
      "æľįåĬ¡": 822,
      "åĲĦ": 823,
      "æķĻèĤ²": 824,
      "åİĨåı²": 825,
      "åŁŁ": 826,
      "æĸĻ": 827,
      "åĪĻ": 828,
      "è·¯": 829,
      "ï¼Įä¸º": 830,
      "çĬ": 831,
      "æĮĩ": 832,
      "ï¼Įåı¯ä»¥": 833,
      "æ£": 834,
      "ä¸įåĲĮ": 835,
      "è¶³": 836,
      "æµĭ": 837,
      "çª": 838,
      "å®īåħ¨": 839,
      "æ·±åħ¥": 840,
      "éª¤": 841,
      "çĭ": 842,
      "èº«": 843,
      "è¿Ļä¸ª": 844,
      "å¼Ģå§ĭ": 845,
      "çĻ": 846,
      "çĶ¨æĪ·": 847,
      "è±¡": 848,
      "æĤ¨": 849,
      "ä¹Ĳ": 850,
      "æŀĹ": 851,
      "éĴ": 852,
      "éĤ£": 853,
      "åĢ¼": 854,
      "æµİ": 855,
      "çļĦéĩįè¦ģ": 856,
      "åĲĳ": 857,
      "æĽ´å¥½": 858,
      "è¾¾": 859,
      "ä¹Ī": 860,
      "æĵ": 861,
      "åŁ¹": 862,
      "æ²»": 863,
      "å¤ĦçĲĨ": 864,
      "ç»ıæµİ": 865,
      "çķĮ": 866,
      "æıĲåįĩ": 867,
      "éħį": 868,
      "æĸ½": 869,
      "æİ§": 870,
      "åĽ¢": 871,
      "åı¤": 872,
      "å¯Į": 873,
      "åĽŀ": 874,
      "é¦ĸ": 875,
      "è§Ĵ": 876,
      "é£Ł": 877,
      "æŁ": 878,
      "æŃ¥éª¤": 879,
      "åĸ": 880,
      "çľŁ": 881,
      "ĳæĪĺ": 882,
      "å¸Ī": 883,
      "æ¼": 884,
      "åıĳçİ°": 885,
      "æľĽ": 886,
      "è£": 887,
      "åĮ»": 888,
      "æĽ´åĬł": 889,
      "æ°Ķ": 890,
      "éĶ®": 891,
      "æ¸¸æĪı": 892,
      "åħī": 893,
      "è¢«": 894,
      "ï¼Įä»İ": 895,
      "åı£": 896,
      "æıĲä¾ĽäºĨ": 897,
      "æĶ¿": 898,
      "éĺ²": 899,
      "å¸¦": 900,
      "ç¾İ": 901,
      "éĵ": 902,
      "ç´¢": 903,
      "æĶ¾": 904,
      "èİ": 905,
      "ç²¾": 906,
      "å¸Ĥåľº": 907,
      "éĢł": 908,
      "æĶ¯": 909,
      "ç»ľ": 910,
      "èµĦæºĲ": 911,
      "åĪĴ": 912,
      "å®ŀéĻħ": 913,
      "re": 914,
      "åķĨ": 915,
      "è¿ĩç¨ĭä¸Ń": 916,
      "é»": 917,
      "æĿĲ": 918,
      "èĮ": 919,
      "å¹¿": 920,
      "æĶ¹": 921,
      "æĽ´å¥½åľ°": 922,
      "æĺ¾": 923,
      "at": 924,
      "æķħäºĭ": 925,
      "ä¸ī": 926,
      "åĪ«": 927,
      "```": 928,
      "įä½ľ": 929,
      "æł¡": 930,
      "èĪ": 931,
      "èĭ": 932,
      "èĢģ": 933,
      "åıª": 934,
      "èīºæľ¯": 935,
      "é¢Ħ": 936,
      "æŀģ": 937,
      "æĶ¶": 938,
      "ä½ľçĶ¨": 939,
      "ï¼ĮæĽ´": 940,
      "ï¼Įç¡®ä¿Ŀ": 941,
      "æ®µ": 942,
      "åħ±": 943,
      "¨Ģ": 944,
      "è¨Ģ": 945,
      "çļĦåŁº": 946,
      "ï¼ļ**": 947,
      "å¯Ĩ": 948,
      "å®Į": 949,
      "çĬ¶": 950,
      "åĬ©äºİ": 951,
      "åĪ»": 952,
      "æľīåĬ©äºİ": 953,
      "åİ»": 954,
      "çĹħ": 955,
      "çĭ¬": 956,
      "¿Ģ": 957,
      "èĥĮ": 958,
      "è®Ń": 959,
      "åĬŁèĥ½": 960,
      "ä¼ģ": 961,
      "æİ¨": 962,
      "çŁ¥è¯Ĩ": 963,
      "éļ¾": 964,
      "ç¡Ģ": 965,
      "æł¹": 966,
      "å¦": 967,
      "é¥": 968,
      "æ´»åĬ¨": 969,
      "åĳ½": 970,
      "èĲ¥": 971,
      "æħ": 972,
      "å½ķ": 973,
      "or": 974,
      "éĽĨ": 975,
      "è¿ľ": 976,
      "ä¼ģä¸ļ": 977,
      "éĿŀ": 978,
      "å°ĳ": 979,
      "åģ¥": 980,
      "æ¿Ģ": 981,
      "è®®": 982,
      "çķ¥": 983,
      "çłģ": 984,
      "åĨĻ": 985,
      "en": 986,
      "è·µ": 987,
      "è¯Ħ": 988,
      "åħ³éĶ®": 989,
      "ä¸ĸ": 990,
      "ç§¯": 991,
      "Ġç¬¬": 992,
      "èµĽ": 993,
      "åº·": 994,
      "è¯ģ": 995,
      "æĸ¹éĿ¢": 996,
      "è½¬": 997,
      "å¸ĥ": 998,
      "åĥ": 999,
      "åħ´": 1000,
      "å¾®": 1001,
      "éĥ¨åĪĨ": 1002,
      "ä¸°": 1003,
      "è§£åĨ³": 1004,
      "è£ħ": 1005,
      "å®ŀè·µ": 1006,
      "éľĢæ±Ĥ": 1007,
      "èĩ´": 1008,
      "éĻ©": 1009,
      "åĲĮæĹ¶": 1010,
      "ï¼Įä½ł": 1011,
      "ç½ĳç»ľ": 1012,
      "åĨ³å®ļ": 1013,
      "é¡¹çĽ®": 1014,
      "æĵįä½ľ": 1015,
      "ç¼ĸ": 1016,
      "æ¸ħ": 1017,
      "çĽ®æłĩ": 1018,
      "èį¯": 1019,
      "ï¼Įå®ĥ": 1020,
      "é©": 1021,
      "éĺħ": 1022,
      "ä¸ŃåĽ½": 1023,
      "æľªæĿ¥": 1024,
      "è¯¾": 1025,
      "é¦ĸåħĪ": 1026,
      "ç§ĺ": 1027,
      "èĩ³": 1028,
      "çªģ": 1029,
      "åĩı": 1030,
      "st": 1031,
      "åħħæ»¡": 1032,
      "éĩĳ": 1033,
      "è¾ĥ": 1034,
      "çĮ": 1035,
      "ä¸įæĸŃ": 1036,
      "åĨľ": 1037,
      "çĸĹ": 1038,
      "åĨħå®¹": 1039,
      "æĿĳ": 1040,
      "ï¼ĮæıĲé«ĺ": 1041,
      "è½»": 1042,
      "ç®Ģ": 1043,
      "æĺ¯ä¸Ģä¸ª": 1044,
      "ï¼ĮèĢĮ": 1045,
      "æĪĲåĬŁ": 1046,
      "çĽ´": 1047,
      "ĨĴ": 1048,
      "ä¸°å¯Į": 1049,
      "äºĨä¸Ģ": 1050,
      "æĸ¹å¼ı": 1051,
      "è´¨éĩı": 1052,
      "è´£": 1053,
      "ï¼Įä»İèĢĮ": 1054,
      "çĶ¨äºİ": 1055,
      "æĪĲä¸º": 1056,
      "ä¿ĿæĬ¤": 1057,
      "ä¸ªäºº": 1058,
      "åĥı": 1059,
      "æĳ": 1060,
      "äºĮ": 1061,
      "äºĴ": 1062,
      "ç»Ī": 1063,
      "æł¹æį®": 1064,
      "åı°": 1065,
      "æ¢": 1066,
      "ä¸ŃåŃ¦çĶŁ": 1067,
      "åģļ": 1068,
      "åı·": 1069,
      "ä¿ĿæĮģ": 1070,
      "ä¸»è¦ģ": 1071,
      "åĩł": 1072,
      "åı¸": 1073,
      "æĻº": 1074,
      "é¢ĨåŁŁ": 1075,
      "çĻ½": 1076,
      "å®¢": 1077,
      "èı": 1078,
      "æĿ¡": 1079,
      "æĿĥ": 1080,
      "åĨµ": 1081,
      "è¯¦": 1082,
      "å¿«": 1083,
      "åģ¥åº·": 1084,
      "å¯¹äºİ": 1085,
      "åŁ¹åħ»": 1086,
      "ï¼ĮéĢļè¿ĩ": 1087,
      "ï¼Įä½¿": 1088,
      "èģĮä¸ļ": 1089,
      "æĿĤ": 1090,
      "æ£Ģ": 1091,
      "çĶ»": 1092,
      "åħį": 1093,
      "**ï¼ļĊ": 1094,
      "è§ģ": 1095,
      "æĽ´å¤ļ": 1096,
      "èĳ": 1097,
      "çĶ±": 1098,
      "äºī": 1099,
      "æĢ§åĴĮ": 1100,
      "çİĭ": 1101,
      "å±±": 1102,
      "le": 1103,
      "åŁİ": 1104,
      "å¸Į": 1105,
      "è¶£": 1106,
      "èģĶ": 1107,
      "è¾ĵ": 1108,
      "ï¼Įä»ĸä»¬": 1109,
      "å¾ĭ": 1110,
      "èİ·": 1111,
      "çīĩ": 1112,
      "çĪ±": 1113,
      "éļı": 1114,
      "åºı": 1115,
      "ç§ĳåŃ¦": 1116,
      "å£°": 1117,
      "è®¡ç®Ĺ": 1118,
      "è®¸": 1119,
      "åĽ°": 1120,
      "è¯¦ç»Ĩ": 1121,
      "ç¦": 1122,
      "¦Ĥå¿µ": 1123,
      "æĮĳæĪĺ": 1124,
      "æĺ¯ä¸Ģç§į": 1125,
      "æı¡": 1126,
      "ä»·åĢ¼": 1127,
      "âĨĴ": 1128,
      "ç¬ĳ": 1129,
      "å¼Ģåıĳ": 1130,
      "ä¸ĵä¸ļ": 1131,
      "ç»ĵæŀĦ": 1132,
      "Ġ=": 1133,
      "æīĵ": 1134,
      "åĽ¢éĺŁ": 1135,
      "âĨĴâĨĴ": 1136,
      "ä¸¤": 1137,
      "åħ³ç³»": 1138,
      "è½¦": 1139,
      "çİ°ä»£": 1140,
      "ä½İ": 1141,
      "æīį": 1142,
      "æ¼Ķ": 1143,
      "å¿Ĺ": 1144,
      "å·§": 1145,
      "æľīæķĪ": 1146,
      "æİ¢è®¨": 1147,
      "æī¾åĪ°": 1148,
      "ä¾¿": 1149,
      "æĴ": 1150,
      "ç»§": 1151,
      "ç©º": 1152,
      "åİĭ": 1153,
      "åĬ¿": 1154,
      "ä¸ĢäºĽ": 1155,
      "æĺĵ": 1156,
      "çŃĸçķ¥": 1157,
      "è¿°": 1158,
      "éĹ¨": 1159,
      "å¾Ī": 1160,
      "æĿİæĺİ": 1161,
      "æī¿": 1162,
      "åĪ©çĶ¨": 1163,
      "åħ¶ä»ĸ": 1164,
      "åĭ": 1165,
      "æ¤": 1166,
      "æİ§åĪ¶": 1167,
      "è¯Ŀ": 1168,
      "åħ¬åı¸": 1169,
      "åĲ¸": 1170,
      "æĸĩä»¶": 1171,
      "çŁ": 1172,
      "ä»Ģ": 1173,
      "ï¼ĮæĪĳä»¬åı¯ä»¥": 1174,
      ";Ċ": 1175,
      "å¤įæĿĤ": 1176,
      "åħ·ä½ĵ": 1177,
      "è®¾å¤ĩ": 1178,
      "ä¼Ĺ": 1179,
      "éģ¿": 1180,
      "ç«Ļ": 1181,
      "ç¬¦": 1182,
      "ä»Ģä¹Ī": 1183,
      "åįķåħĥ": 1184,
      "åĬª": 1185,
      "åĲĪä½ľ": 1186,
      "å¼Ĥ": 1187,
      "è°ĥæķ´": 1188,
      "çļĦåıĳå±ķ": 1189,
      "éĺħè¯»": 1190,
      "ä½ľä¸º": 1191,
      "ï¼ĮæĪĳ": 1192,
      "ï¼Įåľ¨": 1193,
      "æ¡Īä¾ĭ": 1194,
      "an": 1195,
      "ãĢĤè¿ĻäºĽ": 1196,
      "ï¼ŁâĢĿ": 1197,
      "æ¶Ī": 1198,
      "--": 1199,
      "ä¸Ģç§į": 1200,
      "è¯·": 1201,
      "ç¨³": 1202,
      "åĬªåĬĽ": 1203,
      "è´¹": 1204,
      "çŁ¥éģĵ": 1205,
      "éĩĩ": 1206,
      "å·²": 1207,
      "äº§åĵģ": 1208,
      "éĢļå¸¸": 1209,
      "èħ": 1210,
      "åºĵ": 1211,
      "æĦıè¯Ĩ": 1212,
      "æµ·": 1213,
      "æĶ¯æĮģ": 1214,
      "å¾Ģ": 1215,
      "æ²¡": 1216,
      "æŃ¤å¤ĸ": 1217,
      "åĩ»": 1218,
      "å±Ĥ": 1219,
      "ä½ľåĵģ": 1220,
      "çļĦæĥ": 1221,
      "è¿Ļä¸Ģ": 1222,
      "èī¯": 1223,
      "åıĤä¸İ": 1224,
      "åĪĹ": 1225,
      "å±Ģ": 1226,
      "å¾·": 1227,
      "ç»§ç»Ń": 1228,
      "å¤±": 1229,
      "åĲ¬": 1230,
      "æİĮ": 1231,
      "çº§": 1232,
      "al": 1233,
      "éĢĲ": 1234,
      "å·¥åħ·": 1235,
      "çħ": 1236,
      "ä¿®": 1237,
      "ar": 1238,
      "å¸ĮæľĽ": 1239,
      "èĥĮæĻ¯": 1240,
      "å¿ĥä¸Ń": 1241,
      "ä¹ĭéĹ´": 1242,
      "åıĭ": 1243,
      "çĽĬ": 1244,
      "åĬĽéĩı": 1245,
      "ä¸ĸçķĮ": 1246,
      "è¡Įä¸º": 1247,
      "çİ©": 1248,
      "åħħæ»¡äºĨ": 1249,
      "ãĢĤè¿Ļç§į": 1250,
      "çĥŃ": 1251,
      "åĩıå°ĳ": 1252,
      "å¯Ł": 1253,
      "èĩªçĦ¶": 1254,
      "é¢ĳ": 1255,
      "èĳĹ": 1256,
      "åįİ": 1257,
      "æĹħ": 1258,
      "çĭ¬çī¹": 1259,
      "åĪĽæĸ°": 1260,
      "è¯¾ç¨ĭ": 1261,
      "è¿ŀ": 1262,
      "è¿ĲåĬ¨": 1263,
      "çļĦæĮ": 1264,
      "çĽĳ": 1265,
      "è¶Ĭ": 1266,
      "åĲĦç§į": 1267,
      "çĦ¶èĢĮ": 1268,
      "ç¿": 1269,
      "èĹ": 1270,
      "åŃ¦æł¡": 1271,
      "å¿ĥçĲĨ": 1272,
      "ãĢĤä»¥ä¸ĭ": 1273,
      "æĢ§èĥ½": 1274,
      "ä¸ºäºĨ": 1275,
      "æİĮæı¡": 1276,
      "çĽ¸åħ³": 1277,
      "è§Ĵèī²": 1278,
      "é¸": 1279,
      "åĽ´": 1280,
      "ç´§": 1281,
      "åĲ¯": 1282,
      "åŁºç¡Ģ": 1283,
      "ä¸ĢæŃ¥": 1284,
      "çĮ®": 1285,
      "ç¨³å®ļ": 1286,
      "ï¼ĮåĮħæĭ¬": 1287,
      "éģ¿åħį": 1288,
      "ä»ĸä»¬çļĦ": 1289,
      "æĦıä¹ī": 1290,
      "å¥ĩ": 1291,
      "åĳ³": 1292,
      "äº«": 1293,
      "çģµ": 1294,
      "æķĪçİĩ": 1295,
      "å®Ŀ": 1296,
      "æķĪæŀľ": 1297,
      "åĳĬ": 1298,
      "æĬĢå·§": 1299,
      "å¦Ī": 1300,
      "éĻĲ": 1301,
      "åĲ«": 1302,
      "å¯¼èĩ´": 1303,
      "åĶ": 1304,
      "èĬ±": 1305,
      "è¯¥": 1306,
      "çļĦæĬ": 1307,
      "ä½ĵéªĮ": 1308,
      "å²": 1309,
      "åįı": 1310,
      "å¾ģ": 1311,
      "éĿĻ": 1312,
      "çľ¼": 1313,
      "è¡¨çİ°": 1314,
      "çļĦåŁºæľ¬": 1315,
      "ro": 1316,
      "èŀ": 1317,
      "**Ċ": 1318,
      "éģĩ": 1319,
      "ä¼ĺåĮĸ": 1320,
      "åĩĨå¤ĩ": 1321,
      "ic": 1322,
      "èĮĥ": 1323,
      "ä»ĸçļĦ": 1324,
      "éĩįè¦ģçļĦ": 1325,
      "è®Ńç»ĥ": 1326,
      "éĩĬ": 1327,
      "çļĦæĥħ": 1328,
      "æĬķ": 1329,
      "et": 1330,
      "ç»Ļ": 1331,
      "è¥": 1332,
      "Ġ\\": 1333,
      "ï¼Įè®©": 1334,
      "éŁ³ä¹Ĳ": 1335,
      "çļĦæł": 1336,
      "ç§¯æŀģ": 1337,
      "åıĺåĮĸ": 1338,
      "Ġc": 1339,
      "è¥¿": 1340,
      "ç¢": 1341,
      "åĽĽ": 1342,
      "å¡": 1343,
      "æ¤į": 1344,
      "æį¢": 1345,
      "ac": 1346,
      "ä¸Ģå®ļ": 1347,
      "çļĦçł": 1348,
      "è½½": 1349,
      "æ²¡æľī": 1350,
      "åħ´è¶£": 1351,
      "æĸ°çļĦ": 1352,
      "ĠĠĠĠĠĠĠ": 1353,
      "ä¼łç»Ł": 1354,
      "è¡¨è¾¾": 1355,
      "æ¦Ĥå¿µ": 1356,
      "å¢ŀå¼º": 1357,
      "ï¼Įä¸įä»ħ": 1358,
      "ä¼°": 1359,
      "åĤ": 1360,
      "de": 1361,
      "éĿ¢å¯¹": 1362,
      "è´Ł": 1363,
      "çļĦäºº": 1364,
      "çĶŁçī©": 1365,
      "å®ŀéªĮ": 1366,
      "æĻĵ": 1367,
      "æĪĲéķ¿": 1368,
      "éļľ": 1369,
      "å¿ħ": 1370,
      "è´Ń": 1371,
      "ä¾Ŀ": 1372,
      "æĿ¥è¯´": 1373,
      "ï¼ģ": 1374,
      "ä½ı": 1375,
      "çļĦåŃ¦ä¹ł": 1376,
      "çļĦçłĶ": 1377,
      "å¤§çļĦ": 1378,
      "ç»ĵæŀľ": 1379,
      "ç»ĥä¹ł": 1380,
      "è¯Ħä¼°": 1381,
      "åĨĽ": 1382,
      "éĿŀå¸¸": 1383,
      "è§ī": 1384,
      "è¿½": 1385,
      "åĳ¨": 1386,
      "çŁ³": 1387,
      "åĽŃ": 1388,
      "åĽłä¸º": 1389,
      "å±ķç¤º": 1390,
      "æĦŁåĪ°": 1391,
      "çļĦå½±åĵį": 1392,
      "å¢ŀåĬł": 1393,
      "æ³Ľ": 1394,
      "åĬ±": 1395,
      "å¦Ĥæŀľ": 1396,
      "éĻį": 1397,
      "æĥħæĦŁ": 1398,
      "ä¸ĬçļĦ": 1399,
      "åĪĽä½ľ": 1400,
      "ä¿ĥ": 1401,
      "am": 1402,
      "æĬ¥": 1403,
      "ï¼Įè¿ĻäºĽ": 1404,
      "çĲĨè®º": 1405,
      "åį³": 1406,
      "æ¸Ĳ": 1407,
      "ï¼ĮæĿİ": 1408,
      "th": 1409,
      "äº§çĶŁ": 1410,
      "è¯į": 1411,
      "ç»ĩ": 1412,
      "é¼": 1413,
      "as": 1414,
      "ä»£çłģ": 1415,
      "æķĻç¨ĭ": 1416,
      "æĿĲæĸĻ": 1417,
      "éĻĪ": 1418,
      "å®ļä¹ī": 1419,
      "å¹¿æ³Ľ": 1420,
      "çĤ¹å¤´": 1421,
      "ion": 1422,
      "ï¼Įè¿ĺèĥ½": 1423,
      "èŀį": 1424,
      "ç±³": 1425,
      "åĭĩ": 1426,
      "çļĦçłĶç©¶": 1427,
      "æİĴ": 1428,
      "æĸĩåŃ¦": 1429,
      "ç«¯": 1430,
      "çŃĶ": 1431,
      "å®ĮæĪĲ": 1432,
      "åŃ¦æľ¯": 1433,
      "éļıçĿĢ": 1434,
      "å¯»": 1435,
      "æī§": 1436,
      "ä»ĭ": 1437,
      "å®¤": 1438,
      "èµ°": 1439,
      "æ¯ĶèµĽ": 1440,
      "ç«ł": 1441,
      "çī¹çĤ¹": 1442,
      "```ĊĊ": 1443,
      "è®¾ç½®": 1444,
      "åı¯èĥ½ä¼ļ": 1445,
      "çļĦæĶ": 1446,
      "åŁİå¸Ĥ": 1447,
      "æĥħåĨµ": 1448,
      "ä½Ľ": 1449,
      "å°Ŀ": 1450,
      "ç¦»": 1451,
      "åĽ½å®¶": 1452,
      "ç»ıéªĮ": 1453,
      "lo": 1454,
      "ä»»åĬ¡": 1455,
      "ï¼Įæ¯ı": 1456,
      "åĲ¦": 1457,
      "è®°å½ķ": 1458,
      "ç»ĵåĲĪ": 1459,
      "ä»¤": 1460,
      "å»ºè®®": 1461,
      "ãĢĤä»ĸä»¬": 1462,
      "åĪ¶å®ļ": 1463,
      "å»ºç«ĭ": 1464,
      "æĸ¯": 1465,
      "åħ³æ³¨": 1466,
      "çł´": 1467,
      "ç»ıåİĨ": 1468,
      "es": 1469,
      "è®¡åĪĴ": 1470,
      "æĺŁ": 1471,
      "æ¸©": 1472,
      "âĢĶ": 1473,
      "ç§°": 1474,
      "æĮī": 1475,
      "åĸĦ": 1476,
      "æ°´å¹³": 1477,
      "åĪĿ": 1478,
      "éĿĴ": 1479,
      "æŁĲ": 1480,
      "èĹı": 1481,
      "çĶŁæĢģ": 1482,
      "éħįç½®": 1483,
      "çĶŁäº§": 1484,
      "éŃ": 1485,
      "æĽ´å¥½åľ°çĲĨè§£": 1486,
      "å¨": 1487,
      "çħ§": 1488,
      "è¯Ńè¨Ģ": 1489,
      "åıĬåħ¶": 1490,
      "åľŁ": 1491,
      "çļĦæİ": 1492,
      "åħ±åĲĮ": 1493,
      "éĻ¤": 1494,
      "æĮģç»Ń": 1495,
      "åĨį": 1496,
      "è¾¹": 1497,
      "è½¯": 1498,
      "å¾ħ": 1499,
      "é£İéĻ©": 1500,
      "ä¸¥": 1501,
      "av": 1502,
      "åĿĹ": 1503,
      "it": 1504,
      "è§Ĥå¯Ł": 1505,
      "ç§»": 1506,
      "èĻĳ": 1507,
      "çİ©å®¶": 1508,
      "äºĳ": 1509,
      "åĪĩ": 1510,
      "æĴŃ": 1511,
      "ç¨ĭåºı": 1512,
      "åĲĪçĲĨ": 1513,
      "èī¯å¥½": 1514,
      "æļ": 1515,
      "å¸¦æĿ¥": 1516,
      "äº¤æµģ": 1517,
      "è®¸å¤ļ": 1518,
      "ä¸´": 1519,
      "åĬŀ": 1520,
      "ç»Ħç»ĩ": 1521,
      "æ²»çĸĹ": 1522,
      "æĢ»ç»ĵ": 1523,
      "¸å¿ĥ": 1524,
      "å·²ç»ı": 1525,
      "æµĭè¯ķ": 1526,
      "åºĶå¯¹": 1527,
      "ä»½": 1528,
      "è¶³çĲĥ": 1529,
      "ing": 1530,
      "æĪ¿": 1531,
      "è®¨è®º": 1532,
      "å®īè£ħ": 1533,
      "åĽ½éĻħ": 1534,
      "ä¿ĥè¿Ľ": 1535,
      "åħĭ": 1536,
      "å®ĩ": 1537,
      "çĭ¬çī¹çļĦ": 1538,
      "æĲ": 1539,
      "æĭŁ": 1540,
      "è§£éĩĬ": 1541,
      "çļĦæĦ": 1542,
      "è§ĦåĪĴ": 1543,
      "å°Ŀè¯ķ": 1544,
      "å¤ļä¸ª": 1545,
      "å±ħ": 1546,
      "æ¨¡åŀĭ": 1547,
      "ãĢĤæŃ¤å¤ĸ": 1548,
      "åįĹ": 1549,
      "ä½ĵçİ°": 1550,
      "è´£ä»»": 1551,
      "åħ³äºİ": 1552,
      "ï¼Įåıª": 1553,
      "åŃ©": 1554,
      "æķĻåŃ¦": 1555,
      "è°¢": 1556,
      "ä¸°å¯ĮçļĦ": 1557,
      "Ġ{": 1558,
      "èµµ": 1559,
      "ãĢĤå¥¹": 1560,
      "éĻ¢": 1561,
      "çļĦæī": 1562,
      "åı¯ä»¥éĢļè¿ĩ": 1563,
      "æħ§": 1564,
      "åĤ¨": 1565,
      "çı": 1566,
      "ä¸ľ": 1567,
      "çļĦä¸Ģ": 1568,
      "æĬĹ": 1569,
      "æİ¢ç´¢": 1570,
      "åĪ¶ä½ľ": 1571,
      "æĹı": 1572,
      "å¹³åı°": 1573,
      "ç²¾ç¥ŀ": 1574,
      "ç®Ģåįķ": 1575,
      "ï¼Įå¸®åĬ©": 1576,
      "å°Ķ": 1577,
      "æľºä¼ļ": 1578,
      "ï¼Įåħ¶": 1579,
      "ä¸įä»ħä»ħ": 1580,
      "ç«ŀ": 1581,
      "å°½": 1582,
      "æĸ¹æ¡Ī": 1583,
      "æĿ¾": 1584,
      "ï¼ĮåŃ¦çĶŁ": 1585,
      "åĩ½": 1586,
      "å±ŀ": 1587,
      "æŃ¢": 1588,
      "æĿ¡ä»¶": 1589,
      "è¦ģæ±Ĥ": 1590,
      "æī§è¡Į": 1591,
      "çīĮ": 1592,
      "æŃĮ": 1593,
      "æĬĢèĥ½": 1594,
      "çĨ": 1595,
      "æ½": 1596,
      "éĺ¶": 1597,
      "ç¾¤": 1598,
      "åĩ½æķ°": 1599,
      "è¯¯": 1600,
      "ç¬ĳçĿĢ": 1601,
      "åĨ²": 1602,
      "è¯»èĢħ": 1603,
      "ä¸Ģèµ·": 1604,
      "æĹ¥å¸¸": 1605,
      "åħ¨éĿ¢": 1606,
      "æĢĿèĢĥ": 1607,
      "æ£ĢæŁ¥": 1608,
      "å®ĥä»¬": 1609,
      "éĢŁåº¦": 1610,
      "äººçļĦ": 1611,
      "æ³¢": 1612,
      "æĭī": 1613,
      "è´¡": 1614,
      "çľĭçĿĢ": 1615,
      "æľºåĪ¶": 1616,
      "å¤ļç§į": 1617,
      "éķĩ": 1618,
      "ï¼ŁâĢĿĊĊ": 1619,
      "ut": 1620,
      "è´¡çĮ®": 1621,
      "åŃ¦ä¼ļ": 1622,
      "è¡Ģ": 1623,
      "ri": 1624,
      "å®ļæľŁ": 1625,
      "åĿļå®ļ": 1626,
      "å£«": 1627,
      "æĺ¾èĳĹ": 1628,
      "éĢĲæ¸Ĳ": 1629,
      "æĦıè¯ĨåĪ°": 1630,
      "æ¹": 1631,
      "çīĪ": 1632,
      "ï¼Įå¥¹": 1633,
      "æĸĹ": 1634,
      "æľīçĿĢ": 1635,
      "æłĳ": 1636,
      "è¿Ļç§į": 1637,
      "åį¡": 1638,
      "æİ¨åĬ¨": 1639,
      "é±": 1640,
      "è¿Ĳè¡Į": 1641,
      "è½¯ä»¶": 1642,
      "åĽ°éļ¾": 1643,
      "ãĢĤçĦ¶èĢĮ": 1644,
      "èĭ±": 1645,
      "éĶĢ": 1646,
      "æ¬¾": 1647,
      "èįī": 1648,
      "ä¼¼": 1649,
      "åı¶": 1650,
      "äºĶ": 1651,
      "åİŁçĲĨ": 1652,
      "éĺ³": 1653,
      "ï¼Įæĺ¯": 1654,
      "½çĦ¶": 1655,
      "æīįèĥ½": 1656,
      "æİª": 1657,
      "çļĦåľ°": 1658,
      "ï¼Įå°Ĩ": 1659,
      "æıı": 1660,
      "åºŃ": 1661,
      "ç¯": 1662,
      "è®²": 1663,
      "åºĹ": 1664,
      "æĻ¨": 1665,
      "å»ºè®¾": 1666,
      ");Ċ": 1667,
      "ç»´æĬ¤": 1668,
      "äº²": 1669,
      "å®¡": 1670,
      "å®Ī": 1671,
      "éļĲ": 1672,
      "åľ°è¯´": 1673,
      "ent": 1674,
      "æ³¨æĦı": 1675,
      "åŃĺåľ¨": 1676,
      "åºľ": 1677,
      "ä¸Ģæ¬¡": 1678,
      "ç§ĳæĬĢ": 1679,
      "çĦ¶åĲİ": 1680,
      "èĻ½çĦ¶": 1681,
      "æĮ¥": 1682,
      "è¿ĳ": 1683,
      "éĿ©": 1684,
      "é¼ĵ": 1685,
      "ä¸Ķ": 1686,
      "ï¼Įå¯¹": 1687,
      "åĲ¸å¼ķ": 1688,
      "çļĦåİĨåı²": 1689,
      "åª": 1690,
      "è¾ĳ": 1691,
      "ex": 1692,
      "âĨĴâĨĴâĨĴâĨĴ": 1693,
      "ä½łçļĦ": 1694,
      "å¹²": 1695,
      "éĢĤåĲĪ": 1696,
      "é±¼": 1697,
      "è¿ħ": 1698,
      "æİĪ": 1699,
      "é»Ħ": 1700,
      "å¸¸è§ģ": 1701,
      "ä½įç½®": 1702,
      "å¿«éĢŁ": 1703,
      "åħ¶æ¬¡": 1704,
      "ï¼ĮäºĨè§£": 1705,
      "id": 1706,
      "ed": 1707,
      "é²": 1708,
      "è¡¡": 1709,
      "çĶµåŃĲ": 1710,
      "äºĨä¸Ģä¸ª": 1711,
      "å¥³": 1712,
      "çļĦéĩįè¦ģæĢ§": 1713,
      "Ġ{Ċ": 1714,
      "ç¼ĵ": 1715,
      "çļĦåħ³éĶ®": 1716,
      "åıĳçĶŁ": 1717,
      "åĩºçİ°": 1718,
      "æ³ķå¾ĭ": 1719,
      "ad": 1720,
      "åī§": 1721,
      "ï¼Įä»¥åıĬ": 1722,
      "èĨ": 1723,
      "é«ĺæķĪ": 1724,
      "é¾": 1725,
      "ðŁ": 1726,
      "çļĦçľ": 1727,
      "èº«ä½ĵ": 1728,
      "çľĭåĪ°": 1729,
      "ä»¥åıĬ": 1730,
      "æĺ¯åĲ¦": 1731,
      "åĽłæŃ¤": 1732,
      "é£ŀ": 1733,
      "æİªæĸ½": 1734,
      "el": 1735,
      "èıľ": 1736,
      "åĪĽå»º": 1737,
      "èĴ": 1738,
      "å¤§éĩı": 1739,
      "ï¼Ľ": 1740,
      "ç»¼": 1741,
      "æľĪ": 1742,
      "è¡Įä¸ļ": 1743,
      "ç±»åŀĭ": 1744,
      "æ¢¦": 1745,
      "å®¶åºŃ": 1746,
      "åİĭåĬĽ": 1747,
      "çļĦåŁºç¡Ģ": 1748,
      "ï¼ĮâĢľ": 1749,
      "åĨľä¸ļ": 1750,
      "ãĢĤåĲĮæĹ¶": 1751,
      "èĩ³åħ³": 1752,
      "èĽ": 1753,
      "ï¼Įå°±": 1754,
      "æ¶µ": 1755,
      "è¿Ľä¸ĢæŃ¥": 1756,
      "åĩĨç¡®": 1757,
      "åľºæĻ¯": 1758,
      "æĹłæ³ķ": 1759,
      "ç»į": 1760,
      "è´µ": 1761,
      "æĻºèĥ½": 1762,
      "è¿ħéĢŁ": 1763,
      "å®³": 1764,
      "è¯¢": 1765,
      "çº¢": 1766,
      "çĶŁæ´»ä¸Ń": 1767,
      "éĵģ": 1768,
      "è¿ŀæİ¥": 1769,
      "åĩłä¸ª": 1770,
      "ï¼Įå¿ĥä¸Ń": 1771,
      "æĳĦ": 1772,
      "Ġ`": 1773,
      "èĩªæĪĳ": 1774,
      "è®¾æĸ½": 1775,
      "ä»ĭç»į": 1776,
      "çĵ": 1777,
      "åıĸå¾Ĺ": 1778,
      "è¿½æ±Ĥ": 1779,
      "è®¿": 1780,
      "çļĦæĬĢ": 1781,
      "è´¢": 1782,
      "æĺİçĻ½": 1783,
      "åŃ©åŃĲ": 1784,
      "å·®": 1785,
      "ä¼ĺåĬ¿": 1786,
      "å¤ļæł·": 1787,
      "åªĴ": 1788,
      "çļĦæ·": 1789,
      "åį´": 1790,
      "æ·±åĪ»": 1791,
      "//": 1792,
      "om": 1793,
      "é£İæł¼": 1794,
      "ï¼Įä¸į": 1795,
      "äº¤éĢļ": 1796,
      "é©¬": 1797,
      "æĭħ": 1798,
      "ãĢĤå®ĥ": 1799,
      "çŃĳ": 1800,
      "èİ·å¾Ĺ": 1801,
      "åĨ³çŃĸ": 1802,
      "éĺ¿": 1803,
      "åĽłç´ł": 1804,
      "åĨ·": 1805,
      "äº§ä¸ļ": 1806,
      "ç±į": 1807,
      "çļĦæĮĳæĪĺ": 1808,
      "is": 1809,
      "çĸĳ": 1810,
      "èĩªåĬ¨": 1811,
      "éĶĻ": 1812,
      "çªģçĦ¶": 1813,
      "èĲ¥åħ»": 1814,
      "ŁéĢļ": 1815,
      "æĭį": 1816,
      "çī¹åĪ«": 1817,
      "å»ºçŃĳ": 1818,
      "åĸľ": 1819,
      "åł": 1820,
      "åıĹåĪ°": 1821,
      "ç¬Ķ": 1822,
      "çĽ´æİ¥": 1823,
      "çļĦåºĶçĶ¨": 1824,
      "æľ¨": 1825,
      "ï¼Įéģ¿åħį": 1826,
      "çº¦": 1827,
      "åİļ": 1828,
      "åĿļæĮģ": 1829,
      "å°Ĭ": 1830,
      "å¤§åŃ¦çĶŁ": 1831,
      "å½¢æĪĲ": 1832,
      "åĪĽéĢł": 1833,
      "åĢĻ": 1834,
      "ï¼ĮæĽ´æĺ¯": 1835,
      "æĤ£": 1836,
      "æ±ī": 1837,
      "æ»¡è¶³": 1838,
      "å°Ħ": 1839,
      "åĦ": 1840,
      "æ¤įçī©": 1841,
      "çĬ¶æĢģ": 1842,
      "å°¤": 1843,
      "æłĩåĩĨ": 1844,
      "ĠĠĠĠĠĠĠĠ": 1845,
      "èıĮ": 1846,
      "äºĭä»¶": 1847,
      "åĩºäºĨ": 1848,
      "åħĥç´ł": 1849,
      "æĢ¥": 1850,
      "ä»¿": 1851,
      "å®ĺ": 1852,
      "im": 1853,
      "äºĴåĬ¨": 1854,
      "ä¸ĭæĿ¥": 1855,
      "ï¼ĮåĲĮæĹ¶": 1856,
      "æ¨¡å¼ı": 1857,
      "åĪ¤": 1858,
      "å¾Ħ": 1859,
      "çļĦæ¸": 1860,
      "çļĦæĸ¹æ³ķ": 1861,
      "åľ°åĮº": 1862,
      "å¤§åŃ¦": 1863,
      "ä¼łæĴŃ": 1864,
      "åªĴä½ĵ": 1865,
      "é¥®": 1866,
      "æľĢç»Ī": 1867,
      "èĢĲ": 1868,
      "ç¼º": 1869,
      "å¤ª": 1870,
      "ï¼ĮæĤ¨": 1871,
      "å®¢æĪ·": 1872,
      "æĺł": 1873,
      "int": 1874,
      "èĢĥèĻĳ": 1875,
      "ç¥ŀç§ĺ": 1876,
      "ap": 1877,
      "éĢĤåºĶ": 1878,
      "è®¤è¯Ĩ": 1879,
      "æĶ»": 1880,
      "åŁºæľ¬": 1881,
      "å·¥ç¨ĭ": 1882,
      "æĸ¹åĲĳ": 1883,
      "ï¼Įä¸Ģ": 1884,
      "é¦Ĩ": 1885,
      "ä¸įåĲĮçļĦ": 1886,
      "çļĦæ·±": 1887,
      "ur": 1888,
      "è¿ĽæŃ¥": 1889,
      "åį±": 1890,
      "åı¯ä»¥å¸®åĬ©": 1891,
      "ï¼ļ**Ċ": 1892,
      "æ¶Īè´¹": 1893,
      "éĺ¶æ®µ": 1894,
      "ct": 1895,
      "é¡º": 1896,
      "Ġs": 1897,
      "ï¼ĮæľīåĬ©äºİ": 1898,
      "çļĦæ°": 1899,
      "å·¨": 1900,
      "çģ«": 1901,
      "Ġp": 1902,
      "ä»£è¡¨": 1903,
      "å½©": 1904,
      "çī¹å¾ģ": 1905,
      "æĢ»ä¹ĭ": 1906,
      "çĽĸ": 1907,
      "åĲĪéĢĤ": 1908,
      "ä¹ĭéĹ´çļĦ": 1909,
      "åĮĹ": 1910,
      "çĽ¸ä¿¡": 1911,
      "æĺİç¡®": 1912,
      "Ġåľ¨": 1913,
      "åĽº": 1914,
      "ç«ŀäºī": 1915,
      "æķ°æį®åºĵ": 1916,
      "ue": 1917,
      "Ġn": 1918,
      "æŃ£ç¡®": 1919,
      "é¢ľ": 1920,
      "æĪĲæľ¬": 1921,
      "éħĴ": 1922,
      "æĢĿç»´": 1923,
      "æĹħæ¸¸": 1924,
      "å¯»æī¾": 1925,
      "å½¢å¼ı": 1926,
      "çİ°å®ŀ": 1927,
      "åĪĨäº«": 1928,
      "æľĢåĲİ": 1929,
      "åıĮ": 1930,
      "ç£": 1931,
      "ï¼Įèĥ½å¤Ł": 1932,
      "æ²ī": 1933,
      "æĺ¯ä¸ĢäºĽ": 1934,
      "æĶ¿åºľ": 1935,
      "å¾®ç¬ĳçĿĢ": 1936,
      "éģĹ": 1937,
      "åħ¸": 1938,
      "çļĦæŃ": 1939,
      "ĠS": 1940,
      "ï¼ĮçĦ¶åĲİ": 1941,
      "ç»ĦæĪĲ": 1942,
      "åıįæĢĿ": 1943,
      "ï¼Įå®ŀçİ°": 1944,
      "åįļ": 1945,
      "äººä»¬": 1946,
      "é»ĺ": 1947,
      "ï¼Įä½¿å¾Ĺ": 1948,
      "è¯ĨåĪ«": 1949,
      "åĦ¿": 1950,
      "åŃĺåĤ¨": 1951,
      "æĽ²": 1952,
      "æŁĵ": 1953,
      "åĪĺ": 1954,
      "çļĦæķħäºĭ": 1955,
      "ä¸Ģå¤©": 1956,
      "ä½¿å¾Ĺ": 1957,
      "é»ĳ": 1958,
      "åıĳæĮ¥": 1959,
      "åĪĨå¸ĥ": 1960,
      "æ²¹": 1961,
      "åħ·å¤ĩ": 1962,
      "oc": 1963,
      "å¦Īå¦Ī": 1964,
      "è¶ħ": 1965,
      "åº¦åĴĮ": 1966,
      "æıŃ": 1967,
      "æĹ¶æľŁ": 1968,
      "ç³»åĪĹ": 1969,
      "çŁŃ": 1970,
      "éĻįä½İ": 1971,
      "éĢļä¿¡": 1972,
      "æīĢæľī": 1973,
      "æĬķèµĦ": 1974,
      "æ²³": 1975,
      "¹ģ": 1976,
      "æľĭ": 1977,
      "æ¯ıä¸ª": 1978,
      "çļĦç¤": 1979,
      "ç»¼åĲĪ": 1980,
      "ç¡®å®ļ": 1981,
      "ç»Īäºİ": 1982,
      "ãĢĤæĿİ": 1983,
      "æ½ľ": 1984,
      "çĥĪ": 1985,
      "èĤ¡": 1986,
      "è¿ĲçĶ¨": 1987,
      "èİ·åıĸ": 1988,
      "èĻ«": 1989,
      "ç³»ç»ŁçļĦ": 1990,
      "çļĦæĥħæĦŁ": 1991,
      "ç»ĺ": 1992,
      "æ¨¡æĭŁ": 1993,
      "ï¼Įæľī": 1994,
      "æĿ¿": 1995,
      "æĹ¨": 1996,
      "æĪĲå°±": 1997,
      "è¯ī": 1998,
      "åį°": 1999,
      "èĦĳ": 2000,
      "åº§": 2001,
      "åı¤ä»£": 2002,
      "èµĦæĸĻ": 2003,
      "åĲ¯ç¤º": 2004,
      "Ġ}": 2005,
      "ä»ª": 2006,
      "è§Ī": 2007,
      "æŀ¶": 2008,
      "åĵģçīĮ": 2009,
      "è¡¨ç¤º": 2010,
      "æľĭåıĭ": 2011,
      "çļĦçĶŁæ´»": 2012,
      "éĤ£äºĽ": 2013,
      "é¼ĵåĬ±": 2014,
      "æĺ¯åľ¨": 2015,
      "è®¡ç®Ĺæľº": 2016,
      "ï¼Įå°ı": 2017,
      "ç§ĺå¯Ĩ": 2018,
      "#####": 2019,
      "Ġ\"": 2020,
      "ä¿¡åı·": 2021,
      "è¡¥": 2022,
      "äº®": 2023,
      "èĲ½": 2024,
      "ï¼ģâĢĿ": 2025,
      "æķ°åŃĹ": 2026,
      "åıĪ": 2027,
      "åĳĺå·¥": 2028,
      "è§¦": 2029,
      "ch": 2030,
      "æ³¨éĩį": 2031,
      "æĽ´å¤ļçļĦ": 2032,
      "åŁ¹è®Ń": 2033,
      "åºĶè¯¥": 2034,
      "çİ°è±¡": 2035,
      "é¡µ": 2036,
      "æ¶¯": 2037,
      "åĪĨç±»": 2038,
      "ä¹°": 2039,
      "çļĦæ¯": 2040,
      "ä¼łæī¿": 2041,
      "æľ¬åįķåħĥ": 2042,
      "ä¸Ńå¿ĥ": 2043,
      "è¡ĮåĬ¨": 2044,
      "æĶ¿çŃĸ": 2045,
      "é¡¾": 2046,
      "åıĤåĬł": 2047,
      "åĳ½ä»¤": 2048,
      "ä»ĺ": 2049,
      "å³": 2050,
      "ç¼ĸç¨ĭ": 2051,
      "åıĺå¾Ĺ": 2052,
      "åħ¨çĲĥ": 2053,
      "æ¥": 2054,
      "çĶŁæ¶¯": 2055,
      "æĺ¯æĮĩ": 2056,
      "æķĻæİĪ": 2057,
      "ä¸ŃçļĦåºĶçĶ¨": 2058,
      "çĨŁ": 2059,
      "èĢħçļĦ": 2060,
      "ä¹İ": 2061,
      "ä¿Ŀéļľ": 2062,
      "æĻ®": 2063,
      "æĻºæħ§": 2064,
      "çļĦçĥ": 2065,
      "ï¼Įå¼ł": 2066,
      "çĳ": 2067,
      "ä»¥ä¸Ĭ": 2068,
      "åīĤ": 2069,
      "()": 2070,
      "æĪĲæŀľ": 2071,
      "è§Ĩé¢ĳ": 2072,
      "çĶµå½±": 2073,
      "æī©": 2074,
      "çĲĥåĳĺ": 2075,
      "åıĬæĹ¶": 2076,
      "é¡»": 2077,
      "æĹłè®º": 2078,
      "çºª": 2079,
      "ag": 2080,
      "un": 2081,
      "èĤī": 2082,
      "Ġ<": 2083,
      "çļĦå·¥ä½ľ": 2084,
      "ç©ºéĹ´": 2085,
      "å©": 2086,
      "é¦Ļ": 2087,
      "é¢ľèī²": 2088,
      "æĹ¨åľ¨": 2089,
      "çī¹å®ļ": 2090,
      "ãĢĤé¦ĸåħĪ": 2091,
      "çļĦæĻ": 2092,
      "åĽŀçŃĶ": 2093,
      "çļĦæ²": 2094,
      "å¿ħé¡»": 2095,
      "èĥľ": 2096,
      "æ¶ī": 2097,
      "æķ´ä½ĵ": 2098,
      "éĴĪ": 2099,
      "ç»ıè¿ĩ": 2100,
      "ç»©": 2101,
      "çļĦæł¸å¿ĥ": 2102,
      "eb": 2103,
      "çĤ¹äºĨ": 2104,
      "è¯Ĺ": 2105,
      "æĪĲåĳĺ": 2106,
      "è¿Ļæł·": 2107,
      "éģĩåĪ°": 2108,
      "éĢı": 2109,
      "èĪŀ": 2110,
      "çĤ¹äºĨçĤ¹å¤´": 2111,
      "éĥ½æľī": 2112,
      "ï¼ĮéľĢè¦ģ": 2113,
      "ä¸»é¢ĺ": 2114,
      "¾çĹħ": 2115,
      "çĶŁéķ¿": 2116,
      "ä¸įåı¯": 2117,
      "èĪª": 2118,
      "ä¸¾": 2119,
      "äººåĳĺ": 2120,
      "è¯ļ": 2121,
      "åĲĹ": 2122,
      "éĿł": 2123,
      "Ġ(": 2124,
      "å¥ı": 2125,
      "ç¤¾äº¤": 2126,
      "æķ´ä¸ª": 2127,
      "æ¬¢": 2128,
      "åįģ": 2129,
      "ava": 2130,
      "ç´łè´¨": 2131,
      "çĲĨå¿µ": 2132,
      "çļĦæ³": 2133,
      "åıįæĺł": 2134,
      "åĴĮç¤¾ä¼ļ": 2135,
      "æ·»": 2136,
      "èµ·æĿ¥": 2137,
      "åĽ¾åĥı": 2138,
      "äººç±»": 2139,
      "çļĦæĦı": 2140,
      "å®ŀä¾ĭ": 2141,
      "us": 2142,
      "æ´ģ": 2143,
      "æ²ŁéĢļ": 2144,
      "å¹´è½»": 2145,
      "éĵ¾": 2146,
      "å°Ĭéĩį": 2147,
      "ç¤¾åĮº": 2148,
      "çļĦç²": 2149,
      "ãĢĤä»¥ä¸ĭæĺ¯ä¸ĢäºĽ": 2150,
      "ï¼Įä¸Ģä¸ª": 2151,
      "éĢģ": 2152,
      "Ġt": 2153,
      "åľ°ä½į": 2154,
      "çĹĩ": 2155,
      "åħĪçĶŁ": 2156,
      "ol": 2157,
      "èī¯å¥½çļĦ": 2158,
      "èĥ½åĬĽåĴĮ": 2159,
      "éĹª": 2160,
      "ç½ĳç«Ļ": 2161,
      "æĪĳä»¬çļĦ": 2162,
      "çī©çĲĨ": 2163,
      "æ±Ł": 2164,
      "ä¾ĭåŃĲ": 2165,
      "ç®Ĺæ³ķ": 2166,
      "æįŁ": 2167,
      "è®¿éĹ®": 2168,
      "çĹĽ": 2169,
      "éĿ¢ä¸´": 2170,
      "éĥ½æĺ¯": 2171,
      "æĭ¥": 2172,
      "åŃ¦çĶŁçļĦ": 2173,
      "ä¸Ŀ": 2174,
      "ä¹¦ç±į": 2175,
      "æĻļ": 2176,
      "å¢¨": 2177,
      "çľŁæŃ£": 2178,
      "ãĢĤèĢĮ": 2179,
      "çĶļ": 2180,
      "åĿĩ": 2181,
      "å£°éŁ³": 2182,
      "ï¼Įå¦Ĥæŀľ": 2183,
      "æ¿Ģåıĳ": 2184,
      "åı«": 2185,
      "åľ¨è¿Ļ": 2186,
      "è´Łè´£": 2187,
      "çĶ±äºİ": 2188,
      "éĩĩçĶ¨": 2189,
      "ht": 2190,
      "ï¼Įåĩıå°ĳ": 2191,
      "éľĩ": 2192,
      "æŃ¦": 2193,
      "âĢĿï¼Į": 2194,
      "æľºæŀĦ": 2195,
      "é«ĺçļĦ": 2196,
      "**ï¼ļĊĊ": 2197,
      "å±ķçİ°": 2198,
      "çĸ¾çĹħ": 2199,
      "ĠC": 2200,
      "æīĭæľº": 2201,
      "åŃ¦ä¹łåĴĮ": 2202,
      "éĢĴ": 2203,
      "æľªæĿ¥çļĦ": 2204,
      "æĪĺæĸĹ": 2205,
      "ä¹ĭä¸Ģ": 2206,
      "ä¸įä»ħä»ħæĺ¯": 2207,
      "è¯´éģĵ": 2208,
      "åĬĽåĴĮ": 2209,
      "è¾ĵåħ¥": 2210,
      "åĮºåŁŁ": 2211,
      "ï¼ĮæıĲåįĩ": 2212,
      "åķĨä¸ļ": 2213,
      "çĶļèĩ³": 2214,
      "åºķ": 2215,
      "----": 2216,
      "äºļ": 2217,
      "éķľ": 2218,
      "å±ħæ°ĳ": 2219,
      "é¾Ļ": 2220,
      "è½©": 2221,
      "±ä¹Ĳ": 2222,
      "Ġf": 2223,
      "æĿŁ": 2224,
      "ä»·æł¼": 2225,
      "åģļåĩº": 2226,
      "å¹¶ä¸į": 2227,
      "èĩ³åħ³éĩįè¦ģ": 2228,
      "éĹ»": 2229,
      "çļĦç¤¾": 2230,
      "çķĻ": 2231,
      "åį«": 2232,
      "ãĢĤè¿Ļä¸Ģ": 2233,
      "æķĻå¸Ī": 2234,
      "åĴĮæĸĩåĮĸ": 2235,
      "ä¸½": 2236,
      "ãĢĤå¦Ĥæŀľ": 2237,
      "åĮ»åŃ¦": 2238,
      "åĶ®": 2239,
      "éŁ": 2240,
      "åĿĲ": 2241,
      "æĥĬ": 2242,
      "åĿļå®ŀ": 2243,
      "ä¸įä»ħæĺ¯": 2244,
      "ç¦ı": 2245,
      "æĸĩæľ¬": 2246,
      "æİ¥ä¸ĭæĿ¥": 2247,
      "ãĢĤæĪĳä»¬": 2248,
      "æī¹": 2249,
      "éĺµ": 2250,
      "èĦļ": 2251,
      "è±Ĩ": 2252,
      "å®£": 2253,
      "ä»Ĭ": 2254,
      "åºĬ": 2255,
      "åıĤæķ°": 2256,
      "çļĦå®īåħ¨": 2257,
      "ç³ĸ": 2258,
      "èģĶç³»": 2259,
      "çļ®": 2260,
      "åı¦": 2261,
      "éĢĶ": 2262,
      "æĢ§çļĦ": 2263,
      "èĢĥè¯ķ": 2264,
      "æī¾åĪ°äºĨ": 2265,
      "è¿·": 2266,
      "å®Ĺ": 2267,
      "ç¹ģ": 2268,
      "æķ£": 2269,
      "éľ²": 2270,
      "ï¼Įçľ¼": 2271,
      "åĬ³": 2272,
      "çļĦç¬": 2273,
      "ï¼Įä¹Łä¸º": 2274,
      "é¦Ī": 2275,
      "æııè¿°": 2276,
      "çĽ®çļĦ": 2277,
      "å¹³è¡¡": 2278,
      "éĶĻè¯¯": 2279,
      "èµĸ": 2280,
      "èĮĥåĽ´": 2281,
      "çļĦæµ": 2282,
      "éªĮè¯ģ": 2283,
      "å®½": 2284,
      "è®¤ä¸º": 2285,
      "çģµæ´»": 2286,
      "æĽ´æĸ°": 2287,
      "æĢĿæĥ³": 2288,
      "åģĩ": 2289,
      "çĶ·": 2290,
      "å¼ĥ": 2291,
      "ï¼ĮæĪĳä»¬å°Ĩ": 2292,
      "ðŁĮ": 2293,
      "ä½³": 2294,
      "å¤ľ": 2295,
      "å°¤åħ¶": 2296,
      "è´Ńä¹°": 2297,
      "çº·": 2298,
      "ä¸įä»ħèĥ½å¤Ł": 2299,
      "éĴŁ": 2300,
      "éĩĩåıĸ": 2301,
      "è¯¾ç¨ĭåįķåħĥ": 2302,
      "ãĢĤä»¥ä¸ĭæĺ¯": 2303,
      "ç²ī": 2304,
      "åıįé¦Ī": 2305,
      "åħħåĪĨ": 2306,
      "æľįåĬ¡åĻ¨": 2307,
      "ç»ª": 2308,
      "ä¼łè¾ĵ": 2309,
      "æĺ¾ç¤º": 2310,
      "ub": 2311,
      "èģļ": 2312,
      "çļĦéĹ®é¢ĺ": 2313,
      "âĢĶâĢĶ": 2314,
      "åĬ¨æĢģ": 2315,
      "è´¥": 2316,
      "å¾ĹåĪ°": 2317,
      "åŃĹç¬¦": 2318,
      "å¨ģ": 2319,
      "è¸": 2320,
      "æµ©": 2321,
      "èĻļ": 2322,
      "çİī": 2323,
      "å¥ĭ": 2324,
      "æ¯į": 2325,
      "çĽĳæİ§": 2326,
      "Â·": 2327,
      "ç¼©": 2328,
      "èª": 2329,
      "åĬłåħ¥": 2330,
      "å¿Ĩ": 2331,
      "çļĦçº": 2332,
      "ate": 2333,
      "ãĢĤæĪĳ": 2334,
      "åħ°": 2335,
      "å®ŀæĸ½": 2336,
      "éĩįæĸ°": 2337,
      "æ´ŀ": 2338,
      "ï¼Įä»ĸçļĦ": 2339,
      "èģĮä¸ļçĶŁæ¶¯": 2340,
      "é£Łçī©": 2341,
      "å½ĵåľ°": 2342,
      "ç¿¼": 2343,
      "ä¸Ģä½į": 2344,
      "æķ°åŃ¦": 2345,
      "ew": 2346,
      "ç¡¬": 2347,
      "è·¨": 2348,
      "çĶŁåĳ½": 2349,
      "éĢ»": 2350,
      "åĨĮ": 2351,
      "é¢Ŀ": 2352,
      "å°ıæĺİ": 2353,
      "åıįåºĶ": 2354,
      "çĩ": 2355,
      "ç»ĨèĬĤ": 2356,
      "å®ŀéĻħåºĶçĶ¨": 2357,
      "ot": 2358,
      "æĥ¯": 2359,
      "çļĦçĲĨè§£": 2360,
      "åĨħéĥ¨": 2361,
      "ï¼Īå¦Ĥ": 2362,
      "åĲĪéĢĤçļĦ": 2363,
      "è¿Ļæ¬¡": 2364,
      "il": 2365,
      "ä¹¡": 2366,
      "éķ¿æľŁ": 2367,
      "æ¶īåıĬ": 2368,
      "çİ¯ä¿Ŀ": 2369,
      "æĮīçħ§": 2370,
      "æ·±åħ¥æİ¢è®¨": 2371,
      "ä¾Ŀèµĸ": 2372,
      "èµı": 2373,
      "åºĦ": 2374,
      "åĨ²çªģ": 2375,
      "å¥½å¥ĩ": 2376,
      "æĹĭ": 2377,
      "æĶ¿æ²»": 2378,
      "æĶ¹è¿Ľ": 2379,
      "ï¼Įæīįèĥ½": 2380,
      "åı¥": 2381,
      "ä½ĵç³»": 2382,
      "çľģ": 2383,
      "èĽĭ": 2384,
      "é¥®é£Ł": 2385,
      "éĻ¶": 2386,
      "å»¶": 2387,
      "åİ¿": 2388,
      "åĮĸçļĦ": 2389,
      "å¼ķè¨Ģ": 2390,
      "åĬ¨åĬĽ": 2391,
      "æ¯Ľ": 2392,
      "çļĦç²¾": 2393,
      "ring": 2394,
      "ï¼ĮæĪĳä»¬éľĢè¦ģ": 2395,
      "ãĢĭä¸Ń": 2396,
      "ðŁĮŁ": 2397,
      "æĬĺ": 2398,
      "å¾ĹåĪ°äºĨ": 2399,
      "å¾ª": 2400,
      "åĨħå¿ĥ": 2401,
      "èªī": 2402,
      "è¯ķåĽ¾": 2403,
      "pt": 2404,
      "äº¬": 2405,
      "è¿¹": 2406,
      "èĮ¶": 2407,
      "èľ": 2408,
      ")Ċ": 2409,
      "çļĦçĥŃ": 2410,
      "éĢ»è¾ĳ": 2411,
      ">Ċ": 2412,
      "è®©ä»ĸ": 2413,
      "é¢Ĩå¯¼": 2414,
      "yth": 2415,
      "ï¼ĮéĢīæĭ©": 2416,
      "åĲİçļĦ": 2417,
      "ç¥¨": 2418,
      "ĠP": 2419,
      "æĢİ": 2420,
      "çļĦæ¦Ĥå¿µ": 2421,
      "ãĢĤä»ĸçļĦ": 2422,
      "åİŁåĽł": 2423,
      "çº³": 2424,
      "åĮ»çĶŁ": 2425,
      "éģĵå¾·": 2426,
      "ython": 2427,
      "ï¼Įä¸ŃåŃ¦çĶŁ": 2428,
      "ï¼Įåıªè¦ģ": 2429,
      "éĢļè¿ĩä»¥ä¸Ĭ": 2430,
      "ä¸ļåĬ¡": 2431,
      "åĪļ": 2432,
      "æĶ¶éĽĨ": 2433,
      "æł¸": 2434,
      "ä¸ªä½ĵ": 2435,
      "ä»Ķ": 2436,
      "Ġre": 2437,
      "St": 2438,
      "æĹ©": 2439,
      "æľ¬ä¹¦": 2440,
      "éħ¸": 2441,
      "èį£": 2442,
      "è¿Ľåħ¥": 2443,
      "ç´łåħ»": 2444,
      "ext": 2445,
      "ä¼¤": 2446,
      "éģĵè·¯": 2447,
      "ĊĊĊĊ": 2448,
      "æĶ¹åĸĦ": 2449,
      "ħåĬĽ": 2450,
      "åİŁåĪĻ": 2451,
      "èĵ": 2452,
      "æ·»åĬł": 2453,
      "ï¼ĮæĪĲä¸º": 2454,
      "çļĦçŁ¥": 2455,
      "åı¯æĮģç»Ń": 2456,
      "å½¢è±¡": 2457,
      "å¸ĥå±Ģ": 2458,
      "è§£åĨ³æĸ¹æ¡Ī": 2459,
      "æĤ£èĢħ": 2460,
      "åĢŁ": 2461,
      "åĮħåĲ«": 2462,
      "è§Ĥä¼Ĺ": 2463,
      "çļĦåħ´è¶£": 2464,
      "æĽ¾": 2465,
      "Ġm": 2466,
      "äººæ°ĳ": 2467,
      "æĪĲç»©": 2468,
      "åı¯ä»¥åľ¨": 2469,
      "åĮ»çĸĹ": 2470,
      "ï¼Įè¿Ļä¸ª": 2471,
      "å³°": 2472,
      "æ¡Īä¾ĭåĪĨæŀĲ": 2473,
      "em": 2474,
      "if": 2475,
      "çĦ¦": 2476,
      "åıĤèĢĥ": 2477,
      "ä¸¤ä¸ª": 2478,
      "æĭ¥æľī": 2479,
      "åĬ¨çĶ»": 2480,
      "æĦ¿": 2481,
      "ä»Ķç»Ĩ": 2482,
      "ay": 2483,
      "è¡¨æ¼Ķ": 2484,
      "å±ı": 2485,
      "åĳĬè¯ī": 2486,
      "å®Ŀè´µ": 2487,
      "çļĦå°ı": 2488,
      "æĶ¹åıĺ": 2489,
      "ç¿»": 2490,
      "å±ķç¤ºäºĨ": 2491,
      "éĻĦ": 2492,
      "ç§ĳçłĶ": 2493,
      "ç´§å¼ł": 2494,
      "çļĦæĬĢæľ¯": 2495,
      "èį¯çī©": 2496,
      "ĠA": 2497,
      "ç§Ģ": 2498,
      "çº¸": 2499,
      "ç»¿": 2500,
      "ç¼ĸåĨĻ": 2501,
      "ä»ĸäºº": 2502,
      "çļĦæĸĩåĮĸ": 2503,
      "ç½Ĺ": 2504,
      "æīĭæ®µ": 2505,
      "æĹ¥æľ¬": 2506,
      "è§£åĨ³éĹ®é¢ĺ": 2507,
      "æĪĺæľ¯": 2508,
      "ä¸ºä»Ģä¹Ī": 2509,
      "éĺ»": 2510,
      "éĶģ": 2511,
      "è®¾å®ļ": 2512,
      "¤Ĳ": 2513,
      "è¯·æ±Ĥ": 2514,
      "ä¸įèĥ½": 2515,
      "æĸĩåŃĹ": 2516,
      "ç»ıæµİåıĳå±ķ": 2517,
      "ãĢĤæ¯ı": 2518,
      "ï¼Įè¿Ļç§į": 2519,
      "éĩĳèŀį": 2520,
      "å®ŀæĹ¶": 2521,
      "ä½łä»¬": 2522,
      "çļĦçľŁ": 2523,
      "åįł": 2524,
      "éĤ®": 2525,
      "æ£Ģæµĭ": 2526,
      "Ġ|": 2527,
      "åľ¨äºİ": 2528,
      "å·´": 2529,
      "çī©è´¨": 2530,
      "åĵĪ": 2531,
      "ãĢĤè¿Ļä¸ª": 2532,
      "ï¼Įå½ĵ": 2533,
      "ä»°": 2534,
      "ãĢĤåĽłæŃ¤": 2535,
      "ï¼Įä½Ĩä»ĸ": 2536,
      "å°½ç®¡": 2537,
      "ï¼Įä¸įæĸŃ": 2538,
      "åĮĸåŃ¦": 2539,
      "åĿĢ": 2540,
      "å¼ķèµ·": 2541,
      "è±¡å¾ģ": 2542,
      "åĽ°å¢ĥ": 2543,
      "éº": 2544,
      "æķı": 2545,
      "å·ŀ": 2546,
      "å°ģ": 2547,
      "å·®å¼Ĥ": 2548,
      "æ¯Ĵ": 2549,
      "ä¹ĭåīį": 2550,
      "å°¼": 2551,
      "æĪĺäºī": 2552,
      "Ġ//": 2553,
      "çļĦæķ°æį®": 2554,
      "å¾Ģå¾Ģ": 2555,
      "åĳ³çĿĢ": 2556,
      "çľŁçļĦ": 2557,
      "ĠĠĊ": 2558,
      "ç¯ĩ": 2559,
      "ig": 2560,
      "èĸ": 2561,
      "çļĦè®¾è®¡": 2562,
      "ä»»ä½ķ": 2563,
      "å¼ĢåıĳèĢħ": 2564,
      "łéģĵ": 2565,
      "ä»į": 2566,
      "æĮĩå¯¼": 2567,
      "é¢ĦæľŁ": 2568,
      "um": 2569,
      "æŀĦå»º": 2570,
      "ï¼ĮéĤ£": 2571,
      "ï¼Įå¿ĥä¸Ńåħħæ»¡äºĨ": 2572,
      "æĦıåĳ³çĿĢ": 2573,
      "çĽ¸å¯¹": 2574,
      "åĨľæĿĳ": 2575,
      "åģľ": 2576,
      "ä»¥ä¸ĭåĩłä¸ª": 2577,
      "åħ·æľīéĩįè¦ģ": 2578,
      "è§Ĩè§ī": 2579,
      "ï¼ĮåŁ¹åħ»": 2580,
      "ï¼ĮåĽłä¸º": 2581,
      "è®¢": 2582,
      "åĳ¢": 2583,
      "éĵ¶": 2584,
      "ame": 2585,
      "ï¼Įåħ±åĲĮ": 2586,
      "éĺ²æŃ¢": 2587,
      "ç¤¼": 2588,
      "ä¹¦æ³ķ": 2589,
      "çļĦåŁºæľ¬æ¦Ĥå¿µ": 2590,
      "æľĿ": 2591,
      "åıįæĺłäºĨ": 2592,
      "åľ°æĸ¹": 2593,
      "âĨĴâĨĴâĨĴâĨĴâĨĴâĨĴâĨĴâĨĴ": 2594,
      "å·¥ä¸ļ": 2595,
      "æīĵå¼Ģ": 2596,
      "äº§çĶŁäºĨ": 2597,
      "ï¼Įå°¤åħ¶": 2598,
      "æķĮ": 2599,
      "å¯¹è±¡": 2600,
      "æľ¬æķĻç¨ĭ": 2601,
      "è°ĥæŁ¥": 2602,
      "çĻ»": 2603,
      "åı¤èĢģ": 2604,
      "ç»ĵè®º": 2605,
      "æ¦Ĥ": 2606,
      "çļĦä¸»è¦ģ": 2607,
      "åŃ£": 2608,
      "æ´ĭ": 2609,
      "é¢Ħæµĭ": 2610,
      "ä»¿ä½Ľ": 2611,
      "æķ¢": 2612,
      "æ³½": 2613,
      "è§ĦèĮĥ": 2614,
      "è´§": 2615,
      "ul": 2616,
      "æĢİä¹Ī": 2617,
      "Ġ```": 2618,
      "æ¬£": 2619,
      "ï¼ŁĊĊ": 2620,
      "å¡ĳ": 2621,
      "ä¼ļè®®": 2622,
      "æĥĳ": 2623,
      "çĤ¼": 2624,
      "çļĦæķĻèĤ²": 2625,
      "çĽĺ": 2626,
      "æ¨¡åĿĹ": 2627,
      "é©¶": 2628,
      "è®ºæĸĩ": 2629,
      "ind": 2630,
      "éĩİ": 2631,
      "çļĦæı": 2632,
      "act": 2633,
      "è¯Ĭ": 2634,
      "çļĦç¾": 2635,
      "è¿ĲèĲ¥": 2636,
      "å°±æĺ¯": 2637,
      "æį·": 2638,
      "åĬłå¼º": 2639,
      "ab": 2640,
      "æĹ¢": 2641,
      "å¤įæĿĤçļĦ": 2642,
      "è½¬æį¢": 2643,
      "æł¸å¿ĥ": 2644,
      "ock": 2645,
      "ä¸ĩ": 2646,
      "æĤ¨çļĦ": 2647,
      "ç©¿": 2648,
      "è·Ŀ": 2649,
      "é¡ºåĪ©": 2650,
      ".c": 2651,
      "ĠæĢ»ç»ĵ": 2652,
      "æĬĬ": 2653,
      "éĹ®éģĵ": 2654,
      "çļĦç¤¾ä¼ļ": 2655,
      "æĢĢ": 2656,
      "çī¹æĢ§": 2657,
      "åĪ¶åº¦": 2658,
      "å°¾": 2659,
      "ç¬¦åĲĪ": 2660,
      "ðŁĮŁðŁĮŁ": 2661,
      "é²ľ": 2662,
      "èŃ": 2663,
      "é©¾": 2664,
      "èŃ¦": 2665,
      "ä¿¡ä»°": 2666,
      "çªĹ": 2667,
      "å¾Īå¤ļ": 2668,
      "çļĦæĮĩ": 2669,
      "ä¹Łæĺ¯": 2670,
      "çŁ¿": 2671,
      "èķ": 2672,
      "åħŃ": 2673,
      "########": 2674,
      "åĨħæ¶µ": 2675,
      "ï¼Įä»¥ä¾¿": 2676,
      "èģĶç½ĳ": 2677,
      "åĽ¢éĺŁåĲĪä½ľ": 2678,
      "Web": 2679,
      "se": 2680,
      "æµģç¨ĭ": 2681,
      "çļĦçŁ¥è¯Ĩ": 2682,
      "âĢĿçļĦ": 2683,
      "åĳ¼": 2684,
      "é¥°": 2685,
      "éģµ": 2686,
      "æ¡£": 2687,
      "ä¹łæĥ¯": 2688,
      "ç®ĢåįķçļĦ": 2689,
      "ãĢĤä½Ĩ": 2690,
      "ç¤ºä¾ĭ": 2691,
      "å®ĹæķĻ": 2692,
      "çļĦä¸Ģä¸ª": 2693,
      "åĨ³å¿ĥ": 2694,
      "éĽ¨": 2695,
      "ç§»åĬ¨": 2696,
      "åı¯éĿł": 2697,
      "è¿İ": 2698,
      "çĶ²": 2699,
      "ä¼Ł": 2700,
      "æ±ĩ": 2701,
      "å¼ºè°ĥ": 2702,
      "éĻ·": 2703,
      "è§ĤçĤ¹": 2704,
      "ç§ģ": 2705,
      "æĶ¾å¼ĥ": 2706,
      "åķĨåĬ¡": 2707,
      "æĲľ": 2708,
      "çĪ¶": 2709,
      "æıĲåĩº": 2710,
      "å®£ä¼ł": 2711,
      "äººçī©": 2712,
      "å®ŀçĶ¨": 2713,
      "ãĢĤä»ĸåĨ³å®ļ": 2714,
      "åłĤ": 2715,
      "ï¼ĮçĶļèĩ³": 2716,
      "çļĦåĬĽéĩı": 2717,
      "çİ¯èĬĤ": 2718,
      "å°ıè¯´": 2719,
      "ï¼ĮèĢĮæĺ¯": 2720,
      "ï¼Įéĥ½": 2721,
      "çļĦæĹ¶éĹ´": 2722,
      "æ®Ĭ": 2723,
      "æĪĲåĪĨ": 2724,
      "æ¥¼": 2725,
      "ï¼Įä¾ĭå¦Ĥ": 2726,
      "ĠD": 2727,
      "è½´": 2728,
      "æľ¬æĸĩ": 2729,
      "èĢģå¸Ī": 2730,
      "çļĦæĶ¯": 2731,
      "ç»ĦæĪĲéĥ¨åĪĨ": 2732,
      "Ġå¼ķè¨Ģ": 2733,
      "çĶŁæĪĲ": 2734,
      "éĢĤçĶ¨äºİ": 2735,
      "ï¼Įä½łåı¯ä»¥": 2736,
      "æ²Ļ": 2737,
      "ä¹ħ": 2738,
      "ç§įæ¤į": 2739,
      "æĦŁåıĹ": 2740,
      "åĿı": 2741,
      "çĲĥéĺŁ": 2742,
      "æ°¸": 2743,
      "æľīæķĪåľ°": 2744,
      "¦Ĩ": 2745,
      "å¥ĸ": 2746,
      "æ¶²": 2747,
      "åľ¨çº¿": 2748,
      "ä¸įæĺ¯": 2749,
      "çĶµèĦĳ": 2750,
      "¢å¤į": 2751,
      "ä¸²": 2752,
      "åĴĮè°": 2753,
      "å¯º": 2754,
      "çī¹æ®Ĭ": 2755,
      "è§ĦåĪĻ": 2756,
      "æļĹ": 2757,
      "éĺ´": 2758,
      "çļĦç®": 2759,
      "æĸĩåĮĸçļĦ": 2760,
      "çĬ¶åĨµ": 2761,
      "åĨĻä½ľ": 2762,
      "è·³": 2763,
      "è¶ĭ": 2764,
      "èĭı": 2765,
      "ĠT": 2766,
      "åĴĮåºĶçĶ¨": 2767,
      "æķ¬": 2768,
      "åĲĮæł·": 2769,
      "çī¹èī²": 2770,
      "Ġ+": 2771,
      "ĠM": 2772,
      "åĭĩæ°Ķ": 2773,
      "èĶ": 2774,
      "ï¼Įä¸İ": 2775,
      "ï¼Įåį³": 2776,
      "çļĦç½": 2777,
      "èģĮä¸ļåıĳå±ķ": 2778,
      "éĢĲæŃ¥": 2779,
      "åĬ¨ä½ľ": 2780,
      "æķ°éĩı": 2781,
      "å¯Ĩçłģ": 2782,
      "çļĦä½ľçĶ¨": 2783,
      "æıĲé«ĺäºĨ": 2784,
      "æłĩé¢ĺ": 2785,
      "çļĦé«ĺ": 2786,
      "ation": 2787,
      "ä¸¤äºº": 2788,
      "and": 2789,
      "æĬ¥åĳĬ": 2790,
      "çļĦæĺ¯": 2791,
      "æ±½": 2792,
      "çĸ«": 2793,
      "lic": 2794,
      "å´": 2795,
      "ĠI": 2796,
      "ç»ĵæĿŁ": 2797,
      "çļĦéľĢæ±Ĥ": 2798,
      "å¯¹è¯Ŀ": 2799,
      "ä¿¡ä»»": 2800,
      "çİ¯å¢ĥä¸Ń": 2801,
      "éĺ²æ²»": 2802,
      "æĿ¥æºĲ": 2803,
      "æĸ°éĹ»": 2804,
      "å¢ŀéķ¿": 2805,
      "æĩ": 2806,
      "ï¼ļ**ĊĊ": 2807,
      "å¥ł": 2808,
      "åĪ¶éĢł": 2809,
      "åĶ±": 2810,
      "Java": 2811,
      "ï¼Įå¢ŀå¼º": 2812,
      "çļĦèĥ½åĬĽ": 2813,
      "æķĳ": 2814,
      "è¯Ħä»·": 2815,
      "éŃĶ": 2816,
      "¹é¥": 2817,
      "ï¼Įè¦ģ": 2818,
      "ï¼Įçī¹åĪ«": 2819,
      "¹é¥ª": 2820,
      "å·¥èīº": 2821,
      "é¤Ĳ": 2822,
      "å®«": 2823,
      "æĭĵ": 2824,
      "ä¿¡å¿µ": 2825,
      "å¥Ĺ": 2826,
      "ï¼ĮæĿİæĺİ": 2827,
      "çĭ¬ç«ĭ": 2828,
      "ä¸¥éĩį": 2829,
      "éļĲèĹı": 2830,
      "æħ¢": 2831,
      "éĢĢ": 2832,
      "æ·±åħ¥çłĶç©¶": 2833,
      "åĪĨä¸º": 2834,
      "è¾ĵåĩº": 2835,
      "ow": 2836,
      "ï¼Įåħ·æľī": 2837,
      "è°Ī": 2838,
      "ç¬¦åı·": 2839,
      "ä½ĵçİ°äºĨ": 2840,
      "ç»Ħä»¶": 2841,
      "é½": 2842,
      "ä¸įè¶³": 2843,
      "æĶ»åĩ»": 2844,
      "ãĢĤå¯¹äºİ": 2845,
      "æİ¨å¹¿": 2846,
      "è¶ĭåĬ¿": 2847,
      "å¥łå®ļ": 2848,
      "è§Ĵåº¦": 2849,
      "åĨĽäºĭ": 2850,
      "æ¶Īè´¹èĢħ": 2851,
      "å¼±": 2852,
      "çĬ¯": 2853,
      "æ·±è¿ľ": 2854,
      "æ¶¦": 2855,
      "æķħéļľ": 2856,
      "ĠæŃ¥éª¤": 2857,
      "æĻ°": 2858,
      "æĹ¶ä»£": 2859,
      "æ»ĳ": 2860,
      "ä¸ªæĢ§": 2861,
      "ç¨İ": 2862,
      "he": 2863,
      "ï¼ļĊ": 2864,
      "æ´²": 2865,
      "æģ¢å¤į": 2866,
      "ort": 2867,
      "åħĭæľį": 2868,
      "çĺ": 2869,
      "age": 2870,
      "åı¯æĮģç»Ńåıĳå±ķ": 2871,
      "å¸ģ": 2872,
      "äººçĶŁ": 2873,
      "ï¼īï¼Į": 2874,
      "åĬ¨çī©": 2875,
      "çļĦç«": 2876,
      "çĤİ": 2877,
      "æĢģåº¦": 2878,
      "æ¿ĢåĬ±": 2879,
      "æī°": 2880,
      "äº¤æĺĵ": 2881,
      "æ¢°": 2882,
      "å¿ħè¦ģ": 2883,
      "çĵ·": 2884,
      "åħ¶åľ¨": 2885,
      "ä¼łéĢĴ": 2886,
      "çļĦæ¸¸": 2887,
      "ä¸ºä¾ĭ": 2888,
      "ç´¯": 2889,
      "è·Ł": 2890,
      "çļĦæĦŁ": 2891,
      "æıŃç¤º": 2892,
      "å¹ķ": 2893,
      "åĵª": 2894,
      "å¼ķå¯¼": 2895,
      "æ£®": 2896,
      "éħĴåºĹ": 2897,
      "é¹": 2898,
      "æĹ¶åĢĻ": 2899,
      "è¾Ĩ": 2900,
      "èĤ©": 2901,
      "ä¸ŃçļĦéĩįè¦ģ": 2902,
      "æľŁå¾ħ": 2903,
      "çļĦç¾İ": 2904,
      "ä½ĽæķĻ": 2905,
      "çļĦæīĭ": 2906,
      "åĴĮè°Ĳ": 2907,
      "ï¼Įåıĳçİ°": 2908,
      "ï¼ĮçĶ¨äºİ": 2909,
      "åģı": 2910,
      "çļĦæĻº": 2911,
      "æĿ°": 2912,
      "åĲĮåŃ¦": 2913,
      "å®īæİĴ": 2914,
      "ä¼ĺç§Ģ": 2915,
      "æ®ĸ": 2916,
      "Ġç¬¬äºĮ": 2917,
      "çıį": 2918,
      "æ¹¿": 2919,
      "åħ´å¥ĭ": 2920,
      "åĺ": 2921,
      "ï¼Įä¿ĥè¿Ľ": 2922,
      "åĨĴ": 2923,
      "ont": 2924,
      "ï¼Įåıªæľī": 2925,
      "çŃīæĸ¹éĿ¢": 2926,
      "è®°å¿Ĩ": 2927,
      "ä¼ĳ": 2928,
      "åĪĨéħį": 2929,
      "åĩºèī²": 2930,
      "éĶĢåĶ®": 2931,
      "ï¼ĮçĶ¨": 2932,
      "åĴĮæĮĳæĪĺ": 2933,
      "çļĦç½ĳ": 2934,
      "å¥¥": 2935,
      "çĽ¸äºĴ": 2936,
      "é¢Ħéĺ²": 2937,
      "ç¨³å®ļæĢ§": 2938,
      "çļĦæ¢": 2939,
      "æ··": 2940,
      "è¾¾åĪ°": 2941,
      "èĽĭçĻ½": 2942,
      "ä¸ŃéĹª": 2943,
      "ä¼´": 2944,
      "æĺ¯çļĦ": 2945,
      "çİ°åľ¨": 2946,
      "åıĸå¾ĹäºĨ": 2947,
      "æĲľç´¢": 2948,
      "éŃħåĬĽ": 2949,
      "è¡Ĺ": 2950,
      "å¹ħ": 2951,
      "æĸĩçĮ®": 2952,
      "æĥħç»ª": 2953,
      "æ¡Ĩ": 2954,
      "å½¢æĢģ": 2955,
      "åı£æ°Ķ": 2956,
      "ä½ĵçİ°åľ¨": 2957,
      "çļĦçĪ": 2958,
      "ä¸»ä¹ī": 2959,
      "æĦŁåĴĮ": 2960,
      "è·¯å¾Ħ": 2961,
      "ĠR": 2962,
      "å®ģ": 2963,
      "èĩªçĶ±": 2964,
      "æ°§": 2965,
      "åĩĢ": 2966,
      "æ¸ħæĻ°": 2967,
      "ver": 2968,
      "Ġ```ĊĊ": 2969,
      "çĽ¸åºĶ": 2970,
      "åħ«": 2971,
      "å®¹æĺĵ": 2972,
      "å²Ľ": 2973,
      "åĵ²": 2974,
      "Ġd": 2975,
      "çĿ£": 2976,
      "ï¼Įå¯¼èĩ´": 2977,
      "è°ĥçĶ¨": 2978,
      "æİ¥åıĹ": 2979,
      "ï¼Įå¹¶åľ¨": 2980,
      "cri": 2981,
      "è¹": 2982,
      "å§Ķ": 2983,
      "åĨįæ¬¡": 2984,
      "å¿½": 2985,
      "çļĦçĹ": 2986,
      "ï¼Įä¿ĿæĮģ": 2987,
      "ä¼¼ä¹İ": 2988,
      "å¸¸è§ģçļĦ": 2989,
      "æĪĸèĢħ": 2990,
      "å¼ºå¤§çļĦ": 2991,
      "ï¼Įä¹Łæĺ¯": 2992,
      "ï¼ĮæĹłè®º": 2993,
      "åħ¬åħ±": 2994,
      "æ·±åħ¥äºĨè§£": 2995,
      "é©¾é©¶": 2996,
      "çļĦè¿ĩç¨ĭ": 2997,
      "å¿ĥæĢģ": 2998,
      "èĦı": 2999,
      "ï¼Įå®ĥä»¬": 3000,
      "æµĵ": 3001,
      "èĢĲå¿ĥ": 3002,
      "Ġb": 3003,
      "ç½ª": 3004,
      "çĶ°": 3005,
      "çĶŁç´ł": 3006,
      "çļĦç¼": 3007,
      "çķĮéĿ¢": 3008,
      "åįıè®®": 3009,
      "ıè§Ī": 3010,
      "çļĦåĨħå®¹": 3011,
      "æ°ĳæĹı": 3012,
      "é¢Ħç®Ĺ": 3013,
      "ode": 3014,
      "ãĢĤå¸ĮæľĽ": 3015,
      "å¤±è´¥": 3016,
      "ĠæķĻç¨ĭ": 3017,
      "æľ«": 3018,
      "çļĦçģ": 3019,
      "åŁºäºİ": 3020,
      "èµĦéĩĳ": 3021,
      "æĿĳæ°ĳ": 3022,
      "è®¤è¯ĨåĪ°": 3023,
      "è°ľ": 3024,
      "ce": 3025,
      "æŁ¥è¯¢": 3026,
      "Ġ}Ċ": 3027,
      "çļĦåĬªåĬĽ": 3028,
      "æľīäºĨ": 3029,
      "çīĪæľ¬": 3030,
      "ä¸įä¼ļ": 3031,
      "æģ¶": 3032,
      "å°±ä¸ļ": 3033,
      "çĪ·": 3034,
      "æīĵä¸ĭ": 3035,
      "åĭĩæķ¢": 3036,
      "æī©å±ķ": 3037,
      "åĴĮç®¡çĲĨ": 3038,
      "åĲĦä¸ª": 3039,
      "æĶ¯ä»ĺ": 3040,
      "æŁĲäºĽ": 3041,
      "ä¸įä»ħæľīåĬ©äºİ": 3042,
      "å¥½çļĦ": 3043,
      "è¯´æĺİ": 3044,
      "æĬĢæľ¯çļĦ": 3045,
      "çļĦåħī": 3046,
      "åĬłå·¥": 3047,
      "æ·±çŁ¥": 3048,
      "éĥ½ä¼ļ": 3049,
      "ä»·åĢ¼è§Ĥ": 3050,
      "çıŃ": 3051,
      "è´¢åĬ¡": 3052,
      "Ġv": 3053,
      "å®ŀéªĮå®¤": 3054,
      "¨è¯¢": 3055,
      "ï¼ĮçĶ¨æĪ·": 3056,
      "åĴ¨è¯¢": 3057,
      "åħ¥äºĨ": 3058,
      "éĿ©åĳ½": 3059,
      "ç§¯æŀģåıĤä¸İ": 3060,
      "è¦Ĩ": 3061,
      "åŃ¦éĻ¢": 3062,
      "åıĺéĩı": 3063,
      "æľĢä½³": 3064,
      "ï¼Įè¯ķåĽ¾": 3065,
      "çļĦå®ļä¹ī": 3066,
      "å¯¹æīĭ": 3067,
      "å¤§å°ı": 3068,
      "Ġç¬¬ä¸ī": 3069,
      "ud": 3070,
      "éĢ¸": 3071,
      "æĿİæĻĵ": 3072,
      "åħ¶ä¸Ń": 3073,
      "åįıä½ľ": 3074,
      "æ¢¦æĥ³": 3075,
      "cript": 3076,
      "çĶ³": 3077,
      "æĥħèĬĤ": 3078,
      "åĨħåŃĺ": 3079,
      "åŃ¦ä¼ļäºĨ": 3080,
      "ä»ĸåľ¨": 3081,
      "èĩªèº«": 3082,
      "è¿ĲåĬ¨åĳĺ": 3083,
      "äºĭä¸ļ": 3084,
      "ï¼ĮæĽ´æĺ¯ä¸Ģç§į": 3085,
      "åĵģè´¨": 3086,
      "ï¼Įä»¥ç¡®ä¿Ŀ": 3087,
      "ä¿¡å¿ĥ": 3088,
      "æģĲ": 3089,
      "æħ¨": 3090,
      "è¿Ľè¡ĮäºĨ": 3091,
      "å¼Ĥå¸¸": 3092,
      "ass": 3093,
      "ess": 3094,
      "å¸¦æĿ¥äºĨ": 3095,
      "èĴ¸": 3096,
      "çļĦæ¢¦": 3097,
      "åĪ°çļĦ": 3098,
      "ç¤¾äº¤åªĴä½ĵ": 3099,
      "éĹŃ": 3100,
      "èĬĤçĤ¹": 3101,
      "ä¸ĵæ³¨": 3102,
      "ç»ıèĲ¥": 3103,
      "æĮĩæłĩ": 3104,
      "éģĩåĪ°äºĨ": 3105,
      "ä¾µ": 3106,
      "æ³ķè§Ħ": 3107,
      "å¦Ļ": 3108,
      "å¤§å®¶": 3109,
      "è®©æĪĳä»¬": 3110,
      "çĲĨè§£åĴĮ": 3111,
      "è¯ķéªĮ": 3112,
      "ä¸ŃåŃ¦çĶŁæĿ¥è¯´": 3113,
      "è´Ŀ": 3114,
      "å½Ĵ": 3115,
      "åĲ¯åĬ¨": 3116,
      "è§īå¾Ĺ": 3117,
      "çļĦåħ·ä½ĵ": 3118,
      "çŃ¾": 3119,
      "ç¥Ŀ": 3120,
      "åı¯èĥ½å¯¼èĩ´": 3121,
      "ä¸ĭè½½": 3122,
      "èĬĴ": 3123,
      "åºĶçĶ¨äºİ": 3124,
      "èģĮè´£": 3125,
      "ï¼ĮåŃ¦çĶŁåı¯ä»¥": 3126,
      "èĿ": 3127,
      "æ¯Ķå¦Ĥ": 3128,
      "æĿ¥çļĦ": 3129,
      "æ±ł": 3130,
      "ä»ĸä»¬åľ¨": 3131,
      "å¦Ĥä½ķåľ¨": 3132,
      "äºĭé¡¹": 3133,
      "çľĭåĪ°äºĨ": 3134,
      "æ¸©åº¦": 3135,
      "éĴĪå¯¹": 3136,
      "èµ¢": 3137,
      "åħ¶çĭ¬çī¹çļĦ": 3138,
      "æ¸łéģĵ": 3139,
      "ä¸ĵå®¶": 3140,
      "æ¼«": 3141,
      "ç«Ļåľ¨": 3142,
      "åĿļå®ŀçļĦåŁºç¡Ģ": 3143,
      "çļĦæĶ¯æĮģ": 3144,
      "åĴĮåıĳå±ķ": 3145,
      "åľ°çĲĨ": 3146,
      "è½¦è¾Ĩ": 3147,
      "ä½Ļ": 3148,
      "æµıè§Ī": 3149,
      "å®ŀéĻħæĵįä½ľ": 3150,
      "ç¨ĭåº¦": 3151,
      "éĩıåŃĲ": 3152,
      "éī": 3153,
      "Ġ'": 3154,
      "æī®": 3155,
      "ç¤¾ä¼ļçļĦ": 3156,
      "æŁ¥çľĭ": 3157,
      "åıªæľī": 3158,
      "æĹ¥å¸¸çĶŁæ´»ä¸Ń": 3159,
      "åĴĸ": 3160,
      "åİĤ": 3161,
      "çĶµè¯Ŀ": 3162,
      "èĦ±": 3163,
      "é¸¡": 3164,
      "åºĶçĶ¨ç¨ĭåºı": 3165,
      "è´Ńçī©": 3166,
      "ä¸Ģç³»åĪĹ": 3167,
      "çº¯": 3168,
      "æĶ¶åħ¥": 3169,
      "è½»æĿ¾": 3170,
      "äººéĻħ": 3171,
      "åī¯": 3172,
      "æŃ£å¸¸": 3173,
      "æĳ©": 3174,
      "å°º": 3175,
      "åįĵ": 3176,
      "èĬĤå¥ı": 3177,
      "end": 3178,
      "ĽåĽ´": 3179,
      "ï¼Įä»¿ä½Ľ": 3180,
      "æ¯ıå¤©": 3181,
      "è®¤çŁ¥": 3182,
      "ä¸¥æł¼": 3183,
      "éī´": 3184,
      "ï¼ĮåºĶ": 3185,
      "ï¼Įå¸ĮæľĽ": 3186,
      "æ±¡": 3187,
      "ï¼ĮæŀĹ": 3188,
      "ï¼Įå½¢æĪĲ": 3189,
      "åħµ": 3190,
      "èĥ¶": 3191,
      "æĪĳåĽ½": 3192,
      "çľŁå®ŀ": 3193,
      "çļĦæĥħåĨµ": 3194,
      "æ±½è½¦": 3195,
      "OS": 3196,
      "ect": 3197,
      "ĠF": 3198,
      "åŃ¦èĢħ": 3199,
      "çļĦæ´": 3200,
      "ãĢĤä»ĸçŁ¥éģĵ": 3201,
      "ç£¨": 3202,
      "çļĦæ¸¸æĪı": 3203,
      "=\"": 3204,
      "ï¼ĮæľĢç»Ī": 3205,
      "åŃĲçļĦ": 3206,
      "çĤ¹åĩ»": 3207,
      "åĵįåºĶ": 3208,
      "å£¤": 3209,
      "æĿ¥è¶Ĭ": 3210,
      "æĦŁæħ¨": 3211,
      "æ·±åº¦": 3212,
      "éĥ¨éĹ¨": 3213,
      "è®©æĪĳ": 3214,
      "æĢ»çļĦ": 3215,
      "åķ¡": 3216,
      "æĸĩæ¡£": 3217,
      "è¶ĬæĿ¥è¶Ĭ": 3218,
      "åĪ¤æĸŃ": 3219,
      "åĴĸåķ¡": 3220,
      "ä¸Ģæł·": 3221,
      "åľ°åĽ¾": 3222,
      "æĸĩç«ł": 3223,
      "åĲįåı«": 3224,
      "èĨľ": 3225,
      "ãĢĤå½ĵ": 3226,
      "èĥ½éĩı": 3227,
      "åĽ½åĨħ": 3228,
      "Ġ\\)": 3229,
      "ĠB": 3230,
      "æ¬§": 3231,
      "è·ĳ": 3232,
      "èµŀ": 3233,
      "èĥ½æºĲ": 3234,
      "åĽ¾ä¹¦": 3235,
      "çļĦä½¿çĶ¨": 3236,
      "ãĢĤä½ł": 3237,
      "æįķ": 3238,
      "åīĳ": 3239,
      "é¡¶": 3240,
      "js": 3241,
      "èĥ½å¤Łåľ¨": 3242,
      "å¦Ĥä½ķéĢļè¿ĩ": 3243,
      "è®°ä½ı": 3244,
      "ä¿®æĶ¹": 3245,
      "åĸľæ¬¢": 3246,
      "çļĦæ¢¦æĥ³": 3247,
      "å®ĭ": 3248,
      "åĲįç§°": 3249,
      "éĺ²å®Ī": 3250,
      "å®ĮåĸĦ": 3251,
      "æĢ»çļĦæĿ¥è¯´": 3252,
      "tp": 3253,
      "åĪº": 3254,
      "åģĩè®¾": 3255,
      "å®Ŀè´µçļĦ": 3256,
      "æĭ¿": 3257,
      "ï¼Įå¯¹äºİ": 3258,
      "ï¼Įæİ¨åĬ¨": 3259,
      "å¸Ŀ": 3260,
      "æŃĮæĽ²": 3261,
      "æ·±åİļ": 3262,
      "èŀįåĲĪ": 3263,
      "çļĦæĦıä¹ī": 3264,
      "ä¸ĢåĲį": 3265,
      "çļĦçĭ": 3266,
      "éĽķ": 3267,
      "è§Ħæ¨¡": 3268,
      "ç«ĭåĪ»": 3269,
      "ä¸ĸçºª": 3270,
      "æ±īåŃĹ": 3271,
      "åĲİç»Ń": 3272,
      "äºĴèģĶç½ĳ": 3273,
      "çĿĽ": 3274,
      "éĻĲåĪ¶": 3275,
      "ç¦ģ": 3276,
      "æĦŁåıĹåĪ°": 3277,
      "èĤĮ": 3278,
      "å½ĵåīį": 3279,
      "æĢ»æĺ¯": 3280,
      "åħ¬åı¸çļĦ": 3281,
      "çļĦæľºä¼ļ": 3282,
      "art": 3283,
      "æī®æ¼Ķ": 3284,
      "èĭ¦": 3285,
      "çļĦæ¯ı": 3286,
      "ï¼ĮåĪĨæŀĲ": 3287,
      "äººæīį": 3288,
      "é«ĺåº¦": 3289,
      "æ»¤": 3290,
      "åħ¬ä¼Ĺ": 3291,
      "é£Łåĵģ": 3292,
      "å¾®çĶŁçī©": 3293,
      "åĴĮå®ŀè·µ": 3294,
      "ä½įäºİ": 3295,
      "ç«ĭåį³": 3296,
      "åľŁå£¤": 3297,
      "âĢĻ": 3298,
      "æľīäºĽ": 3299,
      "è¡¨éĿ¢": 3300,
      "èĪĴ": 3301,
      "åįıè°ĥ": 3302,
      "çļĦåıĺåĮĸ": 3303,
      "æľīéĻĲ": 3304,
      "èī²å½©": 3305,
      "èº«ä»½": 3306,
      "é¸½": 3307,
      "ï¼ĮåĲĮæĹ¶ä¹Ł": 3308,
      "ãĢĤå¼ł": 3309,
      "åħļ": 3310,
      "é¢Ĺ": 3311,
      "çĽĳæµĭ": 3312,
      "æĻ®éĢļ": 3313,
      "æīĺ": 3314,
      "è¡ĮæĶ¿": 3315,
      "ç«¥": 3316,
      "æİ¥æĶ¶": 3317,
      "æĶ¹éĿ©": 3318,
      "ç«ŀäºīåĬĽ": 3319,
      "çļĦä¿¡æģ¯": 3320,
      "æľºåĻ¨": 3321,
      "ï¼Įè¿Ļæ¬¡": 3322,
      "å®Įåħ¨": 3323,
      "app": 3324,
      "ç´«": 3325,
      "æ³¨åĨĮ": 3326,
      "çĥ¹é¥ª": 3327,
      "è¯ĬæĸŃ": 3328,
      "åĨĴéĻ©": 3329,
      "è¦ĨçĽĸ": 3330,
      "æľ¨æĿĲ": 3331,
      "åĨ·éĿĻ": 3332,
      "pp": 3333,
      "åľ¨è¿Ļä¸ª": 3334,
      "Ġst": 3335,
      "çķħ": 3336,
      ",Ċ": 3337,
      "ãĢĤéļıçĿĢ": 3338,
      "éĽ·": 3339,
      "åĽ¾æ¡Ī": 3340,
      "åį±æľº": 3341,
      "ç»Ŀ": 3342,
      "âĢĺ": 3343,
      "å¸¸çĶ¨": 3344,
      "åĢ¾": 3345,
      "çĥģ": 3346,
      "æľīä¸Ģä¸ª": 3347,
      "æĸ¹ä¾¿": 3348,
      "å¤ı": 3349,
      "æĪĺçķ¥": 3350,
      "æŃ£åľ¨": 3351,
      "åİĨç¨ĭ": 3352,
      "èµ·æºĲ": 3353,
      "iv": 3354,
      "åľ¨çİ°ä»£": 3355,
      "ï¼Įå¦Ĥä½ķ": 3356,
      "æıĲåįĩäºĨ": 3357,
      "ata": 3358,
      "æľīæķĪçļĦ": 3359,
      "å¹¶æ²¡æľī": 3360,
      "çĽ®å½ķ": 3361,
      "ä½ľä¸ºä¸Ģç§į": 3362,
      "æĺİçĻ½äºĨ": 3363,
      "è°ĥèĬĤ": 3364,
      "éŁ³é¢ĳ": 3365,
      "èĲ¥éĶĢ": 3366,
      "çļĦéĢīæĭ©": 3367,
      "å¼ºå¤§": 3368,
      "åį±éĻ©": 3369,
      "çļĦç²¾ç¥ŀ": 3370,
      "èĵĿ": 3371,
      "çĪ±å¥½": 3372,
      "çļĦæ°´": 3373,
      "éĵ¶è¡Į": 3374,
      "åħģ": 3375,
      "å¯¸": 3376,
      "èĥģ": 3377,
      "ä½ľçī©": 3378,
      "ï¼Įä¸ŃåŃ¦çĶŁåı¯ä»¥": 3379,
      "èļ": 3380,
      "Ġw": 3381,
      "å®ı": 3382,
      "è¾ħ": 3383,
      "è°±": 3384,
      "éĶħ": 3385,
      "ash": 3386,
      "å·¨å¤§": 3387,
      "ä¸Ģä¸Ŀ": 3388,
      "ä¿Ŀè¯ģ": 3389,
      "äºĭåĬ¡": 3390,
      "å¯»æ±Ĥ": 3391,
      "çļĦæİ¢": 3392,
      "çļĦçľ¼": 3393,
      "åıĳå¸ĥ": 3394,
      "æĭĽ": 3395,
      "çŃīå¾ħ": 3396,
      "å²©": 3397,
      "çļĦè¿ĩç¨ĭä¸Ń": 3398,
      "äºĨå¤§éĩı": 3399,
      "ç»´çĶŁç´ł": 3400,
      "ç§¯ç´¯": 3401,
      "ä¿®å¤į": 3402,
      "èĽĭçĻ½è´¨": 3403,
      "ID": 3404,
      "ä¼¯": 3405,
      "èĥŀ": 3406,
      "åĨł": 3407,
      "æľªçŁ¥": 3408,
      "æł¡åĽŃ": 3409,
      "http": 3410,
      "å±ķçİ°äºĨ": 3411,
      "æ´¾": 3412,
      "æľºæ¢°": 3413,
      "åĪĽæĦı": 3414,
      "å¤ļæł·æĢ§": 3415,
      "å¨ģèĥģ": 3416,
      ";ĊĊ": 3417,
      "Ġç»ĵè®º": 3418,
      "çļĦç¥": 3419,
      "ç®±": 3420,
      "å±Ĥæ¬¡": 3421,
      "port": 3422,
      "ĠĠĠĠĠĠĠĠĠĠĠ": 3423,
      "æ½ľåľ¨": 3424,
      "çļĦçī¹çĤ¹": 3425,
      "æ´Ĺ": 3426,
      "å®Įæķ´": 3427,
      "åħ·æľīéĩįè¦ģæĦıä¹ī": 3428,
      "çļĦæĢ§èĥ½": 3429,
      "åŃ¦ç§ĳ": 3430,
      "å¯¹æĸ¹": 3431,
      "çļĦçĭ¬": 3432,
      "èĥ¡": 3433,
      "æĹ§": 3434,
      "çļĦæĵ": 3435,
      "çĶµè·¯": 3436,
      "ä»įçĦ¶": 3437,
      "ï¼Įå¼Ģå§ĭ": 3438,
      "çļĦåħ³ç³»": 3439,
      "éĻĨ": 3440,
      "é¸Ł": 3441,
      "çļĦæĻºæħ§": 3442,
      "out": 3443,
      "æīĢéľĢ": 3444,
      "åħģè®¸": 3445,
      "ï¼ĮéļıçĿĢ": 3446,
      "ä¸ŃåŃ¦": 3447,
      "ĠĠĠĠĠ": 3448,
      "æ¿ĢåĬ¨": 3449,
      "çĽ´è§Ĥ": 3450,
      "å·¨å¤§çļĦ": 3451,
      "çĶ³è¯·": 3452,
      "äºĪ": 3453,
      "æŃ£æĺ¯": 3454,
      "æ¯Ķè¾ĥ": 3455,
      "è®¤åı¯": 3456,
      "èĥĮåĲİ": 3457,
      "ä¾Ŀæį®": 3458,
      "HT": 3459,
      "ter": 3460,
      "æľīæīĢ": 3461,
      "è¿ĺæĺ¯": 3462,
      "éĢĤå½ĵ": 3463,
      "åĿĲåľ¨": 3464,
      "åľ°çĲĥ": 3465,
      "çī©æµģ": 3466,
      "ä¸ĢçĽ´": 3467,
      "éĶ»": 3468,
      "åĮ»éĻ¢": 3469,
      "éļ¾ä»¥": 3470,
      "ang": 3471,
      "çĽĳçĿ£": 3472,
      "äº«åıĹ": 3473,
      "od": 3474,
      "ç©´": 3475,
      "æĦıå¤ĸ": 3476,
      "æ»ļ": 3477,
      "çļĦæ³ķ": 3478,
      "è¯ĳ": 3479,
      "ç»Ĩèĥŀ": 3480,
      "è§Ħå®ļ": 3481,
      "çªģçł´": 3482,
      "çŀ": 3483,
      "è¿ĻéĩĮ": 3484,
      "ä¿±ä¹Ĳ": 3485,
      "åĬ¨æľº": 3486,
      "å°Ĩèĥ½å¤Ł": 3487,
      "æµĭéĩı": 3488,
      "ç¡®å®ŀ": 3489,
      "ä¼łè¯´": 3490,
      "æ¯ĶèµĽä¸Ń": 3491,
      "å¨±ä¹Ĳ": 3492,
      "çĥĪçļĦ": 3493,
      "åĵ²åŃ¦": 3494,
      "ä¿±ä¹Ĳéĥ¨": 3495,
      "è²": 3496,
      "çļĦç§ĺå¯Ĩ": 3497,
      "æ¯ıä¸Ģä¸ª": 3498,
      "æ·±åħ¥çĲĨè§£": 3499,
      "åŃĹç¬¦ä¸²": 3500,
      "çļĦçĥŃçĪ±": 3501,
      "(\"": 3502,
      "æĿ¥èĩª": 3503,
      "åĨľæ°ĳ": 3504,
      "å¡ŀ": 3505,
      "æļĸ": 3506,
      "èĩ³åħ³éĩįè¦ģçļĦ": 3507,
      "å¼¹": 3508,
      "è¿Ļæĺ¯": 3509,
      "è¯¦ç»ĨçļĦ": 3510,
      "èħĲ": 3511,
      "é¸£": 3512,
      "ç¬Ķè®°": 3513,
      "ĠL": 3514,
      "çļĦç´": 3515,
      "ile": 3516,
      "Ġ*": 3517,
      "åĮ¹": 3518,
      "èĤĿ": 3519,
      "çļĦéĩįè¦ģç»ĦæĪĲéĥ¨åĪĨ": 3520,
      "ï¼ĮéĢļå¸¸": 3521,
      "æľŁéĹ´": 3522,
      "ä¸´åºĬ": 3523,
      "éĶ»çĤ¼": 3524,
      "å£ģ": 3525,
      "çļĦæİ¨": 3526,
      "çĹĩçĬ¶": 3527,
      "éĻ¶çĵ·": 3528,
      "èķ´": 3529,
      "TP": 3530,
      "æĽ´æ·±åħ¥": 3531,
      "æĺİæĺ¾": 3532,
      "æķ°æį®åĪĨæŀĲ": 3533,
      "è¿Ĳè¾ĵ": 3534,
      "çĶŁæ´»ä¸ŃçļĦ": 3535,
      "ç¯®": 3536,
      "èµ¢å¾Ĺ": 3537,
      "èĢĹ": 3538,
      "ãĢĤä»ĸå¼Ģå§ĭ": 3539,
      "ç²Ĵ": 3540,
      "å½¢çĬ¶": 3541,
      "åĲįåŃĹ": 3542,
      "ç¥ŀç»ı": 3543,
      "ä»Ģä¹Īæĺ¯": 3544,
      "æµ·æ´ĭ": 3545,
      "æĺ¥": 3546,
      "åľ°è´¨": 3547,
      "æĸĩæĺİ": 3548,
      "Ġin": 3549,
      "QL": 3550,
      "ï¼Įå¤§": 3551,
      "å¸¦çĿĢ": 3552,
      "get": 3553,
      "ï¼Įè¿Ľè¡Į": 3554,
      "éª¨": 3555,
      "æĿİå¤§": 3556,
      "çĥŁ": 3557,
      "res": 3558,
      "å¡Ķ": 3559,
      "åľĨ": 3560,
      "å°ļ": 3561,
      "ä¾ĽåºĶ": 3562,
      "èĭ±è¯Ń": 3563,
      "å®¶éķ¿": 3564,
      "ä¾§": 3565,
      "çĬ¯ç½ª": 3566,
      "ä¸Ģèĩ´": 3567,
      "ãĢĭï¼Į": 3568,
      "æķĪçİĩåĴĮ": 3569,
      "å¿½è§Ĩ": 3570,
      "ãĢĤä¸ºäºĨ": 3571,
      "è¿Ķ": 3572,
      "åºĨ": 3573,
      "è¡£": 3574,
      "æĢ§æł¼": 3575,
      "å¸¸å¸¸": 3576,
      "ï¼Įä»ĸåĨ³å®ļ": 3577,
      "éĽ¶": 3578,
      "å®ĺæĸ¹": 3579,
      "è¸ª": 3580,
      "of": 3581,
      "èĤ¤": 3582,
      "ers": 3583,
      "ï¼ĮæĪĳä»¬åı¯ä»¥çľĭåĪ°": 3584,
      "çļĦæıĲ": 3585,
      "å·Ŀ": 3586,
      "åį·": 3587,
      "è°·": 3588,
      "æĦŁæ¿Ģ": 3589,
      "ä¼łè¾¾": 3590,
      "åı¯èĥ½æĺ¯": 3591,
      "æĺ¯ä¸Ģä½į": 3592,
      "è²Į": 3593,
      "Ġth": 3594,
      "æıĲåıĸ": 3595,
      "æł¼å¼ı": 3596,
      "èĦĤ": 3597,
      "åĳ¨åĽ´": 3598,
      "æ¬£èµı": 3599,
      "://": 3600,
      "AN": 3601,
      "çīĽ": 3602,
      "åıĳéĢģ": 3603,
      "æ¶Ĥ": 3604,
      "ç¼ĵè§£": 3605,
      "éŁ§": 3606,
      ".js": 3607,
      "è±ª": 3608,
      "æĪĲä¸ºäºĨ": 3609,
      "ä¾¿æį·": 3610,
      "å±ŀäºİ": 3611,
      "èĻļæĭŁ": 3612,
      "è¿Ļæľ¬ä¹¦": 3613,
      "æ¡Ĩæŀ¶": 3614,
      "ï¼Įä½¿çĶ¨": 3615,
      "çļĦèīºæľ¯": 3616,
      "çļĦçĽ®æłĩ": 3617,
      "çļĦè´¨éĩı": 3618,
      "å¤«": 3619,
      "ä¸ŃåĮ»": 3620,
      "éĩįè¦ģä½ľçĶ¨": 3621,
      "å½±åĵįåĬĽ": 3622,
      "ç¼ĸè¾ĳ": 3623,
      "èī°": 3624,
      "ĠE": 3625,
      "ï¼Įå¢ŀåĬł": 3626,
      "çļĩ": 3627,
      "æĲŃ": 3628,
      "å¥³æĢ§": 3629,
      "æĽ¼": 3630,
      "ä¹¦ä¸Ń": 3631,
      "æĥ³ä¸į": 3632,
      "çĥģçĿĢ": 3633,
      "ï¼ĮåĽłæŃ¤": 3634,
      "å®ľ": 3635,
      "è´´": 3636,
      "è¾ĥé«ĺ": 3637,
      "ç¢ĳ": 3638,
      "é½Ĳ": 3639,
      "çļĦæŀ": 3640,
      "éĢļè¿ĩè¿ĻäºĽ": 3641,
      "ï¼ģâĢĿĊĊ": 3642,
      "Ġåįķåħĥ": 3643,
      "çļĦé£İéĻ©": 3644,
      "åħ½": 3645,
      "å¯¹æ¯Ķ": 3646,
      "ä¿¡çĶ¨": 3647,
      "ç¡®è®¤": 3648,
      "éĢĤéĩı": 3649,
      "å¼ķåħ¥": 3650,
      "å©ļ": 3651,
      "åı¹": 3652,
      "æľīåĬĽ": 3653,
      "å¤ļæ¬¡": 3654,
      "ç¬¬äºĮ": 3655,
      "çļĦæĵįä½ľ": 3656,
      "è¿ģ": 3657,
      "å¿ł": 3658,
      "æĦıæĥ³ä¸į": 3659,
      "ç´¢å¼ķ": 3660,
      "Ġç¬¬åĽĽ": 3661,
      "ain": 3662,
      "å®ļä½į": 3663,
      "èĤ¥": 3664,
      "å¹»": 3665,
      "åľ°éľĩ": 3666,
      "æķĻç»ĥ": 3667,
      "å°ıå¿ĥ": 3668,
      "åıĺå¾ĹæĽ´åĬł": 3669,
      "li": 3670,
      "çļĦæĪĲåĬŁ": 3671,
      "æĿ¨": 3672,
      "ä½ľèĢħ": 3673,
      "ä½ĵèĤ²": 3674,
      "çºł": 3675,
      "ä¹¦åĨĻ": 3676,
      ":Ċ": 3677,
      "CP": 3678,
      "è¯ģæĺİ": 3679,
      "}Ċ": 3680,
      "ï¼Įè¯´": 3681,
      "æıĴ": 3682,
      "æĽ¿": 3683,
      "å¼Ģå±ķ": 3684,
      "éĥ½èĥ½": 3685,
      "åĪ©çĽĬ": 3686,
      "åĻ¨çļĦ": 3687,
      "æĺ¾å¾Ĺ": 3688,
      "èĢģäºº": 3689,
      "ç®Ģæ´ģ": 3690,
      "è°¢è°¢": 3691,
      "å¾ªçİ¯": 3692,
      "åĮ¹éħį": 3693,
      "An": 3694,
      "gin": 3695,
      "åºĻ": 3696,
      "éĽħ": 3697,
      "åıªæĺ¯": 3698,
      "oo": 3699,
      "æīĢåŃ¦": 3700,
      "æĹłæķ°": 3701,
      "çļĦæŃ¥": 3702,
      "çĽĲ": 3703,
      "åħ¬å¹³": 3704,
      "èĦī": 3705,
      "æıĲä¾ĽäºĨä¸Ģä¸ª": 3706,
      "çļĦæ·±åħ¥": 3707,
      "æĹĭè½¬": 3708,
      "æ±¡æŁĵ": 3709,
      "è´¦": 3710,
      "çº¹": 3711,
      "éĢĶå¾Ħ": 3712,
      "çļĦçº¿": 3713,
      "çļĦæ¡": 3714,
      "æĿİæ¸ħ": 3715,
      "åĽ¾å½¢": 3716,
      "æĴ°": 3717,
      "åħ·ä½ĵçļĦ": 3718,
      "æ¹ĸ": 3719,
      "çĻ¾": 3720,
      "æ£®æŀĹ": 3721,
      "çĶŁåŃĺ": 3722,
      "åįķä½į": 3723,
      "åŃ©åŃĲä»¬": 3724,
      "èĥĥ": 3725,
      "æµ¸": 3726,
      "ç«Ł": 3727,
      "æĤī": 3728,
      "æľĢå¤§": 3729,
      "ç¬¬ä¸ī": 3730,
      "çļĦåľ°æĸ¹": 3731,
      "é£ŀè¡Į": 3732,
      "å¼ķåıĳ": 3733,
      "ç»ĦåĲĪ": 3734,
      "æĽ´å¤ļçļĦäºº": 3735,
      "ec": 3736,
      "ç«¹": 3737,
      "çļĦæ²»": 3738,
      "å±ıå¹ķ": 3739,
      "éĨ": 3740,
      "ï¼Įç»§ç»Ń": 3741,
      "æİ¥è§¦": 3742,
      "æ¸¸æĪıä¸Ń": 3743,
      "æ³¨æĦıäºĭé¡¹": 3744,
      "æıŃå¼Ģ": 3745,
      "çļĦè¯¦ç»Ĩ": 3746,
      "èĢ³": 3747,
      "åĻª": 3748,
      "æ·±åĪ»çļĦ": 3749,
      "ç¥ŀç§ĺçļĦ": 3750,
      "ä¼¦": 3751,
      "åĨ°": 3752,
      "çĽ¾": 3753,
      "æŃ»": 3754,
      "æ¢ħ": 3755,
      "æĬķåħ¥": 3756,
      "éĺ¿æĭī": 3757,
      "ä¸ĥ": 3758,
      "ãĢĤåħ¶æ¬¡": 3759,
      "ç§ĭ": 3760,
      "ç»ıéªĮåĴĮ": 3761,
      "åįĵè¶Ĭ": 3762,
      "ä¸Ĭè¿°": 3763,
      "é¥Ń": 3764,
      "è´£ä»»æĦŁ": 3765,
      "åľ¨ä¸ŃåĽ½": 3766,
      "éļĶ": 3767,
      "æĪĸç¼º": 3768,
      "å¥¹çļĦ": 3769,
      "èĥľåĪ©": 3770,
      "çĩĥ": 3771,
      "æĴ°åĨĻ": 3772,
      "ï¼Įä¼ģä¸ļ": 3773,
      "ç½²": 3774,
      "ç³»ç»Łä¸Ń": 3775,
      "ä¸ĵä¸ļçļĦ": 3776,
      "urn": 3777,
      "RE": 3778,
      "ä¸Ģä¸ĭ": 3779,
      "éĩįè§Ĩ": 3780,
      "åĲĪæ³ķ": 3781,
      "æĤŁ": 3782,
      "é©±": 3783,
      "çĥŃæĥħ": 3784,
      "Ġa": 3785,
      "åĴĮå¯¹": 3786,
      "âĢĿãĢĤ": 3787,
      "åĬłè½½": 3788,
      "ï¼īåĴĮ": 3789,
      "çº¿æĢ§": 3790,
      "çļĦç¼ĸ": 3791,
      "åľĪ": 3792,
      "æľ¬è¯¾ç¨ĭåįķåħĥ": 3793,
      "åĩºçīĪ": 3794,
      "å¹¶éĿŀ": 3795,
      "è§Ĥå¿µ": 3796,
      "æŁ±": 3797,
      "æĿĳåºĦ": 3798,
      "çļĦç½ĳç»ľ": 3799,
      "æ¡Į": 3800,
      "å®īåħ¨æĢ§": 3801,
      "ï¼Įä»İèĢĮæıĲé«ĺ": 3802,
      "æĦ¿æĦı": 3803,
      "å°ºå¯¸": 3804,
      "ï¼ī**ï¼ļ": 3805,
      "ç¾İåĽ½": 3806,
      "ir": 3807,
      "ä½©": 3808,
      "ç»ıçĲĨ": 3809,
      "è§Ħå¾ĭ": 3810,
      "é£ŁæĿĲ": 3811,
      "åŁºç¡Ģè®¾æĸ½": 3812,
      "çĶµåŃĲåķĨåĬ¡": 3813,
      "éĨĴ": 3814,
      "åĴĮåĪĨæŀĲ": 3815,
      "ä¸Ńèį¯": 3816,
      "åºŁ": 3817,
      "æľīæľº": 3818,
      "æ··åĲĪ": 3819,
      "Ġä½¿çĶ¨": 3820,
      "äººå·¥": 3821,
      "åĪĨéĴŁ": 3822,
      "å°Ĩåħ¶": 3823,
      "åįĩçº§": 3824,
      "æŁĶ": 3825,
      "ï¼Įæ¯ıä¸ª": 3826,
      "æĿ¥çľĭ": 3827,
      "è¿ĽæĶ»": 3828,
      "èįĲ": 3829,
      "åħĪè¿Ľ": 3830,
      "è¶³å¤Ł": 3831,
      "çĨŁæĤī": 3832,
      "çļĦæĮĩå¯¼": 3833,
      "In": 3834,
      "Ġä¸Ģ": 3835,
      "ï¼Įè¿Ļæĺ¯": 3836,
      "æ¸¸å®¢": 3837,
      "éĢłæĪĲ": 3838,
      "è¿ĩåº¦": 3839,
      "ãĢĤä»ĸæĦıè¯ĨåĪ°": 3840,
      "ç±»ä¼¼": 3841,
      "äººä½ĵ": 3842,
      "åĨħçļĦ": 3843,
      "çļĦç®¡": 3844,
      "åĲ§": 3845,
      "æķ´çĲĨ": 3846,
      "æĥ³è±¡": 3847,
      "éĺĢ": 3848,
      "å¤įä¹ł": 3849,
      "äºĨä¸ĢäºĽ": 3850,
      "çļĦä¸Ģéĥ¨åĪĨ": 3851,
      "æ¶µçĽĸ": 3852,
      "éº»": 3853,
      "ï¼Įä¸»è¦ģ": 3854,
      "çļĦæ¼": 3855,
      "åĲįä¸º": 3856,
      "åĲĪçĲĨçļĦ": 3857,
      "ĊĊĊĊĊĊĊĊ": 3858,
      "SQL": 3859,
      "çļĦåģ¥åº·": 3860,
      "çļĦæķ´ä½ĵ": 3861,
      "ä¼łæĦŁ": 3862,
      "æģĴ": 3863,
      "ä¼ĺè´¨": 3864,
      "éĢīæĭ©åĲĪéĢĤçļĦ": 3865,
      "æ»¡æĦı": 3866,
      "ä¸įåı¯æĪĸç¼º": 3867,
      "åľ¨ä¸įåĲĮ": 3868,
      "å¼ĢæĶ¾": 3869,
      "å§ĭç»Ī": 3870,
      "æŃ£ç¡®çļĦ": 3871,
      "ä»¥ä¸ĭåĩłä¸ªæĸ¹éĿ¢": 3872,
      "å¹¼": 3873,
      "è´¸": 3874,
      "è½®": 3875,
      "æ¶Į": 3876,
      "éĴ±": 3877,
      "èĪ¬": 3878,
      "ä¾ĿçĦ¶": 3879,
      "çļĦè¡Įä¸º": 3880,
      "åľ°çĲĨè§£": 3881,
      "éĽĨä¸Ń": 3882,
      "åĬŀåħ¬": 3883,
      "ple": 3884,
      "è¿ĩåİ»": 3885,
      "ç»ıåħ¸": 3886,
      "çģ¯": 3887,
      "æĳĩ": 3888,
      "ï¼Įå°¤åħ¶æĺ¯": 3889,
      "ï¼Įçİĭ": 3890,
      "åĳĪ": 3891,
      "å¢Ļ": 3892,
      "ä¸įä»ħä¸º": 3893,
      "äº¤äºĴ": 3894,
      "é¢ĦæľŁç»ĵæŀľ": 3895,
      "å¥¶": 3896,
      "å®¶åħ·": 3897,
      "å°±åľ¨": 3898,
      "è¿ľç¨ĭ": 3899,
      "æĳĦå½±": 3900,
      "ç½ĳç»ľå®īåħ¨": 3901,
      "è¾ĥä½İ": 3902,
      "æľ¬åįķåħĥçļĦåŃ¦ä¹ł": 3903,
      "ï¼ĮæıĲä¾Ľ": 3904,
      "åĮĢ": 3905,
      "èī¾": 3906,
      "æ¼ı": 3907,
      "ï¼Įçī¹åĪ«æĺ¯": 3908,
      "çŁ¥åĲį": 3909,
      "çĮ«": 3910,
      "çļĦæ´»": 3911,
      "ep": 3912,
      "ä¸įæĩ": 3913,
      "åĿĽ": 3914,
      "åĽ¢éĺŁæĪĲåĳĺ": 3915,
      ".p": 3916,
      "turn": 3917,
      "è¿«": 3918,
      "äºĨä»ĸ": 3919,
      "å¿Ļ": 3920,
      "å¹¸": 3921,
      "ä»İä¸Ń": 3922,
      "çĽĽ": 3923,
      "è®¤è¯ģ": 3924,
      "çļĦæłĩ": 3925,
      "å®¡ç¾İ": 3926,
      "åĽºå®ļ": 3927,
      "è¯ĹæŃĮ": 3928,
      "ç»¿èī²": 3929,
      "ãĢĤä¸Ģä¸ª": 3930,
      "éĢĥ": 3931,
      "å®¶äºº": 3932,
      "æŁ¥æī¾": 3933,
      "åĳ¼åĲ¸": 3934,
      "Python": 3935,
      "çļĦæ½": 3936,
      "åľ°åĿĢ": 3937,
      "æ¯«": 3938,
      "ç½ĳé¡µ": 3939,
      "çĪĨ": 3940,
      "ä»ĵ": 3941,
      "çĲĨæĥ³": 3942,
      "é«ĺçº§": 3943,
      "ãĢĤè¿Ļæł·": 3944,
      "çİ¯å¢ĥä¿ĿæĬ¤": 3945,
      "ç»´æĮģ": 3946,
      "æ·±åħ¥è§£éĩĬ": 3947,
      "éĤ£ä¸ª": 3948,
      "æĹħè¡Į": 3949,
      "è®²è§£": 3950,
      "ĠäºĮ": 3951,
      "åıĳéŁ³": 3952,
      "è§£æŀĲ": 3953,
      "å¤ĸéĥ¨": 3954,
      "çŃĶæ¡Ī": 3955,
      "éģµå¾ª": 3956,
      "çīĻ": 3957,
      "æ²¿": 3958,
      "èĦ¸": 3959,
      "å¿Ĺè¿ľ": 3960,
      "å¹´è½»äºº": 3961,
      "å½¼": 3962,
      "æŁ¥éĺħ": 3963,
      "é¢ĨåŁŁçļĦ": 3964,
      "ç»ĵæŀĦåĴĮ": 3965,
      "åĲĥ": 3966,
      "ä¼ģä¸ļçļĦ": 3967,
      "æĥħåĨµä¸ĭ": 3968,
      "åĪĿå§ĭ": 3969,
      "lass": 3970,
      "æĸĩåįļ": 3971,
      "æĿĥçĽĬ": 3972,
      "çļĦæ²»çĸĹ": 3973,
      "åķĨåĵģ": 3974,
      "pl": 3975,
      "åĲī": 3976,
      "ä¸Ńåħħæ»¡äºĨ": 3977,
      "éģį": 3978,
      "æ°ĶåĢĻ": 3979,
      "åĳ½è¿Ĳ": 3980,
      "åĮĹäº¬": 3981,
      "sh": 3982,
      "ï¼ĮçĲĨè§£": 3983,
      "åĪĨåŃĲ": 3984,
      "ç¢³": 3985,
      "ä¸Ģå®ļèĥ½å¤Ł": 3986,
      "æıŃç¤ºäºĨ": 3987,
      "Ġä¸ī": 3988,
      "çļĦæ¶": 3989,
      "æµª": 3990,
      "éģ¥": 3991,
      "è¡¨æĺİ": 3992,
      "åĽ¾çīĩ": 3993,
      "èĩªåĬ¨åĮĸ": 3994,
      "Ġreturn": 3995,
      "éĤ®ä»¶": 3996,
      "çļĦåħīèĬĴ": 3997,
      "åĽ¾ä¹¦é¦Ĩ": 3998,
      "ĠéĢļè¿ĩ": 3999,
      "åįĬ": 4000,
      "æĹ¶çļĦ": 4001,
      "çļĦæĶ¿": 4002,
      "çļĦæ¯Ķ": 4003,
      "èĪĴéĢĤ": 4004,
      "çļĦç¥ŀ": 4005,
      "åĴĮçĲĨè§£": 4006,
      "èĥ½å¤Łå¸®åĬ©": 4007,
      "è£ħé¥°": 4008,
      "éĻ¤äºĨ": 4009,
      "æĭįæĳĦ": 4010,
      "ment": 4011,
      "æľīè¶£": 4012,
      "æ¢ģ": 4013,
      "ä¸Ģå®ļçļĦ": 4014,
      "éģĹäº§": 4015,
      "çļĦæ³ķå¾ĭ": 4016,
      "ï¼Įçİ©å®¶": 4017,
      "çļĦæĸ¹å¼ı": 4018,
      "çļĦçĶŁéķ¿": 4019,
      "çļĦæĭ": 4020,
      "æĮ¯": 4021,
      "éĩįå¤į": 4022,
      "éĤ£ä¹Ī": 4023,
      "çĽ¸åħ³çļĦ": 4024,
      "rom": 4025,
      "èĨĢ": 4026,
      "æĭĵå±ķ": 4027,
      "çļĦåĩĨç¡®": 4028,
      "æĻ´": 4029,
      "çĤĴ": 4030,
      "çļĦç®¡çĲĨ": 4031,
      "ï¼Įèĩªå·±": 4032,
      "ï¼ĮåĲ¸å¼ķ": 4033,
      "çļĦéģĵè·¯": 4034,
      "è§£è¯»": 4035,
      "ï¼Įåı¯ä»¥å¸®åĬ©": 4036,
      "çļĦæŃ¥éª¤": 4037,
      "æİ¨èįĲ": 4038,
      "çļĦæ½ľ": 4039,
      "ä¼Ĭ": 4040,
      "çĶŁåĬ¨": 4041,
      "ä»ĸä»¬å¯¹": 4042,
      "çŁ©": 4043,
      "è®²è¿°": 4044,
      "è®²åº§": 4045,
      "å°¤ä¸º": 4046,
      "SS": 4047,
      "ist": 4048,
      "ĽçĽ¾": 4049,
      "ä¿ĿåŃĺ": 4050,
      "åīįå¾Ģ": 4051,
      "èħ°": 4052,
      "Ġ\\(": 4053,
      "èĦļæľ¬": 4054,
      "æ°§åĮĸ": 4055,
      "..": 4056,
      "`ï¼Į": 4057,
      "åı³": 4058,
      "æ°ĽåĽ´": 4059,
      "æĻ¶": 4060,
      "å®¶æĹı": 4061,
      "ç»Łè®¡": 4062,
      "å¿ĥçĲĨåģ¥åº·": 4063,
      "ï¼ĮæĹł": 4064,
      "ï¼ĮåĪ¶å®ļ": 4065,
      "ï¼ĮéĻįä½İ": 4066,
      "åįĥ": 4067,
      "æĭ¼": 4068,
      "åĲĪåĲĮ": 4069,
      "ç¾½": 4070,
      "ä¼ĺçĤ¹": 4071,
      "åľŁåľ°": 4072,
      "âĨĴâĨĴâĨĴâĨĴâĨĴâĨĴâĨĴâĨĴâĨĴâĨĴâĨĴâĨĴâĨĴâĨĴâĨĴâĨĴ": 4073,
      "indow": 4074,
      "æ·±è¿ľçļĦå½±åĵį": 4075,
      "ä»¥åħ¶": 4076,
      "åĩĿ": 4077,
      "æĢ§è´¨": 4078,
      "ç®¡çĲĨåĴĮ": 4079,
      "åħįçĸ«": 4080,
      "èħ¹": 4081,
      "ç´§æĢ¥": 4082,
      "ç»ĺçĶ»": 4083,
      "çĳ¶": 4084,
      "ä¼łæĦŁåĻ¨": 4085,
      "ĠG": 4086,
      "åħ³éĹŃ": 4087,
      "æĿİæĻ¨": 4088,
      "çļĦæŃ£": 4089,
      "https": 4090,
      "ï¼ĮåıĪ": 4091,
      "ï¼ĮåıĬæĹ¶": 4092,
      "çº³ç±³": 4093,
      "ä¸ŃéĹªçĥģçĿĢ": 4094,
      "ĠJ": 4095,
      "çļĦåĬŁèĥ½": 4096,
      "è¯įæ±ĩ": 4097,
      "åıĬåħ¶åľ¨": 4098,
      "å¼ķèµ·äºĨ": 4099,
      "Sp": 4100,
      "åĪł": 4101,
      "æĪĲç«ĭ": 4102,
      "âĢľæĪĳä»¬": 4103,
      "æĳĨ": 4104,
      "é¢ĳçİĩ": 4105,
      "ï¼ĮæĹ¨åľ¨": 4106,
      "åĬłå¯Ĩ": 4107,
      "çĽ¸ç»ĵåĲĪ": 4108,
      "å£³": 4109,
      "åĽŀåĪ°": 4110,
      "å¹¿åĳĬ": 4111,
      "add": 4112,
      "å¥łå®ļäºĨ": 4113,
      "ï¼Įä¸ŃåĽ½": 4114,
      "æİĺ": 4115,
      "å±ķè§Ī": 4116,
      "çłĶåıĳ": 4117,
      "éĽª": 4118,
      "éļ¾é¢ĺ": 4119,
      "å®ĿèĹı": 4120,
      "èĴĻ": 4121,
      "ï¼ĮæĤ¨åı¯ä»¥": 4122,
      "ction": 4123,
      "ww": 4124,
      "ï¼ĮãĢĬ": 4125,
      "å®ł": 4126,
      "åĴĮæĥħæĦŁ": 4127,
      "ä¹ı": 4128,
      "çĲ³": 4129,
      "ä»İæľª": 4130,
      "çº¿ç¨ĭ": 4131,
      "é²ģ": 4132,
      "ç¡¬ä»¶": 4133,
      "ä¼ĳæģ¯": 4134,
      "UI": 4135,
      "è¿Ľç¨ĭ": 4136,
      "å¤ļåħĥ": 4137,
      "èĬ¯": 4138,
      "éĤĢ": 4139,
      "è¯Ńæ³ķ": 4140,
      "çĶ¨æĪ·ä½ĵéªĮ": 4141,
      "ï¼ĮæıĲé«ĺäºĨ": 4142,
      "åĽ°æĥĳ": 4143,
      "çĵľ": 4144,
      "åı¤èĢģçļĦ": 4145,
      "ï¼Įéĺ²æŃ¢": 4146,
      "çļĦè¡¨çİ°": 4147,
      "ä¸Ģéĥ¨åĪĨ": 4148,
      "æľīçļĦ": 4149,
      "å¿ĥèĦı": 4150,
      "çº¤": 4151,
      "ç¬ĳäºĨ": 4152,
      "åĿĩåĮĢ": 4153,
      "--------": 4154,
      "rint": 4155,
      "ä¸İåħ¶ä»ĸ": 4156,
      "åŁºåĽł": 4157,
      "åĢº": 4158,
      "å¼łæĻĵ": 4159,
      "å¦Ĥä½ķä½¿çĶ¨": 4160,
      "çĶŁæ´»è´¨éĩı": 4161,
      "èģĶèµĽ": 4162,
      "è®¢åįķ": 4163,
      "iz": 4164,
      "ĠãĢĬ": 4165,
      "è½¨": 4166,
      "åŃĹä½ĵ": 4167,
      "è½»è½»": 4168,
      "çļĦæĶ¶": 4169,
      "ä»ªå¼ı": 4170,
      "è¹Ī": 4171,
      "æ¦": 4172,
      "åľ¨ä¸Ģä¸ª": 4173,
      "ä¸įåĨį": 4174,
      "åħ¬åĽŃ": 4175,
      "èĳĹåĲį": 4176,
      "ç¢į": 4177,
      "éĺ³åħī": 4178,
      "å®¡æŁ¥": 4179,
      "çļĦæµģ": 4180,
      "çĽ¸åºĶçļĦ": 4181,
      "ä¸Ńåįİ": 4182,
      "ä¸įä»ħåı¯ä»¥": 4183,
      "æĦŁæŁĵ": 4184,
      "éĶĭ": 4185,
      "ï¼Įè¿Ļä¸Ģ": 4186,
      "çĶµåĬĽ": 4187,
      "åĪĻæĺ¯": 4188,
      "roid": 4189,
      "log": 4190,
      "ï¼Įåħ¶ä¸Ń": 4191,
      "çº·çº·": 4192,
      "Ġè¯¾ç¨ĭåįķåħĥ": 4193,
      "çŃīå¤ļä¸ª": 4194,
      "åħ±äº«": 4195,
      "è¾ĥä¸º": 4196,
      "æ£ĢéªĮ": 4197,
      "æŀ¶æŀĦ": 4198,
      "ï¼Įåı¯èĥ½ä¼ļ": 4199,
      "ä¸Ģæ®µ": 4200,
      "è§£å¼Ģ": 4201,
      "ï¼Įä½¿åħ¶": 4202,
      "èŀįåħ¥": 4203,
      "çļĦæ³¨": 4204,
      "è·Ŀç¦»": 4205,
      "ðŁĮŁðŁĮŁðŁĮŁðŁĮŁ": 4206,
      "äººåı£": 4207,
      "éĢļè¿ĩä»¥ä¸ĬæŃ¥éª¤": 4208,
      "æµĵåİļ": 4209,
      "èĤ¿": 4210,
      "æİ¥åı£": 4211,
      "åĶĲ": 4212,
      "Ġnew": 4213,
      "èĪŀè¹Ī": 4214,
      "èĤĮèĤī": 4215,
      "AP": 4216,
      "ç»ıå¸¸": 4217,
      "å°ıç»Ħ": 4218,
      "äº²èĩª": 4219,
      "ä»Ĭå¤©": 4220,
      "åĪłéĻ¤": 4221,
      "ãĢĤæľ¬åįķåħĥ": 4222,
      "æ¯ķ": 4223,
      "æıĲä¾ĽäºĨä¸°å¯ĮçļĦ": 4224,
      "è¿ŀç»Ń": 4225,
      "å¿ĥçĲĨåŃ¦": 4226,
      "################": 4227,
      "ä¹±": 4228,
      "è¿ĩæ»¤": 4229,
      "åľ°çĤ¹": 4230,
      "åİ¨": 4231,
      "åĬłæ·±": 4232,
      "å½±åĵįäºĨ": 4233,
      "çļĦçĭ¬çī¹": 4234,
      "ä¸įæĩĪ": 4235,
      "ĠN": 4236,
      "çļĦç»ıæµİ": 4237,
      "æīĭæľ¯": 4238,
      "çĦ¦èĻĳ": 4239,
      "å®łçī©": 4240,
      "åľ°äºĨè§£": 4241,
      "äºĭæĥħ": 4242,
      "ï¼Įè¿Ļæł·": 4243,
      "éĢīé¡¹": 4244,
      "ä¾¿åĪ©": 4245,
      "åĲ«æľī": 4246,
      "åĪĽå»ºä¸Ģä¸ª": 4247,
      "çļĦæ¨¡": 4248,
      "è°¨": 4249,
      "éĥ¨ç½²": 4250,
      "éķ¿æĹ¶éĹ´": 4251,
      "ä¹Ĳè¶£": 4252,
      "èµĦæºĲåĴĮ": 4253,
      "å±ŀæĢ§": 4254,
      "ublic": 4255,
      "åı¯éĿłæĢ§": 4256,
      "ml": 4257,
      "æ·±æ·±": 4258,
      "éĽĨæĪĲ": 4259,
      "åĩıè½»": 4260,
      "ç¢İ": 4261,
      "éĵģè·¯": 4262,
      "ĠSt": 4263,
      "ĠV": 4264,
      "è¯º": 4265,
      "çŃīæĸ¹å¼ı": 4266,
      "ĠĠĠĠĠĠ": 4267,
      "è§Ĩéĩİ": 4268,
      "ç»¼åĲĪç´łè´¨": 4269,
      "éĽĦ": 4270,
      "éĴ®": 4271,
      "éĤĢè¯·": 4272,
      "çļĦæĸ°": 4273,
      "ä¹ĺ": 4274,
      "æĹ¶åĪ»": 4275,
      "æ´Ľ": 4276,
      "æ¶Ľ": 4277,
      "å©·": 4278,
      "ç¿¼ç¿¼": 4279,
      "éº¦": 4280,
      "ä¸ģ": 4281,
      "å®Ļ": 4282,
      "ä¸Ģéĺµ": 4283,
      "åľ°éĹ®": 4284,
      "æıĲäº¤": 4285,
      "çļĦç©": 4286,
      "è¿Ľåº¦": 4287,
      "ç»Łä¸Ģ": 4288,
      "åı¯èĥ½éľĢè¦ģ": 4289,
      "ãĢĭçļĦ": 4290,
      "è§Ĩè§Ĵ": 4291,
      "è¯¦ç»Ĩä»ĭç»į": 4292,
      "ack": 4293,
      "å®ĩå®Ļ": 4294,
      "çıł": 4295,
      "éĢıæĺİ": 4296,
      "çļĦä¸Ģç§į": 4297,
      "åĽĬ": 4298,
      "èĩªä¿¡": 4299,
      "åĢ¼å¾Ĺ": 4300,
      "æĹħç¨ĭ": 4301,
      "ç§¯æŀģçļĦ": 4302,
      "è½´æī¿": 4303,
      "åĵªäºĽ": 4304,
      "çļĦä½ľåĵģ": 4305,
      "å¿§": 4306,
      "åĩ¡": 4307,
      "åĵ¥": 4308,
      "ç¼ĺ": 4309,
      "æī¿æĭħ": 4310,
      "å²Ĺ": 4311,
      "æĭħå¿ĥ": 4312,
      "èį£èªī": 4313,
      "çļĦæ¼Ķ": 4314,
      "Ġ[": 4315,
      "ãĢĤæĹłè®º": 4316,
      "æī¬": 4317,
      "çľŁæŃ£çļĦ": 4318,
      "ãĢĤä»İ": 4319,
      "æĬĳ": 4320,
      "ï¼Įä»ĸåľ¨": 4321,
      "ï¼ĮèĢĮä¸Ķ": 4322,
      "ä¸ªæĢ§åĮĸ": 4323,
      "çļĦç«ŀ": 4324,
      "åĴĮæĻºæħ§": 4325,
      "çī©åĵģ": 4326,
      "æ£ĭ": 4327,
      "æĶ¾æĿ¾": 4328,
      "çļĦçĪ±": 4329,
      "äººéĻħåħ³ç³»": 4330,
      "åıĻ": 4331,
      "åŃ¤": 4332,
      "ç»´ä¿®": 4333,
      "åģļåĩºäºĨ": 4334,
      "çļĦæ²ŁéĢļ": 4335,
      "ãĢĤæĿİæĺİ": 4336,
      "æľ±": 4337,
      "çļĦçª": 4338,
      "è¿ĺæľī": 4339,
      "ink": 4340,
      "å®¹åĻ¨": 4341,
      "åĽ¢ç»ĵ": 4342,
      "é¼ł": 4343,
      "æĪ¿éĹ´": 4344,
      "java": 4345,
      "ï¼Įè¯»èĢħ": 4346,
      "çļĦçĸ": 4347,
      "æĢĿè¿ľ": 4348,
      "æĥ³è¦ģ": 4349,
      "åıªè¦ģ": 4350,
      "çĪ±æĥħ": 4351,
      "æ¶Īæģ¯": 4352,
      "æ¬¢è¿İ": 4353,
      ".com": 4354,
      "éĢ¸é£İ": 4355,
      "Ġå°Ĩ": 4356,
      "å·¦": 4357,
      "ä½ľä¸ļ": 4358,
      "ä½łåľ¨": 4359,
      "åľºä¸Ĭ": 4360,
      "èĥĮæĻ¯åĴĮ": 4361,
      "è¡¥åħħ": 4362,
      "å±ķæľĽ": 4363,
      "çªĹåı£": 4364,
      "çļĦåĲĮæĹ¶": 4365,
      "èĩªå®ļä¹ī": 4366,
      "éĩįå¤§": 4367,
      "ä¸ĭéĻį": 4368,
      "çĿĢä¸Ģ": 4369,
      "æ·±åĲ¸": 4370,
      "æĺ¯ä¸Ģæ¬¡": 4371,
      "åķĬ": 4372,
      "è®¤åĲĮ": 4373,
      "æĵįä½ľç³»ç»Ł": 4374,
      "åı¦ä¸Ģä¸ª": 4375,
      "Window": 4376,
      "©åĽº": 4377,
      "ä»ģ": 4378,
      "ãĢĤå°½ç®¡": 4379,
      "å·©åĽº": 4380,
      "é¡¿": 4381,
      "æ³¢åĬ¨": 4382,
      "çº¤ç»´": 4383,
      "æĿ¯": 4384,
      "æĿĢ": 4385,
      "æĥ§": 4386,
      "æĦŁåħ´è¶£": 4387,
      "ä¹ĭæĹħ": 4388,
      "ï¼Įä»ĸå¼Ģå§ĭ": 4389,
      "æµģéĩı": 4390,
      "ç¬¬ä¸Ģ": 4391,
      "alue": 4392,
      "Re": 4393,
      "ï¼Įè®¸å¤ļ": 4394,
      "ãĢĤåħ¶": 4395,
      "æ³Ħ": 4396,
      "å¦ĤæŃ¤": 4397,
      "é«ĺè´¨éĩı": 4398,
      "çļĦçģµ": 4399,
      "åģ¶": 4400,
      "åĪĽä¸ļ": 4401,
      "è¿ĩç¨ĭä¸ŃçļĦ": 4402,
      "è¯¾åłĤ": 4403,
      "è´¹çĶ¨": 4404,
      "å²ģ": 4405,
      "ç¿¼ç¿¼åľ°": 4406,
      "ĠåĪĨæŀĲ": 4407,
      "ï¼ĮæĪĸèĢħ": 4408,
      "ä¸ĭåİ»": 4409,
      "åīįè¡Į": 4410,
      "çļĦå£°éŁ³": 4411,
      "ä¹Ŀ": 4412,
      "ä¸ŃåıĳæĮ¥": 4413,
      "çĲ´": 4414,
      "èĩªä¸»": 4415,
      "å¿ĥåİ»": 4416,
      "ç®¡éģĵ": 4417,
      "æĤ¨åľ¨": 4418,
      "çļĦæ·±åĪ»": 4419,
      "çļĦç¬¬": 4420,
      "our": 4421,
      "æ¨": 4422,
      "ï¼Įè¿Ľä¸ĢæŃ¥": 4423,
      "ãĢĤç¥Ŀ": 4424,
      "ç¨¿": 4425,
      "åīįæĻ¯": 4426,
      "æĸ¹æ³ķåĴĮ": 4427,
      "æĻ¯è§Ĥ": 4428,
      "def": 4429,
      "æĮīéĴ®": 4430,
      "çļĦä¸ĵä¸ļ": 4431,
      "æĮĸ": 4432,
      "è¾¨": 4433,
      "è¾ī": 4434,
      "çĪ¸": 4435,
      "ç§°ä¸º": 4436,
      "Ch": 4437,
      "Ġ/": 4438,
      "éĢĨ": 4439,
      "å¿ĥçģµ": 4440,
      "ä¸įä»ħåľ¨": 4441,
      "çļĦæ°Ķ": 4442,
      "çŁ©éĺµ": 4443,
      "ä¼¸": 4444,
      "æīİ": 4445,
      "çļĦç³": 4446,
      "å¼ºåº¦": 4447,
      "éĺ²æĬ¤": 4448,
      "ï¼Įè®©æĪĳä»¬": 4449,
      "é¡µéĿ¢": 4450,
      "ï¼ĮåŃ¦ä¹ł": 4451,
      "åľ¨ä¸Ģæ¬¡": 4452,
      "å¾¡": 4453,
      "ãĢĤåľ¨è¿Ļä¸ª": 4454,
      "çł´åĿı": 4455,
      "æĬĹæĹ¥": 4456,
      "äºİæĺ¯": 4457,
      "åĪĨåĪ«": 4458,
      "çľ¼çĿĽ": 4459,
      "å¡«": 4460,
      "åľ¨è¿ĻæĹ¶": 4461,
      "ult": 4462,
      "ï¼Įæī¾åĪ°": 4463,
      "åĪ·": 4464,
      "å®ŀä¹ł": 4465,
      "æµıè§ĪåĻ¨": 4466,
      "op": 4467,
      "ãĢĤè®°ä½ı": 4468,
      "è¿Ŀ": 4469,
      "ä¸ŃçļĦä½ľçĶ¨": 4470,
      "æľŁæľĽ": 4471,
      "æĵİ": 4472,
      "å¹²æī°": 4473,
      "able": 4474,
      "å¹´ä»£": 4475,
      "è¯Ħè®º": 4476,
      "åĩłå¤©": 4477,
      "åĳ¨è¾¹": 4478,
      "ç¾¤ä½ĵ": 4479,
      "æ¦Ĥè¿°": 4480,
      "ç»ĵæĿŁåĲİ": 4481,
      "æĬ½": 4482,
      "å¦Ĥä¸ĭ": 4483,
      "æ±¤": 4484,
      "éĹ®é¢ĺçļĦ": 4485,
      "ï¼Įåı¯ä»¥éĢļè¿ĩ": 4486,
      "èİ²": 4487,
      "ç©ºæ°Ķ": 4488,
      "è´ŁéĿ¢": 4489,
      "æŁĲç§į": 4490,
      "æļ´": 4491,
      "å¥¥ç§ĺ": 4492,
      "Ġå¦Ĥä½ķ": 4493,
      "åı¯ä»¥æł¹æį®": 4494,
      "æ°ı": 4495,
      "çľĭçľĭ": 4496,
      "ï¼Įä»¥ä¸ĭ": 4497,
      "çģ¾": 4498,
      "ç¼ĸçłģ": 4499,
      "çħ®": 4500,
      "çļĦçĹħ": 4501,
      "ç¯®çĲĥ": 4502,
      "çļĦèĲ¥åħ»": 4503,
      "åħĶ": 4504,
      "åİħ": 4505,
      "çŃīé¢ĨåŁŁ": 4506,
      "è®¾ç«ĭ": 4507,
      "ç³ķ": 4508,
      "èĤ´": 4509,
      "ä¹ĭè·¯": 4510,
      "åĲĦç±»": 4511,
      "æķĻèĤ²æĦıä¹ī": 4512,
      "èµ¢å¾ĹäºĨ": 4513,
      "æŁĲä¸ª": 4514,
      "åĿļå®ļåľ°è¯´": 4515,
      "å¡ĳéĢł": 4516,
      "io": 4517,
      "ï¼ĮæĪĲåĬŁ": 4518,
      "ï¼Įæ¯Ķå¦Ĥ": 4519,
      "ç§įç±»": 4520,
      "ä¸ĭçļĦ": 4521,
      "èĤº": 4522,
      "å·¥ä½ľä¸Ń": 4523,
      "èİ·å¾ĹäºĨ": 4524,
      "HTTP": 4525,
      "set": 4526,
      "çļĦçİ¯å¢ĥ": 4527,
      "ãĢĤåıªæľī": 4528,
      "åŃĻ": 4529,
      "çļĦæ±": 4530,
      "çļĦæĽ": 4531,
      "å°±åĥı": 4532,
      "çŁ¥è¯ĨåĴĮ": 4533,
      "è¯ģæį®": 4534,
      "all": 4535,
      "çļĦæĬķ": 4536,
      "åĪĿæŃ¥": 4537,
      "æĬķèµĦèĢħ": 4538,
      "åı¦ä¸Ģ": 4539,
      "</": 4540,
      "Ġå®ŀè·µ": 4541,
      "ï¼Įåį´": 4542,
      "ãĢĤäºĨè§£": 4543,
      "çĽ¸æľº": 4544,
      "èµĦäº§": 4545,
      "å®ŀçİ°é¢ĦæľŁç»ĵæŀľ": 4546,
      "ä¸ªäººçļĦ": 4547,
      "ðŁĴ": 4548,
      "åĵĪå¸Į": 4549,
      "äºķ": 4550,
      "æĺ¯ä»Ģä¹Ī": 4551,
      "çļĦæ£": 4552,
      "æµ®": 4553,
      "âĢľæĪĳ": 4554,
      "æķ°æį®çļĦ": 4555,
      "å£®": 4556,
      "çĥŃçĪ±": 4557,
      "é¾Ħ": 4558,
      "åĨľä¸ļçĶŁäº§": 4559,
      "çĶ·åŃĲ": 4560,
      "ï¼Įä¿ĿæĬ¤": 4561,
      "çļĦä¸ĸçķĮ": 4562,
      "è¾Ľ": 4563,
      "è°Ĭ": 4564,
      "æĵį": 4565,
      "åħ±é¸£": 4566,
      "åĩłç§į": 4567,
      "æĺĵäºİ": 4568,
      "æ¤Ĵ": 4569,
      "åĲ«ä¹ī": 4570,
      "éļľç¢į": 4571,
      "çĽ´æİ¥å½±åĵį": 4572,
      "import": 4573,
      "ocker": 4574,
      "çĪ¶äº²": 4575,
      "ux": 4576,
      "ĠåĽĽ": 4577,
      "ï¼ĮèĻ½çĦ¶": 4578,
      "æĢª": 4579,
      "åıĳå±ķçļĦ": 4580,
      "æĹ¶éĹ´åĴĮ": 4581,
      "çļĦçłĶç©¶æĪĲæŀľ": 4582,
      "æııç»ĺ": 4583,
      "åĪĨå¸ĥå¼ı": 4584,
      "çºªå¿µ": 4585,
      "ä¸ŃçļĦéĩįè¦ģæĢ§": 4586,
      "ON": 4587,
      "ï¼ĮåŃ¦æł¡": 4588,
      "çĽ¸æ¯Ķ": 4589,
      "åİĨåı²çļĦ": 4590,
      "æĮĩå®ļ": 4591,
      "åıĳçİ°äºĨä¸Ģ": 4592,
      "read": 4593,
      "åıĳçĶŁäºĨ": 4594,
      "æķĮäºº": 4595,
      "æľºéģĩ": 4596,
      "æĹ¥å¿Ĺ": 4597,
      "æħ°": 4598,
      "ç®ĢåĮĸ": 4599,
      "ç¦»å¼Ģ": 4600,
      "èĤ©èĨĢ": 4601,
      "IP": 4602,
      "Ġint": 4603,
      "åĪĢ": 4604,
      "åĴĮåħ¶ä»ĸ": 4605,
      "æĬµ": 4606,
      "å¼ķæĵİ": 4607,
      "æĸ¹éĿ¢çļĦ": 4608,
      "å®ĪæĬ¤": 4609,
      "éģµå®Ī": 4610,
      "æįķæį": 4611,
      "ï¼ĮæİĮæı¡": 4612,
      "æĿľ": 4613,
      "é£ŁçĶ¨": 4614,
      "ä¸īä¸ª": 4615,
      "orm": 4616,
      "éľĢæ±ĤåĴĮ": 4617,
      "ï¼Įæİ¢è®¨": 4618,
      "è®¶": 4619,
      "æľīåħ³": 4620,
      "è§Ĥçľĭ": 4621,
      "æĹłçº¿": 4622,
      "åĽŀé¡¾": 4623,
      "æĥĬè®¶": 4624,
      "ç¬ĳäºĨç¬ĳ": 4625,
      "ï¼ĮæĿ¥": 4626,
      "æĥľ": 4627,
      "æĤ¦": 4628,
      "è¿Ĳä½ľ": 4629,
      "ï¼īãĢģ": 4630,
      "å¹´çļĦ": 4631,
      "éĴ¢": 4632,
      "ç¾İä¸½": 4633,
      "ä¼łç»ŁçļĦ": 4634,
      "äººå·¥æĻºèĥ½": 4635,
      "text": 4636,
      "å¿ĺ": 4637,
      "ine": 4638,
      "é¡¹çĽ®çļĦ": 4639,
      "çļĦåŃ¦ä¹łåĴĮ": 4640,
      "è¿Ļæł·çļĦ": 4641,
      "çļĦç©º": 4642,
      "çļĦåŃ¦çĶŁ": 4643,
      "åħ¼": 4644,
      "âĢľè¿Ļ": 4645,
      "è®ºåĿĽ": 4646,
      "è½¬åĮĸ": 4647,
      "ç»ĻäºĪ": 4648,
      "çĶŁçī©åŃ¦": 4649,
      "éĢŁåº¦åĴĮ": 4650,
      "bo": 4651,
      "çĶĺ": 4652,
      "åĴĮå°ı": 4653,
      "ç¾İå¥½": 4654,
      "ç«łèĬĤ": 4655,
      "ity": 4656,
      "èľľ": 4657,
      "å½¼æŃ¤": 4658,
      "ï¼ĮçªģçĦ¶": 4659,
      "ãĢĤä¸Ģ": 4660,
      "åĴĮä¼ĺåĮĸ": 4661,
      "æľīä¸Ģå¤©": 4662,
      "æıĲåīį": 4663,
      "éĩįçĤ¹": 4664,
      "å¤§åŀĭ": 4665,
      "å¯ĨåĪĩ": 4666,
      "åģļå¥½": 4667,
      "éŃĶæ³ķ": 4668,
      "ast": 4669,
      "sp": 4670,
      "ãĢĤèĻ½çĦ¶": 4671,
      "æĪ´": 4672,
      "ä¼Ļ": 4673,
      "éĩįè¦ģæĢ§": 4674,
      "åģ¿": 4675,
      "æĸĩåĮĸåĴĮ": 4676,
      "çĸ²": 4677,
      "çĶŁæ´»çļĦ": 4678,
      "çº¿ç´¢": 4679,
      "åıĭè°Ĭ": 4680,
      "edis": 4681,
      "çĻ»å½ķ": 4682,
      "AI": 4683,
      "ï¼Įè¯·": 4684,
      "ãĢĤæŀĹ": 4685,
      "åĮĸåĴĮ": 4686,
      "éĺĶ": 4687,
      "ä¼Ĺå¤ļ": 4688,
      "ï¼ĮæĽ´æĺ¯å¯¹": 4689,
      "èĩªå·±çļĦæ¢¦æĥ³": 4690,
      "è£Ĥ": 4691,
      "ä¸Ģå®ļèĥ½": 4692,
      "å¢ŀå¼ºäºĨ": 4693,
      "åľ¨è¿ĻéĩĮ": 4694,
      "çļ®èĤ¤": 4695,
      "ãĢĤåħ·ä½ĵ": 4696,
      "è¡°": 4697,
      "è´«": 4698,
      "æ¡¥": 4699,
      "å¯Įæľī": 4700,
      "æĽ´åĬłåĿļå®ļ": 4701,
      "æĶ¾åħ¥": 4702,
      "æīĢåŃ¦çŁ¥è¯Ĩ": 4703,
      "æĸĳ": 4704,
      "åĬĽçļĦ": 4705,
      "æĥł": 4706,
      "å¼ĢæºĲ": 4707,
      "æīĢä»¥": 4708,
      "é¡¹çĽ®ä¸Ń": 4709,
      "æłĳç«ĭ": 4710,
      "æī¹åĪ¤": 4711,
      "èĶ¬": 4712,
      "è°ľåĽ¢": 4713,
      "æīĵä¸ĭåĿļå®ŀçļĦåŁºç¡Ģ": 4714,
      "Ġand": 4715,
      "ï¼Įè¿ĺåı¯ä»¥": 4716,
      "èĢĥéªĮ": 4717,
      "æ²³æµģ": 4718,
      "();Ċ": 4719,
      "ä»Ļ": 4720,
      "éĿ¢ç§¯": 4721,
      "è·ĥ": 4722,
      "åħ¬å¼Ģ": 4723,
      "æŃ£ä¹ī": 4724,
      "ãĢĭä¸ŃçļĦ": 4725,
      "ath": 4726,
      "å¾®ç¬ĳçĿĢè¯´": 4727,
      "æĢ§åĪ«": 4728,
      "éĩıåĴĮ": 4729,
      "æĸ½å·¥": 4730,
      "åı£æĦŁ": 4731,
      "ord": 4732,
      "å·¥ç¨ĭå¸Ī": 4733,
      "ï¼Įä¸Ģä½į": 4734,
      "èľĤ": 4735,
      "æ¶µçĽĸäºĨ": 4736,
      "AR": 4737,
      "è¿Ļä¸ªéĹ®é¢ĺ": 4738,
      "ç¼ºä¹ı": 4739,
      "ä¸¾åĬŀ": 4740,
      "å¯ºåºĻ": 4741,
      "åĲĮåŃ¦ä»¬": 4742,
      "åıĸå¾ĹäºĨæĺ¾èĳĹ": 4743,
      "Script": 4744,
      "`ï¼ļ": 4745,
      "åľ£": 4746,
      "è¿Ļæ®µ": 4747,
      "çļĦæģ": 4748,
      "å¾Ĵ": 4749,
      "è¿ĺåı¯ä»¥": 4750,
      "ãĢĤéĢļè¿ĩè¿ĻäºĽ": 4751,
      "å¸¦é¢Ĩ": 4752,
      "å®ŀéĻħæ¡Īä¾ĭ": 4753,
      "ç´§å¯Ĩ": 4754,
      "çļĦåŁºæľ¬åİŁçĲĨ": 4755,
      "å¿ħè¦ģçļĦ": 4756,
      "up": 4757,
      "åµ": 4758,
      "çĴ": 4759,
      "éĿ¢è¯ķ": 4760,
      "åħ¬æŃ£": 4761,
      "ï¼Įè¿ĺè¦ģ": 4762,
      "ï¼Įè¿ĺéľĢè¦ģ": 4763,
      "å½ĵä»£": 4764,
      "çķĮçļĦ": 4765,
      "çļĦæ³¨æĦı": 4766,
      "ke": 4767,
      "æĹģ": 4768,
      "ä¼ļåľ¨": 4769,
      "æĥ³èµ·": 4770,
      "æĹ¶éĹ´åĨħ": 4771,
      "æĮĩåįĹ": 4772,
      "---": 4773,
      "æ½®": 4774,
      "è´¢å¯Į": 4775,
      "è¿ĶåĽŀ": 4776,
      "name": 4777,
      "Ġæķħäºĭ": 4778,
      "è¯¸": 4779,
      "ï¼ļäºĨè§£": 4780,
      "è¿ĩäºİ": 4781,
      "èĢĥå¯Ł": 4782,
      "ç²¾ç¡®": 4783,
      "èµĦæºĲçļĦ": 4784,
      "ä¸°å¯ĮäºĨ": 4785,
      "åİĭç¼©": 4786,
      "åŃ¦æł¡çļĦ": 4787,
      "iew": 4788,
      "ï¼ĮéĢĤåĲĪ": 4789,
      "çļĦçŁ": 4790,
      "æķĪçĽĬ": 4791,
      "äº¤æį¢": 4792,
      "æ»¡äºĨ": 4793,
      "è¯»åıĸ": 4794,
      "ç¾İé£Ł": 4795,
      "é¥²": 4796,
      "æĿĥåĪ©": 4797,
      "ï¼ĮæĪĳä»¬åı¯ä»¥æĽ´å¥½åľ°çĲĨè§£": 4798,
      "çļĦæĥħèĬĤ": 4799,
      "æĹĭå¾ĭ": 4800,
      "åĢŁéī´": 4801,
      "\",": 4802,
      "\\(": 4803,
      "Ġy": 4804,
      "å¤§æķ°æį®": 4805,
      "åľºæīĢ": 4806,
      "è°ĥè¯ķ": 4807,
      "åĦ¿ç«¥": 4808,
      "æī©å¤§": 4809,
      "çĩ¥": 4810,
      "JavaScript": 4811,
      "ï¼Įæł¹æį®": 4812,
      "çļĦæĹ¶åĢĻ": 4813,
      "ãĢģç¤¾ä¼ļ": 4814,
      "å¿į": 4815,
      "æ³°": 4816,
      "èµĭ": 4817,
      "æıĲéĨĴ": 4818,
      "èģĺ": 4819,
      "éĢĤçĶ¨": 4820,
      "å°±åľ¨è¿ĻæĹ¶": 4821,
      "ï¼Įä½Ĩåľ¨": 4822,
      "åŃĹæ¯į": 4823,
      "åıįå¤į": 4824,
      "åħīçº¿": 4825,
      "Ġç¬¬äºĶ": 4826,
      "æī¿è½½": 4827,
      "èħ»": 4828,
      "ice": 4829,
      "åĳĬè¯īæĪĳä»¬": 4830,
      "è´§å¸ģ": 4831,
      "çĺ¤": 4832,
      "çļĦæ¯ıä¸Ģä¸ª": 4833,
      "droid": 4834,
      "¼çĹĽ": 4835,
      "Ġæł¹æį®": 4836,
      "çļĦå»ºè®®": 4837,
      "ä¸ĢåĪĩ": 4838,
      "ä¸ĢèĤ¡": 4839,
      "æ³¥": 4840,
      "åŃ¦çĶŁåľ¨": 4841,
      "æĤ¬": 4842,
      "åħħè¶³": 4843,
      "çĹħæ¯Ĵ": 4844,
      "å¿«ä¹Ĳ": 4845,
      "æ¼Ķå¥ı": 4846,
      "æĻļä¸Ĭ": 4847,
      "é©±åĬ¨": 4848,
      "AT": 4849,
      "python": 4850,
      "ä¸Ńå¤": 4851,
      "çļĦæĳ": 4852,
      "æı´": 4853,
      "æĿİå¿Ĺ": 4854,
      "ï¼Įä½Ĩä¹Ł": 4855,
      "éĩĮçļĦ": 4856,
      "çľŁçĽ¸": 4857,
      "åĩłä¹İ": 4858,
      "ç£ģ": 4859,
      "çİīç±³": 4860,
      "ï¼ĮåĨ³å®ļ": 4861,
      "æĢķ": 4862,
      "é«ĺæł¡": 4863,
      "ä½ĵèĥ½": 4864,
      "èĤª": 4865,
      "åħ¨åĽ½": 4866,
      "çĽ¸ä¼¼": 4867,
      "å¤ĩä»½": 4868,
      "è°ĥåĳ³": 4869,
      "æĽ´å¥½çļĦ": 4870,
      "æŀģå¤§": 4871,
      "çļĦæİ§": 4872,
      "æ²īæĢĿ": 4873,
      "èķ´åĲ«": 4874,
      "èĦĤèĤª": 4875,
      "çļĦç«ŀäºī": 4876,
      "tr": 4877,
      "åı¯ä»¥ä½¿çĶ¨": 4878,
      "åºĶçĶ¨åĪ°": 4879,
      "åĬŀæ³ķ": 4880,
      "ä»ĵåºĵ": 4881,
      "Windows": 4882,
      "æ§": 4883,
      "çļĦçĬ": 4884,
      "ä¿ĿéĻ©": 4885,
      "å°Ĩç»§ç»Ń": 4886,
      "è®°è½½": 4887,
      "çīĩåĪ»": 4888,
      "ï¼ĮåĪĻ": 4889,
      "çļĦç»ıåİĨ": 4890,
      "å°ĺ": 4891,
      "çİ°çĬ¶": 4892,
      "åīª": 4893,
      "åĿ¦": 4894,
      "ä¹ĭå¤Ħ": 4895,
      "åĢĴ": 4896,
      "å§ĵ": 4897,
      "ator": 4898,
      "åĪĹè¡¨": 4899,
      "èıľèĤ´": 4900,
      "æ¦Ĥçİĩ": 4901,
      "ï¼ĮéĻĪ": 4902,
      "ä»ĸå¯¹": 4903,
      "æľ¬åľ°": 4904,
      "è®¾è®¡åĴĮ": 4905,
      "å¢ŀåĬłäºĨ": 4906,
      "å¹¿æ³ĽåºĶçĶ¨äºİ": 4907,
      "ä¿ĥè¿ĽäºĨ": 4908,
      "oun": 4909,
      "çļĦä¼ĺåĬ¿": 4910,
      "çļĦèµ·æºĲ": 4911,
      "åĴĮæĶ¯æĮģ": 4912,
      "åĴĮåĭĩæ°Ķ": 4913,
      "æ³¡": 4914,
      "äººå£«": 4915,
      "çľł": 4916,
      "çĶ»éĿ¢": 4917,
      "åĽ¢éĺŁåįıä½ľ": 4918,
      "åŃ¦ä¼ļäºĨå¦Ĥä½ķ": 4919,
      "å¹¸ç¦ı": 4920,
      "æ¯ķä¸ļ": 4921,
      "ä¸Ńå¤®": 4922,
      "¹æŀľ": 4923,
      "çļĦè¯Ŀ": 4924,
      "ãĢĤå°ı": 4925,
      "ä½ĵä¼ļ": 4926,
      "éģĵåħ·": 4927,
      "æİ¢éĻ©": 4928,
      "èĭ¹æŀľ": 4929,
      "Ġcon": 4930,
      "ä¸ľè¥¿": 4931,
      "èĪŀåı°": 4932,
      "ï¼ĮåĨį": 4933,
      "è¿Ľå±ķ": 4934,
      "åıĤè§Ĥ": 4935,
      "éģĹä¼ł": 4936,
      "çļĦçľŁå®ŀ": 4937,
      "MP": 4938,
      "put": 4939,
      "Ġof": 4940,
      "åĴĮèµĦæºĲ": 4941,
      "çĽĹ": 4942,
      "çľī": 4943,
      "æİ¥çĿĢ": 4944,
      "ç§ĳåŃ¦çłĶç©¶": 4945,
      "çĸĳæĥĳ": 4946,
      "LE": 4947,
      "ser": 4948,
      "åľ°äº§": 4949,
      "éľį": 4950,
      "çĶµæ±ł": 4951,
      "Ġç¬¬ä¸ĢæŃ¥": 4952,
      "æĹ¥å¸¸çĶŁæ´»": 4953,
      "åħ¨éĿ¢åıĳå±ķ": 4954,
      "æĭįäºĨ": 4955,
      "å®¢æĪ·ç«¯": 4956,
      "èĪªç©º": 4957,
      "ï¼Įçľ¼ç¥ŀ": 4958,
      "å²Ĺä½į": 4959,
      "ï¼Įä¼ļ": 4960,
      "è¿Ł": 4961,
      "ãĢģé«ĺ": 4962,
      "æĽ¦": 4963,
      "åĽŀåºĶ": 4964,
      "ample": 4965,
      "Ġç¬¬äºĮæŃ¥": 4966,
      "é¢Ĺç²Ĵ": 4967,
      "App": 4968,
      "GP": 4969,
      "con": 4970,
      "åĴĮæľįåĬ¡": 4971,
      "åľ°çľĭçĿĢ": 4972,
      "æĮ«": 4973,
      "ä¸įä»ħèĥ½": 4974,
      "æľĢæĸ°": 4975,
      "äº§åĵģçļĦ": 4976,
      "åĪĽéĢłåĩº": 4977,
      "æ¥ļ": 4978,
      "æįķæįī": 4979,
      "qu": 4980,
      "ä¸Ģåı£æ°Ķ": 4981,
      "å½»": 4982,
      "æĢ§æĢĿç»´": 4983,
      "ä¿¡é¸½": 4984,
      "ç®¡çĲĨç³»ç»Ł": 4985,
      "è§ĴèĲ½": 4986,
      "çļĦå·¥ä½ľåİŁçĲĨ": 4987,
      "çĪ±å¥½èĢħ": 4988,
      "çļĦçº¿ç´¢": 4989,
      "æĭįäºĨæĭį": 4990,
      "æļĤ": 4991,
      "æĳĦåħ¥": 4992,
      "åħ¸åŀĭ": 4993,
      "Ġ#": 4994,
      "æĪª": 4995,
      "âĢ¦": 4996,
      "ä¸įèī¯": 4997,
      "æī«": 4998,
      "è§£çŃĶ": 4999,
      "æĪĳä»¬åľ¨": 5000,
      "åħ¬å®ī": 5001,
      "æ¯ıä¸ªäºº": 5002,
      "è¾ĥé«ĺçļĦ": 5003,
      "çĽĳç®¡": 5004,
      "å¤§éĩıçļĦ": 5005,
      "æ²īæµ¸": 5006,
      "å®ģéĿĻ": 5007,
      "çļĦæ¶Ī": 5008,
      "ãĢĤç»ıè¿ĩ": 5009,
      "çĶľ": 5010,
      "åĴĮæĸ¹æ³ķ": 5011,
      "åĴĮæĬĢæľ¯": 5012,
      "çİ°åľº": 5013,
      "è®©ä»ĸä»¬": 5014,
      "æıĲåįĩèĩªå·±çļĦ": 5015,
      "èĭĹ": 5016,
      "éĩĬæĶ¾": 5017,
      "æĥħæĦŁè¡¨è¾¾": 5018,
      "æĸĹäºī": 5019,
      "æĹ©æľŁ": 5020,
      "Ġç¬¬ä¸īæŃ¥": 5021,
      "çļĦæĶ¿æ²»": 5022,
      "æ·±åĲ¸ä¸Ģåı£æ°Ķ": 5023,
      "æĮĤ": 5024,
      "çī©ä½ĵ": 5025,
      "ä¹¦ä¸ŃçļĦ": 5026,
      "åįķè¯į": 5027,
      "æŀĦæĪĲ": 5028,
      "éļ¾åº¦": 5029,
      "æĴŃæĶ¾": 5030,
      "é¡¾å®¢": 5031,
      "æĽ¾ç»ı": 5032,
      "Ġx": 5033,
      "çļ±": 5034,
      "æĽ´é«ĺçļĦ": 5035,
      "äº¤å¾Ģ": 5036,
      "æķ´åĲĪ": 5037,
      "å½ĵæĹ¶": 5038,
      "ï¼Įåı¯ä»¥ä½¿çĶ¨": 5039,
      "éĵľ": 5040,
      "æİ¨è¿Ľ": 5041,
      "ä¸¤ç§į": 5042,
      "ä¸ĸçķĮçļĦ": 5043,
      "åĪĽæĸ°åĴĮ": 5044,
      "loc": 5045,
      "åľ°è¯´éģĵ": 5046,
      "çıįæĥľ": 5047,
      "æµĵåİļçļĦåħ´è¶£": 5048,
      "æĮĸæİĺ": 5049,
      "ï¼Įé¼ĵåĬ±": 5050,
      "çļĦèĩªçĦ¶": 5051,
      "å°ĸ": 5052,
      "å°ıæĹ¶": 5053,
      "ï¼īãĢĤ": 5054,
      "ãĢĤéĢļè¿ĩåŃ¦ä¹ł": 5055,
      "æ¸¸æĪıçļĦ": 5056,
      "å°ĳå¹´": 5057,
      "è£ħå¤ĩ": 5058,
      "çļĦç¬¦": 5059,
      "èĸĦ": 5060,
      "ï¼ĮéĤ£ä¹Ī": 5061,
      "èĶ¬èıľ": 5062,
      "JS": 5063,
      "bash": 5064,
      "ï¼Įä¾¿": 5065,
      "èĢĢ": 5066,
      "æıĲç¤º": 5067,
      "å±ķå¼Ģ": 5068,
      "åĲĮäºĭ": 5069,
      "åĪĨæŀĲåĴĮ": 5070,
      "æ¸ħæ´ģ": 5071,
      "ç§ĳåŃ¦å®¶": 5072,
      "å¹¿æ³ĽçļĦ": 5073,
      "çĶŁæĢģçİ¯å¢ĥ": 5074,
      "çļĦæ¸©": 5075,
      "ç«ŁçĦ¶": 5076,
      "ore": 5077,
      "ï¼ĮçĶ±äºİ": 5078,
      "çŃ¹": 5079,
      "çľĭèµ·æĿ¥": 5080,
      "æīĭæ³ķ": 5081,
      "èĢĥçĶŁ": 5082,
      "çĸĹæ³ķ": 5083,
      "æĿĥéĻĲ": 5084,
      "åĲ¬åĬĽ": 5085,
      "ä¼łç»ŁæĸĩåĮĸ": 5086,
      "éĵ¾æİ¥": 5087,
      "æ¬§æ´²": 5088,
      "ï¼Įå¯»æī¾": 5089,
      "çļĦä½įç½®": 5090,
      "çļĦæŁ": 5091,
      "ç¼ĸè¯ĳ": 5092,
      "çļĦæĬĹ": 5093,
      "Ġ\\]": 5094,
      "çļĦæĬĢå·§": 5095,
      "ä¸ĵæ³¨äºİ": 5096,
      "ĠO": 5097,
      "ĠçļĦ": 5098,
      "ä¸ĬäºĨ": 5099,
      "æ»´": 5100,
      "ï¼ĪC": 5101,
      "åıįå°Ħ": 5102,
      "çļĦæĶ¹": 5103,
      "çħ§çīĩ": 5104,
      "ç»ĺåĪ¶": 5105,
      "ĠW": 5106,
      "ä¼į": 5107,
      "æĿ¥åĪ°äºĨ": 5108,
      "å¯¼èĪª": 5109,
      "çĥ§": 5110,
      "æĹ¥æľŁ": 5111,
      "èĪ¹": 5112,
      "å±ĢéĻĲ": 5113,
      "ä¼ĺç§ĢçļĦ": 5114,
      "è´¸æĺĵ": 5115,
      "('": 5116,
      "yp": 5117,
      "Ġh": 5118,
      "ãĢĤä¸ŃåŃ¦çĶŁ": 5119,
      "è¿ª": 5120,
      "ä½¿åĳ½": 5121,
      "è¿Ĳç®Ĺ": 5122,
      "åĿļéŁ§": 5123,
      "å¯¹äºİä¸ŃåŃ¦çĶŁæĿ¥è¯´": 5124,
      "çŁĽçĽ¾": 5125,
      "åį³å°Ĩ": 5126,
      "Fl": 5127,
      "æľĢè¿ĳ": 5128,
      "æĹ¥çĽĬ": 5129,
      "ç²¾åº¦": 5130,
      "èĢģå¹´": 5131,
      "è½¬æĬĺ": 5132,
      "æĳĺ": 5133,
      "ä½ıå®": 5134,
      "å¹¿æ³ĽçļĦåºĶçĶ¨": 5135,
      "åĢ¾åĲ¬": 5136,
      "Ġthe": 5137,
      "¬éĹ´": 5138,
      "åĪĨè§£": 5139,
      "ç»Ĩèħ»": 5140,
      "æľĽçĿĢ": 5141,
      "å¸ĤåľºçļĦ": 5142,
      "éŃĤ": 5143,
      "çĨĬ": 5144,
      "oid": 5145,
      "éŀ": 5146,
      "ä¸įå®ī": 5147,
      "æĪĲçĨŁ": 5148,
      "çŃīå¤ļç§į": 5149,
      "ä»£çĲĨ": 5150,
      "éĥ¨ä»¶": 5151,
      "æĽ´å¥½åľ°åºĶå¯¹": 5152,
      "èĥĮåĲİçļĦ": 5153,
      "ï¼Įä»İèĢĮåľ¨": 5154,
      "å¤±åİ»": 5155,
      "æ¸©æļĸ": 5156,
      "æĲº": 5157,
      "èįīèį¯": 5158,
      "æģ¶æĦı": 5159,
      "èĿ¶": 5160,
      "å°ıå¿ĥç¿¼ç¿¼åľ°": 5161,
      "éĺ¿æĭīä¼¯": 5162,
      "åıĶ": 5163,
      "ç»£": 5164,
      "ä¿Ĺ": 5165,
      "å¯¹ä»ĸ": 5166,
      "åıĳåĩº": 5167,
      "inux": 5168,
      "æ¸¸æĪıè®¾è®¡": 5169,
      "çļĦåľ°çĲĨ": 5170,
      "åıĮæĸ¹": 5171,
      "ocket": 5172,
      "çļĦæıĲåįĩ": 5173,
      "åµĮ": 5174,
      "ff": 5175,
      "os": 5176,
      "Ġapp": 5177,
      "åĴĮæĿİ": 5178,
      "æĺĨ": 5179,
      "æĿİéĿĴ": 5180,
      "å¯ĮåĲ«": 5181,
      "ç§ĺä¹¦": 5182,
      "åĲ¸æĶ¶": 5183,
      "ĠäºĨè§£": 5184,
      "ä¸Ģæľ¬": 5185,
      "æıĲåĩºäºĨ": 5186,
      "å¼ºçļĦ": 5187,
      "ï¼Įè¿ĺèĥ½å¤Ł": 5188,
      "æīĢè¿°": 5189,
      "ãĢĭĊĊ": 5190,
      "äºĨä¸Ģç§į": 5191,
      "çİ°ä»£ç¤¾ä¼ļ": 5192,
      "åħ´è¶£åĴĮ": 5193,
      "çĳŀ": 5194,
      "åĿļå®ŀåŁºç¡Ģ": 5195,
      "çļĦæİ¢ç´¢": 5196,
      "åĬŀåħ¬å®¤": 5197,
      "ĠåŃ¦ä¹ł": 5198,
      "ãĢĤåŃ¦æł¡": 5199,
      "è´·": 5200,
      "ç½ļ": 5201,
      "äº§æĿĥ": 5202,
      "åŃ¦æľ¯çłĶç©¶": 5203,
      "ize": 5204,
      "ï¼Įå½±åĵį": 5205,
      "åĴĮåĪĽæĸ°": 5206,
      "äºĨè®¸å¤ļ": 5207,
      "ä¸ĬéĿ¢": 5208,
      "æĦŁè°¢": 5209,
      "è±«": 5210,
      "åı¤ç±į": 5211,
      "å·§å¦Ļ": 5212,
      "å®ĮæĪĲåĲİ": 5213,
      "çļĦæī§": 5214,
      "Ġç¬¬åĽĽæŃ¥": 5215,
      "ï¼Į`": 5216,
      "æľīçĽĬ": 5217,
      "ä¸ºæĪĳä»¬": 5218,
      "èĩªå·±çļĦåĬĽéĩı": 5219,
      "ï¼Ł**ĊĊ": 5220,
      "æ¸¸æĪıä¸ŃçļĦ": 5221,
      "èĭ¥": 5222,
      "ï¼ĮèĢĮä¸įæĺ¯": 5223,
      "è§Ĵèī²çļĦ": 5224,
      "åĸľçĪ±": 5225,
      "ç¿»éĺħ": 5226,
      "ge": 5227,
      "ï¼Įåİ»": 5228,
      "æĺ¯éĢļè¿ĩ": 5229,
      "è¿Ļåľº": 5230,
      "ç§©": 5231,
      "å®ŀåĬĽ": 5232,
      "âĢĿãĢĤĊĊ": 5233,
      "åīįæīĢ": 5234,
      "ç®¡çĲĨåĳĺ": 5235,
      "å·¥ä½ľçļĦ": 5236,
      "éĺ²å¾¡": 5237,
      "å¸Ĥåľºä¸Ĭ": 5238,
      "éĩĳå±ŀ": 5239,
      "æĮĳæĪĺåĴĮ": 5240,
      "åħ³ç³»åĪ°": 5241,
      "é£ŀæľº": 5242,
      "èĽĩ": 5243,
      "ä»¿çľŁ": 5244,
      "æ½ľåĬĽ": 5245,
      "è½¬æį¢ä¸º": 5246,
      "\"Ċ": 5247,
      "Ex": 5248,
      "ï¼Įæīĭ": 5249,
      "ãĢĤæľ¬æĸĩ": 5250,
      "åĪĬ": 5251,
      "æĺĮ": 5252,
      "åİŁæĿ¥": 5253,
      "çļĦæĥ³": 5254,
      "åĪĽéĢłåĬĽ": 5255,
      "çī¹å®ļçļĦ": 5256,
      "æİ¥ä¸ĭæĿ¥çļĦ": 5257,
      "é¢Ŀå¤ĸ": 5258,
      "String": 5259,
      "å¿łè¯ļ": 5260,
      "åĴĮçłĶç©¶": 5261,
      "çĶ¨éĢĶ": 5262,
      "å¯¹æĬĹ": 5263,
      "å¯¼å¸Ī": 5264,
      "æµģåĬ¨": 5265,
      "çģ°": 5266,
      "æĶ¶èİ·": 5267,
      "æŃĮè¯į": 5268,
      "å®ŀéĻħåºĶçĶ¨ä¸Ń": 5269,
      "éĻ·åħ¥äºĨ": 5270,
      "å¥ĸåĬ±": 5271,
      "éļĲèĹıçĿĢ": 5272,
      "çļĦæ¡Ī": 5273,
      "åīįæīĢæľª": 5274,
      "++": 5275,
      "DM": 5276,
      "åıī": 5277,
      "ä¸Ģå®¶": 5278,
      "åıĳè¡¨": 5279,
      "æĽ´ä¸º": 5280,
      "èĬ³": 5281,
      "æĤł": 5282,
      "æłĩå¿Ĺ": 5283,
      "ä»¥ä¸ĭåĳ½ä»¤": 5284,
      "ç¾İåĳ³": 5285,
      "æĪĲä¸ºä¸ĢåĲį": 5286,
      "èħº": 5287,
      "åı¯ä»¥å¸®åĬ©ä½ł": 5288,
      "å¡ĳæĸĻ": 5289,
      "ç§©åºı": 5290,
      "äº¡": 5291,
      "å¦Ĥåħ¶": 5292,
      "æĬĢèīº": 5293,
      "å¤Ħäºİ": 5294,
      "çĬ¹": 5295,
      "è¯¦ç»Ĩæİ¢è®¨": 5296,
      "æķıæĦŁ": 5297,
      "è¡Ĺéģĵ": 5298,
      "ï¼ĮéĢĲæŃ¥": 5299,
      "åľ°éĹ®éģĵ": 5300,
      "å®ŀåľ°": 5301,
      "ãĢĤä»ĸæĺİçĻ½": 5302,
      "æ¨¡ä»¿": 5303,
      "ï¼Įå¹¶ä¸Ķ": 5304,
      "èĲ¥éĢł": 5305,
      "çªģå¦Ĥåħ¶": 5306,
      "è´¨éĩıåĴĮ": 5307,
      "ç»Īç«¯": 5308,
      "å¼ĤæŃ¥": 5309,
      "è¡¨è¾¾å¼ı": 5310,
      "åĳ¨æľŁ": 5311,
      "é«ĺæķĪåľ°": 5312,
      "èĮĥåĽ´åĨħ": 5313,
      "æī®æ¼ĶçĿĢ": 5314,
      "ST": 5315,
      "ä¸Ģåľº": 5316,
      "åľ¨ä¸Ģèµ·": 5317,
      "ç§¦": 5318,
      "æĽ´æį¢": 5319,
      "çĤ¹çĤ¹å¤´": 5320,
      "äºĨè§£åĪ°": 5321,
      "æµģçķħ": 5322,
      "ç»ĨèıĮ": 5323,
      "å¦Ĥä½ķå¸®åĬ©": 5324,
      "çľŁæĺ¯": 5325,
      "äºĨä¸Ģç³»åĪĹ": 5326,
      "_c": 5327,
      "çļĦæľªæĿ¥": 5328,
      "ä¿ĿçķĻ": 5329,
      "æ´ª": 5330,
      "åĿļä¿¡": 5331,
      "çĶ¨æĪ·çļĦ": 5332,
      "èĮİ": 5333,
      "åĪĩæį¢": 5334,
      "ç±»åŀĭçļĦ": 5335,
      "ç¼ºçĤ¹": 5336,
      "ç»Īäºİæī¾åĪ°äºĨ": 5337,
      "åĿĩè¡¡": 5338,
      "åĪĿå§ĭåĮĸ": 5339,
      "çļĦçĬ¶": 5340,
      ".t": 5341,
      "ãĢĤ###": 5342,
      "ãĢĤæľĢåĲİ": 5343,
      "å¤¹": 5344,
      "ãĢģâĢľ": 5345,
      "çĶ¨æĿ¥": 5346,
      "åĪĨç¦»": 5347,
      "çļĦç¹ģ": 5348,
      "åĲĪçī©": 5349,
      "å¹´é¾Ħ": 5350,
      "çĭĤ": 5351,
      "æ¼Ĥ": 5352,
      "å±ĤéĿ¢": 5353,
      "èµ°åĲĳ": 5354,
      "åı¯ä»¥å¸®åĬ©æĪĳä»¬": 5355,
      "çŁ¿çī©è´¨": 5356,
      "ï¼Įä¸ĢäºĽ": 5357,
      "åŃ¦ä¸ļ": 5358,
      "æĸĩçī©": 5359,
      "åŁºåľ°": 5360,
      "äºĨè§£äºĨ": 5361,
      "åĲĦèĩª": 5362,
      "åĽŀå¿Ĩ": 5363,
      "åĿļæĮģä¸įæĩĪ": 5364,
      "user": 5365,
      "olor": 5366,
      "å«": 5367,
      "Ġè¯·": 5368,
      "ï¼ĮçĽ´": 5369,
      "æ±²": 5370,
      "åĬłéĢŁ": 5371,
      "å°ıéķĩ": 5372,
      "äºĨè§£åĴĮ": 5373,
      "çģµæĦŁ": 5374,
      "æĪ¿åľ°äº§": 5375,
      "æ¹¾": 5376,
      "é«ĺæķĪçļĦ": 5377,
      "Node": 5378,
      "ll": 5379,
      "ql": 5380,
      "ä¸Ģç¬ĳ": 5381,
      "æĹ¦": 5382,
      "å±ĭ": 5383,
      "ä¸įä»ħéľĢè¦ģ": 5384,
      "æĺİæĻº": 5385,
      "å½±åŃĲ": 5386,
      "èģĬ": 5387,
      "æĪĸè®¸": 5388,
      "çĸ¼çĹĽ": 5389,
      "ï¼Įè¿ĺæľī": 5390,
      "ï¼īĊĊ": 5391,
      "åĨ³å®ļäºĨ": 5392,
      "éļıæľº": 5393,
      "çļĦæĬĢèĥ½": 5394,
      "æ²īé»ĺ": 5395,
      "çļĦæĻ®": 5396,
      "åį«çĶŁ": 5397,
      "ãĢĤæł¹æį®": 5398,
      "çĲª": 5399,
      "çĶŁçĲĨ": 5400,
      "éģŃ": 5401,
      "éĺŁåıĭ": 5402,
      "è®¤çľŁ": 5403,
      "çī©çĲĨåŃ¦": 5404,
      "æįŁå¤±": 5405,
      "æ¶īåıĬåĪ°": 5406,
      "éĽķåĪ»": 5407,
      "Android": 5408,
      "Cont": 5409,
      "yst": 5410,
      "æ¾": 5411,
      "ï¼ĮæĹ¢": 5412,
      "çļĦåıĳçĶŁ": 5413,
      "å¹½": 5414,
      "æĽ´åħ¨éĿ¢": 5415,
      "æĭ³": 5416,
      "åĲĪçº¦": 5417,
      "ï¼Įä»ĸæĦıè¯ĨåĪ°": 5418,
      "æī¾åĩº": 5419,
      "ç»ıæµİçļĦ": 5420,
      "äºĴçĽ¸": 5421,
      "å¿ĥä¸Ńåħħæ»¡äºĨ": 5422,
      "é¡ºåºı": 5423,
      "åįłæį®": 5424,
      "ror": 5425,
      "ï¼ĮéĢĤçĶ¨äºİ": 5426,
      "çļĦæķĪæŀľ": 5427,
      "åĴĮä½¿çĶ¨": 5428,
      "ä¸Ńåħ·æľī": 5429,
      "è¿Ļä¹Ī": 5430,
      "åĨ¬": 5431,
      "å¾Ĳ": 5432,
      "æĦī": 5433,
      "æĽ´å¤§çļĦ": 5434,
      "çķª": 5435,
      "çķı": 5436,
      "è´¨çĸĳ": 5437,
      "ä¸»äºº": 5438,
      "ç¥ĸ": 5439,
      "èį·": 5440,
      "ä¸ĵéĹ¨": 5441,
      "ç¾İçļĦ": 5442,
      "ç²¾åĩĨ": 5443,
      "å¦ĩ": 5444,
      "ä¸ªäººæĪĲéķ¿": 5445,
      "çİ°ä»£åĮĸ": 5446,
      "åľ¨çİ°ä»£ç¤¾ä¼ļ": 5447,
      "èĤ¿çĺ¤": 5448,
      "çļĦæİ§åĪ¶": 5449,
      "ML": 5450,
      "ï¼Įå¤§åŃ¦çĶŁ": 5451,
      "åįĸ": 5452,
      "è´¯": 5453,
      "çļĦç±": 5454,
      "åĽłåħ¶": 5455,
      "è·¯çº¿": 5456,
      "éĩĩè´Ń": 5457,
      "éļĲç§ģ": 5458,
      "å¹²çĩ¥": 5459,
      "å¸¸è§ģéĹ®é¢ĺ": 5460,
      "é£İæł¼åĴĮ": 5461,
      "](": 5462,
      "ï¼ĮåĲĳ": 5463,
      "ï¼Įè¯¥": 5464,
      "ãĢģæ°´": 5465,
      "æĿİæĸĩ": 5466,
      "åıĺéĿ©": 5467,
      "å¤ĸè§Ĥ": 5468,
      "è¢ĭ": 5469,
      "é¢ĳç¹ģ": 5470,
      "æĳĦåĥı": 5471,
      "è½¬åĮĸä¸º": 5472,
      "çļĦå¿ĥ": 5473,
      "åĴĮåŃ¦ä¹ł": 5474,
      "ä¾¦": 5475,
      "å§Ĳ": 5476,
      "èİī": 5477,
      "çģµæ´»æĢ§": 5478,
      "ï¼Įåıªè¦ģæĪĳä»¬": 5479,
      "åĳĪçİ°": 5480,
      "çļĦæ¡Īä¾ĭ": 5481,
      "::": 5482,
      "ï¼Įä»Ķç»Ĩ": 5483,
      "ä¸Ģä»½": 5484,
      "æĺ¯å¯¹": 5485,
      "åĩŃ": 5486,
      "åľ°ä¸ĭ": 5487,
      "éĹ²": 5488,
      "èĩªå·±åľ¨": 5489,
      "ä¼łçĲĥ": 5490,
      "çĶµè§Ĩ": 5491,
      "åı¯èĥ½çļĦ": 5492,
      "çİ¯å¢ĥåĴĮ": 5493,
      "å·¥ä½ľæķĪçİĩ": 5494,
      "è¾ĥå¤§": 5495,
      "åĲ¯åıĳ": 5496,
      "æĸĩåŃ¦ä½ľåĵģ": 5497,
      "çĶŁæĢģç³»ç»Ł": 5498,
      "äº¬åī§": 5499,
      "My": 5500,
      "ä¸ĬæīĢè¿°": 5501,
      "æ¸¯": 5502,
      "æ·¡": 5503,
      "æ¸ħæ´Ĺ": 5504,
      "æĬ¥éģĵ": 5505,
      "å±ħä½ı": 5506,
      "åľ°åĮºçļĦ": 5507,
      "è¸ı": 5508,
      "æĲŃéħį": 5509,
      "æĦıæĥ³ä¸įåĪ°": 5510,
      "åıĻäºĭ": 5511,
      "Id": 5512,
      "ĠéĢīæĭ©": 5513,
      "ä¸¢": 5514,
      "çļĦæ»": 5515,
      "å®ŀæĪĺ": 5516,
      "ï¼īĊ": 5517,
      "åħ»æ®ĸ": 5518,
      "æ®ĭ": 5519,
      "ç¾İè§Ĥ": 5520,
      "åķĨæłĩ": 5521,
      "çªģåĩº": 5522,
      "ä¸Ģå®ļä¼ļ": 5523,
      "åŃ¦ä¼ļå¦Ĥä½ķ": 5524,
      "ç»¼ä¸ĬæīĢè¿°": 5525,
      "è¿Ļæ¬¡ç»ıåİĨ": 5526,
      "åľ°çĲĨä½įç½®": 5527,
      "çļĦæĥħåĨµä¸ĭ": 5528,
      "æ»ļåĬ¨": 5529,
      "Linux": 5530,
      "ï¼Įé¦ĸåħĪ": 5531,
      "çĶ¨å¿ĥåİ»": 5532,
      "å°ıå®Ŀ": 5533,
      "ä¸»åĬ¨": 5534,
      "æº¯": 5535,
      "çİ¯å¢ĥçļĦ": 5536,
      "èģĮåľº": 5537,
      "æıĲä¾ĽäºĨå®Ŀè´µçļĦ": 5538,
      "ç®Ģä»ĭ": 5539,
      "çļĦçľ¼ç¥ŀ": 5540,
      "ph": 5541,
      "è¿Ļä»½": 5542,
      "åĬĽäºİ": 5543,
      "âĢĿãĢģâĢľ": 5544,
      "æħİ": 5545,
      "åĭĴ": 5546,
      "æĬĢå·§åĴĮ": 5547,
      "å¹¿æ³ĽåºĶçĶ¨": 5548,
      "çļĦç¬¦åı·": 5549,
      "çļĦçĬ¶æĢģ": 5550,
      "åĴĮéľĢæ±Ĥ": 5551,
      "æĿĨ": 5552,
      "å¯Ħ": 5553,
      "ãĢģæĸĩåĮĸ": 5554,
      "çļĦæĤ": 5555,
      "æĭĶ": 5556,
      "å®¶ä¸Ń": 5557,
      "åī²": 5558,
      "éĴ¥": 5559,
      "å¿ĥä¸Ńä¸Ģ": 5560,
      "éĿŀå¸¸éĩįè¦ģçļĦ": 5561,
      "è¡Ģç³ĸ": 5562,
      "æ³ķå¾ĭæ³ķè§Ħ": 5563,
      "ï¼Įçľ¼ä¸ŃéĹªçĥģçĿĢ": 5564,
      "ild": 5565,
      "å»¶è¿Ł": 5566,
      "ï¼Įæ¿Ģåıĳ": 5567,
      "æĪĳçļĦ": 5568,
      "åĲĮæĦı": 5569,
      "ern": 5570,
      "åĽŀæĶ¶": 5571,
      "å®ŀéĻħæĥħåĨµ": 5572,
      "ä»¤äºº": 5573,
      "å¸¦æĿ¥çļĦ": 5574,
      "è¡Ģç®¡": 5575,
      "ç¨İåĬ¡": 5576,
      "ä¸ŃéĹªè¿ĩ": 5577,
      "æĽ´åĬłåĿļå®ļäºĨ": 5578,
      "æĮ«æĬĺ": 5579,
      "çļĦç±»": 5580,
      "ï¼ĮçľĭçĿĢ": 5581,
      "çļĦåı¯": 5582,
      "ãĢĤä»ĸä»¬çļĦ": 5583,
      "ï¼ļå¦Ĥä½ķ": 5584,
      "åľ°å½¢": 5585,
      "ä¼ļçļĦ": 5586,
      "ç§įåŃĲ": 5587,
      "ä¹Łæľī": 5588,
      "æ±ĤèģĮ": 5589,
      "çĻĮ": 5590,
      "åĳ½åĲį": 5591,
      "é¡ºåĪ©è¿Ľè¡Į": 5592,
      "SE": 5593,
      "Ġå¯¹": 5594,
      "æľĹ": 5595,
      "çŃĽ": 5596,
      "å°ıä¼Ĺ": 5597,
      "ãĢĤä»ĸæ·±çŁ¥": 5598,
      "ï¼īæĺ¯": 5599,
      "ï¼ŁĊ": 5600,
      "éĵº": 5601,
      "è§ģè§£": 5602,
      "äº§çĶŁäºĨæ·±è¿ľçļĦå½±åĵį": 5603,
      "åĽ½åĨħå¤ĸ": 5604,
      "æ¶Įèµ·": 5605,
      "que": 5606,
      "ï¼ĮåĪĨäº«": 5607,
      "åĪ¸": 5608,
      "ä¸Ńæī¾åĪ°": 5609,
      "æĺ¯ä¸ºäºĨ": 5610,
      "ä¸įè¦ģ": 5611,
      "æŀĿ": 5612,
      "æķĻæĿĲ": 5613,
      "èĤĥ": 5614,
      "åŃĲè½©": 5615,
      "çĽ®åħī": 5616,
      "æ¡Īä»¶": 5617,
      "åºıåĪĹ": 5618,
      "åĤħ": 5619,
      "å¾®ç¬ĳçĿĢåĽŀçŃĶ": 5620,
      "è¯ļä¿¡": 5621,
      "çķĻä¸ĭ": 5622,
      "éĤ®ç¥¨": 5623,
      "å©ļç¤¼": 5624,
      "çļĦç¥ŀç§ĺ": 5625,
      "ãĢĤâĢľ": 5626,
      "äºĨä»ĸçļĦ": 5627,
      "å¯¿": 5628,
      "ä¸ºä¸»": 5629,
      "åĩºæĿ¥": 5630,
      "å°ıåĮº": 5631,
      "å®¶çļĦ": 5632,
      "å½±åĥı": 5633,
      "éľĢè¦ģéĢļè¿ĩ": 5634,
      "å¹³éĿĻ": 5635,
      "æĹ¥è¯Ń": 5636,
      "ï¼Įå¹¶éĢļè¿ĩ": 5637,
      "ç¥ŀå¥ĩ": 5638,
      "ï¼ĮæĪĳä»¬åı¯ä»¥éĢļè¿ĩ": 5639,
      "èħĶ": 5640,
      "ç»ıåİĨäºĨ": 5641,
      "åĪĿæľŁ": 5642,
      "åł¡": 5643,
      "åĳ½ä»¤è¡Į": 5644,
      "æ°¸è¿ľ": 5645,
      "ãĢĤå¯¹äºİä¸ŃåŃ¦çĶŁæĿ¥è¯´": 5646,
      "è°¢è°¢ä½ł": 5647,
      "åģ¶çĦ¶": 5648,
      "çĬ¹è±«": 5649,
      "_f": 5650,
      "cm": 5651,
      "å¼¦": 5652,
      "æĿ¥åĪ°": 5653,
      "è°ĭ": 5654,
      "æľºåħ³": 5655,
      "ä¹Łä¼ļ": 5656,
      "ï¼Įè¿Ļä½¿å¾Ĺ": 5657,
      "æĪĺèĥľ": 5658,
      "æĳ¸": 5659,
      "ä¸»è¦ģåĮħæĭ¬": 5660,
      "è¿½æº¯": 5661,
      "Ġpublic": 5662,
      "è´¦æĪ·": 5663,
      "çļĦåĪ¶ä½ľ": 5664,
      "ä¸įä»ħè¦ģ": 5665,
      "ä¸ŃçļĦä¸Ģä¸ª": 5666,
      "ç¤¾ä¼ļè´£ä»»": 5667,
      "ãĢĭçŃī": 5668,
      "éĩĮéĿ¢": 5669,
      "è·¯çĶ±": 5670,
      "å¸¸çĶ¨çļĦ": 5671,
      "å°¤ä¸ºéĩįè¦ģ": 5672,
      "Spring": 5673,
      "çļĦçªģ": 5674,
      "ï¼Įæ²¡æľī": 5675,
      "å¯ĵ": 5676,
      "æĽ¹": 5677,
      "ç³Ĭ": 5678,
      "åĲĮæŃ¥": 5679,
      "å®ĥçļĦ": 5680,
      "æĤ²": 5681,
      "æłĩçŃ¾": 5682,
      "éĤ»": 5683,
      "èĪį": 5684,
      "èīºæľ¯çļĦ": 5685,
      "æ¶ĪèĢĹ": 5686,
      "åĲ¬è¯´": 5687,
      "()`": 5688,
      "Ġ<<": 5689,
      "éĻĦå½ķ": 5690,
      ")ĊĊ": 5691,
      "IN": 5692,
      "Ġde": 5693,
      "ï¼ĮåĩĨå¤ĩ": 5694,
      "çļĦæľįåĬ¡": 5695,
      "çļĦç¨³å®ļ": 5696,
      "æĢĴ": 5697,
      "æıĲåĪ°": 5698,
      "æ¬²": 5699,
      "çľŁè¯ļ": 5700,
      "ç¿Ķ": 5701,
      "èĭ±éĽĦ": 5702,
      "åĲ¸å¼ķåĬĽ": 5703,
      "ĠæĢ»ç»ĵä¸İ": 5704,
      "IS": 5705,
      "æŁ³": 5706,
      "è®¯": 5707,
      "åįµ": 5708,
      "è¾°": 5709,
      "æģ©": 5710,
      "æº¶": 5711,
      "å¼ºçĥĪ": 5712,
      "åı¯èĥ½æĢ§": 5713,
      "èĲ¨": 5714,
      "æ°ĳä¸»": 5715,
      "çİĭå¤§": 5716,
      "æİ¨åĬ¨äºĨ": 5717,
      "åįļçī©": 5718,
      "çıįè´µ": 5719,
      "åĺī": 5720,
      "ä¼¦çĲĨ": 5721,
      "lay": 5722,
      "nt": 5723,
      "ï¼ĮåĲĪçĲĨ": 5724,
      "çļĦåĲ¯ç¤º": 5725,
      "ãĢĤä½ľä¸º": 5726,
      "åĴĮç»´æĬ¤": 5727,
      "çİĦ": 5728,
      "ç§Ĵ": 5729,
      "è¿ĩæĿ¥": 5730,
      "å¢ĵ": 5731,
      "çĶŁæ´»æĸ¹å¼ı": 5732,
      "ï¼Įä¸ºäºĨ": 5733,
      "çªĳ": 5734,
      "å¯Ĩåº¦": 5735,
      "example": 5736,
      "èĤ¡ç¥¨": 5737,
      "ï¼Įå°ıæĺİ": 5738,
      "æĢĢçĸĳ": 5739,
      "ress": 5740,
      "ton": 5741,
      "ï¼Įäººä»¬": 5742,
      "åľ¨é«ĺ": 5743,
      "åľ¨éĿ¢å¯¹": 5744,
      "ä¸Ĭæµ·": 5745,
      "ï¼Įè¿ĺæĺ¯": 5746,
      "æĴĳ": 5747,
      "å°½éĩı": 5748,
      "æłĩåĩĨåĮĸ": 5749,
      "å®ĺåĳĺ": 5750,
      "çļĦç¬Ķ": 5751,
      "çĻ»è®°": 5752,
      "å§Ķåĳĺ": 5753,
      "çļĦç´§": 5754,
      "CPU": 5755,
      "æ±²åıĸ": 5756,
      "ä¸ŃéĹªè¿ĩä¸Ģä¸Ŀ": 5757,
      "tim": 5758,
      "´æľĽ": 5759,
      "ï¼Įè¢«": 5760,
      "ï¼Įæ»¡è¶³": 5761,
      "åŃĶ": 5762,
      "è¾£": 5763,
      "çĸı": 5764,
      "åĪ©æ¶¦": 5765,
      "è®¾è®¡å¸Ī": 5766,
      "éħįåĲĪ": 5767,
      "å¾®å¾®": 5768,
      "çĮª": 5769,
      "èĹ¤": 5770,
      "ï¼Įæ¯ıä¸Ģä¸ª": 5771,
      "åıĬåħ¶å¯¹": 5772,
      "æĤ£èĢħçļĦ": 5773,
      "éľ²åĩº": 5774,
      "åĪļåĪļ": 5775,
      "æ³½å®ĩ": 5776,
      "èī°éļ¾": 5777,
      "ï¼ĮæĢ»": 5778,
      "ï¼ĮéĢĲæ¸Ĳ": 5779,
      "ãĢĤçĶ±äºİ": 5780,
      "ç»ķ": 5781,
      "çĽŁ": 5782,
      "æĽ´å®¹æĺĵ": 5783,
      "åĮĸåĲĪçī©": 5784,
      "çłĶè®¨": 5785,
      "æ¯ıæ¬¡": 5786,
      "æ£Ĵ": 5787,
      "åĸĬ": 5788,
      "å¤ļæł·åĮĸ": 5789,
      "ãĢĤå®ĥä¸įä»ħ": 5790,
      "å¥½å¥ĩå¿ĥ": 5791,
      "udent": 5792,
      "lu": 5793,
      "çļĦåŃ¦æľ¯": 5794,
      "åĴĮå»ºè®®": 5795,
      "èµ¶": 5796,
      "ãĢĤè¿ĻæľīåĬ©äºİ": 5797,
      "çĽ¸åĲĮ": 5798,
      "æĪĸåħ¶ä»ĸ": 5799,
      "éĢĤå®ľ": 5800,
      "å¼ķçĶ¨": 5801,
      "æīĢåľ¨": 5802,
      "æĮĩä»¤": 5803,
      "è£ģ": 5804,
      "å¸ĤåľºéľĢæ±Ĥ": 5805,
      "çŁ¥è¯Ĩäº§æĿĥ": 5806,
      "ook": 5807,
      "æĬĳåĪ¶": 5808,
      "æŀģå¤§åľ°": 5809,
      "pro": 5810,
      "Ġå¦Ĥæŀľ": 5811,
      "ï¼Įä½ľä¸º": 5812,
      "çļĦå¤įæĿĤ": 5813,
      "ç»ĵè¯Ń": 5814,
      "ï¼Įè¿ĺä¸º": 5815,
      "ï¼Įä¸ºæľªæĿ¥": 5816,
      "èİ±": 5817,
      "èĢģèĢħ": 5818,
      "åħ±äº§": 5819,
      "æ¿ĢçĥĪçļĦ": 5820,
      "åĩºçİ°äºĨ": 5821,
      "ello": 5822,
      "åŁºæľ¬çļĦ": 5823,
      "çļĦæŃĮ": 5824,
      "åĬ³åĬ¨": 5825,
      "jav": 5826,
      "ä¸ĢæĿ¡": 5827,
      "èĥĢ": 5828,
      "å°ıåŃ¦": 5829,
      "äºĭæķħ": 5830,
      "æķ°æį®å¤ĦçĲĨ": 5831,
      "å¼łä¼Ł": 5832,
      "è¢Ń": 5833,
      "èº«å¿ĥ": 5834,
      "ream": 5835,
      "æ¼Ķåıĺ": 5836,
      "å¾Īå¥½": 5837,
      "åı¶çīĩ": 5838,
      "åĩĨç¡®åľ°": 5839,
      "çĪ·çĪ·": 5840,
      "æģĲæĥ§": 5841,
      "çŀ¬éĹ´": 5842,
      "è¶³å¤ŁçļĦ": 5843,
      "ype": 5844,
      "åįļçī©é¦Ĩ": 5845,
      "ï¼Įèµµ": 5846,
      "æľµ": 5847,
      "éĢļéģĵ": 5848,
      "éķ¿åº¦": 5849,
      "åīįç«¯": 5850,
      "ace": 5851,
      "ä¾Ŀèµĸäºİ": 5852,
      "æĭĵå®½": 5853,
      "çļĦæĪĲéķ¿": 5854,
      "åĪĳ": 5855,
      "âĢĿãĢĤĊ": 5856,
      "éĿ¢åīį": 5857,
      "ç»§æī¿": 5858,
      "åħ±åĲĮåĬªåĬĽ": 5859,
      "ç«ŀèµĽ": 5860,
      "æ¶Īè´¹èĢħçļĦ": 5861,
      "unction": 5862,
      "çļĦç³»": 5863,
      "çŃĽéĢī": 5864,
      "View": 5865,
      "çļĦæľīæķĪ": 5866,
      "çļĦçĲĨè®º": 5867,
      "åŃ¢": 5868,
      "ãĢģãĢĬ": 5869,
      "ãĢĤè¿Ļä¸įä»ħæľīåĬ©äºİ": 5870,
      "çĶµæºĲ": 5871,
      "å¼ºçĥĪçļĦ": 5872,
      "çº¿ä¸Ĭ": 5873,
      "è§Ĩä¸º": 5874,
      "éĴ»": 5875,
      "æ¸ħçĲĨ": 5876,
      "æĪĲåĬŁåľ°": 5877,
      "èŀº": 5878,
      "è´¡çĮ®èĩªå·±çļĦåĬĽéĩı": 5879,
      "ell": 5880,
      "ï¼Įä¸įè¦ģ": 5881,
      "ï¼Įå®ŀçİ°äºĨ": 5882,
      "ob": 5883,
      "ï¼Įç³»ç»Ł": 5884,
      "ï¼Įå¼ĢåıĳèĢħ": 5885,
      "çļĦè±¡å¾ģ": 5886,
      "åĴĴ": 5887,
      "ç§Ł": 5888,
      "éħµ": 5889,
      "æľįè£ħ": 5890,
      "èĩ´åĬĽäºİ": 5891,
      "æĸĩä»¶ä¸Ń": 5892,
      "æĢ§èĥ½åĴĮ": 5893,
      "utton": 5894,
      "å£«åħµ": 5895,
      "åĸľæĤ¦": 5896,
      "éĿ¢ä¸´çĿĢ": 5897,
      "mp": 5898,
      "ï¼Įé«ĺ": 5899,
      "åľ¨å®ŀéĻħ": 5900,
      "ä¼ª": 5901,
      "å¯Ĵ": 5902,
      "çļĦæ¤": 5903,
      "æĬ¬": 5904,
      "åĬĽåŃ¦": 5905,
      "åħ³å¿ĥ": 5906,
      "éľĢè¦ģåľ¨": 5907,
      "å§¿": 5908,
      "æĬĢæľ¯åĴĮ": 5909,
      "ç»ıæµİåŃ¦": 5910,
      "èį¯æĿĲ": 5911,
      "æĭħä»»": 5912,
      "æĹ¶æľŁçļĦ": 5913,
      "ç²īæľ«": 5914,
      "éĻĦè¿ĳ": 5915,
      "è¾ħåĬ©": 5916,
      "æĦıæĥ³ä¸įåĪ°çļĦ": 5917,
      "çļĦæĬķèµĦ": 5918,
      "javas": 5919,
      "RT": 5920,
      "est": 5921,
      "ĠäºĶ": 5922,
      "è¿Ļéģĵ": 5923,
      "çļĦç¡": 5924,
      "å¸®åĬ©æĪĳä»¬": 5925,
      "ãĢĤéĢļè¿ĩæľ¬åįķåħĥçļĦåŃ¦ä¹ł": 5926,
      "çģĮ": 5927,
      "ï¼Įä»ĸä»¬çļĦ": 5928,
      "åĽ½å®¶åĴĮ": 5929,
      "åĨ²åĩ»": 5930,
      "èĴĤ": 5931,
      "åłĨ": 5932,
      "æ´ŀç©´": 5933,
      "æģĲé¾Ļ": 5934,
      "çĦĬ": 5935,
      "åĵģç§į": 5936,
      "å¹¶åıĳ": 5937,
      "ä»İäºĭ": 5938,
      "ä¼ĺå¼Ĥ": 5939,
      "è¯Ńåı¥": 5940,
      "æĥ³åĪ°": 5941,
      "ï¼Įä¸ºæľªæĿ¥çļĦ": 5942,
      "çĭ¬èĩª": 5943,
      "ï¼Įè¿ĺèĥ½ä¸º": 5944,
      "ï¼Įè¿ĺèĥ½åŁ¹åħ»": 5945,
      "æĸĩåŃ¦åĪĽä½ľ": 5946,
      "çļĦæİĴ": 5947,
      "è¶³çĲĥè¿ĲåĬ¨åĳĺ": 5948,
      "èįīåİŁ": 5949,
      "å¹¶ä¸įæĺ¯": 5950,
      "ill": 5951,
      "éĺ»æŃ¢": 5952,
      "ï¼Įåį³ä½¿": 5953,
      "æ»¡æĦıåº¦": 5954,
      "çļĦæ´»åĬ¨": 5955,
      "VR": 5956,
      "Ģæľī": 5957,
      "ï¼Įå±ķçİ°äºĨ": 5958,
      "è¯±": 5959,
      "çĽĪ": 5960,
      "ç®Ń": 5961,
      "åŃĲæ¶µ": 5962,
      "ãĢĤè¿Ļæ¬¡": 5963,
      "ä¼ĺåħĪ": 5964,
      "æĹ¥è®°": 5965,
      "å¹¿éĺĶ": 5966,
      "ight": 5967,
      "å®ĭä»£": 5968,
      "èļĢ": 5969,
      "fr": 5970,
      "ï¼ĮåĬłåħ¥": 5971,
      "ä¸İåıĳå±ķ": 5972,
      "çļĦçŁ³": 5973,
      "è¾©": 5974,
      "æĦŁè§ī": 5975,
      "ä¹Łåľ¨": 5976,
      "æ·±åıĹ": 5977,
      "åħ¬åĳĬ": 5978,
      "éĥ½åľ¨": 5979,
      "æ¶ĪåĮĸ": 5980,
      "Ġl": 5981,
      "Ġä¸Ń": 5982,
      "åĴĮè°ĥæķ´": 5983,
      "æĺ¯ç¡®ä¿Ŀ": 5984,
      "ä»ĸäººçļĦ": 5985,
      "åįĪ": 5986,
      "åıĺæį¢": 5987,
      "ï¼Įä»¥æıĲé«ĺ": 5988,
      "éĿŀå¸¸éĩįè¦ģ": 5989,
      "å»ºç«ĭäºĨ": 5990,
      "Ġname": 5991,
      "è¶ħè¿ĩ": 5992,
      "é½¿": 5993,
      "çļĦç¼ĸç¨ĭ": 5994,
      "ãĢĤæľ¬æĸĩå°Ĩ": 5995,
      "ure": 5996,
      "ãĢĤå®ĥä»¬": 5997,
      "ä¸įçŁ¥éģĵ": 5998,
      "å½¹": 5999,
      "æĽ´æ·±": 6000,
      "æĿ¥å®ŀçİ°": 6001,
      "æĸ°åŀĭ": 6002,
      "ãĢĤè¿ĻæĦıåĳ³çĿĢ": 6003,
      "æŃ£å¼ı": 6004,
      "è¯ŃéŁ³": 6005,
      "åĭ¤": 6006,
      "ãĢĤä»¥ä¸ĭæĺ¯ä¸Ģä¸ª": 6007,
      "è´Łæĭħ": 6008,
      "ï¼Įå°±åĥı": 6009,
      "è¯ĨåĪ«åĴĮ": 6010,
      "Ġç¬¬äºĶæŃ¥": 6011,
      "æ§½": 6012,
      "ra": 6013,
      "Ġg": 6014,
      "ĥåľ": 6015,
      "ï¼Įå°Ŀè¯ķ": 6016,
      "åĴĮæĬĢå·§": 6017,
      "èĢķ": 6018,
      "åĪ°è¾¾": 6019,
      "é¢ĸ": 6020,
      "ï¼Įè¿ĺåľ¨": 6021,
      "ä¹¦åºĹ": 6022,
      "åŀĥåľ": 6023,
      "å®ŀçİ°äºĨ": 6024,
      "è¡Ģæ¶²": 6025,
      "ï¼Įå°±ä¸Ģå®ļèĥ½å¤Ł": 6026,
      "çļĦæıı": 6027,
      "æĩĤ": 6028,
      "æĽ¿æį¢": 6029,
      "çłĶè®¨ä¼ļ": 6030,
      "åŀĥåľ¾": 6031,
      ");ĊĊ": 6032,
      "form": 6033,
      "wav": 6034,
      "éĺĲ": 6035,
      "æĪĳä»¬åı¯ä»¥": 6036,
      "èĬĿ": 6037,
      "ï¼Įè¿ĻéĩĮ": 6038,
      "ãĢĤä»ĸçĽ¸ä¿¡": 6039,
      "æĥħå¢ĥ": 6040,
      "æ¯ıä¸Ģ": 6041,
      "ï¼Ł**Ċ": 6042,
      "å®ŀéĻħéĹ®é¢ĺ": 6043,
      "æĿĲè´¨": 6044,
      "å®ŀè·µä¸Ń": 6045,
      "æĿĥå¨ģ": 6046,
      "èĳ£": 6047,
      "æīįåįİ": 6048,
      "ä¸ºäºĨæĽ´å¥½åľ°çĲĨè§£": 6049,
      "ç¹ģæ®ĸ": 6050,
      "è·Łè¸ª": 6051,
      "æ·±åº¦åŃ¦ä¹ł": 6052,
      "çļĦæĳĦ": 6053,
      "javascript": 6054,
      "æĪĴ": 6055,
      "æĹĹ": 6056,
      "æİī": 6057,
      "æĦĪ": 6058,
      "å®¶å±ħ": 6059,
      "ä»£è°¢": 6060,
      "åħ¨æĸ°çļĦ": 6061,
      "åĪ°äºĨä¸Ģä¸ª": 6062,
      "ç§ĳåŃ¦çļĦ": 6063,
      "ä»·åĢ¼åĴĮ": 6064,
      "çļĦåıĳå±ķåİĨç¨ĭ": 6065,
      "ç¼ĵåŃĺ": 6066,
      "è¡¥åģ¿": 6067,
      "åħ¼å®¹": 6068,
      "çļĦæŁĲ": 6069,
      "ET": 6070,
      "å°¿": 6071,
      "çĶ¨æĢ§": 6072,
      "è¦ģç´ł": 6073,
      "åľ°åĽŀçŃĶ": 6074,
      "ä¼ļåĦ¿": 6075,
      "æ³ķåĴĮ": 6076,
      "ä¸ĭéĿ¢": 6077,
      "èģª": 6078,
      "éľĢè¦ģåħ·å¤ĩ": 6079,
      "ï¼Įä½ĨæĪĳ": 6080,
      "èº«è¾¹": 6081,
      "èīºæľ¯å®¶": 6082,
      "éĽĨåĲĪ": 6083,
      "çªģåıĳ": 6084,
      "èıĩ": 6085,
      "éļıæĹ¶": 6086,
      "ä¸įä»ħæĺ¯å¯¹": 6087,
      "è§£åĨ³éĹ®é¢ĺçļĦèĥ½åĬĽ": 6088,
      "ĊĊĊĊĊĊĊĊĊĊĊĊĊĊĊĊ": 6089,
      "---ĊĊ": 6090,
      "CT": 6091,
      "LAN": 6092,
      "ject": 6093,
      "ï¼ĮâĢĿ": 6094,
      "ï¼ĮçłĶç©¶": 6095,
      "çļĦå·¥åħ·": 6096,
      "ãĢģ`": 6097,
      "çĶŁå¹³": 6098,
      "çĲĨæĢ§": 6099,
      "å¥ī": 6100,
      "åĬĽèµĦæºĲ": 6101,
      "æĽ´é«ĺ": 6102,
      "ä¸İäºº": 6103,
      "çķľ": 6104,
      "ä¼łå¥ĩ": 6105,
      "åıĺè¿ģ": 6106,
      "å¸®åĬ©ä½ł": 6107,
      "èģĮä½į": 6108,
      "åİĨåı²èĥĮæĻ¯": 6109,
      "ork": 6110,
      "enc": 6111,
      "èĻ«å®³": 6112,
      "å¥łå®ļäºĨåŁºç¡Ģ": 6113,
      "æ¨ª": 6114,
      "è¿½æº¯åĪ°": 6115,
      "ä¼ļå¯¼èĩ´": 6116,
      "åĲĪæĪĲ": 6117,
      "ä¸įä»ħæĺ¯ä¸Ģç§į": 6118,
      "æķĻè®Ń": 6119,
      "åħ¬å¼ı": 6120,
      "æĢĿè·¯": 6121,
      "æĹ¶éĹ´çļĦæİ¨": 6122,
      "```Ċ": 6123,
      "åº·å¤į": 6124,
      "æĺĵç»ı": 6125,
      "èĹ»": 6126,
      "éĩįè¦ģçļĦæĺ¯": 6127,
      "ç¼ĵç¼ĵ": 6128,
      "ä¹ĭéĹ´çļĦåħ³ç³»": 6129,
      "éĥ½æľīåħ¶çĭ¬çī¹çļĦ": 6130,
      "æī«æıı": 6131,
      "æĤłä¹ħ": 6132,
      "çļĦç³»ç»Ł": 6133,
      "æĹ¶éĹ´çļĦæİ¨ç§»": 6134,
      "(n": 6135,
      "\\[": 6136,
      "ãĢĤæ¯Ķå¦Ĥ": 6137,
      "å¯¹ç§°": 6138,
      "âĢľä½ł": 6139,
      "ä¿Ŀåģ¥": 6140,
      "æķ°æį®ä¼łè¾ĵ": 6141,
      "ãĢĤä»ĸåľ¨": 6142,
      "æīĭä¸ŃçļĦ": 6143,
      "æĺ¯ä¸ĢåĲį": 6144,
      "erv": 6145,
      "å°±ä¼ļ": 6146,
      "å¦Ĥä½ķå°Ĩ": 6147,
      "ä¿ĿæĮģåĨ·éĿĻ": 6148,
      "éĩĩéĽĨ": 6149,
      "çļĦæĥħç»ª": 6150,
      "ase": 6151,
      "æĬĢèĥ½åĴĮ": 6152,
      "èĨ³": 6153,
      "sql": 6154,
      "Ġif": 6155,
      "çļĦçĶ¨æĪ·": 6156,
      "æłı": 6157,
      "äººåľ¨": 6158,
      "éĻµ": 6159,
      "çĿ¡": 6160,
      "æĦŁçŁ¥": 6161,
      "æĥħåĴĮ": 6162,
      "ç¾Ĭ": 6163,
      "åĸ»": 6164,
      "èĳĹä½ľ": 6165,
      "èĭ±åĽ½": 6166,
      "ä»ªåĻ¨": 6167,
      "æķ°åŃĹåĮĸ": 6168,
      "éĩĩçĶ¨äºĨ": 6169,
      "çļĦæµ·": 6170,
      "æĿĳæ°ĳä»¬": 6171,
      "èĬ¯çīĩ": 6172,
      "çľīå¤´": 6173,
      "ï¼ĮçĶ±": 6174,
      "çļĦåİŁåĽł": 6175,
      "æĺĬ": 6176,
      "ä¾£": 6177,
      "åıĳèĤ²": 6178,
      "ä¸İåĲ¯ç¤º": 6179,
      "âĢľæĿİ": 6180,
      "èį¡": 6181,
      "å¤©çĦ¶": 6182,
      "èĻİ": 6183,
      "ä¸įæĸŃè¿ĽæŃ¥": 6184,
      "ãĢĤä»ĸä»¬çŁ¥éģĵ": 6185,
      "éĿĴå°ĳå¹´": 6186,
      "è¾¹ç¼ĺ": 6187,
      "ĠĠĠĠĠĠĠĠĠĠĠĠĠĠĠĠ": 6188,
      "çļĦæĦŁåıĹ": 6189,
      "å®ĺæĸ¹ç½ĳç«Ļ": 6190,
      "çļĦæķĻåŃ¦": 6191,
      "ä¸įå·²": 6192,
      "éĢļè¿ĩåĪĨæŀĲ": 6193,
      "æľ¬èº«": 6194,
      "ä¸ŃçļĦåľ°ä½į": 6195,
      "ï¼ĮæĪĳä»¬è¦ģ": 6196,
      "éĢīæīĭ": 6197,
      "èĬĤèĥ½": 6198,
      "èĥ½åĬĽçļĦ": 6199,
      "éĺ²èĮĥ": 6200,
      "çĮĽ": 6201,
      "äºĨä¸Ģåı£æ°Ķ": 6202,
      "èµ°è¿Ľ": 6203,
      "çļĦåİĨåı²èĥĮæĻ¯": 6204,
      "çº¢èī²": 6205,
      "ç£Ĭ": 6206,
      "ç¨İæĶ¶": 6207,
      "çļĦæŀĦ": 6208,
      "Ġ\\]ĊĊ": 6209,
      "Ġä»Ģä¹Īæĺ¯": 6210,
      "ĸæģ¯": 6211,
      "çļĦéŁ³ä¹Ĳ": 6212,
      "çļĦè®¤è¯Ĩ": 6213,
      "çļĦä¹¦ç±į": 6214,
      "Ġ**ãĢĬ": 6215,
      "åĩºçļĦ": 6216,
      "çĥ¤": 6217,
      "åı¸æ³ķ": 6218,
      "å²¸": 6219,
      "å®¤åĨħ": 6220,
      "low": 6221,
      "æĦŁåıĹåĪ°äºĨ": 6222,
      "Ġåįķåħĥæłĩé¢ĺ": 6223,
      "çļĦæłĩåĩĨ": 6224,
      "çļĦæĻ®åıĬ": 6225,
      "æĳĦåĥıå¤´": 6226,
      "ĠU": 6227,
      "ľæł·": 6228,
      "ï¼Įéĥ½æĺ¯": 6229,
      "çļĦå¤§": 6230,
      "åĴĮå¹³": 6231,
      "ä¸Ģæ¬¾": 6232,
      "éĩī": 6233,
      "çī§": 6234,
      "åı¯ä»¥è¿½æº¯åĪ°": 6235,
      "ä¸įä»ħæıĲé«ĺäºĨ": 6236,
      "äºĨè§£åĨ³": 6237,
      "çľĭä¼¼": 6238,
      "ç®¡çĲĨåĻ¨": 6239,
      "æµģè¡Į": 6240,
      "æķĻèĤ²åĴĮ": 6241,
      "åŁİéķĩ": 6242,
      "å£°èªī": 6243,
      "è´Łè½½": 6244,
      "è´¡çĮ®åĬĽéĩı": 6245,
      "ginx": 6246,
      "ä½ıå®ħ": 6247,
      "çļĦäºĨè§£": 6248,
      "ï¼ļãĢĬ": 6249,
      "åİĺ": 6250,
      "å°ıçļĦ": 6251,
      "æĬĢæľ¯åĪĽæĸ°": 6252,
      "è®¾è®¡çļĦ": 6253,
      "éĴ©": 6254,
      "æĶ¾åľ¨": 6255,
      "atch": 6256,
      "éĿŀæ´²": 6257,
      "è®¾å¤ĩçļĦ": 6258,
      "åĶ¯": 6259,
      "åĩĨç¡®æĢ§": 6260,
      "omp": 6261,
      "é»ĺè®¤": 6262,
      "æįŁåĿı": 6263,
      "èĸ¯": 6264,
      "çļĦæ¯ĶèµĽ": 6265,
      "åĬ£": 6266,
      "åĴĮèµµ": 6267,
      "äºĨå¯¹": 6268,
      "å¯¹åħ¶": 6269,
      "äººæĢ§": 6270,
      "éĢļè¿ĩä¸Ĭè¿°": 6271,
      "èĩªè¡Į": 6272,
      "è¿ĽçĲĥ": 6273,
      "åŃĲéĩĮ": 6274,
      "é¢ĺçĽ®": 6275,
      "ï¼Įä¹Łè®©": 6276,
      "çģŃ": 6277,
      "éħįå¤ĩ": 6278,
      "ï¼Įä½łä»¬": 6279,
      "å¾ĭå¸Ī": 6280,
      "åĪĽæĸ°æĢĿç»´": 6281,
      "çĲĨè®ºçŁ¥è¯Ĩ": 6282,
      "éĿĴå¹´": 6283,
      "è¡¡éĩı": 6284,
      "åģľæŃ¢": 6285,
      "ç¬Ķè®°æľ¬": 6286,
      "è´ŁéĿ¢å½±åĵį": 6287,
      "æī¹åĪ¤æĢ§æĢĿç»´": 6288,
      "ï¼Įå®ļæľŁ": 6289,
      "çļĦçĽ®çļĦ": 6290,
      "äºĨèĩªå·±": 6291,
      "ä¾ł": 6292,
      "å¤§å¤§": 6293,
      "å¿ĥå¾Ĺ": 6294,
      "ç¼ł": 6295,
      "æ®¿": 6296,
      "ãĢĭãĢģãĢĬ": 6297,
      "æ¯Ķä¾ĭ": 6298,
      "è½¬ä¼ļ": 6299,
      "è½¬ç§»": 6300,
      "åĲ«éĩı": 6301,
      "load": 6302,
      "åĬłæ·±å¯¹": 6303,
      "ä¼Ļä¼´": 6304,
      "ï¼Įè®°å½ķ": 6305,
      "å®¾": 6306,
      "åĴĮå¼ł": 6307,
      "åľ¨çłĶç©¶": 6308,
      "ä¹Į": 6309,
      "æĭľ": 6310,
      "çŃĸåĪĴ": 6311,
      "çļĦæĶ»": 6312,
      "çļĦæ¸ħ": 6313,
      "éģĹåĿĢ": 6314,
      "ï¼Įå°¤åħ¶æĺ¯åľ¨": 6315,
      "éĢĤå½ĵçļĦ": 6316,
      "åİĺç±³": 6317,
      "ĠçĲĨè§£": 6318,
      "çļĦä¸įåĲĮ": 6319,
      "ãĢĤè®¸å¤ļ": 6320,
      "ä¸Ńå¹´": 6321,
      "ä¼ļå½±åĵį": 6322,
      "åĩºè¡Į": 6323,
      "æĿİæµ©": 6324,
      "åħ¬è¯ģ": 6325,
      "æĹłæ¯Ķ": 6326,
      "ä¼ĺæĥł": 6327,
      "åİ»éĻ¤": 6328,
      "äºĳè®¡ç®Ĺ": 6329,
      "å¢¨è½©": 6330,
      "æĢİä¹ĪåĬŀ": 6331,
      "æ¶¦æ»ĳ": 6332,
      "çļĦåĩĨç¡®æĢ§": 6333,
      "API": 6334,
      "çļĦç©ºéĹ´": 6335,
      "æĦīå¿«": 6336,
      "ia": 6337,
      "ï¼Įè°ĥæķ´": 6338,
      "ï¼Įå±ķç¤ºäºĨ": 6339,
      "ï¼Įå°½ç®¡": 6340,
      "åĴĮè¡Įä¸º": 6341,
      "åĪĨæķ£": 6342,
      "âĢĿï¼Ī": 6343,
      "æķ°ç»Ħ": 6344,
      "ï¼Įä»ĸçŁ¥éģĵ": 6345,
      "æłĩè®°": 6346,
      "åŀĤ": 6347,
      "å¢ŀæ·»": 6348,
      "åĽŀæĬ¥": 6349,
      "æĶ¶çĽĬ": 6350,
      "èį¯åĵģ": 6351,
      "æīĵçł´": 6352,
      "ï¼ĮæĪĳä¼ļ": 6353,
      "ans": 6354,
      "èĳĹç§°": 6355,
      "çļĦæł¹": 6356,
      "è½»æĿ¾åľ°": 6357,
      "çļĦéģĵè·¯ä¸Ĭ": 6358,
      "ystem": 6359,
      "å¹½é»ĺ": 6360,
      "çļĦæ¤į": 6361,
      "èĨ³é£Ł": 6362,
      "åĹ": 6363,
      "ï¼ĮåĪĺ": 6364,
      "çļĦç»ĵæŀľ": 6365,
      "è¿Ļéĥ¨": 6366,
      "ä»¥æĿ¥": 6367,
      "å¯¹ç¤¾ä¼ļ": 6368,
      "æľ¬è´¨": 6369,
      "èĤł": 6370,
      "æĸĩåĮĸåĨħæ¶µ": 6371,
      "æŀĦéĢł": 6372,
      "ä¸ŃåĽ½åı¤ä»£": 6373,
      "æĪĲåĬŁçļĦ": 6374,
      "æİ§åĪ¶åĻ¨": 6375,
      "åĲ¬åĪ°": 6376,
      "èĥĮæĻ¯ä¸ĭ": 6377,
      "ç¨³å®ļçļĦ": 6378,
      "å®¡è§Ĩ": 6379,
      "å¥³åŃ©": 6380,
      "æĭĽèģĺ": 6381,
      "ä¿¡çĶ¨åį¡": 6382,
      "âĨĴâĨĴâĨĴâĨĴâĨĴâĨĴâĨĴâĨĴâĨĴâĨĴâĨĴâĨĴâĨĴâĨĴâĨĴâĨĴâĨĴâĨĴâĨĴâĨĴâĨĴâĨĴâĨĴâĨĴâĨĴâĨĴâĨĴâĨĴâĨĴâĨĴâĨĴâĨĴ": 6383,
      "åĩĿèģļ": 6384,
      "OM": 6385,
      "ä¸¹": 6386,
      "ä¸Ļ": 6387,
      "çļĦæĹħç¨ĭ": 6388,
      "ä¸ŃæľĢ": 6389,
      "æĺ¯åĽłä¸º": 6390,
      "èĥ½æī¾åĪ°": 6391,
      "çĽĴ": 6392,
      "å¯¹èĩªçĦ¶": 6393,
      "åºĶæĢ¥": 6394,
      "è°ĥçłĶ": 6395,
      "éħ±": 6396,
      "æĺ¯ä¸Ģé¡¹": 6397,
      "èĪĮ": 6398,
      "è§ģè¯ģ": 6399,
      "æ¼Ķåĳĺ": 6400,
      "è§Ĵèī²åĴĮ": 6401,
      "ames": 6402,
      "å¤ªéĺ³": 6403,
      "çļĦæµĭ": 6404,
      "èĢĲå¿ĥåĴĮ": 6405,
      "åĪºæ¿Ģ": 6406,
      "==": 6407,
      "ĠH": 6408,
      "Ġe": 6409,
      "Ġi": 6410,
      "çļĦå®ŀçİ°": 6411,
      "åľ¨åĽ½éĻħ": 6412,
      "åľ¨æĹ¥å¸¸çĶŁæ´»ä¸Ń": 6413,
      "æĺ¯å¦Ĥä½ķ": 6414,
      "å¸§": 6415,
      "éĢļè¿ĩä¸įæĸŃ": 6416,
      "è¾ŀ": 6417,
      "çĤ¸": 6418,
      "å¤ĩèĢĥ": 6419,
      "åīįè¿Ľ": 6420,
      "éĴĵ": 6421,
      "é¡¹çĽ®ç®¡çĲĨ": 6422,
      "ï¼Įæ¯ıå¤©": 6423,
      "ðŁį": 6424,
      "èĴľ": 6425,
      "ï¼Įå°±åľ¨": 6426,
      "å±ŀäºİèĩªå·±çļĦ": 6427,
      "ðŁĴª": 6428,
      "ï¼Įä¸Ķ": 6429,
      "çļĦå®ŀè·µ": 6430,
      "çļĦæĢģåº¦": 6431,
      "åĴĮä»ĸçļĦ": 6432,
      "æĹ¶å°ļ": 6433,
      "å¤§è§Ħæ¨¡": 6434,
      "ä¸įä»ħåħ·æľī": 6435,
      "æĦıè§ģ": 6436,
      "æ·±å¤Ħ": 6437,
      "åıĳå±ķåĴĮ": 6438,
      "ãĢĤéĢļè¿ĩåĪĨæŀĲ": 6439,
      "åĲĦåľ°": 6440,
      "å¸ĥç½®": 6441,
      "åĨľèį¯": 6442,
      "èģĶåĲĪ": 6443,
      "èħ¿": 6444,
      "ä¸įä»ħä»ħæĺ¯ä¸Ģä¸ª": 6445,
      "è´§çī©": 6446,
      "ï¼Įçī¹åĪ«æĺ¯åľ¨": 6447,
      "åĩŃåĢŁ": 6448,
      "',": 6449,
      "CSS": 6450,
      "cess": 6451,
      "ï¼Įæ°´": 6452,
      "çļĦå±±": 6453,
      "åıĳçĶµ": 6454,
      "èĩªè±ª": 6455,
      "å¤§ä¼ļ": 6456,
      "éĥģ": 6457,
      "ä¹ĭåĲİ": 6458,
      "åıĹä¼Ĺ": 6459,
      "æ·±åħ¥åĪĨæŀĲ": 6460,
      "æĵ¦": 6461,
      "åĸ·": 6462,
      "ç«¯åı£": 6463,
      "èµ°åĪ°": 6464,
      "å®ĥä»¬åľ¨": 6465,
      "æĺ¾èĳĹæıĲé«ĺ": 6466,
      "é²¸": 6467,
      "å°ĬéĩįåĴĮ": 6468,
      "åı¥è¯Ŀ": 6469,
      "åĨħå¿ĥçļĦ": 6470,
      "åŃ£èĬĤ": 6471,
      "åģıå¥½": 6472,
      "ï¼ĮçĶ¨æĪ·åı¯ä»¥": 6473,
      "åħ½åĮ»": 6474,
      "ï¼Įå±ķç¤º": 6475,
      "èĥİ": 6476,
      "çĶŁçļĦ": 6477,
      "æĻĭ": 6478,
      "æ¯ħåĬĽ": 6479,
      "èĤ¯": 6480,
      "é£İæ°´": 6481,
      "åĮºåĪ«": 6482,
      "çİ¯å¢ĥä¸ĭ": 6483,
      "åİŁå§ĭ": 6484,
      "éĺŁä¼į": 6485,
      "æ²»çĲĨ": 6486,
      "ç»ıæµİå¢ŀéķ¿": 6487,
      "Ġç¬¬ä¸Ģéĥ¨åĪĨ": 6488,
      "äºĨä¸Ģä¼ļåĦ¿": 6489,
      "èģĮä¸ļè§ĦåĪĴ": 6490,
      "å±Ģéķ¿": 6491,
      "ãĢĤè¿Ļç§įæĸ¹æ³ķ": 6492,
      "åįıä¼ļ": 6493,
      "éĹ»åĲį": 6494,
      "çī¹æ®ĬçļĦ": 6495,
      "_id": 6496,
      "ï¼Įæĸ¹ä¾¿": 6497,
      "çļĦäº§åĵģ": 6498,
      "çļĦæĪĲå°±": 6499,
      "æĬĵ": 6500,
      "éĢļè¿ĩå¯¹": 6501,
      "çİ°æľī": 6502,
      "åħ¶ä¸ŃçļĦ": 6503,
      "å¿ĥéĩĮ": 6504,
      "æ¸¡": 6505,
      "çī©ç§į": 6506,
      "å¼ºåĮĸ": 6507,
      "æĸĩåĮĸäº¤æµģ": 6508,
      "æŃ£åĪĻ": 6509,
      "åĽ¾è¡¨": 6510,
      "éĴĻ": 6511,
      "å¸ĪåĤħ": 6512,
      "æĺ¾åį¡": 6513,
      "çĹħèĻ«å®³": 6514,
      "å¾Īå¿«": 6515,
      "åºĶå¯¹çŃĸçķ¥": 6516,
      "é¾Ł": 6517,
      "çĨŁç»ĥ": 6518,
      "å»¶éķ¿": 6519,
      "åħ´å¥ĭåľ°": 6520,
      "æľīéĻĲåħ¬åı¸": 6521,
      "åħĪè¿ĽçļĦ": 6522,
      "www": 6523,
      "åİ¨æĪ¿": 6524,
      "ç§¯æŀģçļĦå¿ĥæĢģ": 6525,
      "_{": 6526,
      "are": 6527,
      "ãĢĤèµµ": 6528,
      "åĴĮæķ°æį®": 6529,
      "åľ¨å¼Ģå§ĭ": 6530,
      "æľīä»Ģä¹Ī": 6531,
      "éĻª": 6532,
      "ï¼Įè¿ĻæľīåĬ©äºİ": 6533,
      "çĸ¯": 6534,
      "æľĢä¼ĺ": 6535,
      "å¤©æ°Ķ": 6536,
      "ç»´åº¦": 6537,
      "åıĹåĪ°äºĨ": 6538,
      "çļĦéĩįè¦ģæīĭæ®µ": 6539,
      "é¥±": 6540,
      "è¯ģä¹¦": 6541,
      "åĲ¬äºĨ": 6542,
      "éĿ¢å¯¹åĽ°éļ¾": 6543,
      "çİ°å®ŀçĶŁæ´»ä¸Ń": 6544,
      "çŁŃæľŁ": 6545,
      "çļĦæĥħæĦŁåĴĮ": 6546,
      "çļĦæĦıè§ģ": 6547,
      "å¯¹æīĭçļĦ": 6548,
      "çļĦæ½ľåĬĽ": 6549,
      "æ³Ħéľ²": 6550,
      "=p": 6551,
      "fig": 6552,
      "ï¼Įä¿Ŀéļľ": 6553,
      "ãĢĤçİĭ": 6554,
      "çļĦæ¬": 6555,
      "åįľ": 6556,
      "éĻĮ": 6557,
      "çĿĢéĩįè¦ģä½ľçĶ¨": 6558,
      "ä¹łæĢ§": 6559,
      "çĶµåİĭ": 6560,
      "å¹´æĿ¥": 6561,
      "éħįä»¶": 6562,
      "æİ¨çĲĨ": 6563,
      "åħ³éĶ®ä½ľçĶ¨": 6564,
      "åĭĩäºİ": 6565,
      "é£ŀé²¸": 6566,
      "çļĦæ°ĳ": 6567,
      "çĳľ": 6568,
      "çļĦä¸Ģä¸ªéĩįè¦ģ": 6569,
      "æ·±è¿ľå½±åĵį": 6570,
      "çļĦçĪ¶": 6571,
      "ç¨ĭåº¦ä¸Ĭ": 6572,
      "å¹¼åĦ¿": 6573,
      "ðŁĮŁðŁĮŁðŁĮŁðŁĮŁðŁĮŁðŁĮŁðŁĮŁðŁĮŁ": 6574,
      "åµĮåħ¥": 6575,
      "åħ±äº§åħļ": 6576,
      "çļĦä¸»": 6577,
      "çļĦè¦ģæ±Ĥ": 6578,
      "ãĢĤæİ¥ä¸ĭæĿ¥": 6579,
      "è¿Ļç¯ĩ": 6580,
      "åĮł": 6581,
      "âĢľå°ı": 6582,
      "ä½ĵçļĦ": 6583,
      "éĶĲ": 6584,
      "éĹ®é¢ĺæĹ¶": 6585,
      "ï¼īçļĦ": 6586,
      "ï¼Įä»¥åħį": 6587,
      "æĬĢæľ¯çļĦåıĳå±ķ": 6588,
      "æĽ´å¥½åľ°æİĮæı¡": 6589,
      "æ¿Ģç´ł": 6590,
      "å·¥åħ·åĴĮ": 6591,
      "åĽ½å®¶çļĦ": 6592,
      "ï¼Įæ¯ıä¸ªäºº": 6593,
      "çĶŁæĢģæĹħæ¸¸": 6594,
      "ç¯Ĩ": 6595,
      "èıľåįķ": 6596,
      "Ġç¬¬äºĮéĥ¨åĪĨ": 6597,
      "æĦŁæħ¨åľ°è¯´": 6598,
      "å¦Ĥä½ķå¸®åĬ©å®ŀçİ°é¢ĦæľŁç»ĵæŀľ": 6599,
      "=mp": 6600,
      "Data": 6601,
      "PF": 6602,
      "ï¼Įç»Ļ": 6603,
      "ãĢĤçī¹åĪ«": 6604,
      "æķ·": 6605,
      "åı¯è¡Į": 6606,
      "ä¸ºåŃ¦çĶŁ": 6607,
      "éĢļè¿ĩæľ¬åįķåħĥçļĦåŃ¦ä¹ł": 6608,
      "å®ļåĪ¶": 6609,
      "ä½łå¯¹": 6610,
      "æ´»æĢ§": 6611,
      "ãĢĤä»ĸåıĳçİ°": 6612,
      "å¹³è¡Į": 6613,
      "çİĩåĴĮ": 6614,
      "æĶ¹éĢł": 6615,
      "è½¬åŀĭ": 6616,
      "åŁ¹åħ»åŃ¦çĶŁçļĦ": 6617,
      "ark": 6618,
      "å®ĥä»¬çļĦ": 6619,
      "æ¹Ľ": 6620,
      "éĢĤåĲĪèĩªå·±çļĦ": 6621,
      "éĢĤåºĶæĢ§": 6622,
      "ï¼Įä¸Ģè¾¹": 6623,
      "çļĦæ°ĽåĽ´": 6624,
      "åī¯ä½ľçĶ¨": 6625,
      "quest": 6626,
      "éĺĲè¿°": 6627,
      "=wav": 6628,
      "`ãĢģ`": 6629,
      "clu": 6630,
      "ãĢģå®īåħ¨": 6631,
      "åĮĻ": 6632,
      "ä¸ºäºº": 6633,
      "æĭĮ": 6634,
      "éªĹ": 6635,
      "ĠĠĠĠĊ": 6636,
      "æıĲä¾ĽçļĦ": 6637,
      "çĶµåķĨ": 6638,
      "åĬŁæķĪ": 6639,
      "å§ľ": 6640,
      "æķ´æķ°": 6641,
      "å¼ķäºº": 6642,
      "ãĢĭåĴĮ": 6643,
      "ä¸īç»´": 6644,
      "æİĮæı¡äºĨ": 6645,
      "ç¢Ĺ": 6646,
      "èĸª": 6647,
      "çļĦçªģçł´": 6648,
      "=pcm": 6649,
      ".get": 6650,
      "´è¿·": 6651,
      "ãĢĤè¯¥": 6652,
      "åı¬": 6653,
      "åĴĮå¤ĦçĲĨ": 6654,
      "æłª": 6655,
      "çļĦçķ": 6656,
      "é«ĺçŃī": 6657,
      "èĤłéģĵ": 6658,
      "ç»Ĩèĩ´": 6659,
      "æľįåĬ¡è´¨éĩı": 6660,
      "ï¼Įä¸ºåŃ¦çĶŁ": 6661,
      "è§£åĨ³äºĨ": 6662,
      "str": 6663,
      "çħĮ": 6664,
      "ç¿°": 6665,
      "å¿ĥçĲĨç´łè´¨": 6666,
      "åĽŀçŃĶéģĵ": 6667,
      "æĶ¹åıĺäºĨ": 6668,
      "åĩºçīĪç¤¾": 6669,
      "è½¨è¿¹": 6670,
      "################################": 6671,
      "èķ´åĲ«çĿĢ": 6672,
      "Vue": 6673,
      "åı¯ä»¥æıĲä¾Ľ": 6674,
      "åı¯ä»¥çĶ¨äºİ": 6675,
      "âĢĿåĴĮ": 6676,
      "æ³ķåĽ½": 6677,
      "æ´Ĵ": 6678,
      "å°ıæĿ°": 6679,
      "å¾ĹåĪĨ": 6680,
      "ä»İå°ı": 6681,
      "åı¯èĥ½å¯¹": 6682,
      "çĪ¬": 6683,
      "è¯¢éĹ®": 6684,
      "åįļå£«": 6685,
      "æľĭåıĭä»¬": 6686,
      "æĪĺæĸĹåĬĽ": 6687,
      "åį«æĺŁ": 6688,
      "ä¸Ģä½įåĲįåı«": 6689,
      "ï¼ĮæĪĲä¸ºäºĨ": 6690,
      "åĭĩæķ¢åľ°": 6691,
      "çļĦæ£Ģ": 6692,
      "VLAN": 6693,
      "ï¼Įæĭ¥æľī": 6694,
      "çļĦèĤ©èĨĢ": 6695,
      "åľ¨ä½¿çĶ¨": 6696,
      "å¯¨": 6697,
      "éĢļçŁ¥": 6698,
      "åı¯ä»¥æĺ¯": 6699,
      "ä¸İä»ĸäºº": 6700,
      "å°Ĩè¿ĻäºĽ": 6701,
      "æĸĩåĮĸéģĹäº§": 6702,
      "æµģè½¬": 6703,
      "ç²ĺ": 6704,
      "æł¼åħ°": 6705,
      "ä¿¡æģ¯çļĦ": 6706,
      "è£ħç½®": 6707,
      "çľ¼åīį": 6708,
      "ï¼Įä»¥åıĬå¦Ĥä½ķ": 6709,
      "ä»ĺåĩº": 6710,
      "åħħåĪĨåĪ©çĶ¨": 6711,
      "ãĢĤæľ¬åįķåħĥå°Ĩ": 6712,
      "è¾īçħĮ": 6713,
      "è¡°åĩı": 6714,
      "ip": 6715,
      "ms": 6716,
      "Ġr": 6717,
      "ï¼Įåıį": 6718,
      "ï¼Įèİ·åıĸ": 6719,
      "çļĦå¹´è½»äºº": 6720,
      "åľ¨å¤ĦçĲĨ": 6721,
      "ãĢģæľī": 6722,
      "åıĳè¡Į": 6723,
      "ä¼ļæľī": 6724,
      "æ¡¶": 6725,
      "è¯Ńæ°Ķ": 6726,
      "æĽ´å¥½åľ°äºĨè§£": 6727,
      "æĶ¶èĹı": 6728,
      "ï¼Įç¡®ä¿Ŀåħ¶": 6729,
      "ãĢĤå¥¹çŁ¥éģĵ": 6730,
      "çļĦæīĢæľī": 6731,
      "é»ĳå®¢": 6732,
      "ãĢĤä»¥ä¸ĭæĺ¯ä¸ĢäºĽå»ºè®®": 6733,
      "éľĩæĥĬ": 6734,
      "åĩºèī²çļĦ": 6735,
      "çļĦè´¨éĩıåĴĮ": 6736,
      "\");Ċ": 6737,
      "oot": 6738,
      "ä¸Ģçīĩ": 6739,
      "ä¸Ģç¯ĩ": 6740,
      "æī£": 6741,
      "åĩ¯": 6742,
      "å¥ĳ": 6743,
      "ä¸Ģä¸ªç®ĢåįķçļĦ": 6744,
      "èĢĮè¨Ģ": 6745,
      "åĩºçĶŁ": 6746,
      "åĽ½æ°ĳ": 6747,
      "ãĢĤè¿Ļä¸įä»ħ": 6748,
      "ï¼īãĢĤĊĊ": 6749,
      "ï¼Įä½Ĩä»ĸä»¬": 6750,
      "ä»¥ä¸ĭæŃ¥éª¤": 6751,
      "åĸĿ": 6752,
      "ç¾İå¥½çļĦ": 6753,
      "åģ¥åº·çļĦ": 6754,
      "æĽ´å¤ļäºº": 6755,
      "ä¸¥è°¨": 6756,
      "æĪĺæĸĹä¸Ń": 6757,
      "è§Ĩè§īæķĪæŀľ": 6758,
      "ä¼ĳéĹ²": 6759,
      "çĪĨçł´": 6760,
      "çļĦæģĲ": 6761,
      "ï¼Įä¾¿äºİ": 6762,
      "Th": 6763,
      "çļĦåıĳçİ°": 6764,
      "ãĢĤä¸İ": 6765,
      "çļĦæį": 6766,
      "å¥Ī": 6767,
      "è®¾æľī": 6768,
      "åħ¥ä¾µ": 6769,
      "èĢĥåı¤": 6770,
      "åİŁåŃĲ": 6771,
      "ï¼Įåı¯ä»¥åľ¨": 6772,
      "è¿Ļä¸ªæķħäºĭ": 6773,
      "æ¿ĢçĥĪ": 6774,
      "è½¦ç«Ļ": 6775,
      "çİ©åħ·": 6776,
      "etes": 6777,
      "çļĦæİ¥": 6778,
      "ite": 6779,
      "æīĢéľĢçļĦ": 6780,
      "æĽ´æ·±åħ¥åľ°çĲĨè§£": 6781,
      "çºłç¼ł": 6782,
      "è°¨æħİ": 6783,
      "æĬĹæĹ¥æĪĺäºī": 6784,
      "ä¸¢å¤±": 6785,
      "åĸĬéģĵ": 6786,
      "-c": 6787,
      "ĠK": 6788,
      "ï¼Įæĺİç¡®": 6789,
      "çļĦåİŁçĲĨ": 6790,
      "æĺ¯æĪĳä»¬": 6791,
      "åŃ¦åºľ": 6792,
      "åı¯ä»¥ç¡®ä¿Ŀ": 6793,
      "åĪ©äºİ": 6794,
      "éĢīæĭ©ä¸Ģä¸ª": 6795,
      "åİĨåı²ä¸Ĭ": 6796,
      "ï¼Įä¸ºä»Ģä¹Ī": 6797,
      "æĵħ": 6798,
      "æŀģé«ĺçļĦ": 6799,
      "è½¬åıĺ": 6800,
      "äºĨä¸Ģä¸ĭ": 6801,
      "é¸¿": 6802,
      "åĩĨå¤ĩå·¥ä½ľ": 6803,
      "å®ĮæĪĲäºĨ": 6804,
      "ï¼ĮåŃ¦çĶŁå°Ĩèĥ½å¤Ł": 6805,
      "æĹ¨åľ¨æ·±åħ¥æİ¢è®¨": 6806,
      "å¥½å¥ĩåľ°éĹ®": 6807,
      "éĺ»å¡ŀ": 6808,
      "è±¡å¾ģçĿĢ": 6809,
      "Ġç¬¬ä¸īéĥ¨åĪĨ": 6810,
      "èĴ¸åıĳ": 6811,
      "æµªè´¹": 6812,
      "ä¸»äººåħ¬": 6813,
      "Ġæĺ¯": 6814,
      "çļĦè¯Ńè¨Ģ": 6815,
      "åĴĮå½±åĵį": 6816,
      "ä¸įç¡®å®ļ": 6817,
      "è¿ĩå¤ļ": 6818,
      "æĽ´åħ·": 6819,
      "å°ıåŀĭ": 6820,
      "ä¼łæĿ¥": 6821,
      "è§Ĥèµı": 6822,
      "æĮĩçļĦæĺ¯": 6823,
      "æŁľ": 6824,
      "ç²¾ç»Ĩ": 6825,
      "èīºæľ¯åĪĽä½ľ": 6826,
      "é¢Ħå¤ĦçĲĨ": 6827,
      "ï¼Įå®ĥä¸įä»ħ": 6828,
      "ï¼Įä»İèĢĮå®ŀçİ°": 6829,
      "èı²": 6830,
      "å¿ĹæĦ¿": 6831,
      "ï¼Įè®©æĽ´å¤ļçļĦäºº": 6832,
      "ä»ĭç»įäºĨ": 6833,
      "Ġto": 6834,
      "çļĦæĽ´": 6835,
      "å¯¿åĳ½": 6836,
      "çļĦæ¤įçī©": 6837,
      "ho": 6838,
      "yn": 6839,
      "âĦ": 6840,
      "ĠâĢľ": 6841,
      "ï¼Įç»´æĬ¤": 6842,
      "çļĦå¸®åĬ©": 6843,
      "ãĢĤçĲĨè§£": 6844,
      "åĴĮæ²»çĸĹ": 6845,
      "ä¼Ĳ": 6846,
      "å¿ĥè¡Ģç®¡": 6847,
      "æ±ģ": 6848,
      "å¾Ĺä»¥": 6849,
      "èĩªå·±çļĦåĬªåĬĽ": 6850,
      "ï¼ļ**âĢľ": 6851,
      "æ¢¯": 6852,
      "æ¼ĶåĶ±": 6853,
      "è¯Ŀé¢ĺ": 6854,
      "è¥¿åĮ»": 6855,
      "çİ©å®¶åľ¨": 6856,
      "è¯¯è§£": 6857,
      "è¡Ģåİĭ": 6858,
      "ï¼Įæľīä¸Ģä¸ª": 6859,
      "åįģåĪĨ": 6860,
      "olang": 6861,
      "æŃ¦åĻ¨": 6862,
      "ign": 6863,
      "çļĦå®ļä¹īä¸İ": 6864,
      "æ¶ĤæĸĻ": 6865,
      "ä¼Ĭæĸ¯": 6866,
      "åŃ¤çĭ¬": 6867,
      "âĦĥ": 6868,
      "ä¸§": 6869,
      "ï¼Įæĸ°": 6870,
      "ï¼Įä¸¤äºº": 6871,
      "çļĦè®Ńç»ĥ": 6872,
      "çļĦä»£çłģ": 6873,
      "èĩªè¯Ń": 6874,
      "åħ³èģĶ": 6875,
      "èĤļ": 6876,
      "æľºçĶ²": 6877,
      "åĲİä¸ĸ": 6878,
      "ï¼Įä»ĸåıĳçİ°": 6879,
      "åºĶçĶ¨åľºæĻ¯": 6880,
      "ï¼Įè¿ĺéĢļè¿ĩ": 6881,
      "ç±»çļĦ": 6882,
      "æ¨¡åĪ¶": 6883,
      "å¤©å®ĩ": 6884,
      "ãĢĤéĢļè¿ĩäºĨè§£": 6885,
      "æĶ¾ä¸ĭ": 6886,
      "èĮĤ": 6887,
      "ï¼Įç¡®ä¿ĿäºĨ": 6888,
      "æľīåĬ©äºİæıĲé«ĺ": 6889,
      "Ġç¬¬ä¸Ģ": 6890,
      "æĪĲåĬŁçļĦåħ³éĶ®": 6891,
      "ç¿ł": 6892,
      "å®ļæľŁæ£ĢæŁ¥": 6893,
      "ç¼ĸç¨ĭè¯Ńè¨Ģ": 6894,
      "åĨľæĿĳç»ıæµİ": 6895,
      "æ¼ıæ´ŀ": 6896,
      "å·§å¦Ļåľ°": 6897,
      "CC": 6898,
      "my": 6899,
      "to": 6900,
      "xt": 6901,
      "æ©": 6902,
      "é³": 6903,
      "ï¼ĮåĪ©çĶ¨": 6904,
      "çļĦåĨ³çŃĸ": 6905,
      "å®¿": 6906,
      "åĴĮæŀĹ": 6907,
      "æĦ¤": 6908,
      "å®ŀä½ĵ": 6909,
      "åĪ¶åĨ·": 6910,
      "ä¸ŃçļĦè¡¨çİ°": 6911,
      "å¼łå¼º": 6912,
      "çłĶç©¶çļĦ": 6913,
      "éĢīæĭ©åĲĪéĢĤ": 6914,
      "æĥ³æ³ķ": 6915,
      "ä¸ĵåĪ©": 6916,
      "æ´»åĬ¨ä¸Ń": 6917,
      "éĽĨä½ĵ": 6918,
      "èĨ¨": 6919,
      "çļĦåŁºç¡Ģä¸Ĭ": 6920,
      "éĵģæŁ±": 6921,
      "ä¸įåı¯æĪĸç¼ºçļĦä¸Ģéĥ¨åĪĨ": 6922,
      "æ¯«ç±³": 6923,
      "clude": 6924,
      "ä¼Ĭæĸ¯åħ°": 6925,
      "įéģ¥": 6926,
      "ï¼Įçľĭçľĭ": 6927,
      "çļĦå¼Ģ": 6928,
      "çļĦå½¢æĢģ": 6929,
      "éĢįéģ¥": 6930,
      "ä¹³": 6931,
      "èĩªä¿¡å¿ĥ": 6932,
      "éģ®": 6933,
      "é«ĺéĢŁ": 6934,
      "ä½ĵéĩį": 6935,
      "éľī": 6936,
      "åĬłçĥŃ": 6937,
      "éļĨ": 6938,
      "äºĭçī©": 6939,
      "ä¸»ä»»": 6940,
      "å¼ķè¿Ľ": 6941,
      "çĭĹ": 6942,
      "ç¾İæľ¯": 6943,
      "æŀģç«¯": 6944,
      "åħ³éĶ®è¯į": 6945,
      "äºĮèĥ¡": 6946,
      "è¡¨çİ°åĩº": 6947,
      "æĦŁåĪ°ä¸Ģéĺµ": 6948,
      "å¨ĥ": 6949,
      "æİĪæĿĥ": 6950,
      "ï¼Ľåľ¨": 6951,
      "ï¼ĮæĽ´æĺ¯ä¸ºäºĨ": 6952,
      "è®¡ç®Ĺæľºç§ĳåŃ¦": 6953,
      "ä»Ķç»Ĩè§Ĥå¯Ł": 6954,
      "çļĦçľŁçĽ¸": 6955,
      "éĻ·åħ¥": 6956,
      "æĲŃå»º": 6957,
      "å®ŀåľ°èĢĥå¯Ł": 6958,
      "çļĦæĶ»åĩ»": 6959,
      "ĠåĴĮ": 6960,
      "ï¼Įå»ºç«ĭ": 6961,
      "ï¼Įæ¿ĢåĬ±": 6962,
      "çļĦä½ĵçİ°": 6963,
      "èĢ¶": 6964,
      "ä¸įä»ħä¸°å¯ĮäºĨ": 6965,
      "eract": 6966,
      "åĨľä½ľçī©": 6967,
      "ç©ºä¸Ń": 6968,
      "ä½ıäºĨ": 6969,
      "ï¼Įè¿ĺèĥ½æıĲé«ĺ": 6970,
      "æĽ´å¥½åľ°çĲĨè§£åĴĮ": 6971,
      "ç²¾ç¥ŀåĴĮ": 6972,
      "æĻ¨æĽ¦": 6973,
      "é»Ħéĩĳ": 6974,
      "è¡Įä¸ļçļĦ": 6975,
      "èĤ¡å¸Ĥ": 6976,
      "éĢĢç¼©": 6977,
      "èĦ¸ä¸Ĭ": 6978,
      "å¾ĴæŃ¥": 6979,
      "è´·æ¬¾": 6980,
      "æ¶Įèµ·ä¸ĢèĤ¡": 6981,
      "df": 6982,
      "çļĦç»ĥä¹ł": 6983,
      "çİĽ": 6984,
      "è¡Ļ": 6985,
      "ä¸įå¤Ł": 6986,
      "ä¸įåıĬ": 6987,
      "æł½": 6988,
      "åĪĨè¾¨": 6989,
      "ç¤ģ": 6990,
      "çĽ¸è§Ĩ": 6991,
      "æ¬¡æķ°": 6992,
      "çĲĥè¿·": 6993,
      "ç´¢å°¼": 6994,
      "æ´»åĬ¨çļĦ": 6995,
      "æĿĳçļĦ": 6996,
      "æ¶Īå¤±": 6997,
      "ï¼Įè®©åŃ¦çĶŁ": 6998,
      "è±ĨèħĲ": 6999,
      "çļĦç®Ģ": 7000,
      "ä¸´åºĬè¯ķéªĮ": 7001,
      "ãĢĤæĹłè®ºæĺ¯": 7002,
      "ï¼ĮåĬªåĬĽ": 7003,
      "ï¼Įç»ĵåĲĪ": 7004,
      "ï¼Įè´Łè´£": 7005,
      "ãĢĤæ¯ıä¸ª": 7006,
      "çī²": 7007,
      "åı¯ä»¥ä»İ": 7008,
      "âĢĿçŃī": 7009,
      "è¿ĽåĮĸ": 7010,
      "é«ĺæ¸©": 7011,
      "åº¦è¿ĩ": 7012,
      "ç»Łæ²»": 7013,
      "èĬĤçľģ": 7014,
      "æ¨¡åħ·": 7015,
      "å¸ĪèµĦ": 7016,
      "æľªæĿ¥åıĳå±ķ": 7017,
      "åĩłä½ķ": 7018,
      "æĿĥåĬĽ": 7019,
      "åįıåĲĮ": 7020,
      "åħ³æ³¨åĴĮ": 7021,
      "çİ©å®¶çļĦ": 7022,
      "åĩºçİ°åľ¨": 7023,
      "èĢĲåĬĽ": 7024,
      "åºķèķ´": 7025,
      "ãĢĤæĪĳçĽ¸ä¿¡": 7026,
      "åħĭæľįåĽ°éļ¾": 7027,
      "åħįçĸ«åĬĽ": 7028,
      "æĳĺå½ķ": 7029,
      "æłĩå¿ĹçĿĢ": 7030,
      "çļĦç±»åŀĭ": 7031,
      "æ¨¡åĪ¶æľ¨æĿĲ": 7032,
      "Po": 7033,
      "Ġ>": 7034,
      "ĠåıįæĢĿ": 7035,
      "çļĦå¥¥ç§ĺ": 7036,
      "ãĢĤä¸į": 7037,
      "æłĭ": 7038,
      "åľ°éĿ¢": 7039,
      "äººæĿĥ": 7040,
      "æ¯ħ": 7041,
      "äºĭå®ŀ": 7042,
      "éĥ½éľĢè¦ģ": 7043,
      "ï¼īï¼ļ": 7044,
      "ï¼ĪD": 7045,
      "å½ĵçĦ¶": 7046,
      "çĹħæĥħ": 7047,
      "çļĦäººéĻħ": 7048,
      "æİĴåĲį": 7049,
      "åŃ¦ä¹łåĴĮå®ŀè·µ": 7050,
      "è·¨åĽ½": 7051,
      "Ġ|Ċ": 7052,
      "èī¾ç±³": 7053,
      "è¯¦ç»Ĩä»ĭç»įäºĨ": 7054,
      "æĺĨèĻ«": 7055,
      "WT": 7056,
      "ï¼Įä¸ĬéĿ¢": 7057,
      "ä¸ĢèĪ¬": 7058,
      "åľ¨éĺħè¯»": 7059,
      "æķ²": 7060,
      "ãĢģæĢ»ç»ĵ": 7061,
      "è¿Ļçīĩ": 7062,
      "åį¢": 7063,
      "å®ŀè®Ń": 7064,
      "æķĪåºĶ": 7065,
      "çĶµæµģ": 7066,
      "çłĶç£¨": 7067,
      "æıĲåįĩèĩªå·±": 7068,
      "åĮ»èį¯": 7069,
      "å®ŀéĻħä¸Ĭ": 7070,
      "åĨħå®¹åĴĮ": 7071,
      "äº§åĵģç»ıçĲĨ": 7072,
      "ç»§ç»ŃåĬªåĬĽ": 7073,
      "åĲ¬åĲİ": 7074,
      "åĪĿåŃ¦èĢħ": 7075,
      "ï¼Įå¸®åĬ©åŃ¦çĶŁ": 7076,
      "å¤ļæł·æĢ§åĴĮ": 7077,
      "åĽ¾åĥıå¤ĦçĲĨ": 7078,
      "éŁµ": 7079,
      "ubern": 7080,
      "æĭ¿èµ·": 7081,
      "ä¸Ģèĩ´æĢ§": 7082,
      "ubernetes": 7083,
      "ev": 7084,
      "ire": 7085,
      "per": 7086,
      "sc": 7087,
      "èĥĨ": 7088,
      "çĽ²": 7089,
      "ä¸İèĩªçĦ¶": 7090,
      "çī©ä¸ļ": 7091,
      "èĢĮåĩº": 7092,
      "æ»ĭ": 7093,
      "ï¼ĪS": 7094,
      "èº²": 7095,
      "éĢłåĥı": 7096,
      "èĩ³å°ĳ": 7097,
      "åĳ³éģĵ": 7098,
      "Ġclass": 7099,
      "ï¼Įä¸įä»ħä»ħ": 7100,
      "éĿŀå¸¸æľī": 7101,
      "æİĴæĶ¾": 7102,
      "ç¦»åŃĲ": 7103,
      "çļĦæīį": 7104,
      "ï¼ĽèĢĮ": 7105,
      "æĻ®åıĬ": 7106,
      "éĩįæĸ°å®¡è§Ĩ": 7107,
      "çļĦçĲĨè§£åĴĮ": 7108,
      "Ġ```Ċ": 7109,
      "æĲľç´¢å¼ķæĵİ": 7110,
      "åħĶåŃĲ": 7111,
      "å½»åºķ": 7112,
      "å±ĢéĻĲæĢ§": 7113,
      "ï¼ĮçĽ´åĪ°": 7114,
      "åĶ¯ä¸Ģ": 7115,
      "TCP": 7116,
      "du": 7117,
      "Ġç»ĵè¯Ń": 7118,
      "ï¼Įè¯Ħä¼°": 7119,
      "çļĦç»ĵæŀĦ": 7120,
      "è¿Ī": 7121,
      "åĲ´": 7122,
      "ï¼ļåľ¨": 7123,
      "ä¸įå¼Ģ": 7124,
      "å±¥": 7125,
      "äººç¾¤": 7126,
      "é¢Ī": 7127,
      "éĶĪ": 7128,
      "æĤĦ": 7129,
      "ä¹¦æĪ¿": 7130,
      "ï¼ĪP": 7131,
      "èĦĬ": 7132,
      "å¸ĤåľºèĲ¥éĶĢ": 7133,
      "ï¼ĮæĽ´æĺ¯ä¸Ģä¸ª": 7134,
      "éĽĨç¾¤": 7135,
      "éĩĳé¢Ŀ": 7136,
      "æĥħæĦŁåĴĮ": 7137,
      "å·²ç»ıæĪĲä¸º": 7138,
      "æĹ¨åľ¨å¸®åĬ©": 7139,
      "éĢıéķľ": 7140,
      "html": 7141,
      "å°¼äºļ": 7142,
      "Ġvoid": 7143,
      "esseract": 7144,
      "èĤĿèĦı": 7145,
      "ç¥ŀç»ıç½ĳç»ľ": 7146,
      "è¿ģç§»": 7147,
      "ä¸Ģæ®µæĹ¶éĹ´": 7148,
      "çĪ¸çĪ¸": 7149,
      "èĨ¨èĥĢ": 7150,
      "IT": 7151,
      "cd": 7152,
      "ith": 7153,
      "Ġåĩ½æķ°": 7154,
      "çļĦå»ºè®¾": 7155,
      "åĴĮåĨ³çŃĸ": 7156,
      "åĴĮåĨ²çªģ": 7157,
      "å¼Ł": 7158,
      "è¿Ļæ¬¾": 7159,
      "èĥ½åľ¨": 7160,
      "æĮ¡": 7161,
      "åĪĨæĶ¯": 7162,
      "åĮĸçŁ³": 7163,
      "çĤĸ": 7164,
      "å°Ĩä¸º": 7165,
      "åľºåľ°": 7166,
      "ï¼Įè¿Ļåľº": 7167,
      "æĸĩåĮĸä¼łæī¿": 7168,
      "åĲĦé¡¹": 7169,
      "ç²¾åĬĽ": 7170,
      "è¡¨çİ°åĩºèī²": 7171,
      "çŁ³å¤´": 7172,
      "use": 7173,
      "æŃ¦æľ¯": 7174,
      "éĢ»è¾ĳæĢĿç»´": 7175,
      "å®Įæķ´æĢ§": 7176,
      "æ²īæµ¸åľ¨": 7177,
      "éŀĭ": 7178,
      "List": 7179,
      "Mac": 7180,
      "WD": 7181,
      "ib": 7182,
      "çļĦåĲĪä½ľ": 7183,
      "äºĨä»ĸä»¬çļĦ": 7184,
      "æĺ¯å°Ĩ": 7185,
      "æĬ±": 7186,
      "ä¸įä»ħæıĲåįĩäºĨ": 7187,
      "åħ¨åĬĽ": 7188,
      "æľŁåĪĬ": 7189,
      "æ°´åĪĨ": 7190,
      "æķĻèĤ²è´¨éĩı": 7191,
      "çĶ¨æĪ·çķĮéĿ¢": 7192,
      "èīºæľ¯å½¢å¼ı": 7193,
      "å®Įç¾İ": 7194,
      "å½ķéŁ³": 7195,
      "ä¸ŃåŃ¦çĶŁçļĦ": 7196,
      "å±±ä¸ľ": 7197,
      "åŁºç¡ĢçŁ¥è¯Ĩ": 7198,
      "çŁ³ç¢ĳ": 7199,
      "åĽ½å®¶éĺŁ": 7200,
      "å¿«éĢŁåıĳå±ķ": 7201,
      "çĵ¶": 7202,
      "urre": 7203,
      "Ġtr": 7204,
      "Ġfor": 7205,
      "è¦ĨçĽĸçİĩ": 7206,
      "çļĦç¹ģèį£": 7207,
      "ãģ": 7208,
      "ï¼ĮåŃ¦ä¼ļ": 7209,
      "ï¼ĮæŃ£æĺ¯": 7210,
      "å¤º": 7211,
      "æĺ¯ä¸ŃåĽ½": 7212,
      "æĺ¯çĶ±": 7213,
      "ãĢģåİĨåı²": 7214,
      "çİ»": 7215,
      "æīĳ": 7216,
      "åĬ¨æīĭ": 7217,
      "çº½": 7218,
      "èĤ¾": 7219,
      "æĪĺå½¹": 7220,
      "è·¯ä¸Ĭ": 7221,
      "æĢ§åĴĮåı¯éĿłæĢ§": 7222,
      "å¿Ĺå¼º": 7223,
      "æī¿è¯º": 7224,
      "åĩĨå¤ĩå¥½": 7225,
      "çļĦæł¡": 7226,
      "ï¼ĮæĿİæĻ¨": 7227,
      "èµ°äºĨ": 7228,
      "æĺ¾èĳĹæıĲåįĩ": 7229,
      "ï¼Įä»¥ä¾¿åľ¨": 7230,
      "æķ¬çķı": 7231,
      "æĸ°éĹ»ä¼łæĴŃ": 7232,
      "é¥²æĸĻ": 7233,
      "èģªæĺİ": 7234,
      "HE": 7235,
      "çļĦç»ĵåĲĪ": 7236,
      "åĴĮæĵįä½ľ": 7237,
      "åĴĮæĬĢèĥ½": 7238,
      "ä¼½": 7239,
      "ä¸įç¦ģ": 7240,
      "åĩī": 7241,
      "å¯¹æľªæĿ¥çļĦ": 7242,
      "äººåĬĽèµĦæºĲ": 7243,
      "åı¯ä»¥æıĲé«ĺ": 7244,
      "æĪĳä»¬éľĢè¦ģ": 7245,
      "åĪ¶å¤ĩ": 7246,
      "ä¸»è§Ĵ": 7247,
      "éĥ½è¦ģ": 7248,
      "æİ¥è¿ĳ": 7249,
      "æºĲäºİ": 7250,
      "ï¼ĪA": 7251,
      "æĹłéĻĲ": 7252,
      "ï¼Įä½Ĩåıªè¦ģ": 7253,
      "æĬĢæľ¯åľ¨": 7254,
      "ãĢĭãĢĤ": 7255,
      "ï¼Įå¹¶ä¸º": 7256,
      "å®¹éĩı": 7257,
      "ï¼Įæ¯ıä¸Ģ": 7258,
      "çļĦæĮĳæĪĺåĴĮ": 7259,
      "çļĦåºĶçĶ¨åľºæĻ¯": 7260,
      "åį°åº¦": 7261,
      "çĦ¦æĢ¥": 7262,
      "ä½ĵçİ°åľ¨ä»¥ä¸ĭåĩłä¸ªæĸ¹éĿ¢": 7263,
      "è¾ħå¯¼": 7264,
      "çĸ²åĬ³": 7265,
      "çļĦæ¸©åº¦": 7266,
      "åīįæīĢæľªæľīçļĦ": 7267,
      "PL": 7268,
      "VM": 7269,
      "ma": 7270,
      "Ġ&": 7271,
      "ãĢģç»ıæµİ": 7272,
      "å¤§å¤ļ": 7273,
      "åĩºåı£": 7274,
      "åľºåĲĪ": 7275,
      "å§Ĩ": 7276,
      "åīįæĸ¹": 7277,
      "æľĢæĸ°çļĦ": 7278,
      "ç²®": 7279,
      "å·¥ä½ľåİŁçĲĨ": 7280,
      "ä»¥ä¸ĭåĩł": 7281,
      "ï¼Įä¹Łå¯¹": 7282,
      "ï¼Įä½łçļĦ": 7283,
      "çŁ¥éģĵåĲĹ": 7284,
      "å²Ń": 7285,
      "è¡¨è¾¾èĩªå·±": 7286,
      "çĶŁçī©å¤ļæł·æĢ§": 7287,
      "åĬŀåŃ¦": 7288,
      "çĸĳéĹ®": 7289,
      "ä¹¦æ³ķèīºæľ¯": 7290,
      "è¿İæİ¥": 7291,
      "æķ¬ä½©": 7292,
      "å´ĩ": 7293,
      "ive": 7294,
      "çļĩå¸Ŀ": 7295,
      "é¼łæłĩ": 7296,
      "æŃ£åĪĻè¡¨è¾¾å¼ı": 7297,
      "ï¼Įä¼¼ä¹İ": 7298,
      "æľīä¸Ģ": 7299,
      "ä¼ļä¸Ĭ": 7300,
      "ä¸İå®ŀè·µ": 7301,
      "ä¸İæĮĳæĪĺ": 7302,
      "çļĦçĤ": 7303,
      "ä¸įä»ħæĺ¯ä¸Ģ": 7304,
      "èĥ½å¤ŁæĽ´å¥½åľ°": 7305,
      "å®īéĿĻ": 7306,
      "æ¶¨": 7307,
      "erver": 7308,
      "çĥ¯": 7309,
      "ãĢĤéĢļè¿ĩå¯¹": 7310,
      "æĶ¾ç½®": 7311,
      "ç²¾çģµ": 7312,
      "å¹¿å·ŀ": 7313,
      "æĢ§åĴĮåı¯": 7314,
      "icator": 7315,
      "ï¼ĮæĿİå¤§": 7316,
      "ç¦»ä¸įå¼Ģ": 7317,
      "å®³æĢķ": 7318,
      "åıĸå¾ĹæĪĲåĬŁ": 7319,
      "çļĦæŃ¦": 7320,
      "çļĦçĶŁæ´»è´¨éĩı": 7321,
      "ä¾ĭåŃĲä¸Ń": 7322,
      "Ġfrom": 7323,
      "èĶ½": 7324,
      "æľºåĻ¨äºº": 7325,
      "çļĦçľ¼çĿĽ": 7326,
      "çļĦæĻºæħ§åĴĮ": 7327,
      "éĨĭ": 7328,
      "ï¼Įè¯»èĢħåı¯ä»¥": 7329,
      "åĵĪå¸Įåĩ½æķ°": 7330,
      "å½±åŃĲæľ¯": 7331,
      ".Ċ": 7332,
      "ide": 7333,
      "ï¼Įå¼ķå¯¼": 7334,
      "çļĦå¯¹è¯Ŀ": 7335,
      "åľ¨æ¯ĶèµĽä¸Ń": 7336,
      "èĥº": 7337,
      "æĺ¯éĿŀå¸¸éĩįè¦ģçļĦ": 7338,
      "åľ°è¿Ľè¡Į": 7339,
      "åŁĥ": 7340,
      "çŃīå¤ļ": 7341,
      "ä¸įä»ħè®©": 7342,
      "å»·": 7343,
      "åħ¬ä¸»": 7344,
      "ç²Ĺ": 7345,
      "åħ·æľīéĩįè¦ģçļĦ": 7346,
      "èĦ¾": 7347,
      "æķħäºĭçļĦ": 7348,
      "stall": 7349,
      "æīĵéĢł": 7350,
      "ical": 7351,
      "ache": 7352,
      "éĻįåĻª": 7353,
      "æ¸Ĳæ¸Ĳ": 7354,
      "åŃ¦æľ¯çķĮ": 7355,
      "éķĩçļĦ": 7356,
      "è½¯ä»¶å¼Ģåıĳ": 7357,
      "åį±å®³": 7358,
      "éŁ¦": 7359,
      "çļĦå®īåħ¨æĢ§": 7360,
      "æīĵä¸ĭåĿļå®ŀåŁºç¡Ģ": 7361,
      "éĴĪå¯¹æĢ§": 7362,
      "èĨ³é£Łçº¤ç»´": 7363,
      "Text": 7364,
      "data": 7365,
      "ï¼ĮåĪ°": 7366,
      "ï¼ĮéĿ¢å¯¹": 7367,
      "åıł": 7368,
      "åĴĮåĲĪä½ľ": 7369,
      "åŃ¦åĪ°äºĨ": 7370,
      "ç¨»": 7371,
      "éªĳ": 7372,
      "æĺİäº®": 7373,
      "åī©": 7374,
      "å¹¶æľª": 7375,
      "å¤ĸçº¿": 7376,
      "ï¼Įå¹¶æıĲä¾Ľ": 7377,
      "ï¼Įä¸ºåĲİç»Ń": 7378,
      "åķĨæĪ·": 7379,
      "Ġç¬¬åħŃ": 7380,
      "åģ¥åº·åĴĮ": 7381,
      "åĽ°æī°": 7382,
      "ç´§ç´§": 7383,
      "ï¼Įä¸įä»ħèĥ½å¤Ł": 7384,
      "è¿ŀæİ¥åĪ°": 7385,
      "ä¸Ģå¤©æĻļä¸Ĭ": 7386,
      "çŁŃæĹ¶éĹ´åĨħ": 7387,
      "åĳĺå·¥çļĦ": 7388,
      "é¡¾éĹ®": 7389,
      "ï¼ĮéĢīæĭ©åĲĪéĢĤçļĦ": 7390,
      "ç¤¼ä»ª": 7391,
      "é¤Ĳé¥®": 7392,
      "ï¼Įä»¿ä½Ľåľ¨": 7393,
      "èµŀåĲĮ": 7394,
      "çļĦæŃ£å¸¸": 7395,
      "è¯¸å¤ļ": 7396,
      "Lay": 7397,
      "px": 7398,
      "ä¸Ľ": 7399,
      "ï¼Įåı¯èĥ½": 7400,
      "çļĦåŃĺåľ¨": 7401,
      "çļĦåĲĦä¸ª": 7402,
      "ãĢĤçĦ¶åĲİ": 7403,
      "è¿Ļä½į": 7404,
      "åį¸": 7405,
      "æĽ´æľīæķĪåľ°": 7406,
      "çļĦçĻ": 7407,
      "å¤§äºĨ": 7408,
      "å¤ļå¹´": 7409,
      "è°ģ": 7410,
      "å¼ĢåĲ¯": 7411,
      "äº§éĩı": 7412,
      "åıĺå¼Ĥ": 7413,
      "æ°´è´¨": 7414,
      "æ¨¡ç³Ĭ": 7415,
      "åı°æ¹¾": 7416,
      "ä¸ĵä¸ļçŁ¥è¯Ĩ": 7417,
      "arch": 7418,
      "ä¸ľåĮĹ": 7419,
      "ï¼ĽĊ": 7420,
      "åį°åĪ·": 7421,
      "è¿Ļæł·åģļ": 7422,
      "ä¸įåı¯å¿½è§Ĩ": 7423,
      "HTML": 7424,
      "åľĨå½¢": 7425,
      "éģŃéģĩ": 7426,
      "å§Ķåĳĺä¼ļ": 7427,
      "²æŁĵ": 7428,
      "ï¼Įåħ¬åı¸": 7429,
      "çļĦä¼łæĴŃ": 7430,
      "åĴĮéĻĪ": 7431,
      "èĥ¸": 7432,
      "æĺ¯æĢİä¹Ī": 7433,
      "çļĦæ¦Ĥ": 7434,
      "çļĦæ¿Ģ": 7435,
      "å¯¹åºĶ": 7436,
      "æµĨ": 7437,
      "éĩįéĩı": 7438,
      "åīĬ": 7439,
      "ä½¿çĶ¨çļĦ": 7440,
      "åıĺèī²": 7441,
      "æĸĩåĮĸä¸Ń": 7442,
      "å¹³åĿĩ": 7443,
      "èµ·çĤ¹": 7444,
      "éĤ£éĩĮ": 7445,
      "åı¤èĳ£": 7446,
      "åħīå½±": 7447,
      "æıĲä¾ĽäºĨæĸ°çļĦ": 7448,
      "æīĵåĩ»": 7449,
      "åıĤä¸İåº¦": 7450,
      "åĲ¬ä¼Ĺ": 7451,
      "çļĦæĮģ": 7452,
      "æĪĲéķ¿åĴĮ": 7453,
      "æĦŁåĪ°æĹłæ¯Ķ": 7454,
      "é£İéĻ©ç®¡çĲĨ": 7455,
      "aven": 7456,
      "èĩªåĬ¨é©¾é©¶": 7457,
      "å±ķçİ°åĩº": 7458,
      "æ²Ļçī¹": 7459,
      "arts": 7460,
      "åĻªå£°": 7461,
      "å¥īçĮ®": 7462,
      "æĦ¤æĢĴ": 7463,
      "Socket": 7464,
      "ies": 7465,
      "ºçī²": 7466,
      "æĨ": 7467,
      "ï¼Įæ³¨æĦı": 7468,
      "ï¼ĮæķĻå¸Ī": 7469,
      "çļĦæķĪçİĩ": 7470,
      "çļĦä¿¡å¿µ": 7471,
      "åĴĮèīºæľ¯": 7472,
      "åĴĮçŃĸçķ¥": 7473,
      "äºĨåı£æ°Ķ": 7474,
      "ä¸Ńæĸĩ": 7475,
      "åŃ¦ä½į": 7476,
      "çİ²": 7477,
      "æľīäºº": 7478,
      "çīºçī²": 7479,
      "éĢļè¿ĩè¿Ļä¸ª": 7480,
      "éĢļè¿ĩæľ¬æķĻç¨ĭ": 7481,
      "å¤§åĪ©": 7482,
      "ï¼Įä»ĸå¯¹": 7483,
      "åĢį": 7484,
      "error": 7485,
      "å¤įåĪ¶": 7486,
      "è¿ĻäºĽç¬¦åı·": 7487,
      "ç²¾å¿ĥ": 7488,
      "æĶ¯æĴĳ": 7489,
      "å¾®ä¿¡": 7490,
      "è½»æĺĵ": 7491,
      "åģ¥åº·é¥®é£Ł": 7492,
      "è¯¦ç»Ĩè§£éĩĬ": 7493,
      "å¯¼èĩ´çļĦ": 7494,
      "ç¢Į": 7495,
      "åĲ¦åĪĻ": 7496,
      "çģ«éĶħ": 7497,
      "çļĦçĥ¹é¥ª": 7498,
      "é¢Ĩå¯¼èĢħ": 7499,
      "æ¬£æħ°": 7500,
      "indicator": 7501,
      "ç©¿çĿĢ": 7502,
      "ï¼Įè¯ķåĽ¾æī¾åĪ°": 7503,
      "æıĴåħ¥": 7504,
      "key": 7505,
      ":indicator": 7506,
      "xml": 7507,
      "ĠX": 7508,
      "çļĦéĥ¨åĪĨ": 7509,
      "çļĦä¸ĢäºĽ": 7510,
      "åĴĮä½ľçĶ¨": 7511,
      "ä¸Ģè¾¹": 7512,
      "ä¼ı": 7513,
      "å¼¥": 7514,
      "æľīåºı": 7515,
      "æ³ķå¸Ī": 7516,
      "åĬłåī§": 7517,
      "è¡¨æĥħ": 7518,
      "çĽ®åīį": 7519,
      "include": 7520,
      "æ°´æµģ": 7521,
      "æ°´å¤ĦçĲĨ": 7522,
      "æł·åĵģ": 7523,
      "å¤´éĥ¨": 7524,
      "èĦĨ": 7525,
      "åı¤åħ¸": 7526,
      "çĬ¶èħº": 7527,
      "äºĨä¸Ģåľº": 7528,
      "åĩıå°ĳäºĨ": 7529,
      "æĺŁç©º": 7530,
      "éħįç½®æĸĩä»¶": 7531,
      "è¿ĳå¹´æĿ¥": 7532,
      "idth": 7533,
      "åī§æĥħ": 7534,
      "åĬ³åĬ¨åĬĽ": 7535,
      "å®ŀæĹ¶çĽĳæİ§": 7536,
      "çĶ²çĬ¶èħº": 7537,
      "ï¼Įå½¢æĪĲäºĨ": 7538,
      "å¤ļåħĥåĮĸ": 7539,
      "Flink": 7540,
      "çķľçī§": 7541,
      "éĴĵé±¼": 7542,
      "èĤ¯å®ļ": 7543,
      "ä¸ºäººçŁ¥": 7544,
      "æĵħéķ¿": 7545,
      "WDG": 7546,
      "DE": 7547,
      "WS": 7548,
      "`ãĢĤĊĊ": 7549,
      "da": 7550,
      "Ġ@": 7551,
      "ï¼Įä¼ĺåĮĸ": 7552,
      "ï¼ĮæľĽçĿĢ": 7553,
      "çļĦè§Ĵèī²": 7554,
      "çļĦä»»åĬ¡": 7555,
      "çļĦèģĮä¸ļçĶŁæ¶¯": 7556,
      "çļĦä¿¡ä»»": 7557,
      "æĺ¯ä»ĸ": 7558,
      "å¸Ń": 7559,
      "ä»¥åħ¶çĭ¬çī¹çļĦ": 7560,
      "éĢļè¿ĩåŃ¦ä¹ł": 7561,
      "æµħ": 7562,
      "å°ĨåĨĽ": 7563,
      "åĲİæĿ¥": 7564,
      "äºĭè¿¹": 7565,
      "è¿Ľè¡Įè°ĥæķ´": 7566,
      "åıĹä¼¤": 7567,
      "èĥĮåĮħ": 7568,
      "è¯¾å¤ĸ": 7569,
      "ç¢°": 7570,
      "ä¸¥èĤĥ": 7571,
      "çļĦçľĭ": 7572,
      "æĭħå¿§": 7573,
      "å¤ªæŀģ": 7574,
      "å®ŀä¾ĭåĪĨæŀĲ": 7575,
      "åı¥åŃĲ": 7576,
      "è±¡å¾ģæĦıä¹ī": 7577,
      "æķıæį·": 7578,
      "çļĦé«ĺåº¦": 7579,
      "å¿Ļç¢Į": 7580,
      "æ³°å±±": 7581,
      "Hello": 7582,
      "Loc": 7583,
      "ĠæİĮæı¡": 7584,
      "Ġæ¦Ĥå¿µ": 7585,
      "ï¼Įå¿ħé¡»": 7586,
      "åĴĮçİ¯å¢ĥ": 7587,
      "åĴĮæĪĲå°±": 7588,
      "è§£é¢ĺ": 7589,
      "éĥĳ": 7590,
      "æĸ°é²ľ": 7591,
      "åĿ¡": 7592,
      "æľįçĶ¨": 7593,
      "çº¿è·¯": 7594,
      "è¾¾åĪ°äºĨ": 7595,
      "äºīåıĸ": 7596,
      "ä¿®çĤ¼": 7597,
      "ï¼ĮæĿİæ¸ħ": 7598,
      "å®¤éĩĮ": 7599,
      "ï¼ĮåŃ¦çĶŁåºĶ": 7600,
      "å°ĦéĹ¨": 7601,
      "æııè¿°äºĨ": 7602,
      "çļĦçľŁæŃ£": 7603,
      "ull": 7604,
      "ãĢĤä½Ĩæĺ¯": 7605,
      "æħ¢æĢ§": 7606,
      "è°ľé¢ĺ": 7607,
      ".txt": 7608,
      "çļĦäººéĻħåħ³ç³»": 7609,
      "çļĦåīį": 7610,
      "çļĦä»·åĢ¼": 7611,
      "åĴĮä»·åĢ¼è§Ĥ": 7612,
      "åı¯ä»¥åĪĨä¸º": 7613,
      "âĢĿæĪĸ": 7614,
      "é«ĺæĢ§èĥ½": 7615,
      "æĥ«": 7616,
      "çŃīåĽłç´ł": 7617,
      "å¤ļå½©": 7618,
      "æķ°æį®ä»ĵåºĵ": 7619,
      "ï¼Ī`": 7620,
      "åįķä¸Ģ": 7621,
      "ï¼Įä½ĨåĲĮæĹ¶": 7622,
      "çĹ´è¿·": 7623,
      "æĪıåī§": 7624,
      "æ°ĳéĹ´": 7625,
      "æĮĩæĮ¥": 7626,
      "é»İ": 7627,
      "æŀģå¤§çļĦ": 7628,
      "é¥¼": 7629,
      "äºīè®®": 7630,
      "æĦŁåĪ°éĿŀå¸¸": 7631,
      "åĤ¨åŃĺ": 7632,
      "ç«ŀæĬĢ": 7633,
      "ç§ĳæĬĢçļĦ": 7634,
      "å¹²åĩĢ": 7635,
      "å©ī": 7636,
      "ãĢĤæ¯ıå½ĵ": 7637,
      "å®ıå®ļä¹ī": 7638,
      "æĭ¼éŁ³": 7639,
      "æī¿è½½çĿĢ": 7640,
      "div": 7641,
      "ss": 7642,
      "ï¼Įåħ¨": 7643,
      "ï¼Įæĺ¯ä¸Ģç§į": 7644,
      "ï¼Įè¡¨ç¤º": 7645,
      "ï¼ĮçĤ¹åĩ»": 7646,
      "åĴĮæĹł": 7647,
      "ä¸įéĢĤ": 7648,
      "ä¸įä½ı": 7649,
      "éĩįè¦ģè´¡çĮ®": 7650,
      "çĽ¸åıį": 7651,
      "ï¼ĮæĪĳä»¬ä¹Ł": 7652,
      "åħ¬æ°ĳ": 7653,
      "å¼łå°ı": 7654,
      "æ°´èµĦæºĲ": 7655,
      "æīĭä¸Ń": 7656,
      "æľįåĬ¡çļĦ": 7657,
      "æķħäºĭæĥħèĬĤ": 7658,
      "æĽ´å¤ļåħ³äºİ": 7659,
      "è¶£åĳ³": 7660,
      "æī¿åıĹ": 7661,
      "è¯·æķĻ": 7662,
      "åĽŃåĮº": 7663,
      "æİĴåĪĹ": 7664,
      "loy": 7665,
      "loud": 7666,
      "ï¼Įæ¯ıæ¬¡": 7667,
      "å¨ĺ": 7668,
      "ï¼Įéģ¿åħįåĽł": 7669,
      "åĿĲæłĩ": 7670,
      "ç¹ģèį£": 7671,
      "èĦ±é¢ĸ": 7672,
      "æĻ®éĢļçļĦ": 7673,
      "æ¦ķ": 7674,
      "å¯ĨåĪĩçĽ¸åħ³": 7675,
      "éĻªä¼´": 7676,
      "DL": 7677,
      "ial": 7678,
      "uild": 7679,
      "ï¼Įè®¾è®¡": 7680,
      "ï¼Įä¸Ģèµ·": 7681,
      "ï¼Įè¿ħéĢŁ": 7682,
      "åľ¨åħ¨çĲĥ": 7683,
      "åĬĽåº¦": 7684,
      "æĿ¥äºĨ": 7685,
      "ä¸Ĭåįĩ": 7686,
      "éĽ¾": 7687,
      "æľĢé«ĺ": 7688,
      "çĮİ": 7689,
      "çĪ±æ²Ļ": 7690,
      "è¯¦ç»Ĩè®²è§£": 7691,
      "æĦıè¯ĨåĴĮ": 7692,
      "dex": 7693,
      "å®¡æł¸": 7694,
      "æĺ¯åĲ¦æľī": 7695,
      "ï¼ĮæľīåĬ©äºİæĪĳä»¬": 7696,
      "Ġpro": 7697,
      "ä¼łæī¿åĴĮ": 7698,
      "åģļåĩºè´¡çĮ®": 7699,
      "ï¼Įä¿ĥè¿ĽäºĨ": 7700,
      "ï¼ĮåĪĨæŀĲåħ¶": 7701,
      "ç¼ĸè¾ĳåĻ¨": 7702,
      "åĢºåĪ¸": 7703,
      "çļĦæī§è¡Į": 7704,
      "çªģå¦Ĥåħ¶æĿ¥çļĦ": 7705,
      "èĦ±é¢ĸèĢĮåĩº": 7706,
      "))": 7707,
      "->": 7708,
      "cpp": 7709,
      "gro": 7710,
      "ï¼ĮæŃ£": 7711,
      "çļĦèĥĮæĻ¯": 7712,
      "çļĦçĶŁäº§": 7713,
      "çļĦèģĮè´£": 7714,
      "è¿Ń": 7715,
      "è¯Ī": 7716,
      "éĢĬ": 7717,
      "åŃ¦å®¶": 7718,
      "åŃ¦åİĨ": 7719,
      "å¤§èĦĳ": 7720,
      "åħ³çĪ±": 7721,
      "è¿ĺèĥ½": 7722,
      "ï¼ĮæĪĳä»¬æīįèĥ½": 7723,
      "å¼łå®ĩ": 7724,
      "å¹³çŃī": 7725,
      "èµ·åĪ°äºĨ": 7726,
      "åİŁæĸĻ": 7727,
      "ï¼Įå®ĥéĢļè¿ĩ": 7728,
      "åģļåĪ°": 7729,
      "åı·çłģ": 7730,
      "æĴŀ": 7731,
      "äº§åĵģè´¨éĩı": 7732,
      "éĿ¢å¯¹æĮĳæĪĺ": 7733,
      "è®°å½ķäºĨ": 7734,
      "ï¼ĮåŃ¦çĶŁä»¬": 7735,
      "æĢĿèĢĥåĴĮ": 7736,
      "ĠĠĠĠĠĠĠĠĠĠĠĠĠĠĠ": 7737,
      "çļĦç¤¾äº¤": 7738,
      "é«ĺè´¨éĩıçļĦ": 7739,
      "Fi": 7740,
      "ï¼Įæ¸¸æĪı": 7741,
      "ï¼Įå»ºè®®": 7742,
      "ï¼Įç»Īäºİ": 7743,
      "ï¼Įè¯´éģĵ": 7744,
      "çļĦé¢ľèī²": 7745,
      "å¤¸": 7746,
      "ä¸Ńä¿ĿæĮģ": 7747,
      "ãĢģæĽ´": 7748,
      "è¿Ļæĺ¯ä¸Ģä¸ª": 7749,
      "æĦŁæĤŁ": 7750,
      "å°ıæ³¢": 7751,
      "å»ºæ¨¡": 7752,
      "ï¼Įè¿ĻæĦıåĳ³çĿĢ": 7753,
      "æķ°æį®åĴĮ": 7754,
      "ç½ĳä¸Ĭ": 7755,
      "æīĭåĬ¨": 7756,
      "æľĢåĪĿ": 7757,
      "ï¼Įä½Ĩå®ĥ": 7758,
      "å½ĵä»Ĭ": 7759,
      "å·¥ä½ľåı°": 7760,
      "æĮĩçĿĢ": 7761,
      "åĲĳéĩı": 7762,
      "æĽ´åĬłä¸°å¯Į": 7763,
      "ens": 7764,
      "è§£åĨ³å®ŀéĻħéĹ®é¢ĺ": 7765,
      "ï¼ĮæıĲé«ĺèĩªå·±çļĦ": 7766,
      "ãĢĤä»¥ä¸ĭå°Ĩ": 7767,
      "ä¸Ģå®ļè¦ģ": 7768,
      "ï¼ĮæĿİæĻĵ": 7769,
      "åŁİå¸Ĥè§ĦåĪĴ": 7770,
      "ï¼Įå¸®åĬ©æĤ¨": 7771,
      "ç¬ĳçĿĢåĽŀçŃĶ": 7772,
      "çļĦç¤º": 7773,
      "Ġmain": 7774,
      "çĻ»å±±": 7775,
      "çļĦçĹĩ": 7776,
      "å§ĵåĲį": 7777,
      "ount": 7778,
      "çļĦåľ°çĲĨä½įç½®": 7779,
      "urrent": 7780,
      "UR": 7781,
      "te": 7782,
      "Ġä¸İ": 7783,
      "Ġå®ļæľŁ": 7784,
      "ĠåĪĽå»º": 7785,
      "ï¼Įäº«åıĹ": 7786,
      "ï¼Įå®¶éķ¿": 7787,
      "çļĦéŃħåĬĽ": 7788,
      "ãĢĤäºİæĺ¯": 7789,
      "åĴĮæĶ¹è¿Ľ": 7790,
      "äºĨä¸°å¯ĮçļĦ": 7791,
      "ä¹Ļ": 7792,
      "å·¡": 7793,
      "åıĳéħµ": 7794,
      "æıĲåĪ°çļĦ": 7795,
      "ç¨Ģ": 7796,
      "æĭĨ": 7797,
      "èĩªæ²»": 7798,
      "éĺ±": 7799,
      "å¤§å£°": 7800,
      "ç¡ķ": 7801,
      "ä½ĵè´¨": 7802,
      "éĿ¢åĽ¢": 7803,
      "è¿ĺéľĢè¦ģ": 7804,
      "ä¼łæİĪ": 7805,
      "èĮ«": 7806,
      "ä¸īäºº": 7807,
      "ä¸īä½ĵ": 7808,
      "org": 7809,
      "å¸ĥé²ģ": 7810,
      "å®ŀè·µåºĶçĶ¨": 7811,
      "å¾Īå¤§": 7812,
      "ï¼ĮæĪĳçĽ¸ä¿¡": 7813,
      "ï¼ģĊ": 7814,
      "éĿĴäºĳ": 7815,
      "æĿ¡ä»¶ä¸ĭ": 7816,
      "èĲ¥åħ»æĪĲåĪĨ": 7817,
      "å®½åº¦": 7818,
      "å¤ľæĻļ": 7819,
      "æ¯įäº²": 7820,
      "ç´łåħ»åĴĮ": 7821,
      "æĬĬæı¡": 7822,
      "è¶ĬæĿ¥è¶Ĭå¤ļ": 7823,
      "åĢ¾åĲĳ": 7824,
      "ç¬¬ä¸īæĸ¹": 7825,
      "çļĦçĹĩçĬ¶": 7826,
      "ou": 7827,
      "ï¼Įå¼ºè°ĥ": 7828,
      "çļĦæĪĲç»©": 7829,
      "ãĢĤè®©æĪĳä»¬": 7830,
      "åĴĮåĨ³å¿ĥ": 7831,
      "è¿Ļä¸¤ä¸ª": 7832,
      "çŃīçº§": 7833,
      "åĲĮä¸Ģ": 7834,
      "çī©èģĶç½ĳ": 7835,
      "è¿ĺæ¬¾": 7836,
      "èĩªå·±çļĦçłĶç©¶": 7837,
      "éĥ½åħħæ»¡äºĨ": 7838,
      "å¼łå¿Ĺè¿ľ": 7839,
      "éħ·": 7840,
      "ç²¥": 7841,
      "é£İæĻ¯": 7842,
      "é£İåĳ³": 7843,
      "è¿ĻäºĽéĹ®é¢ĺ": 7844,
      "ç¬¬åĽĽ": 7845,
      "åħīèĬĴ": 7846,
      "å¸Ĥåľºç«ŀäºī": 7847,
      "åķĨå®¶": 7848,
      "ï¼Įç¡®ä¿Ŀåľ¨": 7849,
      "åĥ§": 7850,
      "æĸĩä»¶å¤¹": 7851,
      "å¤įæĿĤæĢ§": 7852,
      "è½½ä½ĵ": 7853,
      "è¿½è¸ª": 7854,
      "æ°´å¹³åĴĮ": 7855,
      "é»ĳæļĹ": 7856,
      "è¸¢": 7857,
      "å½ĵåľ°çļĦ": 7858,
      "ä¹¡æĿĳ": 7859,
      "éļĲèĹıåľ¨": 7860,
      "é¹¿": 7861,
      "æĸ¹ä¾¿åľ°": 7862,
      "åºĨç¥Ŀ": 7863,
      "è¯ģæĺİäºĨ": 7864,
      "è½¨éģĵ": 7865,
      "çŃīå¤ļä¸ªæĸ¹éĿ¢": 7866,
      "æļĤæĹ¶": 7867,
      "éĴ¥åĮĻ": 7868,
      "ç¯ĨåĪ»": 7869,
      "AS": 7870,
      "DN": 7871,
      "Ġis": 7872,
      "ï¼Įåı¯": 7873,
      "ï¼ĮåıįæĺłäºĨ": 7874,
      "çļĦå¤§å°ı": 7875,
      "ãĢĤ\"": 7876,
      "ãĢĤæľ¬è¯¾ç¨ĭåįķåħĥ": 7877,
      "ãĢģç½ĳç»ľ": 7878,
      "ä¸ºäºĨè§£åĨ³": 7879,
      "æĽ´å¿«": 7880,
      "é«ĵ": 7881,
      "å°ıå¼ł": 7882,
      "åĽ½çļĦ": 7883,
      "å¾Ĺä¸į": 7884,
      "æ´»åĬĽ": 7885,
      "å®īæħ°": 7886,
      "ï¼Įä»ĸä¸įä»ħ": 7887,
      "çĥ¦": 7888,
      "åİĨåı²äºĭä»¶": 7889,
      "åıĳçİ°äºĨä¸Ģä¸ª": 7890,
      "å¸Ĥåľºç«ŀäºīåĬĽ": 7891,
      "ree": 7892,
      "æķħäºĭä¸Ń": 7893,
      "çŁ¥è¯ĨçĤ¹": 7894,
      "è¿ľå¤Ħ": 7895,
      "ç§¯åĪĨ": 7896,
      "éļıåĲİ": 7897,
      "æīĵåį°": 7898,
      "çŁ¢": 7899,
      "äº«æľī": 7900,
      "è§Ĥå¯ŁåĴĮ": 7901,
      "ï¼Įå¸®åĬ©ä½ł": 7902,
      "å°Ķå¤«": 7903,
      "ä¸įä»ħä»ħæĺ¯ä¸Ģ": 7904,
      "é»ĳèī²": 7905,
      "ç»©æķĪ": 7906,
      "éĵ¾è¡¨": 7907,
      "èģĮä¸ļçĶŁæ¶¯ä¸Ń": 7908,
      "ç¿»è¯ĳ": 7909,
      "çĤİçĹĩ": 7910,
      "åı¹äºĨåı£æ°Ķ": 7911,
      "ï¼Įä¼ģä¸ļåı¯ä»¥": 7912,
      "åĢºåĬ¡": 7913,
      "èĩªè¡Įè½¦": 7914,
      "DS": 7915,
      "ve": 7916,
      "»åŃĲ": 7917,
      "ï¼ĮåıĤä¸İ": 7918,
      "ï¼ĮæıĲåĩº": 7919,
      "çļĦè®¡ç®Ĺ": 7920,
      "çļĦè¿ĲåĬ¨": 7921,
      "çļĦçĽ¸åħ³": 7922,
      "çļĦå¹´è½»": 7923,
      "åħĦ": 7924,
      "**ï¼Ī": 7925,
      "åĴĮæī§è¡Į": 7926,
      "ä¸Ģçķª": 7927,
      "æĺ¯ä¸ª": 7928,
      "æĺ¯åķĬ": 7929,
      "ç½ķ": 7930,
      "éĩįè¦ģå½±åĵį": 7931,
      "æºª": 7932,
      "å¸Ĥæ°ĳ": 7933,
      "å¯¼åħ¥": 7934,
      "åıĹæ¬¢è¿İ": 7935,
      "éĺ²çģ«": 7936,
      "éĵĥ": 7937,
      "ï¼Įä½łéľĢè¦ģ": 7938,
      "çŃĸçķ¥åĴĮ": 7939,
      "ç»§ç»Ńæ·±åħ¥çłĶç©¶": 7940,
      "å¥ĩå¦Ļ": 7941,
      "æ·±åĪ»åľ°": 7942,
      "æ±īè¯Ń": 7943,
      "ï¼ĮæĤ¨å°Ĩèĥ½å¤Ł": 7944,
      "å¥ĭæĸĹ": 7945,
      "éĻ·éĺ±": 7946,
      "çĪ¶æ¯į": 7947,
      "å®ŀéĻħæĵįä½ľä¸Ń": 7948,
      "åĶĲä»£": 7949,
      "ï¼ĮåĨįåĪ°": 7950,
      "DMA": 7951,
      "CR": 7952,
      "Ġj": 7953,
      "çļĦéĤ£": 7954,
      "çļĦäº¤æµģ": 7955,
      "çļĦçĶŁå¹³": 7956,
      "ãĢĤåŃ¦çĶŁ": 7957,
      "ãĢĤç¡®ä¿Ŀ": 7958,
      "ãĢĤåħ¶ä¸Ń": 7959,
      "ä¸İåºĶçĶ¨": 7960,
      "åºĶå½ĵ": 7961,
      "ä»ħä»ħ": 7962,
      "åĬłå¿«": 7963,
      "åŃĲå®«": 7964,
      "åĲİæŀľ": 7965,
      "åħ¨å±Ģ": 7966,
      "ãĢĤä»ĸä¸įä»ħ": 7967,
      "åħ¬çĽĬ": 7968,
      "åıĺéĢģ": 7969,
      "å¼łäºĳ": 7970,
      "è®©å¥¹": 7971,
      "rew": 7972,
      "ory": 7973,
      "åĨ³å®ļå°Ĩ": 7974,
      "ç»ĻäºĨ": 7975,
      "ï¼Įå¸®åĬ©è¯»èĢħ": 7976,
      "å¾®ç¬ĳçĿĢçĤ¹å¤´": 7977,
      "èĦļæŃ¥": 7978,
      "ï¼Įæİ¨åĬ¨äºĨ": 7979,
      "ĠString": 7980,
      "æ¡¥æ¢ģ": 7981,
      "æ»ļåĬ¨æĿ¡": 7982,
      "ï¼Į\\(": 7983,
      "ï¼ĮåĪĽéĢłåĩº": 7984,
      "çļĦæĸ¹åĲĳ": 7985,
      "ãĢĤä»¥": 7986,
      "å¯¹å¾ħ": 7987,
      "åľ°å±Ĥ": 7988,
      "èĩªè¨Ģ": 7989,
      "æĿ¥æıĲé«ĺ": 7990,
      "æ¸Ĭ": 7991,
      "åĩºåıĳ": 7992,
      "åħ¥éĹ¨": 7993,
      "æĿİåįİ": 7994,
      "åģ·": 7995,
      "è°ĥçĲĨ": 7996,
      "éĤª": 7997,
      "è®¾è®¡ä¸Ń": 7998,
      "åİĨåı²åĴĮæĸĩåĮĸ": 7999,
      "ï¼Įåı¯ä»¥éĢīæĭ©": 8000,
      "åıĳçİ°åĴĮ": 8001,
      "æ¸ħæ¥ļ": 8002,
      "start": 8003,
      "ï¼ĮæĪĳä»¬åı¯ä»¥æĽ´å¥½åľ°": 8004,
      "éĿŀå¸¸éĢĤåĲĪ": 8005,
      "çħ§é¡¾": 8006,
      "ç¼ĵæħ¢": 8007,
      "åĩłä¸ªåħ³éĶ®": 8008,
      "ç¼©æĶ¾": 8009,
      "æ¯ĽçĲĥ": 8010,
      "Stream": 8011,
      "éĶģåħ·": 8012,
      "lication": 8013,
      "ï¼ĮæĹłè®ºæĺ¯": 8014,
      "éĩıåŃĲçºłç¼ł": 8015,
      "æľīåĬĽæĶ¯æĮģ": 8016,
      "çļĦæ»¡": 8017,
      "è¡°åĩıçİĩ": 8018,
      "çļĦæįŁ": 8019,
      "èĩªè¨Ģèĩªè¯Ń": 8020,
      "Play": 8021,
      "}{": 8022,
      "ãĢĤå¸¸è§ģçļĦ": 8023,
      "åľ¨æľªæĿ¥": 8024,
      "åľ¨æİ¥ä¸ĭæĿ¥çļĦ": 8025,
      "ä¸ŃéĹ´": 8026,
      "ãĢģèīºæľ¯": 8027,
      "ä¸įéľĢè¦ģ": 8028,
      "æľīä»·åĢ¼": 8029,
      "æĹ¶åħī": 8030,
      "åĪĨå·¥": 8031,
      "ä¹Łä¸º": 8032,
      "è§Ĥæµĭ": 8033,
      "ç³»ç»ŁåĴĮ": 8034,
      "onent": 8035,
      "ä»¥ä¸ĭæĺ¯ä¸Ģä¸ª": 8036,
      "åİĨåı²åĴĮ": 8037,
      "æĽ´åĬłæ³¨éĩį": 8038,
      "å®ŀè·µä¾ĭåŃĲ": 8039,
      "ç§ĳåŃ¦ä¾Ŀæį®": 8040,
      "æİĴåºı": 8041,
      "è´£ä»»æĦŁåĴĮ": 8042,
      "å¹²éĥ¨": 8043,
      "åĵģçīĮå½¢è±¡": 8044,
      "éģĵè·¯ä¸Ĭ": 8045,
      "ä¸ªæĢ§åĮĸçļĦ": 8046,
      "æ¹¿åº¦": 8047,
      "äººéĻħäº¤å¾Ģ": 8048,
      "çļĦçĪ±å¥½": 8049,
      "çĽĪåĪ©": 8050,
      "éĻĮçĶŁ": 8051,
      "çļĦçķĮ": 8052,
      "ak": 8053,
      "ly": 8054,
      "Ġç»ĥä¹ł": 8055,
      "ĠéĻĦå½ķ": 8056,
      "ä¸¸": 8057,
      "çļĦåĪĨæŀĲ": 8058,
      "çļĦå¤ĦçĲĨ": 8059,
      "çļĦèģĮä¸ļ": 8060,
      "ä¸Ģé¡¹": 8061,
      "ä¸ŃæĸŃ": 8062,
      "éĢļè¿ĩè¿Ļæ¬¡": 8063,
      "çļĦçĦ": 8064,
      "åħ¶å®ŀ": 8065,
      "æ´¥": 8066,
      "ä¸įä»ħå±ķç¤ºäºĨ": 8067,
      "æĦŁåı¹": 8068,
      "è·Į": 8069,
      "æĸ°åħ´": 8070,
      "åŃ¦ä¹łåĪ°": 8071,
      "è¿Ľè¡ĮåĪĨæŀĲ": 8072,
      "éķ¿çļĦ": 8073,
      "èĻ¾": 8074,
      "èĩªå·±çļĦä¿¡å¿µ": 8075,
      "æİ¢ç©¶": 8076,
      "æĹ¶éĹ´ç®¡çĲĨ": 8077,
      "è®¤å®ļ": 8078,
      "èĭ¯": 8079,
      "åİ»çĹħ": 8080,
      "ä¸ŃåĽ½ä¼łç»Ł": 8081,
      "èħ¾": 8082,
      "åĤ²": 8083,
      "éļıçĿĢæĹ¶éĹ´çļĦæİ¨ç§»": 8084,
      "å°½å¿«": 8085,
      "åħ¨éĿ¢äºĨè§£": 8086,
      "elf": 8087,
      "å®¶åºŃæĪĲåĳĺ": 8088,
      "omm": 8089,
      "ĠPython": 8090,
      "åĮħåĲ«äºĨ": 8091,
      "åģĩè®¾æĪĳä»¬": 8092,
      "éĶħä¸Ń": 8093,
      "èĩ³åħ³éĩįè¦ģçļĦä½ľçĶ¨": 8094,
      "å±ıå¹ķä¸Ĭ": 8095,
      "çļĦæĶ¶åħ¥": 8096,
      "æ»¡äºĨåĲĦç§į": 8097,
      "éľįåİ»çĹħ": 8098,
      "çļĦæ¶Īè´¹": 8099,
      "çļĦæĳĦåħ¥": 8100,
      "ĸæģ¯åľ°": 8101,
      "åĩĿèģļåĬĽ": 8102,
      "çĳľä¼½": 8103,
      "åµĮåħ¥å¼ı": 8104,
      "ï¼ĮåıįèĢĮ": 8105,
      "Redis": 8106,
      "db": 8107,
      "ï¼Įèĩª": 8108,
      "ï¼Įä¸Ģç§į": 8109,
      "ï¼Įç¡®å®ļ": 8110,
      "çļĦä¿ĿæĬ¤": 8111,
      "ãĢĤéĻĪ": 8112,
      "åĴĮé«ĺ": 8113,
      "ä¸Ģä»£": 8114,
      "åľ¨ç¤¾ä¼ļ": 8115,
      "ä¸Ĭä¸ĭ": 8116,
      "æ¯ģ": 8117,
      "åĩºä¸Ģ": 8118,
      "å°ıçİĭ": 8119,
      "èµĦæł¼": 8120,
      "åı¯èĥ½åŃĺåľ¨": 8121,
      "ï¼Įå¹¶å°Ĩåħ¶": 8122,
      "åĿļå®Ī": 8123,
      "åĲĦåĽ½": 8124,
      "éĿŀçº¿æĢ§": 8125,
      "å®ŀè·µæ´»åĬ¨": 8126,
      "ç®ĢåİĨ": 8127,
      "åºĵåŃĺ": 8128,
      "ï¼Įè®©ä»ĸ": 8129,
      "è¥¿å¤ı": 8130,
      "æĻĵå³°": 8131,
      "åį³åı¯": 8132,
      "ä»ĭè´¨": 8133,
      "ï¼Įå¸®åĬ©ä»ĸä»¬": 8134,
      "åĨ·åį´": 8135,
      "äº§ä¸ļç»ĵæŀĦ": 8136,
      "ĠĠĠĠĠĠĠĠĠ": 8137,
      "çļĦæĥħæĦŁè¡¨è¾¾": 8138,
      "Ġ}ĊĊ": 8139,
      "çĶ·æĢ§": 8140,
      "çĽ¸å¯¹è¾ĥ": 8141,
      "çļĦåŁºæľ¬æ¦Ĥå¿µåĴĮ": 8142,
      "ä¸ĩåħĥ": 8143,
      "å´Ķ": 8144,
      "çļĦæ¸¸æĪıä½ĵéªĮ": 8145,
      "é¸Łç±»": 8146,
      "çºłçº·": 8147,
      "æľ±å¾·": 8148,
      "ãĢĤç¥ĿæĤ¨": 8149,
      "å¡«åħħ": 8150,
      "å¿įä¸įä½ı": 8151,
      "çļĦç«ŀäºīåĬĽ": 8152,
      "âĢ¦âĢ¦": 8153,
      "Serv": 8154,
      "`c": 8155,
      "Ġæ¡Īä¾ĭåĪĨæŀĲ": 8156,
      "Ġæīĵå¼Ģ": 8157,
      "ï¼Įéķ¿": 8158,
      "ï¼Įè§Ĥå¯Ł": 8159,
      "ï¼Įå¾Ģå¾Ģ": 8160,
      "çļĦæľĭåıĭ": 8161,
      "åĴĮå¸®åĬ©": 8162,
      "è¿Ļåº§": 8163,
      "è¡·": 8164,
      "å¾½": 8165,
      "çĿĢä»ĸ": 8166,
      "æ²Ł": 8167,
      "ãĢĤè¿ĻåĮħæĭ¬": 8168,
      "éĥ¨ä½į": 8169,
      "ï¼īãĢĤĊ": 8170,
      "æł·å¼ı": 8171,
      "ç¥ŀè¯Ŀ": 8172,
      "åıĳçİ°äºĨ": 8173,
      "èį¯çĶ¨": 8174,
      "æ¶Īæ¯Ĵ": 8175,
      "èĹķ": 8176,
      "roll": 8177,
      "ç¢±": 8178,
      "æĪĲéķ¿è¿ĩç¨ĭä¸Ń": 8179,
      "ï¼Įè¿ĺèĥ½åľ¨": 8180,
      "rix": 8181,
      "åĦĴ": 8182,
      "åĮ»åŃ¦æ£ĢéªĮ": 8183,
      "éĨĩ": 8184,
      "åĲīä»ĸ": 8185,
      "----------------": 8186,
      "ï¼Įä»¥ä¸ĭæĺ¯ä¸ĢäºĽ": 8187,
      "åģļå¥½åĩĨå¤ĩ": 8188,
      "çĸ²æĥ«": 8189,
      "è´«åĽ°": 8190,
      "èµĭäºĪ": 8191,
      "æĲºå¸¦": 8192,
      "Ġç¬¬åħŃæŃ¥": 8193,
      "çĪ±æ²Ļå°¼äºļ": 8194,
      "CL": 8195,
      "Golang": 8196,
      "ium": 8197,
      "uff": 8198,
      "ï¼Įç§¯æŀģ": 8199,
      "ï¼ĮåĪĽä½ľ": 8200,
      "ï¼Įè®¤ä¸º": 8201,
      "çļĦåŁ¹åħ»": 8202,
      "çļĦè¿Ĳè¡Į": 8203,
      "çļĦä¸»é¢ĺ": 8204,
      "åĴĮæķĻèĤ²": 8205,
      "æĸĭ": 8206,
      "åĲ¹": 8207,
      "ãĢģæ¡Īä¾ĭåĪĨæŀĲ": 8208,
      "æŀļ": 8209,
      "äººå¿ĥ": 8210,
      "æĹ¶ç©º": 8211,
      "éĢļè¿ĩäºĨè§£": 8212,
      "ä¼ļè¢«": 8213,
      "æ¸²æŁĵ": 8214,
      "å·¥åİĤ": 8215,
      "åħ¥èĥľ": 8216,
      "æ¬º": 8217,
      "æ·±åĮĸ": 8218,
      "åĨħèĨľ": 8219,
      "æıĲä¾Ľä¸Ģä¸ª": 8220,
      "æĪĺå£«": 8221,
      "ç¤ºèĮĥ": 8222,
      "ç³»ç»Łåľ°": 8223,
      "åĻ¨æ¢°": 8224,
      "èµ·äºĨ": 8225,
      "åīįæĿ¥": 8226,
      "ï¼īçŃī": 8227,
      "æīĭåĨĮ": 8228,
      "æĺ¯ä¸Ģæ¬¾": 8229,
      "æĪ·å¤ĸ": 8230,
      "å¯¼æ¼Ķ": 8231,
      "å¥¹ä»¬": 8232,
      "çļĦéĩįè¦ģåĽłç´ł": 8233,
      "èİ«": 8234,
      "åķĨåľĪ": 8235,
      "å¯Ĩå°ģ": 8236,
      "æľīåĬ©äºİæĪĳä»¬": 8237,
      "ï¼Įä»İèĢĮä¸º": 8238,
      "åģļå¾Ĺ": 8239,
      "Ġ=>": 8240,
      "éĢļå¸¸åĮħæĭ¬": 8241,
      "èĬ±åĽŃ": 8242,
      "ï¼Įè®©ä»ĸä»¬": 8243,
      "ç¬ĶçĶ»": 8244,
      "çİ°å®ŀä¸ĸçķĮ": 8245,
      "æĽ²çº¿": 8246,
      "ï¼Įçľ¼ä¸Ńåħħæ»¡äºĨ": 8247,
      "è§£åĨ³éĹ®é¢ĺçļĦæĸ¹æ³ķ": 8248,
      "åįłçĶ¨": 8249,
      "é¥ŃåºĹ": 8250,
      "åĽ¢éĺŁæĪĲåĳĺä»¬": 8251,
      "åĩłå¤©åĲİ": 8252,
      "box": 8253,
      "ãĢĤåħ·ä½ĵæĿ¥è¯´": 8254,
      "ï¼Įå¤§åŃ¦çĶŁåı¯ä»¥": 8255,
      "è¸ıä¸ĬäºĨ": 8256,
      "å¼ķäººåħ¥èĥľ": 8257,
      "Ġæ£ĢæŁ¥": 8258,
      "çļĦé£Łçī©": 8259,
      "ãĢĤçĶ¨æĪ·": 8260,
      "ãĢģå¸Ĥåľº": 8261,
      "æį®è¯´": 8262,
      "åĬłæ²¹": 8263,
      "åĨħåľ¨": 8264,
      "æ¡Ĥ": 8265,
      "åĪ©çİĩ": 8266,
      "ç§ĳå¹»": 8267,
      "ï¼Įä»¥å®ŀçİ°": 8268,
      "ä»¥ä¸ĭåĩłç§į": 8269,
      "ç²¾æ¹Ľ": 8270,
      "å¸Ĥåľºä¸Ń": 8271,
      "èīºæľ¯ä»·åĢ¼": 8272,
      "åħ³éĶ®æĹ¶åĪ»": 8273,
      "èµĽåŃ£": 8274,
      "ï¼Įä»İèĢĮæĽ´å¥½åľ°": 8275,
      "æĿ¡æ¬¾": 8276,
      "ç§ĳåŃ¦çĲĨè®º": 8277,
      "arr": 8278,
      "è¿ŀéĶģ": 8279,
      "çľ¼éķľ": 8280,
      "ç§ĳæĬĢåĪĽæĸ°": 8281,
      "å®³èĻ«": 8282,
      "æ´ŀå¯Ł": 8283,
      "éģĩåĪ°äºĨä¸Ģä¸ª": 8284,
      "è·ĳæŃ¥": 8285,
      "Ġstd": 8286,
      "ä¸ĢçĽ´åľ¨": 8287,
      "æĿİæĸĩè½©": 8288,
      "æł½åŁ¹": 8289,
      "å¤§å¤ļæķ°": 8290,
      "Value": 8291,
      "min": 8292,
      "£æīİ": 8293,
      "è¤Ĳ": 8294,
      "Ġæķ°æį®": 8295,
      "ä¸ĺ": 8296,
      "åĴĮåĬŁèĥ½": 8297,
      "ãĢģæķĻèĤ²": 8298,
      "åı¯ä»¥éĢīæĭ©": 8299,
      "âĢĿè¿Ļä¸Ģ": 8300,
      "å¤§å¹ħ": 8301,
      "çĿĢä¸Ģä¸ª": 8302,
      "ä¸įä»ħä½ĵçİ°åľ¨": 8303,
      "æĿİæĢĿè¿ľ": 8304,
      "æĿİéĢ¸é£İ": 8305,
      "ç»ĵæł¸": 8306,
      "éļ¶": 8307,
      "èĬ¦": 8308,
      "æĹłçĸĳ": 8309,
      "åħ»çĶŁ": 8310,
      "èĻ¹": 8311,
      "åĽŀåĪ°äºĨ": 8312,
      "è¢«ç§°ä¸º": 8313,
      "ä¸ŃåĽ½çļĦ": 8314,
      "æĴĴ": 8315,
      "å¿ĥçĲĨæ²»çĸĹ": 8316,
      "ition": 8317,
      "ç¬ĳçĿĢè¯´": 8318,
      "æĹ¥å¸¸çĶŁæ´»ä¸ŃçļĦ": 8319,
      "è·¨åŃ¦ç§ĳ": 8320,
      "ï¼ĮåĽłä¸ºå®ĥ": 8321,
      "è°ĪåĪ¤": 8322,
      "æľīæīĢä¸įåĲĮ": 8323,
      "ä¾ĽåºĶåķĨ": 8324,
      "ource": 8325,
      "çļĦæ°ĶåĢĻ": 8326,
      "çĴĥ": 8327,
      "å¾®å¾®ä¸Ģç¬ĳ": 8328,
      "frac": 8329,
      "omponent": 8330,
      "çļĦæīįåįİ": 8331,
      "Un": 8332,
      "cle": 8333,
      "var": 8334,
      "ï¼ĮçľĭåĪ°": 8335,
      "çļĦçŃĸçķ¥": 8336,
      "è®¼": 8337,
      "ãĢģæķ°æį®": 8338,
      "ãĢģæĬĢæľ¯": 8339,
      "èĥ½åĲ¦": 8340,
      "åĩĮ": 8341,
      "ä½ľå®¶": 8342,
      "ä½ľæĪĺ": 8343,
      "åıĳåĬ¨æľº": 8344,
      "æĭĴ": 8345,
      "çº²": 8346,
      "çī©è¯Ń": 8347,
      "èĢĮéĹ»åĲį": 8348,
      "èĬ¬": 8349,
      "èĥ½å¤Łä¸º": 8350,
      "åŃ¦ä¹łå¦Ĥä½ķ": 8351,
      "è¯´å¾Ĺ": 8352,
      "æīĭå·¥": 8353,
      "éĢīæĭ©åĴĮ": 8354,
      "ãĢĤéĢļè¿ĩä¸įæĸŃ": 8355,
      "ä¿¡æģ¯åĴĮ": 8356,
      "æŀĹä¸ļ": 8357,
      "æŀĹæµ©": 8358,
      "åı¤åŁİ": 8359,
      "å¹¿å¤§": 8360,
      "èĢģæĿ¿": 8361,
      "éĿŀæ³ķ": 8362,
      "å±±åºĦ": 8363,
      "åĭĺ": 8364,
      "è¶³çĲĥè¿ĲåĬ¨": 8365,
      "åįĹçľģ": 8366,
      "éķĩä¸Ĭ": 8367,
      "æ³¨æĦıåĬĽ": 8368,
      "çļĦåİĨåı²åĴĮ": 8369,
      "å¤ļæł·åĮĸçļĦ": 8370,
      "åŁºæľ¬æ¦Ĥå¿µ": 8371,
      "ä»£è¡¨äºĨ": 8372,
      "è¯īè®¼": 8373,
      "æĻļè¡Ļ": 8374,
      "ç³ĸæŀľ": 8375,
      "çĩķ": 8376,
      "empl": 8377,
      "å·ŀå¸Ĥ": 8378,
      "åĨľæĿĳç»ıæµİåıĳå±ķ": 8379,
      "ç©¿è¶Ĭ": 8380,
      "å°±ä¸ļæľºä¼ļ": 8381,
      "ãĢĤåľ¨è¿Ļä¸ªè¿ĩç¨ĭä¸Ń": 8382,
      "ðŁĴ¡": 8383,
      "Pro": 8384,
      "Ġç¡®å®ļ": 8385,
      "ï¼ĮæĪĸ": 8386,
      "çļĦå»ºçŃĳ": 8387,
      "ä¸Ńåľº": 8388,
      "ä¸Ĭä¼ł": 8389,
      "å°ıæĿİ": 8390,
      "éĶ¦": 8391,
      "éľĢè¦ģæł¹æį®": 8392,
      "æ°´ä¸Ń": 8393,
      "æľªèĥ½": 8394,
      "ä¸ĵè¾ĳ": 8395,
      "é¢ĦèŃ¦": 8396,
      "ç®Ģç§°": 8397,
      "è®Ńç»ĥæĸ¹æ³ķ": 8398,
      "çļĦæł·": 8399,
      "è§£éĩĬéģĵ": 8400,
      "rig": 8401,
      "å®¡æī¹": 8402,
      "çļĦåİĨåı²åĴĮæĸĩåĮĸ": 8403,
      "edu": 8404,
      "äººä»¬çļĦ": 8405,
      "éĿłè¿ĳ": 8406,
      "éķľåĥı": 8407,
      "åĳĬè¯īä»ĸ": 8408,
      "èĤ©éĥ¨": 8409,
      "çļĦç¾İå¥½": 8410,
      "å¿½çķ¥": 8411,
      "èĵĿèī²": 8412,
      "åĨłåĨĽ": 8413,
      "çļĦçĥŃçĪ±åĴĮ": 8414,
      "æĽ¿ä»£": 8415,
      "å¼ķåıĳäºĨ": 8416,
      "ä¸Ńåįİæ°ĳæĹı": 8417,
      "çļĦæĮģç»Ń": 8418,
      "\":": 8419,
      "CD": 8420,
      "DI": 8421,
      "dge": 8422,
      "Ġ%": 8423,
      "ï¼ĮéĩĮéĿ¢": 8424,
      "ãĢĤä¸Ģå¤©": 8425,
      "åĴĮçŁ¿çī©è´¨": 8426,
      "çī¢": 8427,
      "éĢļé£İ": 8428,
      "æĮĳ": 8429,
      "æĸĩèīº": 8430,
      "æĪĳä»¬å°Ĩ": 8431,
      "æ¸Ķ": 8432,
      "æ·±æĦŁ": 8433,
      "åĲİæĿ¥çļĦ": 8434,
      "ãĢĤè¿Ļå¯¹äºİ": 8435,
      "èĥ½å¤Łè¿ħéĢŁ": 8436,
      "éħ°": 8437,
      "æİ¥è¿ĩ": 8438,
      "ç¡®ä¿ĿäºĨ": 8439,
      "ĠĠĠĊ": 8440,
      "å¦Ĥä½ķå½±åĵį": 8441,
      "åŃĹæ®µ": 8442,
      "ï¼Įä½¿åħ¶åľ¨": 8443,
      "åĽ¢éĺŁçļĦ": 8444,
      "éĻĲäºİ": 8445,
      "ä¸Ģå®ļç¨ĭåº¦ä¸Ĭ": 8446,
      "äº§çĶŁçļĦ": 8447,
      "çł´è§£": 8448,
      "çļĦæī¹": 8449,
      "éĻįä½İäºĨ": 8450,
      "éĥ½æľīåħ¶": 8451,
      "è·Łéļı": 8452,
      "çıŃçº§": 8453,
      "é¸¡è¶³": 8454,
      "æĿİå¤§åĭĩ": 8455,
      "éļĶç¦»": 8456,
      "è¿«ä¸įåıĬ": 8457,
      "éģįåİĨ": 8458,
      "åģļåĩºäºĨéĩįè¦ģè´¡çĮ®": 8459,
      "äºķçĽĸ": 8460,
      "èľĤèľľ": 8461,
      "JSON": 8462,
      "èģĬå¤©": 8463,
      "å¦ĩç§ĳ": 8464,
      "çļĦæµĭè¯ķ": 8465,
      "çļĦçľĭæ³ķ": 8466,
      "ï¼Įä½ĨåĲĮæĹ¶ä¹Ł": 8467,
      "è¿«ä¸įåıĬå¾ħ": 8468,
      "ail": 8469,
      "ft": 8470,
      "public": 8471,
      "èĺ": 8472,
      "ķåĨł": 8473,
      "ï¼Įæī¾åĩº": 8474,
      "çļĦäºĭæĥħ": 8475,
      "åĴĮçĶŁæ´»": 8476,
      "åĲĽ": 8477,
      "æ³ª": 8478,
      "æĢ§ä»·": 8479,
      "æĪĲäºĨ": 8480,
      "åĮĸè¿Ľç¨ĭ": 8481,
      "éľĸ": 8482,
      "ä¸ĭä¸ĢæŃ¥": 8483,
      "ä½¿åħ¶": 8484,
      "åĩºåľº": 8485,
      "æĿİéĿĻ": 8486,
      "æĿİæķĻæİĪ": 8487,
      "èĬ½": 8488,
      "ç¤¾åĽ¢": 8489,
      "åħ¬éĩĮ": 8490,
      "å¼łåįİ": 8491,
      "èĬĤçĽ®": 8492,
      "ä¸įåĲĮç±»åŀĭçļĦ": 8493,
      "ä¹ĲåĻ¨": 8494,
      "ä¸įæĸŃåıĳå±ķ": 8495,
      "åĥıç´ł": 8496,
      "èģĮä¸ļéģĵå¾·": 8497,
      "èĳ¡": 8498,
      "è®¾å¤ĩåĴĮ": 8499,
      "anag": 8500,
      "å¸ĮæľĽéĢļè¿ĩ": 8501,
      "åĽ´ç»ķ": 8502,
      "å¥ĩå¹»": 8503,
      "ï¼Įæ¯ıä¸Ģæ¬¡": 8504,
      "åĲ¸å¼ķäºĨ": 8505,
      "èº«ä½ĵç´łè´¨": 8506,
      "ï¼Įå¿ĥä¸Ńæ¶Įèµ·ä¸ĢèĤ¡": 8507,
      "image": 8508,
      "()Ċ": 8509,
      "ï¼Įçľ¼ä¸ŃéĹªè¿ĩä¸Ģä¸Ŀ": 8510,
      "ç¡¬çĽĺ": 8511,
      "çļĦæĸĩåĮĸåĨħæ¶µ": 8512,
      "çļĦæİ¢è®¨": 8513,
      "äºĨå¤§éĩıçļĦ": 8514,
      "åŁºç¡Ģè®¾æĸ½å»ºè®¾": 8515,
      "æĳĩå¤´": 8516,
      "shell": 8517,
      "èĴĻåı¤": 8518,
      "æĬµæĬĹ": 8519,
      "ç¾İä¸½çļĦ": 8520,
      "çļĦæĥ³æ³ķ": 8521,
      "der": 8522,
      "print": 8523,
      "ðŁ¥": 8524,
      "ï¼Įæ³¨éĩį": 8525,
      "ï¼Įç§¯æŀģåıĤä¸İ": 8526,
      "çļĦå¤©": 8527,
      "çļĦè§ĴèĲ½": 8528,
      "ãĢĤåĪĺ": 8529,
      "ãĢĤä¸¤äºº": 8530,
      "äº©": 8531,
      "åĴĮå®īåħ¨": 8532,
      "åĴĮä¸ªäºº": 8533,
      "åĴĮé«ĺæķĪ": 8534,
      "éĢ¼": 8535,
      "è´¤": 8536,
      "åĬ¨äºĨ": 8537,
      "çļĦçħ": 8538,
      "æ°¨": 8539,
      "ä½¿ä»ĸ": 8540,
      "ä¸ŃçļĦè§Ĵèī²": 8541,
      "æ»ŀ": 8542,
      "ç¥¥": 8543,
      "å¤ĸåĽ½": 8544,
      "ï¼ĪM": 8545,
      "è®°èĢħ": 8546,
      "éĺŁåĪĹ": 8547,
      "åħ·æľīæĺ¾èĳĹ": 8548,
      "æŀĹé£İ": 8549,
      "æĶ¾å¤§": 8550,
      "èīºæľ¯åĵģ": 8551,
      "æħĮ": 8552,
      "éĹ¨åı£": 8553,
      "å¾Īæľī": 8554,
      "è¯¾ç¨ĭè®¾ç½®": 8555,
      "éŃħ": 8556,
      "æľīçĿĢæµĵåİļçļĦåħ´è¶£": 8557,
      "èº«ä½ĵåģ¥åº·": 8558,
      "èĤ¡ä¸ľ": 8559,
      "ðŁĮŁðŁĴª": 8560,
      "ä¼¤å®³": 8561,
      "ãĢĤæ¯ıå¤©": 8562,
      "action": 8563,
      "çļĦæīĭæľº": 8564,
      "ä¸¥æł¼çļĦ": 8565,
      "éĽ·è¾¾": 8566,
      "æľĢå¤§åĮĸ": 8567,
      "æ··åĲĪåĬ¨åĬĽ": 8568,
      "çļĦåĩĨç¡®æĢ§åĴĮ": 8569,
      "è¿Ŀæ³ķ": 8570,
      "times": 8571,
      "è¿Ļéģĵèıľ": 8572,
      "åħ¼å®¹æĢ§": 8573,
      "çİ»çĴĥ": 8574,
      "è¿Ńä»£": 8575,
      "ðŁĴ¡ðŁĮŁðŁĴª": 8576,
      "ï¼Įæİ¢ç´¢": 8577,
      "ï¼Įå¿«éĢŁ": 8578,
      "åĴļ": 8579,
      "åĴĮæĹ¶éĹ´": 8580,
      "ï¼ļ`": 8581,
      "çŃĴ": 8582,
      "åı¯ä»¥åĪ©çĶ¨": 8583,
      "åı¯ä»¥åĩıå°ĳ": 8584,
      "ä¼ļå¯¹": 8585,
      "å®ļæĹ¶": 8586,
      "ä¸İçİ°ä»£": 8587,
      "çļĦç¢": 8588,
      "é«ĺåħ´": 8589,
      "åĲĪåĶ±": 8590,
      "å¥½åıĭ": 8591,
      "åĨħç½®": 8592,
      "ä¹ĭä¸ĭ": 8593,
      "èµĦæľ¬": 8594,
      "ï¼īæĺ¯ä¸Ģç§į": 8595,
      "ï¼ĪT": 8596,
      "åĽ¾çĶ»": 8597,
      "ãĢĭï¼Ī": 8598,
      "ï¼Įä¹Łèĥ½": 8599,
      "ï¼Įä¹Łè®©ä»ĸ": 8600,
      "èĦĲ": 8601,
      "éĶ®çĽĺ": 8602,
      "åħīåŃ¦": 8603,
      "çĽ´è§ī": 8604,
      "æı¡ä½ı": 8605,
      "å±Ģéĥ¨": 8606,
      "è§Ĵèī²æī®æ¼Ķ": 8607,
      "dep": 8608,
      "èŀįèµĦ": 8609,
      "å®ĮæĪĲä»»åĬ¡": 8610,
      "æĺŁè¾°": 8611,
      "ç¾¤ä¼Ĺ": 8612,
      "åĿļå®ļçļĦåħīèĬĴ": 8613,
      "è´¢æĶ¿": 8614,
      "åĿļæĮģä¸ĭåİ»": 8615,
      "æĹħæ¸¸ä¸ļ": 8616,
      "ï¼ĮæıĲåįĩèĩªå·±çļĦ": 8617,
      "ä¼ļè®®ä¸Ĭ": 8618,
      "é¹¤": 8619,
      "lib": 8620,
      "æľ¬è¯¾ç¨ĭåįķåħĥçļĦåŃ¦ä¹ł": 8621,
      "ä¹ĺå®¢": 8622,
      "æ¼Ĥç§»": 8623,
      "éĤ»å±ħ": 8624,
      "åĪĨè¾¨çİĩ": 8625,
      "çļĦçĤ¹": 8626,
      "URL": 8627,
      "é¸¡è¶³å±±": 8628,
      "æĢ§ä»·æ¯Ķ": 8629,
      "ðŁĴ¡ðŁĮŁðŁĴªðŁĴ¡ðŁĮŁðŁĴª": 8630,
      ".s": 8631,
      "CAN": 8632,
      "`åĳ½ä»¤": 8633,
      "çļĦäº¤éĢļ": 8634,
      "çļĦå½¢è±¡": 8635,
      "çļĦè®¤åı¯": 8636,
      "äºĨèĩªå·±çļĦ": 8637,
      "äºĨçīĩåĪ»": 8638,
      "åľ¨å¤ļä¸ª": 8639,
      "ä»¥åĲİ": 8640,
      "çļĦæº": 8641,
      "æ°Ľ": 8642,
      "ç¡ħ": 8643,
      "è°£": 8644,
      "åĲİåį«": 8645,
      "åĨ³äºİ": 8646,
      "ä¹ĭä¸Ń": 8647,
      "æľŁæĿĥ": 8648,
      "æıĲé«ĺèĩªå·±çļĦ": 8649,
      "åĮħè£ħ": 8650,
      "äº¤åıī": 8651,
      "ï¼Įä»¥éĢĤåºĶ": 8652,
      "ä¼ĺç¼ºçĤ¹": 8653,
      "éĢīæĭ©éĢĤåĲĪ": 8654,
      "å¤įåĲĪ": 8655,
      "åıĸåĨ³äºİ": 8656,
      "åĮºåĪĨ": 8657,
      "çļĦéĩįè¦ģéĢĶå¾Ħ": 8658,
      "æŁĦ": 8659,
      "è§£åĨ³æĸ¹æ³ķ": 8660,
      "ä¸ĵä¸ļäººå£«": 8661,
      "æī¿åĮħ": 8662,
      "åĲĪä½ľç¤¾": 8663,
      "çĥŃéĩı": 8664,
      "å¿ĥçĲĨçĬ¶æĢģ": 8665,
      "è¡¨çİ°ä¸º": 8666,
      "ä¸įä»ħä»ħæĺ¯ä¸Ģç§į": 8667,
      "èĲ¥åħ»ä»·åĢ¼": 8668,
      "Ġprint": 8669,
      "éĢıéľ²åĩº": 8670,
      "æįŁä¼¤": 8671,
      "æŃ¦å°Ĩ": 8672,
      "åĮ»çĸĹåĻ¨æ¢°": 8673,
      "å®ŀçĶ¨æĢ§": 8674,
      "åĮĹäº¬å¸Ĥ": 8675,
      "çļĦæ³¨æĦıåĬĽ": 8676,
      "Ġæķħäºĭå¼Ģå§ĭ": 8677,
      "ç½ķè§ģ": 8678,
      "emplate": 8679,
      "\")Ċ": 8680,
      ").": 8681,
      "Fr": 8682,
      "é¬": 8683,
      "çļĦå¹³åı°": 8684,
      "çļĦäºĴåĬ¨": 8685,
      "ãĢĤä½¿çĶ¨": 8686,
      "ãĢĤæľĢç»Ī": 8687,
      "è¿ĩæķı": 8688,
      "ä¼ļèĩªåĬ¨": 8689,
      "æĭĸ": 8690,
      "åħ³ä¹İ": 8691,
      "éªĦ": 8692,
      "ãĢĤè¿ĻéĩĮ": 8693,
      "äº§éĩıåĴĮ": 8694,
      "æĹłå°½": 8695,
      "ï¼Įä½Ĩä»ĸçļĦ": 8696,
      "èĲĦ": 8697,
      "å·¥ä½ľäººåĳĺ": 8698,
      "åŁŁåĲį": 8699,
      "åı£è¯Ń": 8700,
      "å¾·éĩĮ": 8701,
      "åĽ´æ£ĭ": 8702,
      "çī¹çĤ¹åĴĮ": 8703,
      "æĺŁçĲĥ": 8704,
      "éĿĴæĺ¥": 8705,
      "çıĬ": 8706,
      "è¿Ĳè¡ĮæĹ¶": 8707,
      "çº¦æĿŁ": 8708,
      "æįŁå®³": 8709,
      "åģļåĩºæĽ´": 8710,
      "ä¸ºä»Ģä¹Īè¿Ļæł·åģļ": 8711,
      "çĽ¸äºĴä½ľçĶ¨": 8712,
      "IPåľ°åĿĢ": 8713,
      "_fill": 8714,
      "çļĦç¤ºä¾ĭ": 8715,
      "èĳ¡èĲĦ": 8716,
      "Kubernetes": 8717,
      "RS": 8718,
      "be": 8719,
      "file": 8720,
      "mm": 8721,
      "ï¼Įå¤ļ": 8722,
      "ï¼ĮæľªæĿ¥": 8723,
      "ï¼ĮæĶ¹åĸĦ": 8724,
      "ï¼Įä½ĵçİ°äºĨ": 8725,
      "åĴĮåģ¥åº·": 8726,
      "åĴĮåĬªåĬĽ": 8727,
      "åĲ¾": 8728,
      "ä¸Ģåº§": 8729,
      "çĶ¨åĵģ": 8730,
      "éª¼": 8731,
      "ç¼Ŀ": 8732,
      "æĸĩåĮĸèĥĮæĻ¯": 8733,
      "éħ¬": 8734,
      "éħ¶": 8735,
      "å¤Ħç½ļ": 8736,
      "åĮºåĿĹ": 8737,
      "åħĥä»¶": 8738,
      "ä¿¡æģ¯åĮĸ": 8739,
      "è¢«è§Ĩä¸º": 8740,
      "èĮĦ": 8741,
      "ï¼Įä»ĸä»¬çŁ¥éģĵ": 8742,
      "ä½ľåĵģä¸Ń": 8743,
      "åĬĽéĩıåĴĮ": 8744,
      "æİĴçīĪ": 8745,
      "ç¨ĭåºıåĳĺ": 8746,
      "çĵ¦": 8747,
      "è§¦åıĳ": 8748,
      "çĳļ": 8749,
      "æ²ŁéĢļèĥ½åĬĽ": 8750,
      "ï¼Įæīįèĥ½çľŁæŃ£": 8751,
      "èĵĦ": 8752,
      "çļĦæķĻèĤ²æĦıä¹ī": 8753,
      "æ¹¿æ¶¦": 8754,
      "ĠRedis": 8755,
      "Ġinstall": 8756,
      "éŁ§æĢ§": 8757,
      "æ¯«ä¸į": 8758,
      "èĢķåľ°": 8759,
      "çļĦçĪ¶äº²": 8760,
      "å®¿èĪį": 8761,
      "çļĦæ¦Ĥçİĩ": 8762,
      "uffer": 8763,
      "Ġæĸĩä»¶": 8764,
      "Ġro": 8765,
      "ï¼ĮæĶ¯æĮģ": 8766,
      "çļĦä¸į": 8767,
      "çļĦè§Ĵåº¦": 8768,
      "çļĦåĲĪæ³ķ": 8769,
      "çĶº": 8770,
      "åĴĮåĿļæĮģ": 8771,
      "åŃķ": 8772,
      "äºĨéĩįè¦ģä½ľçĶ¨": 8773,
      "åľ°åŁŁ": 8774,
      "åľ°è²Į": 8775,
      "å¤§èĩªçĦ¶": 8776,
      "ä½ĵåĪ¶": 8777,
      "æĦıå¤§åĪ©": 8778,
      "åĲİæľŁ": 8779,
      "éľĢè¦ģä¸įæĸŃ": 8780,
      "éĥ¨éĺŁ": 8781,
      "ï¼Įä»ĸä¹Ł": 8782,
      "å¸Ĥäººæ°ĳ": 8783,
      "æ°´çĶµ": 8784,
      "èµ·ä¹ī": 8785,
      "æĺ¯ä¸Ģåľº": 8786,
      "èĬĤæĹ¥": 8787,
      "æĹłéľĢ": 8788,
      "éĢīæĭ©äºĨ": 8789,
      "one": 8790,
      "ï¼Įåı¯ä»¥ç¡®ä¿Ŀ": 8791,
      "éĴĬ": 8792,
      "éħįæĸ¹": 8793,
      "æİ§ä»¶": 8794,
      "æĽ´åĬłæ·±åħ¥": 8795,
      "æĶ¶åĪ°äºĨ": 8796,
      "æ®µèĲ½": 8797,
      "å½ķåıĸ": 8798,
      "å¾®ç¬ĳ": 8799,
      "ä¸»è¦ģçĶ¨äºİ": 8800,
      "å¾Īé«ĺçļĦ": 8801,
      "çĵ£": 8802,
      "é»ĺé»ĺ": 8803,
      "è§¦æĳ¸": 8804,
      "çĶ·åŃ©": 8805,
      "çļĦåħ´è¶£åĴĮ": 8806,
      "æŀĦå»ºä¸Ģä¸ª": 8807,
      "å®ĹæķĻä¿¡ä»°": 8808,
      "ĠIn": 8809,
      "éĺ²æ²»æĸ¹æ³ķ": 8810,
      "æľīäºĨæĽ´æ·±": 8811,
      "æ·±åİļçļĦ": 8812,
      "éª¨éª¼": 8813,
      "æıĴä»¶": 8814,
      "oog": 8815,
      "åħ¸åŀĭçļĦ": 8816,
      "ä¾¦æİ¢": 8817,
      "å°¿çĹħ": 8818,
      "`åĴĮ": 8819,
      "wit": 8820,
      "Ġå°ı": 8821,
      "Įèļ": 8822,
      "ï¼ĮæĦŁåıĹ": 8823,
      "åĴĮåİĨåı²": 8824,
      "åľ¨åŃ¦ä¹ł": 8825,
      "åľ¨å½ĵä»Ĭ": 8826,
      "åľ°éĵģ": 8827,
      "æµ´": 8828,
      "æ³ķåŃ¦": 8829,
      "å¿ĥæĥħ": 8830,
      "çŃīä¿¡æģ¯": 8831,
      "ä¸ŃçļĦåħ³éĶ®": 8832,
      "å»ºéĢł": 8833,
      "æ»¨": 8834,
      "çĶµéĺ»": 8835,
      "å§»": 8836,
      "æ°´åĮĸåĲĪçī©": 8837,
      "ï¼Įä»¥éģ¿åħį": 8838,
      "ç´łæĿĲ": 8839,
      "ä¿¡æģ¯ç´łåħ»": 8840,
      "åĿļå¼º": 8841,
      "æ¸ħéĻ¤": 8842,
      "åŁİä¹¡": 8843,
      "ï¼Įä»ĸä»¬åı¯ä»¥": 8844,
      "åĬ¿åĬĽ": 8845,
      "å¾Īéĩįè¦ģ": 8846,
      "èħĬ": 8847,
      "åĲĦç§įæĮĳæĪĺ": 8848,
      "æĺŁæĺŁ": 8849,
      "åĸĦèī¯": 8850,
      "åİĭåĬĽåĴĮ": 8851,
      "å·®è·Ŀ": 8852,
      "é¦Ļæ°Ķ": 8853,
      "ä¸¾æĬ¥": 8854,
      "åı«åģļ": 8855,
      "ï¼Įåĩıå°ĳäºĨ": 8856,
      "è·¨æĸĩåĮĸ": 8857,
      "äº§çĶŁäºĨæ·±è¿ľå½±åĵį": 8858,
      "å¹ħçĶ»": 8859,
      "Ġvalue": 8860,
      "èĿĮèļ": 8861,
      "å©ļå§»": 8862,
      "å·¦åı³": 8863,
      "æ¯ķä¸ļçĶŁ": 8864,
      "èĿĮèļª": 8865,
      ");": 8866,
      ".ĊĊ": 8867,
      "Maven": 8868,
      "Py": 8869,
      "ĺæī¬": 8870,
      "ï¼ĮåĮ»çĶŁ": 8871,
      "ï¼ĮåŃ©åŃĲä»¬": 8872,
      "çļĦç»ĨèĬĤ": 8873,
      "åĴĮçİĭ": 8874,
      "å¤ķ": 8875,
      "è¿Ļåı¥è¯Ŀ": 8876,
      "çļĦæ¦": 8877,
      "ä¸İå½±åĵį": 8878,
      "è¿ĽåĪ¶": 8879,
      "æķĻç§ĳ": 8880,
      "ï¼Įä»ĸéĥ½ä¼ļ": 8881,
      "ï¼īæĿ¥": 8882,
      "æŃ£å½ĵ": 8883,
      "ï¼Įä»¥åħ¶": 8884,
      "å¢ŀè¿Ľ": 8885,
      "æł·çļĦ": 8886,
      "å¤´æĸĩä»¶": 8887,
      "çľŁçĲĨ": 8888,
      "çľŁèıĮ": 8889,
      "èĪĨ": 8890,
      "åħħæ»¡æĮĳæĪĺ": 8891,
      "ä¿®è¡Į": 8892,
      "å¥ĩè¿¹": 8893,
      "å¥ĩæĢª": 8894,
      "åĨĽéĺŁ": 8895,
      "æķĻåŃ¦æĸ¹æ³ķ": 8896,
      "é»Ħèī²": 8897,
      "å¥³åŃĲ": 8898,
      "æľĪç»ı": 8899,
      "èĩªæĪĳè®¤çŁ¥": 8900,
      "äº§ä¸ļçļĦåıĳå±ķ": 8901,
      "ç³ĸå°¿çĹħ": 8902,
      "èģĮä¸ļçĶŁæ¶¯è§ĦåĪĴ": 8903,
      "çļĦçĥŃæĥħ": 8904,
      "ç»¿åĮĸ": 8905,
      "æĳ©æĸ¯": 8906,
      "çļĦç¡¬": 8907,
      "éªĦåĤ²": 8908,
      "Ad": 8909,
      "Ġhe": 8910,
      "çļĦç¨³å®ļæĢ§": 8911,
      "åľ³": 8912,
      "åĴĮæ´»åĬ¨": 8913,
      "åĴĮäºĴåĬ¨": 8914,
      "åºŀ": 8915,
      "å¼¯": 8916,
      "çļĦæĲ": 8917,
      "åľ°ä¸Ĭ": 8918,
      "åĪĨæķ°": 8919,
      "æ¸Ĺ": 8920,
      "çłĤ": 8921,
      "åħ¥åı£": 8922,
      "åĽ½èī¯": 8923,
      "éģĵçĲĨ": 8924,
      "é¢ĺåŀĭ": 8925,
      "æ¡ĥ": 8926,
      "ç¼¸": 8927,
      "åĮħå®¹": 8928,
      "ï¼Įè¿ĺåı¯èĥ½": 8929,
      "å¸®åĬ©æĤ¨": 8930,
      "æľĢå¤§çļĦ": 8931,
      "è¯Ńæĸĩ": 8932,
      "çªĥ": 8933,
      "è¿Ļä¸ªä¸ĸçķĮ": 8934,
      "æŀĹæĻ¨": 8935,
      "å¤ĦçĲĨåĴĮ": 8936,
      "å¸ĪçĶŁ": 8937,
      "é¢Ħè®¢": 8938,
      "åħ´èµ·": 8939,
      "å¼Ģåıĳä¸Ń": 8940,
      "æĢ§èĥ½ä¼ĺåĮĸ": 8941,
      "åĸĦäºİ": 8942,
      "çĶŁæĢģä¿ĿæĬ¤": 8943,
      "çļĦåľ°è´¨": 8944,
      "é±¼ç±»": 8945,
      "è¶ħè¶Ĭ": 8946,
      "èĢĲå¿ĥåľ°": 8947,
      "åĴ¨è¯¢å¸Ī": 8948,
      "æĳ©æīĺ": 8949,
      "OSPF": 8950,
      "éĽ¶åĶ®": 8951,
      "æ²¿çĿĢ": 8952,
      "èĿ¶éĺĢ": 8953,
      "Thread": 8954,
      "cdot": 8955,
      "åıĺéĢģåĻ¨": 8956,
      "pen": 8957,
      "ï¼Įé¢Ħéĺ²": 8958,
      "çļĦä»£è¡¨": 8959,
      "åĴĮçĽ®æłĩ": 8960,
      "æ³ī": 8961,
      "æĦ£": 8962,
      "ä¿Ŀåħ»": 8963,
      "çºµ": 8964,
      "æ²ĥ": 8965,
      "åŃ¦çĶŁå¯¹": 8966,
      "è´¨è°±": 8967,
      "åħ¬è·¯": 8968,
      "è®©äºº": 8969,
      "çļĦåŁºçŁ³": 8970,
      "åĨĻåħ¥": 8971,
      "å±±åĮº": 8972,
      "å¿ĹåĿļ": 8973,
      "åĲ¯çĶ¨": 8974,
      "å¡ĺ": 8975,
      "ä¾ĿéĿł": 8976,
      "åĽŃæŀĹ": 8977,
      "æĥħæĦŁçļĦ": 8978,
      "éĿĴéĵľ": 8979,
      "çĶµåŃĲéĤ®ä»¶": 8980,
      "çº¦ä¸º": 8981,
      "åįļå®¢": 8982,
      "é»ĳè¡£": 8983,
      "æīĢæľīçļĦ": 8984,
      "è´Łè´£äºº": 8985,
      "åıĤèĢĥæĸĩçĮ®": 8986,
      "çĺ¦": 8987,
      "æĿİæĻĵæĺİ": 8988,
      "æĽ´æ·±åħ¥åľ°äºĨè§£": 8989,
      "åºŁå¼ĥ": 8990,
      "çļĦçŁĽçĽ¾": 8991,
      "é¥²åħ»": 8992,
      "ä½ĵèĥ½è®Ńç»ĥ": 8993,
      "åºĶçĶ¨åĪ°å®ŀéĻħ": 8994,
      "é¥±åĴĮ": 8995,
      "NT": 8996,
      "ï¼ĮçĽ¸ä¿¡": 8997,
      "ï¼ĮéĤ£äºĽ": 8998,
      "ï¼Įå¾®ç¬ĳçĿĢè¯´": 8999,
      "ï¼ĮåĲ¦åĪĻ": 9000,
      "æĸľ": 9001,
      "æĢ¡": 9002,
      "è¿Ļé¦ĸ": 9003,
      "ä¸įæķ´åĲĪ": 9004,
      "åıĳè¾¾": 9005,
      "äººæĸĩ": 9006,
      "å¤ļåªĴä½ĵ": 9007,
      "åĲĮè¡Į": 9008,
      "åĲĮå¿Ĺ": 9009,
      "çĤī": 9010,
      "åĪ¶åĵģ": 9011,
      "åŃ¦çĶŁä»¬": 9012,
      "ï¼ĮæĪĳä»¬åºĶè¯¥": 9013,
      "åıĺå½¢": 9014,
      "input": 9015,
      "æ°´æĻ¶": 9016,
      "æĹłäºº": 9017,
      "è®¾è®¡çĲĨå¿µ": 9018,
      "æ·±åħ¥åŃ¦ä¹ł": 9019,
      "æĺ¾çĦ¶": 9020,
      "äºĮç»´": 9021,
      "è®¸åı¯": 9022,
      "æİ¢è®¨äºĨ": 9023,
      "åĶ¤": 9024,
      "æĻĵæĻ´": 9025,
      "ï¼ģĊĊ": 9026,
      "åĬŀçĲĨ": 9027,
      "æĬĹæ°§åĮĸ": 9028,
      "ï¼Įä¸įèĥ½": 9029,
      "äº§ä¸ļéĵ¾": 9030,
      "å¤ªç©º": 9031,
      "çļĦæ³¢": 9032,
      "é¢Ĩå¯¼åĬĽ": 9033,
      "ä¾ĽåºĶéĵ¾": 9034,
      "æĽ¼çİ²": 9035,
      "ç¾½æ¯ĽçĲĥ": 9036,
      "æīİå®ŀ": 9037,
      "åĨ¬åŃ£": 9038,
      "åŃ¢åŃĲ": 9039,
      "-M": 9040,
      "Ar": 9041,
      "Button": 9042,
      "Con": 9043,
      "Class": 9044,
      "ram": 9045,
      "®ä¸§": 9046,
      "Ġåīį": 9047,
      "Ġè¯¾ç¨ĭ": 9048,
      "ï¼ĮæĶ¶éĽĨ": 9049,
      "ï¼ĮæīĢä»¥": 9050,
      "çļĦä¸ªäºº": 9051,
      "çļĦéĺħè¯»": 9052,
      "çļĦè´£ä»»": 9053,
      "çļĦå½¢å¼ı": 9054,
      "çļĦåĪĨç±»": 9055,
      "ãĢĤĊĊĊ": 9056,
      "ä¸Ģåıª": 9057,
      "å¼ĺæī¬": 9058,
      "æĺ¯æıĲé«ĺ": 9059,
      "ãĢģæıĲé«ĺ": 9060,
      "èĢį": 9061,
      "èµ´": 9062,
      "æĪĲåŀĭ": 9063,
[...]
